{
  "version": "1.0",
  "truncation": null,
  "padding": null,
  "added_tokens": [
    {
      "id": 0,
      "content": "<PAD>",
      "single_word": false,
      "lstrip": false,
      "rstrip": false,
      "normalized": false,
      "special": true
    },
    {
      "id": 1,
      "content": "<UNK>",
      "single_word": false,
      "lstrip": false,
      "rstrip": false,
      "normalized": false,
      "special": true
    },
    {
      "id": 2,
      "content": "<BOS>",
      "single_word": false,
      "lstrip": false,
      "rstrip": false,
      "normalized": false,
      "special": true
    },
    {
      "id": 3,
      "content": "<EOS>",
      "single_word": false,
      "lstrip": false,
      "rstrip": false,
      "normalized": false,
      "special": true
    }
  ],
  "normalizer": null,
  "pre_tokenizer": {
    "type": "ByteLevel",
    "add_prefix_space": true,
    "trim_offsets": true,
    "use_regex": true
  },
  "post_processor": {
    "type": "ByteLevel",
    "add_prefix_space": true,
    "trim_offsets": true,
    "use_regex": true
  },
  "decoder": {
    "type": "ByteLevel",
    "add_prefix_space": true,
    "trim_offsets": true,
    "use_regex": true
  },
  "model": {
    "type": "BPE",
    "dropout": null,
    "unk_token": null,
    "continuing_subword_prefix": null,
    "end_of_word_suffix": null,
    "fuse_unk": false,
    "byte_fallback": false,
    "ignore_merges": false,
    "vocab": {
      "<PAD>": 0,
      "<UNK>": 1,
      "<BOS>": 2,
      "<EOS>": 3,
      "!": 4,
      "\"": 5,
      "#": 6,
      "$": 7,
      "%": 8,
      "&": 9,
      "'": 10,
      "(": 11,
      ")": 12,
      "*": 13,
      "+": 14,
      ",": 15,
      "-": 16,
      ".": 17,
      "/": 18,
      "0": 19,
      "1": 20,
      "2": 21,
      "3": 22,
      "4": 23,
      "5": 24,
      "6": 25,
      "7": 26,
      "8": 27,
      "9": 28,
      ":": 29,
      ";": 30,
      "<": 31,
      "=": 32,
      ">": 33,
      "?": 34,
      "@": 35,
      "A": 36,
      "B": 37,
      "C": 38,
      "D": 39,
      "E": 40,
      "F": 41,
      "G": 42,
      "H": 43,
      "I": 44,
      "J": 45,
      "K": 46,
      "L": 47,
      "M": 48,
      "N": 49,
      "O": 50,
      "P": 51,
      "Q": 52,
      "R": 53,
      "S": 54,
      "T": 55,
      "U": 56,
      "V": 57,
      "W": 58,
      "X": 59,
      "Y": 60,
      "Z": 61,
      "[": 62,
      "\\": 63,
      "]": 64,
      "^": 65,
      "_": 66,
      "`": 67,
      "a": 68,
      "b": 69,
      "c": 70,
      "d": 71,
      "e": 72,
      "f": 73,
      "g": 74,
      "h": 75,
      "i": 76,
      "j": 77,
      "k": 78,
      "l": 79,
      "m": 80,
      "n": 81,
      "o": 82,
      "p": 83,
      "q": 84,
      "r": 85,
      "s": 86,
      "t": 87,
      "u": 88,
      "v": 89,
      "w": 90,
      "x": 91,
      "y": 92,
      "z": 93,
      "{": 94,
      "|": 95,
      "}": 96,
      "~": 97,
      "¡": 98,
      "¢": 99,
      "£": 100,
      "¤": 101,
      "¥": 102,
      "¦": 103,
      "§": 104,
      "¨": 105,
      "©": 106,
      "«": 107,
      "¬": 108,
      "®": 109,
      "¯": 110,
      "°": 111,
      "±": 112,
      "²": 113,
      "³": 114,
      "´": 115,
      "µ": 116,
      "¶": 117,
      "·": 118,
      "¸": 119,
      "¹": 120,
      "º": 121,
      "»": 122,
      "¼": 123,
      "½": 124,
      "¾": 125,
      "¿": 126,
      "Â": 127,
      "Ã": 128,
      "Î": 129,
      "Ï": 130,
      "Ð": 131,
      "Ñ": 132,
      "×": 133,
      "Ø": 134,
      "Ù": 135,
      "â": 136,
      "ã": 137,
      "ä": 138,
      "å": 139,
      "ç": 140,
      "ï": 141,
      "ð": 142,
      "Ċ": 143,
      "Ġ": 144,
      "Ģ": 145,
      "ģ": 146,
      "Ĥ": 147,
      "ĥ": 148,
      "Ħ": 149,
      "ħ": 150,
      "Ĩ": 151,
      "ĩ": 152,
      "Ī": 153,
      "ī": 154,
      "Ĭ": 155,
      "ĭ": 156,
      "Į": 157,
      "į": 158,
      "İ": 159,
      "ı": 160,
      "Ĳ": 161,
      "ĳ": 162,
      "Ĵ": 163,
      "ĵ": 164,
      "Ķ": 165,
      "ķ": 166,
      "ĸ": 167,
      "Ĺ": 168,
      "ĺ": 169,
      "Ļ": 170,
      "ļ": 171,
      "Ľ": 172,
      "ľ": 173,
      "Ŀ": 174,
      "ŀ": 175,
      "Ł": 176,
      "ł": 177,
      "Ń": 178,
      "ĠĠ": 179,
      "ĠĠĠĠ": 180,
      "ĠĠĠ": 181,
      ";\\": 182,
      "Ġ<": 183,
      "st": 184,
      "in": 185,
      "\\\"": 186,
      "Ġ<<": 187,
      "ĠĠĠĠĠĠĠ": 188,
      "Ġ\\\"": 189,
      "co": 190,
      "Ġst": 191,
      "re": 192,
      "::": 193,
      "Ġ{": 194,
      "en": 195,
      "Ġstd": 196,
      "Ðµ": 197,
      "Ġ=": 198,
      "Ġ{\\": 199,
      "ut": 200,
      "er": 201,
      "Ð¾": 202,
      "int": 203,
      "()": 204,
      "Ð°": 205,
      "or": 206,
      "ĠÐ": 207,
      "de": 208,
      "Ġ\\": 209,
      "}\\": 210,
      "at": 211,
      "cout": 212,
      "Ð¸": 213,
      "end": 214,
      "Ġ}\\": 215,
      "Ð½": 216,
      "Ġi": 217,
      "le": 218,
      "Ġre": 219,
      "endl": 220,
      "ÑĤ": 221,
      "al": 222,
      "ĠĠĠĠĠĠĠĠĠĠĠ": 223,
      "cl": 224,
      ");\\": 225,
      "ur": 226,
      "ÑĢ": 227,
      "Ñģ": 228,
      "Ð¾Ð": 229,
      "ing": 230,
      "am": 231,
      "on": 232,
      "Ġ(": 233,
      "con": 234,
      "Ġ0": 235,
      "ar": 236,
      ">\\": 237,
      "se": 238,
      "tur": 239,
      "turn": 240,
      "Ġreturn": 241,
      "ct": 242,
      "ude": 243,
      "Ġm": 244,
      "clude": 245,
      "include": 246,
      "Ġf": 247,
      "Ġn": 248,
      "Ġv": 249,
      "Ġcout": 250,
      "Ġt": 251,
      "Ġd": 252,
      "si": 253,
      "Ð»": 254,
      "ub": 255,
      "Ġp": 256,
      "const": 257,
      "ce": 258,
      "ring": 259,
      "Ġc": 260,
      "Ġint": 261,
      "Ġendl": 262,
      "un": 263,
      "ue": 264,
      "th": 265,
      "id": 266,
      "Ġa": 267,
      "ÐµÐ": 268,
      "Ġb": 269,
      "Ġif": 270,
      "an": 271,
      "ge": 272,
      "ame": 273,
      "ic": 274,
      "ze": 275,
      "Ġs": 276,
      "ect": 277,
      "Ġo": 278,
      "Ġ1": 279,
      "Ġma": 280,
      "ĠĠĠĠĠĠĠĠ": 281,
      "Ð°Ð": 282,
      "Ñĥ": 283,
      "Ñı": 284,
      "ro": 285,
      "string": 286,
      "ri": 287,
      "ss": 288,
      "Ñĭ": 289,
      "size": 290,
      "us": 291,
      "ion": 292,
      "ck": 293,
      "ream": 294,
      "Ġ/": 295,
      "ÐµÐ½": 296,
      "te": 297,
      "stream": 298,
      "mp": 299,
      "Ġ+": 300,
      "Ġ:": 301,
      "um": 302,
      "ate": 303,
      "Ġconst": 304,
      "uble": 305,
      "ouble": 306,
      "io": 307,
      "Ð¸Ð": 308,
      "};\\": 309,
      "tr": 310,
      "ul": 311,
      "();\\": 312,
      "it": 313,
      "nint": 314,
      "Ġe": 315,
      "==": 316,
      "oid": 317,
      "Ġfor": 318,
      "ent": 319,
      "Ġ#": 320,
      "ector": 321,
      "ad": 322,
      "Ġmain": 323,
      "iostream": 324,
      "\\\\": 325,
      "Ġ//": 326,
      "pe": 327,
      "lo": 328,
      "unt": 329,
      "ch": 330,
      "Ðº": 331,
      "Ñĩ": 332,
      "get": 333,
      "ÑģÑĤ": 334,
      "ÑĮ": 335,
      "ata": 336,
      "ol": 337,
      "alue": 338,
      "Ġvoid": 339,
      "ed": 340,
      "ĠĠĠĠĠĠĠĠĠĠĠĠĠĠĠ": 341,
      "lic": 342,
      "Ġ*": 343,
      "Ġ-": 344,
      "Ð¾Ð²": 345,
      "Ġdouble": 346,
      "is": 347,
      "Ġname": 348,
      "pa": 349,
      "ublic": 350,
      "ÐµÑĢ": 351,
      ":\\": 352,
      "Ð²": 353,
      "ĠÐ¿": 354,
      "ex": 355,
      "np": 356,
      "ult": 357,
      "ir": 358,
      "Ġ2": 359,
      "ass": 360,
      "ype": 361,
      "->": 362,
      "Ġ>": 363,
      "++": 364,
      "Ġ==": 365,
      "me": 366,
      "std": 367,
      "ile": 368,
      "ra": 369,
      "Ġw": 370,
      "ver": 371,
      "vector": 372,
      "ig": 373,
      "ĠÑģ": 374,
      "(\\\"": 375,
      "class": 376,
      "ĠC": 377,
      "ator": 378,
      "Ġco": 379,
      "ĠS": 380,
      "ot": 381,
      "Ġl": 382,
      "nclass": 383,
      "Ġ\\\"\\\\": 384,
      "ĠT": 385,
      "Ġstring": 386,
      "uto": 387,
      "ma": 388,
      "ase": 389,
      "Ð¼": 390,
      "Ġsize": 391,
      "using": 392,
      "npublic": 393,
      "00": 394,
      "ÐµÐ¼": 395,
      "sult": 396,
      "Ġde": 397,
      "ther": 398,
      "Ġ\\\";\\": 399,
      "ve": 400,
      "il": 401,
      "Ġ}": 402,
      "ode": 403,
      "\\\";\\": 404,
      "pace": 405,
      "Re": 406,
      "Ġh": 407,
      "ool": 408,
      "Ð°Ð½": 409,
      "space": 410,
      "ptr": 411,
      "nusing": 412,
      "Ġ3": 413,
      "Ð¾Ð»": 414,
      "Ġnamespace": 415,
      "ack": 416,
      "ĠÐ²": 417,
      "ÑĨ": 418,
      "Ð´": 419,
      "set": 420,
      "arr": 421,
      "ÐµÐ½Ð¸": 422,
      "per": 423,
      "Ġx": 424,
      "as": 425,
      "\\\",": 426,
      "ĠÐ½": 427,
      "Ð½Ñĭ": 428,
      "str": 429,
      "ĠÐ´": 430,
      "Ġ&": 431,
      "nt": 432,
      "Ġauto": 433,
      "ht": 434,
      "que": 435,
      "),": 436,
      "Ð°ÑĤ": 437,
      "++)": 438,
      "rint": 439,
      "ke": 440,
      "ation": 441,
      "ff": 442,
      "Ġdata": 443,
      "Ġch": 444,
      "\\\");\\": 445,
      "Ð¾ÑĢ": 446,
      "Ġnum": 447,
      "Ġresult": 448,
      "ÐµÑĤ": 449,
      "Ġin": 450,
      "emp": 451,
      "ew": 452,
      "ime": 453,
      "Co": 454,
      "ay": 455,
      "Ġother": 456,
      "Ġel": 457,
      "ser": 458,
      "ÐµÐ»": 459,
      "Ġelse": 460,
      "Ġ'": 461,
      "Ġr": 462,
      "ist": 463,
      "ÐµÐ´": 464,
      "Ð¸ÑĤ": 465,
      "];\\": 466,
      "Ġget": 467,
      "ĠP": 468,
      "et": 469,
      "uct": 470,
      "ty": 471,
      "are": 472,
      "pt": 473,
      "Ġ5": 474,
      "ab": 475,
      "ind": 476,
      "St": 477,
      "Ġy": 478,
      "ĠD": 479,
      ">(": 480,
      "Ġvalue": 481,
      "Ð¿": 482,
      "ĠB": 483,
      "Ġ!": 484,
      "Ġj": 485,
      "Ð¾Ð´": 486,
      "gin": 487,
      "Ġstr": 488,
      "())": 489,
      "Ð½Ð°": 490,
      "Ġg": 491,
      "Ġarr": 492,
      "][": 493,
      "ÑĢÐ°Ð": 494,
      "ĠÐº": 495,
      "Ñħ": 496,
      "double": 497,
      "Ġ4": 498,
      "and": 499,
      "cond": 500,
      "ÑĪ": 501,
      "ft": 502,
      "read": 503,
      "ber": 504,
      "art": 505,
      "ĠM": 506,
      "count": 507,
      "Ġbool": 508,
      "ow": 509,
      "ÑģÐ»": 510,
      "ename": 511,
      "op": 512,
      "ÑĨÐ¸": 513,
      "Ð°Ð»": 514,
      "age": 515,
      "eng": 516,
      "ush": 517,
      "add": 518,
      "ÐŁ": 519,
      "ction": 520,
      "ext": 521,
      "Ġtr": 522,
      "ĠÐ¸": 523,
      "ength": 524,
      "Ð½Ð¾": 525,
      ":\\\"": 526,
      "));\\": 527,
      "back": 528,
      "uni": 529,
      "In": 530,
      "Ġnew": 531,
      "Ġ!=": 532,
      "(),": 533,
      "rent": 534,
      "Ġ>>": 535,
      "ÐĴ": 536,
      "ÐºÐ°": 537,
      "push": 538,
      "Ð¸Ð¼": 539,
      "om": 540,
      "..": 541,
      "our": 542,
      "atic": 543,
      "tu": 544,
      "Ġ{}\\": 545,
      "Ð¹": 546,
      "lock": 547,
      "ity": 548,
      "ĠA": 549,
      "iv": 550,
      "Ġth": 551,
      "Ġover": 552,
      "Ð·": 553,
      "Ġcon": 554,
      "ÐµÐ½Ð¸Ðµ": 555,
      "--": 556,
      "ord": 557,
      "ory": 558,
      "Node": 559,
      "Ġoper": 560,
      "ter": 561,
      "value": 562,
      "ith": 563,
      "Ġvector": 564,
      "\\\")": 565,
      "val": 566,
      "row": 567,
      "Ġis": 568,
      "second": 569,
      "ĠÐ¼": 570,
      "sit": 571,
      "ance": 572,
      "Ġchar": 573,
      "ĠĠĠĠĠĠĠĠĠĠĠĠĠĠĠĠ": 574,
      "Ð¾ÑĤ": 575,
      "ast": 576,
      "Ð¾Ð±": 577,
      "Ð»Ñı": 578,
      "pl": 579,
      "qu": 580,
      "ĠÐŁ": 581,
      "ride": 582,
      "Ġoverride": 583,
      "ÑĢÐ¾Ð²": 584,
      "alse": 585,
      "Ġ&&": 586,
      "[]": 587,
      "unique": 588,
      "num": 589,
      "mo": 590,
      "urrent": 591,
      "Ġstatic": 592,
      "dex": 593,
      "ÑĦ": 594,
      "err": 595,
      "ec": 596,
      "ock": 597,
      "))": 598,
      "====": 599,
      "lete": 600,
      "Ð¾Ðº": 601,
      "uff": 602,
      "able": 603,
      "Ġoperator": 604,
      "type": 605,
      "ag": 606,
      "cess": 607,
      "ĠÑĩ": 608,
      "of": 609,
      "ight": 610,
      "Ġ|": 611,
      "void": 612,
      "ap": 613,
      "ment": 614,
      "irtu": 615,
      "irtual": 616,
      "ÐµÐº": 617,
      "Ñİ": 618,
      "es": 619,
      "Ġpro": 620,
      "data": 621,
      "left": 622,
      "sion": 623,
      "ial": 624,
      "res": 625,
      "Type": 626,
      "ask": 627,
      "be": 628,
      "oint": 629,
      "Ġ?": 630,
      "rea": 631,
      "Ġad": 632,
      "Ġ+=": 633,
      "Value": 634,
      "ource": 635,
      "Ġfalse": 636,
      "ph": 637,
      "key": 638,
      "Ġ10": 639,
      "el": 640,
      "rig": 641,
      "ron": 642,
      ">>": 643,
      "Ġmax": 644,
      "name": 645,
      "Ġvirtual": 646,
      "est": 647,
      "Ð¡": 648,
      "ort": 649,
      "Ñī": 650,
      "IN": 651,
      "cept": 652,
      "Ġ<=": 653,
      "Ġcount": 654,
      "right": 655,
      "ĠÐ·": 656,
      "Ġex": 657,
      "Count": 658,
      "ine": 659,
      "Ġprint": 660,
      "char": 661,
      "vent": 662,
      "ath": 663,
      "ull": 664,
      "pename": 665,
      "length": 666,
      "print": 667,
      "Ð°Ð½Ð¸": 668,
      "Ð½ÑĭÐ¹": 669,
      "ong": 670,
      "Ð¾Ð¼": 671,
      "otal": 672,
      "ĠÑĤ": 673,
      "Ġto": 674,
      "Ġ\\\",": 675,
      "Ð¾Ð½": 676,
      "ĠÐ±": 677,
      "Con": 678,
      "begin": 679,
      "Ðŀ": 680,
      "ize": 681,
      "ice": 682,
      "act": 683,
      "ĠF": 684,
      "Ġwh": 685,
      "();": 686,
      "os": 687,
      "Ex": 688,
      "Ġpublic": 689,
      "ĠÑĥ": 690,
      "ĠĠĠĠĠĠĠĠĠĠĠĠĠĠĠĠĠĠĠ": 691,
      "late": 692,
      "Ġ||": 693,
      "uffer": 694,
      "em": 695,
      "im": 696,
      "fd": 697,
      "ÐµÐ»ÑĮ": 698,
      "===": 699,
      "ived": 700,
      "ach": 701,
      "ÐµÐ½ÑĤ": 702,
      "Ġdelete": 703,
      "ray": 704,
      "Ġwhile": 705,
      "Ġ===": 706,
      "Ð°Ñģ": 707,
      "ted": 708,
      "ary": 709,
      "Ð±": 710,
      "Ð¾Ð»ÑĮ": 711,
      "++;\\": 712,
      "eight": 713,
      "Ġfile": 714,
      "Ġtrue": 715,
      "red": 716,
      "loc": 717,
      "hare": 718,
      "Ð¸Ð½": 719,
      "10": 720,
      "cast": 721,
      "ÐĿ": 722,
      "Ġ===\\\"": 723,
      "if": 724,
      "ĠV": 725,
      "ĠÐ¿ÑĢ": 726,
      "Ġset": 727,
      "ok": 728,
      "root": 729,
      "Ð°Ð·": 730,
      "error": 731,
      "cle": 732,
      "Ð¸Ð²": 733,
      "Ġptr": 734,
      "ĠÐ½Ð°": 735,
      "pr": 736,
      "Ð²ÐµÐ´": 737,
      "ullptr": 738,
      "hared": 739,
      "ain": 740,
      "mple": 741,
      "ĠR": 742,
      "ÑģÑĤÑĢ": 743,
      "ÐµÑģ": 744,
      "atri": 745,
      "Ġid": 746,
      "erived": 747,
      "atrix": 748,
      "ÐµÐ½Ð¸Ñı": 749,
      "ĠL": 750,
      "ard": 751,
      "temp": 752,
      ");": 753,
      "Ð°Ð¹": 754,
      "ers": 755,
      "Ġcurrent": 756,
      "source": 757,
      "Ġtemp": 758,
      "Ġtype": 759,
      "ree": 760,
      "Ġsizeof": 761,
      "this": 762,
      "Name": 763,
      "Ð¸ÑĤÐµ": 764,
      "nvoid": 765,
      "Ġadd": 766,
      "ĠCo": 767,
      "Ð¾Ð¿": 768,
      "up": 769,
      "ĠÐ´Ð»Ñı": 770,
      "bj": 771,
      "ient": 772,
      "rono": 773,
      "typename": 774,
      "Ð¾Ð·": 775,
      "Ġlong": 776,
      "ÐµÑģÑĤ": 777,
      "ĠN": 778,
      "Ð¸Ñĩ": 779,
      "ÐĴÐ²ÐµÐ´": 780,
      "move": 781,
      "empty": 782,
      "Ð¸ÑģÐ»": 783,
      "Ġ6": 784,
      "Ð¾Ð¹": 785,
      "Ġtext": 786,
      "Ð¾Ð³": 787,
      "ÐĴÐ²ÐµÐ´Ð¸ÑĤÐµ": 788,
      "Ġ>=": 789,
      "play": 790,
      "].": 791,
      "irst": 792,
      "ÐĶ": 793,
      "addr": 794,
      "Ġ%": 795,
      "map": 796,
      "());\\": 797,
      "Ðł": 798,
      "ÑĨÐ¸Ñı": 799,
      "utex": 800,
      "Ð¸Ñģ": 801,
      "//": 802,
      "server": 803,
      "Ð¾Ð¶": 804,
      "ache": 805,
      "ÐµÐ·": 806,
      "thread": 807,
      "sig": 808,
      "isplay": 809,
      "])": 810,
      "struct": 811,
      "Data": 812,
      "isit": 813,
      "Ġcl": 814,
      "Ġ100": 815,
      "Ð¸Ð¹": 816,
      "Ð¸Ðº": 817,
      "xt": 818,
      ".\\\"": 819,
      "Ðĺ": 820,
      "},": 821,
      "ear": 822,
      "Ð°Ðº": 823,
      ")\\": 824,
      "Ñį": 825,
      "Ġmin": 826,
      "reak": 827,
      "andl": 828,
      "bers": 829,
      "gle": 830,
      "ess": 831,
      "Ptr": 832,
      "to": 833,
      "ac": 834,
      "Ð¾ÑģÑĤ": 835,
      "tain": 836,
      ")\\\"": 837,
      "fo": 838,
      "ĠE": 839,
      "Ġ~": 840,
      "ĠÐ¡": 841,
      "ithm": 842,
      "gor": 843,
      "raph": 844,
      "gorithm": 845,
      "ape": 846,
      "chrono": 847,
      "atch": 848,
      "Ġ++": 849,
      "dent": 850,
      "Ġthrow": 851,
      "duct": 852,
      "log": 853,
      "Al": 854,
      "ger": 855,
      "Ġbreak": 856,
      "Num": 857,
      "Ð¸ÑĢÐ¾Ð²": 858,
      "og": 859,
      "its": 860,
      "other": 861,
      "Ar": 862,
      "Ġk": 863,
      "Ġ(!": 864,
      "Ġstart": 865,
      "Ð°Ð²": 866,
      "Ġvec": 867,
      "for": 868,
      "ĠÑĢÐ°Ð": 869,
      "algorithm": 870,
      "ans": 871,
      "Ġtest": 872,
      "template": 873,
      "cre": 874,
      "hape": 875,
      "od": 876,
      "Ġac": 877,
      "ÑĢÑĥ": 878,
      "sign": 879,
      "Ð¾ÑģÐ»": 880,
      "Ġit": 881,
      "find": 882,
      "ive": 883,
      "nect": 884,
      "ircle": 885,
      "Ġsum": 886,
      "eck": 887,
      "ĠRe": 888,
      "Ð³": 889,
      "ĠĠĠĠĠĠĠĠĠĠĠĠ": 890,
      ">&": 891,
      "Ð°ÑĢ": 892,
      "ook": 893,
      "adi": 894,
      "Pro": 895,
      "ĠCon": 896,
      "tem": 897,
      "Ġtotal": 898,
      "ix": 899,
      "ren": 900,
      "Ġse": 901,
      "ep": 902,
      "Ġcase": 903,
      "ork": 904,
      "essage": 905,
      "ute": 906,
      "File": 907,
      "tainer": 908,
      "time": 909,
      "):": 910,
      "Ġval": 911,
      "und": 912,
      "ose": 913,
      "Ð¶": 914,
      "fa": 915,
      "andler": 916,
      "seconds": 917,
      "ĠÐ½Ðµ": 918,
      "ant": 919,
      "ÑĤÐ¾ÑĢ": 920,
      "Ġ\\\\\\": 921,
      "ntemplate": 922,
      "Id": 923,
      "Ġcomp": 924,
      "mplex": 925,
      "Ġnullptr": 926,
      "Ġkey": 927,
      "ount": 928,
      "yn": 929,
      "amount": 930,
      "Ch": 931,
      "make": 932,
      "put": 933,
      "unction": 934,
      "Ġu": 935,
      "bool": 936,
      "Ð½Ð°Ñı": 937,
      "riv": 938,
      "adius": 939,
      "ĠBase": 940,
      "Ðľ": 941,
      "rom": 942,
      "========": 943,
      "Ðļ": 944,
      "Ġright": 945,
      "nstruct": 946,
      "one": 947,
      "Ġ};\\": 948,
      "fe": 949,
      "Ġleft": 950,
      "Ð½Ð¾Ðµ": 951,
      "vice": 952,
      "arg": 953,
      "file": 954,
      "Ġprocess": 955,
      "',": 956,
      "ure": 957,
      "Ð°ÑģÑģ": 958,
      "shared": 959,
      "expr": 960,
      "ild": 961,
      "ilename": 962,
      "Ð°Ð½Ð¸Ðµ": 963,
      "rivate": 964,
      "atter": 965,
      "angle": 966,
      "Ð»ÐµÐ¼": 967,
      "Ġ8": 968,
      "State": 969,
      "Ġal": 970,
      "mutex": 971,
      "ĠI": 972,
      "ĠÑį": 973,
      "Ð¢": 974,
      "cin": 975,
      "Ð¾ÑģÐ»Ðµ": 976,
      "Ð»ÐµÐ¼ÐµÐ½ÑĤ": 977,
      "auto": 978,
      "ĠÑĢ": 979,
      "ÐºÐ¸": 980,
      "sed": 981,
      "son": 982,
      "ĠÐ¾Ð±": 983,
      "To": 984,
      "ĠÐ¿ÐµÑĢ": 985,
      "text": 986,
      "ĠÐ²Ñĭ": 987,
      "Ð½Ð°Ñĩ": 988,
      "ĠÐĴ": 989,
      "Ð½ÑĭÐµ": 990,
      "lement": 991,
      "ĠSt": 992,
      "Ġlock": 993,
      "alc": 994,
      "ib": 995,
      "Ġtask": 996,
      "Ġroot": 997,
      "Ġ7": 998,
      "ĠNode": 999,
      "index": 1000,
      "atus": 1001,
      "Ð¾Ð³Ð¾": 1002,
      "sg": 1003,
      "ĠÐĶ": 1004,
      "mag": 1005,
      "Ġbuffer": 1006,
      "Ġnode": 1007,
      "ÑĭÑĤ": 1008,
      "Ð°ÐµÐ¼": 1009,
      "Ð°Ð´": 1010,
      "nprivate": 1011,
      "ET": 1012,
      "cm": 1013,
      "queue": 1014,
      "Ð¸Ð±": 1015,
      "attern": 1016,
      "onth": 1017,
      "mem": 1018,
      "Ġen": 1019,
      "ip": 1020,
      "ĠO": 1021,
      "Ð¸Ð·": 1022,
      "sert": 1023,
      "Ġgraph": 1024,
      "isitor": 1025,
      "Ġcol": 1026,
      "ception": 1027,
      "orde": 1028,
      "ordered": 1029,
      "unordered": 1030,
      "Ġword": 1031,
      "Ð°Ð¼": 1032,
      "Ġend": 1033,
      "ÑĢÐ¾Ð²ÐµÑĢ": 1034,
      "Size": 1035,
      "Number": 1036,
      "air": 1037,
      "mm": 1038,
      "ange": 1039,
      "Ð¾Ð»ÑĮÐ·": 1040,
      "ĠÐŀ": 1041,
      "ĠÑĩÐ¸ÑģÐ»": 1042,
      "ugin": 1043,
      "ÐµÐ¹": 1044,
      "ee": 1045,
      "ĠÑĦ": 1046,
      "Array": 1047,
      "first": 1048,
      "user": 1049,
      "Val": 1050,
      "quest": 1051,
      "Ġpri": 1052,
      "pre": 1053,
      "ĠÐ¾ÑĤ": 1054,
      "anag": 1055,
      "erator": 1056,
      "IZ": 1057,
      "Ġ9": 1058,
      "Ġfind": 1059,
      "ÑģÐ¿": 1060,
      "Ġ20": 1061,
      "...": 1062,
      "anager": 1063,
      "ÑģÑĭ": 1064,
      "Ġheight": 1065,
      "ĠComplex": 1066,
      "Ð°Ð¿": 1067,
      "osit": 1068,
      "lugin": 1069,
      "Ġhas": 1070,
      "yst": 1071,
      "ĠDerived": 1072,
      "ystem": 1073,
      "py": 1074,
      "Ref": 1075,
      "ÑĨÐ¸Ð¸": 1076,
      "arget": 1077,
      "Ġtime": 1078,
      "Ġcin": 1079,
      "ello": 1080,
      "ions": 1081,
      "base": 1082,
      "alance": 1083,
      "]);\\": 1084,
      "Ġ[": 1085,
      "fault": 1086,
      "igh": 1087,
      "ÑĢÐ°Ð²": 1088,
      "ÑĢÐ°": 1089,
      "bserver": 1090,
      "node": 1091,
      "ill": 1092,
      "IZE": 1093,
      "Ð»ÑĮ": 1094,
      "Ġcache": 1095,
      "ression": 1096,
      "ÑģÑı": 1097,
      "100": 1098,
      "Ġ{\\\"": 1099,
      "yte": 1100,
      "display": 1101,
      "Ð°ÑģÑģÐ¸Ð²": 1102,
      "cmath": 1103,
      "Ġmo": 1104,
      "ÑħÐ¾Ð´": 1105,
      "Ġan": 1106,
      "ĠÑįÐ»ÐµÐ¼ÐµÐ½ÑĤ": 1107,
      "ST": 1108,
      "[](": 1109,
      "ton": 1110,
      "ÐĲ": 1111,
      "fig": 1112,
      "Ð¸Ð¿": 1113,
      "memory": 1114,
      "ail": 1115,
      "Ð¸ÑĨ": 1116,
      "ĠVector": 1117,
      "ÑĥÐ¼": 1118,
      "Ġamount": 1119,
      "ations": 1120,
      ">::": 1121,
      "Ð°ÑĨÐ¸Ñı": 1122,
      "ÐµÐ²": 1123,
      "ÐµÑģÑĤÐ²": 1124,
      "Ġradius": 1125,
      "String": 1126,
      "sub": 1127,
      "udent": 1128,
      "Ð½ÑĭÑħ": 1129,
      "ĠÐŁÑĢ": 1130,
      "ple": 1131,
      "sc": 1132,
      "enc": 1133,
      "Ð¾Ñģ": 1134,
      "ated": 1135,
      "ĠÐ¸Ð·": 1136,
      "bject": 1137,
      "ĠÑĢÐ°Ð·": 1138,
      "Ġcre": 1139,
      "side": 1140,
      "Ġdefault": 1141,
      "line": 1142,
      "Base": 1143,
      "----": 1144,
      "ÑĥÐ½": 1145,
      "Ð¸ÑĤÐµÐ»ÑĮ": 1146,
      "Ð¾Ð·Ð´": 1147,
      "ÑģÑĭÐ»": 1148,
      "ĠW": 1149,
      "ÑĪÐ¸Ð±": 1150,
      "Ð°Ð»ÑĮ": 1151,
      "')": 1152,
      "min": 1153,
      "!\\\"": 1154,
      "Ð¾Ñĩ": 1155,
      "unc": 1156,
      "ound": 1157,
      "stance": 1158,
      "inary": 1159,
      "ĠÐĺ": 1160,
      "alcul": 1161,
      "Ð°ÑĤÐµÐ»ÑĮ": 1162,
      "Ġ\\\":": 1163,
      "array": 1164,
      "ervice": 1165,
      "Ġdp": 1166,
      "ER": 1167,
      "Ġmake": 1168,
      "ority": 1169,
      "low": 1170,
      "Ġsub": 1171,
      "Ġnums": 1172,
      "Ð½Ð¾ÑģÑĤ": 1173,
      "12": 1174,
      "uard": 1175,
      "ected": 1176,
      "ÐŁÐ¾ÑģÐ»Ðµ": 1177,
      "Handler": 1178,
      "Exp": 1179,
      "day": 1180,
      "result": 1181,
      "der": 1182,
      "ĠG": 1183,
      "Ġq": 1184,
      "Ġsock": 1185,
      "list": 1186,
      "Ġlog": 1187,
      "quare": 1188,
      "signed": 1189,
      "pro": 1190,
      "actor": 1191,
      "action": 1192,
      "lag": 1193,
      "max": 1194,
      "eg": 1195,
      "all": 1196,
      "ĠÐ¿Ð¾": 1197,
      "valid": 1198,
      "ÑĢÐµÐ´": 1199,
      "ytes": 1200,
      "new": 1201,
      "ÐµÐ³": 1202,
      "ld": 1203,
      "Ġnumbers": 1204,
      "now": 1205,
      "Ġ});\\": 1206,
      "LE": 1207,
      "ÑģÑĤÑĢÐ¾Ðº": 1208,
      "ust": 1209,
      "ĠÐļ": 1210,
      "ogger": 1211,
      "oc": 1212,
      "rade": 1213,
      "isi": 1214,
      "Hello": 1215,
      "Ġdist": 1216,
      "User": 1217,
      "ÑĭÐ¹": 1218,
      "ref": 1219,
      "Ð¾Ðµ": 1220,
      "ateg": 1221,
      "ĠÐ·Ð½Ð°Ñĩ": 1222,
      "(!": 1223,
      "current": 1224,
      "Ġref": 1225,
      "Info": 1226,
      "function": 1227,
      "word": 1228,
      "Ġ\\\")\\\"": 1229,
      "Ð»Ð¸": 1230,
      "Ġconstexpr": 1231,
      "Comp": 1232,
      "Ac": 1233,
      "idth": 1234,
      "Ġsw": 1235,
      "20": 1236,
      "},\\": 1237,
      "inal": 1238,
      "ead": 1239,
      "Ġmatrix": 1240,
      "Ġout": 1241,
      "untime": 1242,
      "Ðķ": 1243,
      "ĠJ": 1244,
      "Ġpair": 1245,
      "ument": 1246,
      "pop": 1247,
      "Ġof": 1248,
      "ĠPoint": 1249,
      "inator": 1250,
      "ÑģÐ¿Ð¾Ð»ÑĮÐ·": 1251,
      "buffer": 1252,
      "Ð´ÐµÐ½": 1253,
      "sock": 1254,
      "Ġcatch": 1255,
      "ĠÐ³": 1256,
      "rows": 1257,
      "work": 1258,
      "afe": 1259,
      "order": 1260,
      "Ġexp": 1261,
      "raw": 1262,
      "isited": 1263,
      "enom": 1264,
      "Ġpattern": 1265,
      "nection": 1266,
      "Int": 1267,
      "test": 1268,
      "Resource": 1269,
      "eff": 1270,
      "ded": 1271,
      "Ġmessage": 1272,
      "Ġtarget": 1273,
      "(&": 1274,
      "onent": 1275,
      "ÑĥÑİ": 1276,
      "Ġres": 1277,
      "Derived": 1278,
      "rite": 1279,
      "RE": 1280,
      "Ġz": 1281,
      "15": 1282,
      "Le": 1283,
      "Ġun": 1284,
      "Ð¸Ð¼ÐµÑĢ": 1285,
      "Ġcont": 1286,
      "date": 1287,
      "âķ": 1288,
      "Ġdi": 1289,
      "ĠÑģÑģÑĭÐ»": 1290,
      "ÑĢÐ¾Ð²ÐµÑĢÐºÐ°": 1291,
      "erm": 1292,
      "emory": 1293,
      "ÑĪÐ¸Ð±ÐºÐ°": 1294,
      "&)": 1295,
      "(*": 1296,
      "Time": 1297,
      "cor": 1298,
      "Pri": 1299,
      "Ġtry": 1300,
      "CK": 1301,
      "Ð°Ñı": 1302,
      "Ġfilename": 1303,
      "ÑĥÐ½Ðº": 1304,
      "qr": 1305,
      "sin": 1306,
      "ci": 1307,
      "ĠÐ¼Ð°ÑģÑģÐ¸Ð²": 1308,
      "Ġwith": 1309,
      "rence": 1310,
      "AB": 1311,
      "ON": 1312,
      "col": 1313,
      "ansaction": 1314,
      ",\\": 1315,
      "±Ð¾ÑĤ": 1316,
      "ry": 1317,
      "Ġclose": 1318,
      "ition": 1319,
      "Ġuser": 1320,
      "qrt": 1321,
      "ari": 1322,
      "ĠÐ¿Ð¾Ð»": 1323,
      "Ġ30": 1324,
      "enominator": 1325,
      "loat": 1326,
      "start": 1327,
      "Ġsh": 1328,
      "ĠÑĤÐ¸Ð¿": 1329,
      "Ġindex": 1330,
      "ĠÑģÑĤ": 1331,
      "ress": 1332,
      "Str": 1333,
      "pos": 1334,
      "ĠÐĿ": 1335,
      "uration": 1336,
      "Ġmsg": 1337,
      "ÐŁÑĢ": 1338,
      "Ġthread": 1339,
      "Ġday": 1340,
      "*>(": 1341,
      "ost": 1342,
      "ÑıÐµÐ¼": 1343,
      "By": 1344,
      "En": 1345,
      "Ð¼ÐµÐ½": 1346,
      "ption": 1347,
      "apa": 1348,
      "out": 1349,
      "use": 1350,
      "wh": 1351,
      "Ĳâķ": 1352,
      "Ġline": 1353,
      "14": 1354,
      "\\\";": 1355,
      "ÑĤÐ°ÑĤ": 1356,
      "Ġevent": 1357,
      "AX": 1358,
      "Ġdisplay": 1359,
      "Ġunique": 1360,
      "comp": 1361,
      "Ġstruct": 1362,
      "Expression": 1363,
      "De": 1364,
      "EN": 1365,
      "Th": 1366,
      "=(": 1367,
      "len": 1368,
      "insert": 1369,
      "Ġitem": 1370,
      "ĲâķĲâķ": 1371,
      "top": 1372,
      "ÐµÑĪ": 1373,
      "Ð½Ð¾Ð³Ð¾": 1374,
      "Ð¸ÑĢÐ¾Ð²Ð°Ð½": 1375,
      "indow": 1376,
      "Ð°Ð¹Ð´ÐµÐ½": 1377,
      "All": 1378,
      "Ġat": 1379,
      "client": 1380,
      "ĠĠĠĠĠĠĠĠĠĠĠĠĠĠĠĠĠĠĠĠĠĠĠ": 1381,
      "ÑģÑĤÐ°Ð½": 1382,
      "clock": 1383,
      "rot": 1384,
      "pper": 1385,
      "Ð¼ÐµÑĢ": 1386,
      "Event": 1387,
      "Ġ(\\\"": 1388,
      "Ġbase": 1389,
      "acket": 1390,
      "Ð¸ÑĩÐµÑģ": 1391,
      "ency": 1392,
      "vel": 1393,
      "has": 1394,
      "ecute": 1395,
      "ÐĹ": 1396,
      "ply": 1397,
      "Ġ\\\"'": 1398,
      "itle": 1399,
      "],": 1400,
      "Ġ\\\"[": 1401,
      "itial": 1402,
      "Ġlength": 1403,
      "Point": 1404,
      "city": 1405,
      "dd": 1406,
      "pair": 1407,
      "Ð¾Ð»Ð½": 1408,
      "leep": 1409,
      "ĠÑģÑĤÑĢÐ¾Ðº": 1410,
      "Ð½Ð¾Ð¹": 1411,
      "Ġ'\\\"": 1412,
      "Ġpos": 1413,
      "ulti": 1414,
      "alloc": 1415,
      "99": 1416,
      "ÑĢÐ¸ÑĨ": 1417,
      "what": 1418,
      "rr": 1419,
      "ies": 1420,
      "ĠDate": 1421,
      ":\\\\": 1422,
      "Ġqu": 1423,
      "Ġstate": 1424,
      "ĠÐł": 1425,
      "Ġcheck": 1426,
      "ÑĭÑĤÑĮ": 1427,
      "orig": 1428,
      "Ġread": 1429,
      "vec": 1430,
      "({": 1431,
      "iseconds": 1432,
      "form": 1433,
      "illiseconds": 1434,
      "Index": 1435,
      "Ð½ÑĭÐ¼": 1436,
      "Ġyear": 1437,
      "ĠResource": 1438,
      "nullptr": 1439,
      "mail": 1440,
      "Ð¼Ð°": 1441,
      "Ġtypeid": 1442,
      "ÑĥÐº": 1443,
      "abs": 1444,
      "ĠMatrix": 1445,
      "=\\\"": 1446,
      "Task": 1447,
      "point": 1448,
      "});\\": 1449,
      "la": 1450,
      "port": 1451,
      "rapper": 1452,
      "Ġfactor": 1453,
      "Ġarea": 1454,
      "Ġobj": 1455,
      "ĠÐºÐ¾Ð½": 1456,
      "not": 1457,
      "ĠIN": 1458,
      "\\\"\\\"": 1459,
      "Ġtemplate": 1460,
      "ront": 1461,
      "rror": 1462,
      "Ġser": 1463,
      "Ġproduct": 1464,
      "milliseconds": 1465,
      "Ġaddr": 1466,
      "\"\"": 1467,
      "Ġ\\\")": 1468,
      "def": 1469,
      "Ð¾Ð»Ð¸Ñĩ": 1470,
      "apacity": 1471,
      "Ð¾Ð»Ð¸ÑĩÐµÑģÑĤÐ²": 1472,
      "';\\": 1473,
      "man": 1474,
      "Ð¾ÑĢÑĤ": 1475,
      "ustom": 1476,
      "Ġ12": 1477,
      "...\\\"": 1478,
      "ĠÐ±ÑĭÑĤÑĮ": 1479,
      "Ġclient": 1480,
      "ectangle": 1481,
      "raction": 1482,
      "Ġdest": 1483,
      "andle": 1484,
      "ÑĢÐ°Ð²Ð½": 1485,
      "Ġside": 1486,
      "ÐµÑĢÐµÐ·": 1487,
      "Visitor": 1488,
      "Ġemp": 1489,
      "sleep": 1490,
      "ys": 1491,
      "ank": 1492,
      "Ġaccount": 1493,
      "istr": 1494,
      "ject": 1495,
      "SIZE": 1496,
      "ert": 1497,
      "ÐºÐ°Ð·": 1498,
      "ixed": 1499,
      "AL": 1500,
      "gistr": 1501,
      "Ð»ÐµÐ½": 1502,
      "ĠĠĠĠĠĠĠĠĠĠĠĠĠĠĠĠĠ": 1503,
      "Exception": 1504,
      "ĠCircle": 1505,
      "cur": 1506,
      "ĠÑĩÐ¸ÑģÐ»Ð¾": 1507,
      "Ġmove": 1508,
      "real": 1509,
      "ÑĥÐ»ÑĮ": 1510,
      "Ð¸Ð³": 1511,
      "pen": 1512,
      "ener": 1513,
      "ify": 1514,
      "ĠÐ»": 1515,
      "Ġreal": 1516,
      "mpl": 1517,
      "event": 1518,
      "next": 1519,
      "ĠJson": 1520,
      "Ġnext": 1521,
      "ign": 1522,
      "Ġalloc": 1523,
      "ting": 1524,
      "ĠPro": 1525,
      "32": 1526,
      "dge": 1527,
      "ÑĥÑĤ": 1528,
      "rol": 1529,
      "ypename": 1530,
      "amic": 1531,
      "Ġle": 1532,
      "ĠÐľ": 1533,
      "igit": 1534,
      "erson": 1535,
      "ynamic": 1536,
      "Account": 1537,
      "tx": 1538,
      "Ð»Ñİ": 1539,
      "Result": 1540,
      "Plugin": 1541,
      "Ġ\\\"===": 1542,
      "Ð¸Ñı": 1543,
      "ÑĭÐ²": 1544,
      "Ġpoint": 1545,
      "load": 1546,
      "Ð°Ð½Ð¸Ñı": 1547,
      "CT": 1548,
      "OR": 1549,
      "Ġstudent": 1550,
      "ative": 1551,
      "arch": 1552,
      "Ġfrom": 1553,
      "Ġwidth": 1554,
      "Ð¾Ð»Ð¸ÑĩÐµÑģÑĤÐ²Ð¾": 1555,
      "gs": 1556,
      "Char": 1557,
      "nbool": 1558,
      "vail": 1559,
      "Ġ[](": 1560,
      "Ð¸Ð´": 1561,
      "ÐµÑĤÑģÑı": 1562,
      "oken": 1563,
      "Ġmonth": 1564,
      "Ġos": 1565,
      "true": 1566,
      "List": 1567,
      "ak": 1568,
      "sh": 1569,
      "&&": 1570,
      "uild": 1571,
      "ingle": 1572,
      "Ġmanager": 1573,
      "ÑĥÑģ": 1574,
      "Ð½Ð¸Ðº": 1575,
      "Ġage": 1576,
      "Ġthis": 1577,
      "Ġvisited": 1578,
      "Ð´Ð°Ð»": 1579,
      "original": 1580,
      ").": 1581,
      "Sub": 1582,
      "Ġfirst": 1583,
      "igits": 1584,
      "crete": 1585,
      "ven": 1586,
      "Ð§": 1587,
      "try": 1588,
      "Error": 1589,
      "ÑĢÐµÐ¼": 1590,
      "ĠÑĩÐµÑĢÐµÐ·": 1591,
      "mmand": 1592,
      "Ġ\\\\": 1593,
      "24": 1594,
      "Ġ->": 1595,
      "fter": 1596,
      "ĠH": 1597,
      "Ġ\\\";": 1598,
      "utes": 1599,
      "Ð°Ð±": 1600,
      "ÐµÑĤÐ¾Ð´": 1601,
      "numbers": 1602,
      "ÐµÐ·ÑĥÐ»ÑĮ": 1603,
      "vailable": 1604,
      "ÐµÐ·ÑĥÐ»ÑĮÑĤÐ°ÑĤ": 1605,
      "Ġerror": 1606,
      "rect": 1607,
      "ĠÐ¤": 1608,
      "================": 1609,
      "sys": 1610,
      "Ġtypename": 1611,
      "Logger": 1612,
      "Ġarg": 1613,
      "Ġbalance": 1614,
      "pri": 1615,
      "rest": 1616,
      "ÑģÑħÐ¾Ð´": 1617,
      "Shape": 1618,
      "ning": 1619,
      "pan": 1620,
      "ÐµÐºÑĤ": 1621,
      "Ġ\\\"-": 1622,
      "thod": 1623,
      "ĠÐŁÑĢÐ¾Ð²ÐµÑĢÐºÐ°": 1624,
      "ox": 1625,
      "Ġmid": 1626,
      "ÑĥÑĩ": 1627,
      "eld": 1628,
      "imal": 1629,
      "Ġvalid": 1630,
      "LO": 1631,
      "sum": 1632,
      "gistry": 1633,
      "Tree": 1634,
      "ield": 1635,
      "uc": 1636,
      "Ġimag": 1637,
      "ÑĢÐ°ÑĤ": 1638,
      "gest": 1639,
      "Ð°Ð¹ÑĤ": 1640,
      "Pool": 1641,
      "Ġshared": 1642,
      "gist": 1643,
      "imag": 1644,
      "Ġbytes": 1645,
      "Ġlast": 1646,
      "task": 1647,
      "close": 1648,
      "','": 1649,
      "loy": 1650,
      "Ġpar": 1651,
      "etwork": 1652,
      "Ġuint": 1653,
      "ÑĥÐ½ÐºÑĨÐ¸Ñı": 1654,
      "guard": 1655,
      "orld": 1656,
      "Ð¸ÑĦ": 1657,
      "ÑĥÐ¿": 1658,
      "ÐµÐ¶": 1659,
      "edi": 1660,
      "nstd": 1661,
      "ution": 1662,
      "Ġblock": 1663,
      "Ġbook": 1664,
      "Container": 1665,
      "ÐŀÐ±": 1666,
      "bs": 1667,
      "cry": 1668,
      "Ð£": 1669,
      "ĠÑĥÐºÐ°Ð·": 1670,
      "bor": 1671,
      "Ð²Ð¾Ð»": 1672,
      "ĠÐ¸Ð½": 1673,
      "Ġadj": 1674,
      ":\\\";\\": 1675,
      "Total": 1676,
      "ps": 1677,
      "Ġposit": 1678,
      "Ð°Ð»Ð¸Ð·": 1679,
      "ĠĠĠĠĠĠĠĠĠĠĠĠĠĠĠĠĠĠĠĠ": 1680,
      "actory": 1681,
      "Service": 1682,
      "Tr": 1683,
      "Un": 1684,
      "alary": 1685,
      "Ð¾Ð±Ð°Ð²": 1686,
      "Ð¾ÑĤÐ¾Ðº": 1687,
      "substr": 1688,
      "ÐłÐ°Ð·": 1689,
      "ner": 1690,
      "Ġshape": 1691,
      "Que": 1692,
      "ating": 1693,
      "Ġcreate": 1694,
      "AR": 1695,
      "ÑģÐµ": 1696,
      "Ġ'\\\\": 1697,
      "ÐµÐºÑĤÐ¾ÑĢ": 1698,
      "cstring": 1699,
      "filename": 1700,
      "year": 1701,
      "erase": 1702,
      "Ð¸Ðµ": 1703,
      "Ġinput": 1704,
      "Ð¸Ð¼Ð²Ð¾Ð»": 1705,
      "Product": 1706,
      "ĠÐ¢": 1707,
      "ĠÐŁÑĢÐ¸Ð¼ÐµÑĢ": 1708,
      "Ġunsigned": 1709,
      "rotected": 1710,
      "iz": 1711,
      "orm": 1712,
      "Ð¾Ð»Ð¶": 1713,
      "Ð°Ð³": 1714,
      "ĠAr": 1715,
      "Item": 1716,
      "ly": 1717,
      "Ġ25": 1718,
      "jo": 1719,
      "ference": 1720,
      "Ð¸ÑģÑĤ": 1721,
      "ĠData": 1722,
      "ingleton": 1723,
      "fstream": 1724,
      "nprotected": 1725,
      "Status": 1726,
      "ĠType": 1727,
      "Queue": 1728,
      "Date": 1729,
      "Ġelement": 1730,
      "ĠAn": 1731,
      "pha": 1732,
      "Valid": 1733,
      "dist": 1734,
      "txt": 1735,
      "ÑĩÐµÑĤ": 1736,
      "Cl": 1737,
      "Qu": 1738,
      "bin": 1739,
      "alind": 1740,
      "Ġpool": 1741,
      "),\\": 1742,
      "--;\\": 1743,
      "ÐĺÑģÑħÐ¾Ð´": 1744,
      "join": 1745,
      "Message": 1746,
      "Ð°Ð¹Ð»": 1747,
      "scri": 1748,
      "ĠÐ·Ð½Ð°ÑĩÐµÐ½Ð¸Ðµ": 1749,
      "ÑģÐ¿Ð¾Ð»ÑĮÐ·Ð¾Ð²": 1750,
      "aile": 1751,
      "ailed": 1752,
      "ÑĬ": 1753,
      "Ġclass": 1754,
      "ence": 1755,
      "ĠÑģÐ¾Ð·Ð´": 1756,
      "Ġdis": 1757,
      "ÐµÐ¿": 1758,
      "Se": 1759,
      "eigh": 1760,
      "Ġrows": 1761,
      "Ð¾Ð½ÑģÑĤÑĢ": 1762,
      "effs": 1763,
      "eighbor": 1764,
      "Ġusing": 1765,
      "req": 1766,
      "Ġbe": 1767,
      "alculate": 1768,
      ">(\\\"": 1769,
      "ÐµÑĢÑĪ": 1770,
      "ours": 1771,
      "ÐŀÑĪÐ¸Ð±ÐºÐ°": 1772,
      "lace": 1773,
      "ax": 1774,
      "().": 1775,
      "ED": 1776,
      "TI": 1777,
      "Ġprice": 1778,
      "lags": 1779,
      "Length": 1780,
      "sor": 1781,
      "Ke": 1782,
      "alpha": 1783,
      "Ġfound": 1784,
      "Sort": 1785,
      "ĠÐ¾Ð¿": 1786,
      "Ġfri": 1787,
      "Ġnot": 1788,
      "rc": 1789,
      "ĠÑģÐ»": 1790,
      "Ð»ÑİÑĩ": 1791,
      "AN": 1792,
      "Ġrequest": 1793,
      "ÑĤÐµÑĢ": 1794,
      "ĠÐ½Ð°Ð¹Ð´ÐµÐ½": 1795,
      "omial": 1796,
      "INET": 1797,
      "Ġsockaddr": 1798,
      "ategory": 1799,
      "*)": 1800,
      "uture": 1801,
      ">();\\": 1802,
      "ĠÐ¾": 1803,
      "Ġper": 1804,
      "ĠFraction": 1805,
      "123": 1806,
      "Manager": 1807,
      "rome": 1808,
      "ĠShape": 1809,
      "alindrome": 1810,
      "Col": 1811,
      "ait": 1812,
      "from": 1813,
      "ĠÐ£": 1814,
      "Ġme": 1815,
      "Ġdistance": 1816,
      "Or": 1817,
      "Ġpre": 1818,
      "Cache": 1819,
      "antity": 1820,
      "Ġswap": 1821,
      "Ġon": 1822,
      "Ð´Ð°": 1823,
      "nums": 1824,
      "Ġfriend": 1825,
      "Ðĳ": 1826,
      "ÐµÐµ": 1827,
      "Ð¾Ð¼Ð¿": 1828,
      "ÑĥÑī": 1829,
      "Ġwork": 1830,
      "eap": 1831,
      "Process": 1832,
      "Element": 1833,
      "Ð°Ñĩ": 1834,
      "oney": 1835,
      "oex": 1836,
      "oper": 1837,
      "uth": 1838,
      "erat": 1839,
      "uccess": 1840,
      "oexcept": 1841,
      "Observer": 1842,
      "ram": 1843,
      "ash": 1844,
      "emplace": 1845,
      "ialize": 1846,
      "ĠÐ±Ð°Ð¹ÑĤ": 1847,
      "Ġcols": 1848,
      "gre": 1849,
      "Ġ50": 1850,
      "50": 1851,
      "binary": 1852,
      "inter": 1853,
      "Ġact": 1854,
      "--------": 1855,
      "ÑĥÑĢ": 1856,
      "Ġsetw": 1857,
      "ÐĽ": 1858,
      "Ġ{'": 1859,
      "olyn": 1860,
      "000": 1861,
      "Ð°ÑĤÐµÐ»": 1862,
      "ĠComp": 1863,
      "olynomial": 1864,
      "false": 1865,
      "ample": 1866,
      "Ġcontainer": 1867,
      "ibr": 1868,
      "MP": 1869,
      "ÑıÑĤ": 1870,
      "ĠÑĤÑĢ": 1871,
      "Ġ60": 1872,
      "Min": 1873,
      "front": 1874,
      "imple": 1875,
      "Ġ\\\"]": 1876,
      "ÐµÑī": 1877,
      "ĠÑģÐ¸Ð¼Ð²Ð¾Ð»": 1878,
      "ĠStu": 1879,
      "Ð°Ð¼Ð¸": 1880,
      "ĠStudent": 1881,
      "Ð¸Ð½Ð°": 1882,
      "cltype": 1883,
      "Ġpath": 1884,
      "ÑĥÐ³": 1885,
      "Ð¸Ð¼Ð°Ð»ÑĮ": 1886,
      "Of": 1887,
      "core": 1888,
      "ĠgetName": 1889,
      "Ð°ÑĨÐ¸Ð¸": 1890,
      "Ġgrade": 1891,
      "corator": 1892,
      "Mutex": 1893,
      "On": 1894,
      "system": 1895,
      "Ġoriginal": 1896,
      "Ð½Ð¾ÑģÑĤÑĮ": 1897,
      "('": 1898,
      "ud": 1899,
      "parent": 1900,
      "ĠÑĩÐ¸ÑģÐ»Ð°": 1901,
      "ultiply": 1902,
      "Object": 1903,
      "Ġinstance": 1904,
      "ower": 1905,
      "16": 1906,
      "ved": 1907,
      "Ġmod": 1908,
      "Ġdenominator": 1909,
      "Ġcapacity": 1910,
      "ING": 1911,
      "Test": 1912,
      "ale": 1913,
      "stack": 1914,
      "Ġtop": 1915,
      ">>&": 1916,
      "long": 1917,
      "month": 1918,
      "sive": 1919,
      "ĠÐ´Ð¾Ð»Ð¶": 1920,
      "Inte": 1921,
      "Book": 1922,
      "ÑĥÐ³Ð¾Ð»ÑĮ": 1923,
      "oor": 1924,
      "ĠÐ¿ÐµÑĢÐµÐ¼": 1925,
      "Key": 1926,
      "25": 1927,
      "Ġsc": 1928,
      "ĠÐ¿Ð¾Ð´": 1929,
      "ĠÐ¡Ð¾Ð·Ð´": 1930,
      "ÑĥÐ¼Ð¼Ð°": 1931,
      "Ð¸ÑĩÐµÑģÐº": 1932,
      "Wrapper": 1933,
      "cent": 1934,
      "Ġtitle": 1935,
      "ÑĩÐ¸ÑģÐ»": 1936,
      "old": 1937,
      "setw": 1938,
      "ÐŁÐµÑĢ": 1939,
      "45": 1940,
      "Set": 1941,
      "Ġresource": 1942,
      "Ġexpr": 1943,
      "Ð°ÐºÑģ": 1944,
      "egative": 1945,
      "ater": 1946,
      "ÐºÑĥ": 1947,
      "number": 1948,
      "leted": 1949,
      "update": 1950,
      "nconst": 1951,
      "sort": 1952,
      "ÑıÐ¼": 1953,
      "preci": 1954,
      "Ð½Ð¾ÑģÑĤÐ¸": 1955,
      "ÑĢÐµÐ´ÐµÐ»": 1956,
      "Ġsafe": 1957,
      "\\\",\\": 1958,
      "[\\\"": 1959,
      "ide": 1960,
      "sk": 1961,
      "ÑıÐ²": 1962,
      "rack": 1963,
      "Ġcircle": 1964,
      "Ġobserver": 1965,
      "ÐµÐ½Ð°": 1966,
      "ific": 1967,
      "Block": 1968,
      "ward": 1969,
      "Ġcle": 1970,
      "ÐµÐ½Ð¸Ð¹": 1971,
      "ility": 1972,
      "Ð¡ÑĤ": 1973,
      "erature": 1974,
      "11": 1975,
      "stdex": 1976,
      "Ġsend": 1977,
      "ĠSO": 1978,
      "Check": 1979,
      "stdexcept": 1980,
      "Ġrever": 1981,
      "ongest": 1982,
      "Ġ*=": 1983,
      "Ġlen": 1984,
      "ĠFile": 1985,
      "pted": 1986,
      "write": 1987,
      "Ġstop": 1988,
      "ÐµÑĩ": 1989,
      "ÑģÑĤÐ²": 1990,
      "Ġnumber": 1991,
      "uffix": 1992,
      "Circle": 1993,
      "runtime": 1994,
      "code": 1995,
      "itch": 1996,
      "Ð°ÑĤÑĢÐ¸ÑĨ": 1997,
      "Ġruntime": 1998,
      "Database": 1999,
      "Ġthreads": 2000,
      "unning": 2001,
      "ĠÑĩÐ¸Ñģ": 2002,
      "pret": 2003,
      "ibrary": 2004,
      "ĠÑĩÐ¸ÑģÐµÐ»": 2005,
      "cpy": 2006,
      "Max": 2007,
      "Temp": 2008,
      "ĠU": 2009,
      "info": 2010,
      "Ġinsert": 2011,
      "ÑĢÐ°Ð±Ð¾ÑĤ": 2012,
      "Ġcounter": 2013,
      "No": 2014,
      "With": 2015,
      "Ġpq": 2016,
      "Ġoss": 2017,
      "Ġvisit": 2018,
      "Ġmap": 2019,
      "ÐµÐ½ÑĮ": 2020,
      "precision": 2021,
      "DE": 2022,
      "sqrt": 2023,
      "eric": 2024,
      "ÑĭÐµ": 2025,
      "ĠSIZE": 2026,
      "ĠÐ´Ð¾": 2027,
      "Ð¾ÑĢÐ¼": 2028,
      "ĠBook": 2029,
      "ices": 2030,
      "ĠRectangle": 2031,
      "path": 2032,
      "Ġstack": 2033,
      "Ġdynamic": 2034,
      "Ð´ÑĢ": 2035,
      "loyee": 2036,
      "tic": 2037,
      "ational": 2038,
      "valu": 2039,
      "Ġcode": 2040,
      "ĠÐ²ÑĢÐµÐ¼": 2041,
      "arent": 2042,
      "ĠContainer": 2043,
      "ĠÐĴÑĭ": 2044,
      "ÐµÐ³Ð¾": 2045,
      "ategy": 2046,
      "manip": 2047,
      "msg": 2048,
      "condition": 2049,
      "tings": 2050,
      "uthor": 2051,
      "iomanip": 2052,
      "Ġ42": 2053,
      "alculator": 2054,
      "Matrix": 2055,
      "Ð¾Ñī": 2056,
      "ÐĿÐµ": 2057,
      "Ġdiff": 2058,
      "AT": 2059,
      "SS": 2060,
      "ore": 2061,
      "riangle": 2062,
      "Ġ-=": 2063,
      "ÑģÑĤÐ°Ð½ÑĤ": 2064,
      "opt": 2065,
      "ĠÐĹ": 2066,
      "ÑĥÑģÑĤ": 2067,
      "Ġdet": 2068,
      "clear": 2069,
      "Memory": 2070,
      "ob": 2071,
      "ĠÑģÐº": 2072,
      "Ð°ÑĤÑĮ": 2073,
      "*(": 2074,
      "Ġtree": 2075,
      "check": 2076,
      "ĠÐ²Ð¾Ð·": 2077,
      "functional": 2078,
      "ormal": 2079,
      "mtx": 2080,
      "leag": 2081,
      "ĠMAX": 2082,
      "ĠÐ¼Ð¾Ð¶": 2083,
      "ÐµÐºÑģ": 2084,
      "league": 2085,
      "rand": 2086,
      "Ġseconds": 2087,
      "Ġtasks": 2088,
      "mart": 2089,
      "pon": 2090,
      "Ġsqrt": 2091,
      "ĠDe": 2092,
      "ĠÑĦÐ°Ð¹Ð»": 2093,
      "ĠÑģÐ¾Ð·Ð´Ð°Ð½": 2094,
      "):\\\"": 2095,
      "Ð°ÑģÑĤ": 2096,
      "Ð¸ÑĢÑĥ": 2097,
      "Ġweight": 2098,
      "ÑİÑĤ": 2099,
      "LL": 2100,
      "Ġduration": 2101,
      "cel": 2102,
      "ick": 2103,
      "ĠTh": 2104,
      "argument": 2105,
      "ariable": 2106,
      "define": 2107,
      "ponse": 2108,
      "RU": 2109,
      "Command": 2110,
      "open": 2111,
      "omic": 2112,
      "eek": 2113,
      "gister": 2114,
      "Emp": 2115,
      "Ð½Ð¸Ð¹": 2116,
      "Ġios": 2117,
      "ÑĢÐ°Ð¼": 2118,
      "Connection": 2119,
      "signal": 2120,
      "An": 2121,
      "lay": 2122,
      "Ġro": 2123,
      "Ġ\\\"%": 2124,
      "orage": 2125,
      "Ð¸ÑĤÑĮ": 2126,
      "Ġserver": 2127,
      "ier": 2128,
      "Ð½Ð¾Ð²": 2129,
      "ĠÐ¾Ð±ÑĬ": 2130,
      "ocument": 2131,
      "Add": 2132,
      "ndouble": 2133,
      "own": 2134,
      "crement": 2135,
      "same": 2136,
      "ÐŃ": 2137,
      "ansit": 2138,
      "ped": 2139,
      "Ġlist": 2140,
      "Ð°ÑĤÐ¾ÑĢ": 2141,
      "serv": 2142,
      "Ġvalues": 2143,
      "ÐłÐ°Ð·Ð¼ÐµÑĢ": 2144,
      "Ð¾Ñı": 2145,
      "Ġnoexcept": 2146,
      "ĠTime": 2147,
      "ÐłÐµÐ·ÑĥÐ»ÑĮÑĤÐ°ÑĤ": 2148,
      "ME": 2149,
      "ĠÑĨ": 2150,
      "tra": 2151,
      "ĠRational": 2152,
      "Ð¸ÑģÐº": 2153,
      "ĲâķĲâķĲâķĲâķ": 2154,
      "Di": 2155,
      "Ġcalculate": 2156,
      "Ġminutes": 2157,
      "Ġacc": 2158,
      "Ġswitch": 2159,
      "Packet": 2160,
      "Sum": 2161,
      "Ð°ÐµÑĤ": 2162,
      "Ġperror": 2163,
      "idget": 2164,
      "pec": 2165,
      "Ġinitial": 2166,
      "MAX": 2167,
      "fs": 2168,
      "Ġfloat": 2169,
      "Ġsource": 2170,
      "cstd": 2171,
      "total": 2172,
      "token": 2173,
      "atio": 2174,
      "lease": 2175,
      "iterator": 2176,
      "Expr": 2177,
      "AC": 2178,
      "static": 2179,
      "Ð²ÐµÑĢ": 2180,
      "ĠConcrete": 2181,
      "Prime": 2182,
      "80": 2183,
      "mat": 2184,
      "Ġarray": 2185,
      "ery": 2186,
      "Ġap": 2187,
      "oll": 2188,
      "Ġgener": 2189,
      "Ġconfig": 2190,
      "Ġexecute": 2191,
      "Ġ\\\\\\\"\\\"": 2192,
      "\\\"};\\": 2193,
      "ÑĥÐ´": 2194,
      "ĠSimple": 2195,
      "ĠĠĠĠĠĠĠĠĠĠĠĠĠ": 2196,
      "Ġsearch": 2197,
      "ÑĢÐ°Ð²Ð½ÐµÐ½Ð¸Ðµ": 2198,
      "ink": 2199,
      "ersion": 2200,
      "ics": 2201,
      "Stack": 2202,
      "Alloc": 2203,
      "valuate": 2204,
      "Path": 2205,
      "hic": 2206,
      "iew": 2207,
      "rid": 2208,
      "inet": 2209,
      "ĠÐĲ": 2210,
      "Ġback": 2211,
      "exp": 2212,
      "ĠTask": 2213,
      "Ð¾ÑģÑĤÑĥÐ¿": 2214,
      "hicle": 2215,
      "ug": 2216,
      "uint": 2217,
      "coded": 2218,
      "Ġstatus": 2219,
      "Ð¸ÑĨÐ¸": 2220,
      "terator": 2221,
      "ĠINT": 2222,
      "bytes": 2223,
      "sius": 2224,
      "ume": 2225,
      "verage": 2226,
      "ĠÑģÐ¾": 2227,
      "cord": 2228,
      "64": 2229,
      "AD": 2230,
      "az": 2231,
      "cct": 2232,
      "ĠÐ²ÑģÐµ": 2233,
      "Ð¾ÑĢÐ¸ÑĤ": 2234,
      "ĠÐºÐ¾Ð¼Ð¿": 2235,
      "qui": 2236,
      "ĠÑĥÐ´Ð°Ð»": 2237,
      "ync": 2238,
      "ÑĥÐ³Ð¾Ð»ÑĮÐ½Ð¸Ðº": 2239,
      "cctype": 2240,
      "no": 2241,
      "ios": 2242,
      "abc": 2243,
      "42": 2244,
      "ark": 2245,
      "Ġsort": 2246,
      "Ġedge": 2247,
      "ÐµÐ¼Ð¾Ð½ÑģÑĤÑĢ": 2248,
      "$\\\"": 2249,
      "he": 2250,
      "Ġunordered": 2251,
      "Instance": 2252,
      "ializ": 2253,
      "ĠÐ¤ÑĥÐ½ÐºÑĨÐ¸Ñı": 2254,
      "Code": 2255,
      "FF": 2256,
      "IG": 2257,
      "posit": 2258,
      "connect": 2259,
      "Ġden": 2260,
      "Ġ15": 2261,
      "ĠTr": 2262,
      "local": 2263,
      "ĠEvent": 2264,
      "Inter": 2265,
      "future": 2266,
      "ero": 2267,
      "annot": 2268,
      "\\\\\\\"": 2269,
      "olume": 2270,
      "ĠÐ·Ð°Ð¿": 2271,
      "Ð¾Ð¶Ð¸ÑĤÐµÐ»ÑĮ": 2272,
      "Ġcolor": 2273,
      "uilder": 2274,
      "Class": 2275,
      "');\\": 2276,
      "Ð½ÑĥÑİ": 2277,
      "ÑĤÐ¾": 2278,
      "peed": 2279,
      "ĠÐ¿Ð¾ÑģÐ»Ðµ": 2280,
      "ffset": 2281,
      "interpret": 2282,
      "After": 2283,
      "Impl": 2284,
      "Ġcar": 2285,
      "Request": 2286,
      "Ġtrans": 2287,
      "ĠString": 2288,
      "eader": 2289,
      "ĠProduct": 2290,
      "Guard": 2291,
      "ehicle": 2292,
      "Ġ\\\"*": 2293,
      "ats": 2294,
      "olution": 2295,
      "Ġ40": 2296,
      "Ġhash": 2297,
      "ÑģÐ¿Ð¾Ð»ÑĮÐ·Ñĥ": 2298,
      "Ġrect": 2299,
      "Ġfunc": 2300,
      "Ġhours": 2301,
      "Ġmode": 2302,
      "quence": 2303,
      "ized": 2304,
      "ĠLogger": 2305,
      "Ġempty": 2306,
      "Order": 2307,
      "ĠIn": 2308,
      "Ġinter": 2309,
      "Ġemail": 2310,
      "execute": 2311,
      "ĠMoney": 2312,
      "Thread": 2313,
      "float": 2314,
      "input": 2315,
      "ÐºÑĢ": 2316,
      "main": 2317,
      "imit": 2318,
      ">()": 2319,
      "Year": 2320,
      "](": 2321,
      "cerr": 2322,
      "Ġmat": 2323,
      "ĠÐ´Ð°Ð½": 2324,
      "ĠPolynomial": 2325,
      "(-": 2326,
      "ID": 2327,
      "draw": 2328,
      "ĠÐĳ": 2329,
      "Ġ(*": 2330,
      "Ġfailed": 2331,
      "ĠSingleton": 2332,
      "0000": 2333,
      "Const": 2334,
      "Ð°Ð±Ð»": 2335,
      "ÑģÐ¿Ð¾Ð»ÑĮÐ·Ð¾Ð²Ð°Ð½Ð¸Ðµ": 2336,
      "EL": 2337,
      "eak": 2338,
      "Ð»ÐµÐ½Ð¸Ðµ": 2339,
      "ĠÐ²ÐµÐºÑĤÐ¾ÑĢ": 2340,
      "Map": 2341,
      "Ġpart": 2342,
      "Ġparent": 2343,
      "Ġsquare": 2344,
      "roup": 2345,
      "Ġconnect": 2346,
      "Config": 2347,
      "ĠÐ¿ÐµÑĢÐ²": 2348,
      "Ġlogger": 2349,
      "cursive": 2350,
      "Processor": 2351,
      "ied": 2352,
      "requ": 2353,
      "assword": 2354,
      "tract": 2355,
      "Ð¾Ð²ÑĭÐ¹": 2356,
      "Ġrange": 2357,
      "unistd": 2358,
      "Counter": 2359,
      "ĠInt": 2360,
      "socket": 2361,
      "onents": 2362,
      "30": 2363,
      "AF": 2364,
      "RO": 2365,
      "ĠÑıÐ²": 2366,
      "ensor": 2367,
      "ÐĴÑĭ": 2368,
      "create": 2369,
      "Balance": 2370,
      "Word": 2371,
      "flow": 2372,
      "ÐµÐ±": 2373,
      "ana": 2374,
      "Ġchild": 2375,
      "ĠBig": 2376,
      "typeid": 2377,
      "imits": 2378,
      "ÐĶÐ¾": 2379,
      "LA": 2380,
      "di": 2381,
      "Ġfib": 2382,
      "Ġwrite": 2383,
      "Ġhandler": 2384,
      "ĠÐ¼ÐµÑĤÐ¾Ð´": 2385,
      "ÐļÐ¾Ð»Ð¸ÑĩÐµÑģÑĤÐ²Ð¾": 2386,
      "span": 2387,
      "Ð¤": 2388,
      "Ġ{};\\": 2389,
      "Ġpacket": 2390,
      "child": 2391,
      "Ġheap": 2392,
      "ĠÐ´Ð²": 2393,
      "ediator": 2394,
      "ÐĺÑģÑħÐ¾Ð´Ð½ÑĭÐ¹": 2395,
      ">;\\": 2396,
      "TR": 2397,
      "Vector": 2398,
      "icient": 2399,
      "qual": 2400,
      "Ġdays": 2401,
      "ave": 2402,
      "cri": 2403,
      "Ġus": 2404,
      "vert": 2405,
      "ĠÐŀÐ±": 2406,
      "ariant": 2407,
      "Ġpositions": 2408,
      "ruct": 2409,
      "alle": 2410,
      "Ð»ÑıÐµÐ¼": 2411,
      "Available": 2412,
      "]++;\\": 2413,
      "high": 2414,
      "Ġsystem": 2415,
      "ĠTest": 2416,
      "Ð¿Ð¾Ð»Ð½": 2417,
      "ÑĢÐ°Ð·": 2418,
      "Ġpriority": 2419,
      "OU": 2420,
      "SE": 2421,
      "]*": 2422,
      "Ġparse": 2423,
      "Hash": 2424,
      "Ġ\\\":\\\"": 2425,
      "utations": 2426,
      "Ġdoc": 2427,
      "Ġobject": 2428,
      "Read": 2429,
      "ĠÐ·Ð°Ð²": 2430,
      "ification": 2431,
      "Day": 2432,
      "sstream": 2433,
      "ĠUser": 2434,
      "mount": 2435,
      "ĠÐ¿ÑĢÐ¾": 2436,
      "mmon": 2437,
      "Level": 2438,
      "Ð°Ð»Ð¸Ð·Ð°ÑĨÐ¸Ñı": 2439,
      "ĠThread": 2440,
      "Palindrome": 2441,
      "ble": 2442,
      "fabs": 2443,
      "tm": 2444,
      "weight": 2445,
      "orted": 2446,
      "Ġnow": 2447,
      "ĠTemp": 2448,
      "Ð¸ÑĢÐ¾Ð²Ð°Ð½Ð¸Ðµ": 2449,
      "Ġprime": 2450,
      "Ġcreated": 2451,
      "Ð»Ð¸Ð½Ð°": 2452,
      "Ġelements": 2453,
      "Amount": 2454,
      "Func": 2455,
      "range": 2456,
      "ĠExpression": 2457,
      "Ġ\"\"": 2458,
      "Ð°Ñħ": 2459,
      "ÐºÐµ": 2460,
      "ÐºÐ»ÑİÑĩ": 2461,
      "Ġcontent": 2462,
      "ĠÐ¿Ð¾Ð»Ð¾Ð¶Ð¸ÑĤÐµÐ»ÑĮ": 2463,
      "Area": 2464,
      "ĠÐ¾Ð´": 2465,
      "ĠÑĪ": 2466,
      "ses": 2467,
      "Ġvisitor": 2468,
      "gine": 2469,
      "Ġcontext": 2470,
      "ÑİÑī": 2471,
      "Ġaccept": 2472,
      "Ġcontin": 2473,
      "hone": 2474,
      "ual": 2475,
      "Ðĵ": 2476,
      "Ġold": 2477,
      "Ġ\\\"\\\\\\\"": 2478,
      ">,": 2479,
      "denominator": 2480,
      "Ð¸Ð°Ð¿": 2481,
      "Ġplugin": 2482,
      "Ġcerr": 2483,
      "Ġopen": 2484,
      "ĠĠĠĠĠĠĠĠĠĠĠĠĠĠĠĠĠĠĠĠĠĠĠĠ": 2485,
      "acency": 2486,
      "Ġresponse": 2487,
      "ÑĥÐºÑĤÐ¾ÑĢ": 2488,
      "Ġshapes": 2489,
      "Ð¾ÑıÐ½": 2490,
      "Ġcontinue": 2491,
      "Ð¸Ð°Ð¿Ð°Ð·": 2492,
      "\\\"]": 2493,
      "atomic": 2494,
      "roy": 2495,
      "ffee": 2496,
      "ĠÐºÐ¾ÑĢ": 2497,
      "resolution": 2498,
      "Ð¡ÑĥÐ¼Ð¼Ð°": 2499,
      "crypted": 2500,
      "Factory": 2501,
      "\\\"\\": 2502,
      "utton": 2503,
      "pack": 2504,
      "Ġwindow": 2505,
      "Ð¾Ð»ÑĮÐ·Ð¾Ð²": 2506,
      "cols": 2507,
      "Decorator": 2508,
      "Second": 2509,
      ">)": 2510,
      "bit": 2511,
      "ll": 2512,
      "Ð¦": 2513,
      "Ð¸ÑĢ": 2514,
      "ending": 2515,
      "Ð½Ð¾Ð¶": 2516,
      "Ġrec": 2517,
      "ctime": 2518,
      "older": 2519,
      "exception": 2520,
      "Ġexception": 2521,
      "Ġ1000": 2522,
      "IT": 2523,
      "cs": 2524,
      "ceived": 2525,
      "ÐµÐ½Ð¾": 2526,
      "getName": 2527,
      "ĠÐ¿ÑĢÐ¸": 2528,
      "nconstexpr": 2529,
      "ĠÑıÐ²Ð»Ñı": 2530,
      "Square": 2531,
      "obj": 2532,
      "Ġ\\\"/": 2533,
      "Ġsuccess": 2534,
      "Ġop": 2535,
      "npos": 2536,
      "ĠCol": 2537,
      "ayment": 2538,
      "Ð¿ÐµÑĢ": 2539,
      "imer": 2540,
      "ÑĢÑĥÐ³": 2541,
      "ĠJsonValue": 2542,
      "igned": 2543,
      "lect": 2544,
      "ĠÐ¿Ð¾Ð·": 2545,
      "Ġhandle": 2546,
      "ĠÐ¸Ð·Ð¼ÐµÐ½": 2547,
      "ÑĢÐ¸ÑĨÐ°ÑĤÐµÐ»ÑĮ": 2548,
      "wait": 2549,
      "Ð¾Ð¸ÑģÐº": 2550,
      "Ð¸Ð»": 2551,
      "Ġservice": 2552,
      "Ġchrono": 2553,
      "ĠBank": 2554,
      "Ð¸Ð¼Ð¾ÑģÑĤ": 2555,
      "ĠConfig": 2556,
      "Ġwords": 2557,
      "Ð½ÑĭÐ¼Ð¸": 2558,
      "ĠÐ¾Ð±ÑĬÐµÐºÑĤ": 2559,
      "Ent": 2560,
      "digits": 2561,
      "mon": 2562,
      "Ġrow": 2563,
      "Ġabs": 2564,
      "getline": 2565,
      "edge": 2566,
      "ÐĿÐµÑĤ": 2567,
      "Ð°ÐºÑģÐ¸Ð¼Ð°Ð»ÑĮ": 2568,
      "<(": 2569,
      "pid": 2570,
      "any": 2571,
      "ÑĥÐ»": 2572,
      "ĠÐºÐ¾Ð»Ð¸ÑĩÐµÑģÑĤÐ²Ð¾": 2573,
      "Args": 2574,
      "operator": 2575,
      "67": 2576,
      "Next": 2577,
      "remove": 2578,
      "Ð¾Ð½Ð°": 2579,
      "Ġpage": 2580,
      "ĠCom": 2581,
      "Ġinvalid": 2582,
      "Start": 2583,
      "Ġfactorial": 2584,
      "Ð§Ð¸ÑģÐ»": 2585,
      "Ġvalidate": 2586,
      "ĠArgs": 2587,
      "*)&": 2588,
      "Function": 2589,
      "]()": 2590,
      "utility": 2591,
      "metic": 2592,
      "Ġnumerator": 2593,
      "ĠÐĶÐ¾Ð±Ð°Ð²": 2594,
      "Ġsocket": 2595,
      "Ġ/=": 2596,
      "ĠCar": 2597,
      "Ġangle": 2598,
      "Rate": 2599,
      "Text": 2600,
      "Ġdy": 2601,
      "Ð¾ÑģÐ»ÐµÐ´": 2602,
      "Ġentry": 2603,
      "ENT": 2604,
      "Ð¸ÑĢÑĥÐµÐ¼": 2605,
      "dle": 2606,
      "ostream": 2607,
      "oard": 2608,
      "uf": 2609,
      "Ġqueue": 2610,
      "Ġmy": 2611,
      "racker": 2612,
      "azy": 2613,
      "func": 2614,
      "state": 2615,
      "Ġ((": 2616,
      "Ġdiv": 2617,
      "ĠPri": 2618,
      "resource": 2619,
      "process": 2620,
      "ptional": 2621,
      "allocate": 2622,
      "Buffer": 2623,
      "Mode": 2624,
      "den": 2625,
      "radius": 2626,
      "Ġupdate": 2627,
      "ĠÐ¿ÑĢÐµÐ´": 2628,
      "Ġprev": 2629,
      "ÑĥÑĢÑģ": 2630,
      "ansition": 2631,
      "Window": 2632,
      "eur": 2633,
      "Ġ$\\\"": 2634,
      "amp": 2635,
      "Ġfreq": 2636,
      "assert": 2637,
      "Ð°Ð´Ð°Ñĩ": 2638,
      "ĠÑįÐ»ÐµÐ¼ÐµÐ½ÑĤÐ¾Ð²": 2639,
      "digit": 2640,
      "nÐŁ": 2641,
      "Ġfunction": 2642,
      "Ġport": 2643,
      "unsigned": 2644,
      "ÑıÐ´": 2645,
      "ÑĭÑħ": 2646,
      "Ġlongest": 2647,
      "Ð¾Ð»ÑĮÑĪ": 2648,
      "Ġand": 2649,
      "efficient": 2650,
      "ĠÑģÑģÑĭÐ»ÐºÑĥ": 2651,
      "ĠÐ¾Ð¿ÐµÑĢ": 2652,
      "ie": 2653,
      "ole": 2654,
      "oom": 2655,
      "ures": 2656,
      "Ġsecond": 2657,
      "Ġremove": 2658,
      "arge": 2659,
      "Ġnormal": 2660,
      "ĠÐ¿Ð¾ÑĤÐ¾Ðº": 2661,
      "Ġcopy": 2662,
      "Ð½Ðµ": 2663,
      "Ġmemory": 2664,
      "Copy": 2665,
      "ÐµÐ´Ð¸Ð½": 2666,
      "ĠÐ¼Ð°ÑĤÑĢÐ¸ÑĨ": 2667,
      "upper": 2668,
      "ĠNetwork": 2669,
      "Ġgenerate": 2670,
      "cd": 2671,
      "duration": 2672,
      "height": 2673,
      "}};\\": 2674,
      "ÑģÐ¾ÑĢÑĤ": 2675,
      "ces": 2676,
      "ÑĢÐ°ÑģÑĤ": 2677,
      "((": 2678,
      ")),": 2679,
      "22": 2680,
      "AI": 2681,
      "Car": 2682,
      "Per": 2683,
      "request": 2684,
      "Ġtra": 2685,
      "Ð»Ð°ÑģÑģ": 2686,
      "Ġas": 2687,
      "Ġss": 2688,
      "istory": 2689,
      "accept": 2690,
      "ĠÑĢÐ°Ð±Ð¾ÑĤ": 2691,
      "args": 2692,
      "lower": 2693,
      "End": 2694,
      "Out": 2695,
      "free": 2696,
      "Ġfree": 2697,
      "serialize": 2698,
      "Ġgen": 2699,
      "earch": 2700,
      "ĠÑĥÐºÐ°Ð·Ð°ÑĤÐµÐ»ÑĮ": 2701,
      "Ġworker": 2702,
      "ĠÐ¿ÐµÑĢÐµÐ¼ÐµÐ½": 2703,
      "ĠÐ¡Ð¾Ð·Ð´Ð°ÐµÐ¼": 2704,
      "AM": 2705,
      "handler": 2706,
      "iss": 2707,
      "pend": 2708,
      "Ġsignal": 2709,
      "Ġ{{": 2710,
      "erge": 2711,
      "enter": 2712,
      "Ð¸ÐºÐ°": 2713,
      "ĠÐºÐ¾Ð½ÑģÑĤÐ°Ð½ÑĤ": 2714,
      "Ġargs": 2715,
      "ÑģÐ¿Ð¾Ð»ÑĮÐ·ÑĥÐµÐ¼": 2716,
      "Builder": 2717,
      "RC": 2718,
      "ouse": 2719,
      "ĠÑħ": 2720,
      "ĠQu": 2721,
      "ination": 2722,
      "onac": 2723,
      "Ġbad": 2724,
      "stringstream": 2725,
      "Ð²Ð¾Ð´": 2726,
      "Registry": 2727,
      "numerator": 2728,
      "roll": 2729,
      "celsius": 2730,
      "ÐµÐ¼Ð¾Ð½ÑģÑĤÑĢÐ°ÑĨÐ¸Ñı": 2731,
      "ÑģÐ¾ÑĢÑĤÐ¸ÑĢÐ¾Ð²Ð°Ð½": 2732,
      "onacci": 2733,
      "Act": 2734,
      "FI": 2735,
      "System": 2736,
      "Safe": 2737,
      "Search": 2738,
      "Ġsm": 2739,
      "ĠÐŁÐµÑĢ": 2740,
      "sions": 2741,
      "ĠÐ·Ð°Ðº": 2742,
      "Cont": 2743,
      "Ð¾Ð¿Ð¾Ð»Ð½": 2744,
      "ÑĢÐ°Ñī": 2745,
      "worker": 2746,
      "Ġdestroy": 2747,
      "Me": 2748,
      "Rectangle": 2749,
      "sw": 2750,
      "coeffs": 2751,
      "Ġmultiply": 2752,
      "Ġ200": 2753,
      "Ġtransaction": 2754,
      "Invalid": 2755,
      "Ð¸Ð¼ÑĥÐ¼": 2756,
      "numeric": 2757,
      "ÐŀÑĤ": 2758,
      "ĠWorld": 2759,
      "My": 2760,
      "PI": 2761,
      "Ser": 2762,
      "gram": 2763,
      "net": 2764,
      "arith": 2765,
      "Ġopt": 2766,
      "Ġconstruct": 2767,
      "itude": 2768,
      "Ġoperation": 2769,
      "ĠÐ·Ð½Ð°ÑĩÐµÐ½Ð¸Ñı": 2770,
      "arithmetic": 2771,
      "];": 2772,
      "due": 2773,
      "ken": 2774,
      "\\\"));\\": 2775,
      "Ð¸Ð»Ñı": 2776,
      "ĠÐ¿Ð¾Ð²": 2777,
      "++)\\": 2778,
      "ĠÑĤÐµÐº": 2779,
      "Ġtoken": 2780,
      "Ð¸Ð½Ð´ÑĢ": 2781,
      "Ġall": 2782,
      "Left": 2783,
      "ÑģÑĤÐ°Ð½Ð¾Ð²": 2784,
      "Ð¾ÑĢÑĤÐ¸ÑĢÐ¾Ð²": 2785,
      "ĠÐ¼Ð¾Ð¶ÐµÑĤ": 2786,
      "ym": 2787,
      "Ġ_": 2788,
      "idx": 2789,
      "area": 2790,
      "Ġconn": 2791,
      "ĠCount": 2792,
      "Ġsubject": 2793,
      "Ġobservers": 2794,
      "Ġclean": 2795,
      "Print": 2796,
      "mid": 2797,
      "dest": 2798,
      "decltype": 2799,
      "ÑĢÐµÐºÑĤ": 2800,
      "Ġscore": 2801,
      "Ġhigh": 2802,
      "Ġ')": 2803,
      "ÑģÐ»Ð¸": 2804,
      "ÑĦÑĦ": 2805,
      "fds": 2806,
      "face": 2807,
      "refix": 2808,
      "Strategy": 2809,
      "ĠArray": 2810,
      "ĠComm": 2811,
      "Age": 2812,
      "dp": 2813,
      "host": 2814,
      "ĠÑĢÑĥ": 2815,
      "initial": 2816,
      "Ġdigits": 2817,
      "rigin": 2818,
      "ĠÐ¿ÑĥÑģÑĤ": 2819,
      "ĠPerson": 2820,
      "ĠÐºÐ¾": 2821,
      "ĠÐ¸Ð¼": 2822,
      "159": 2823,
      "14159": 2824,
      "Ġpoints": 2825,
      "ĠSOCK": 2826,
      "packet": 2827,
      "ĠÑıÐ²Ð»ÑıÐµÑĤÑģÑı": 2828,
      "pth": 2829,
      "\\\"},\\": 2830,
      "enum": 2831,
      "ÑĢÐ¾Ðº": 2832,
      "Ġneighbor": 2833,
      "ÐµÑĢÐ¶": 2834,
      "ĠÐ±ÐµÐ·": 2835,
      "Ð½Ð°ÑĩÐµÐ½Ð¸Ðµ": 2836,
      "ĠÑĦÑĥÐ½Ðº": 2837,
      "Ġ\\\"%\\\"": 2838,
      "*>": 2839,
      "flag": 2840,
      "handle": 2841,
      "ote": 2842,
      "par": 2843,
      "Ġsalary": 2844,
      "ssage": 2845,
      "message": 2846,
      "ĠÑģÐ¿": 2847,
      "Student": 2848,
      "ĠÐŁÑĢÐ¾Ð²ÐµÑĢ": 2849,
      "Ð¸ÑĢÐ¾Ð²Ð°Ð½Ð¸Ñı": 2850,
      "ÑĥÐ´ÐµÐ½ÑĤ": 2851,
      "Grade": 2852,
      "ift": 2853,
      "Â°": 2854,
      "status": 2855,
      "Ġflags": 2856,
      "Ġinte": 2857,
      "Ġafter": 2858,
      "imeter": 2859,
      "istics": 2860,
      "Priority": 2861,
      "Log": 2862,
      "pattern": 2863,
      "visited": 2864,
      "Ð½Ð¾Ð¼": 2865,
      "Ġcustom": 2866,
      "unk": 2867,
      "Ġby": 2868,
      "ĠÑĩÐ°ÑģÑĤ": 2869,
      "ressed": 2870,
      "ÐĶÐ°": 2871,
      "Ġoutput": 2872,
      "Ġitems": 2873,
      "ĠĠĠĠĠĠĠĠĠĠĠĠĠĠĠĠĠĠĠĠĠ": 2874,
      "ĠÑĢÑĥÐ±": 2875,
      "Edge": 2876,
      "Pair": 2877,
      "av": 2878,
      "part": 2879,
      "Ġcalc": 2880,
      "ĠÐ¼Ð¸Ð½": 2881,
      "Ð¾Ð±Ñī": 2882,
      "Concrete": 2883,
      "Ġcompleted": 2884,
      "ÐµÐ²ÐµÑĢ": 2885,
      "ĠCommand": 2886,
      "element": 2887,
      "neighbor": 2888,
      "ĠValue": 2889,
      "search": 2890,
      "Ġfixed": 2891,
      "sian": 2892,
      "tesian": 2893,
      "Ð·Ð¾Ð²": 2894,
      "ĠÐŀÑĪÐ¸Ð±ÐºÐ°": 2895,
      "hash": 2896,
      "Pointer": 2897,
      "distance": 2898,
      "efficients": 2899,
      "cmp": 2900,
      "hold": 2901,
      "Ġ\\\".": 2902,
      "Ġcm": 2903,
      "gex": 2904,
      "Ġsorted": 2905,
      "method": 2906,
      "ĠSmart": 2907,
      "ÐŁÐ¾ÑĤÐ¾Ðº": 2908,
      "plier": 2909,
      "account": 2910,
      "Alice": 2911,
      "ÑĢÐµÐ´Ð½": 2912,
      "ĠÐļÐ¾Ð½": 2913,
      "ĠÐ²ÑĢÐµÐ¼Ñı": 2914,
      "Is": 2915,
      "item": 2916,
      "atistics": 2917,
      "Ġti": 2918,
      "rib": 2919,
      "ĠÑģÐµÐº": 2920,
      "perm": 2921,
      "ĠPlugin": 2922,
      "Ġclone": 2923,
      "Ġprocessor": 2924,
      "':": 2925,
      "OL": 2926,
      "ULL": 2927,
      "Ð½ÐµÑĤ": 2928,
      "Ġcv": 2929,
      "Ġjson": 2930,
      "uple": 2931,
      "Numbers": 2932,
      "ĠĠĠĠĠĠĠĠĠĠĠĠĠĠ": 2933,
      "LOCK": 2934,
      "ĠÑĥÐºÐ°Ð·Ð°ÑĤÐµÐ»": 2935,
      "ĠÐ¿Ð¾Ð·Ð¸": 2936,
      "17": 2937,
      "Salary": 2938,
      "da": 2939,
      "nÐ¡": 2940,
      "stop": 2941,
      "register": 2942,
      "Ġregistry": 2943,
      "Ð»Ð¾Ñī": 2944,
      "ÐµÐ½Ð½ÑĭÐ¹": 2945,
      "Ġcompute": 2946,
      "ertices": 2947,
      "Transaction": 2948,
      "Ð»Ð¾ÑīÐ°Ð´": 2949,
      "Lock": 2950,
      "Open": 2951,
      "with": 2952,
      "Ġ\\\"\\\";\\": 2953,
      "urse": 2954,
      "amil": 2955,
      "Ġmem": 2956,
      "Ð²Ð°Ð´": 2957,
      "irc": 2958,
      "Ð¾ÑĢÑıÐ´": 2959,
      "ĠÐºÐ¾Ð¿": 2960,
      "els": 2961,
      "Ð¸ÑģÐ¾Ðº": 2962,
      "children": 2963,
      "ĠCounter": 2964,
      "Tracker": 2965,
      "alar": 2966,
      "Ġauthor": 2967,
      "ission": 2968,
      "otype": 2969,
      "---": 2970,
      "ĠÑĤÐ¾Ñĩ": 2971,
      "ĠÐ½Ð°Ñĩ": 2972,
      "Ġreversed": 2973,
      "ĠÐ·Ð°Ð²ÐµÑĢÑĪ": 2974,
      "ĠÐŁÑĢÐ¾Ð²ÐµÑĢÑıÐµÐ¼": 2975,
      "]->": 2976,
      "nenum": 2977,
      "com": 2978,
      "()(": 2979,
      "Ġdate": 2980,
      "Ġdraw": 2981,
      "ish": 2982,
      "ĠÐ¿Ð¾Ð»ÑĮÐ·Ð¾Ð²": 2983,
      "Ð°Ð»Ð¸Ð½Ð´ÑĢ": 2984,
      "ĠAl": 2985,
      "ĠÐ¾ÑĤÑĢÐ¸ÑĨÐ°ÑĤÐµÐ»ÑĮ": 2986,
      "Ġadjacency": 2987,
      "Ð¸ÑģÑĤÐµÐ¼": 2988,
      "ĠÐºÐ¾Ð¼Ð¿Ð¸Ð»Ñı": 2989,
      "Ð°Ð»Ð¸Ð½Ð´ÑĢÐ¾Ð¼": 2990,
      "([": 2991,
      "+(": 2992,
      "89": 2993,
      "ml": 2994,
      "visit": 2995,
      "invalid": 2996,
      "Ð¸Ð¸": 2997,
      "Ġip": 2998,
      "Ġdx": 2999,
      "Ġhton": 3000,
      "ĠMult": 3001,
      "ĠÐĺÑģÐ¿Ð¾Ð»ÑĮÐ·Ð¾Ð²Ð°Ð½Ð¸Ðµ": 3002,
      "Ġquantity": 3003,
      "priority": 3004,
      "Ġactive": 3005,
      "Integer": 3006,
      "ĠPriority": 3007,
      "**": 3008,
      "Cannot": 3009,
      "Ð¸Ð»ÑĮ": 3010,
      "alid": 3011,
      "Ġfut": 3012,
      "Ġterm": 3013,
      "rie": 3014,
      "ĠÐ´Ð¸Ð°Ð¿Ð°Ð·": 3015,
      "ĠMy": 3016,
      "ĠValid": 3017,
      "andlers": 3018,
      "forward": 3019,
      "ÐŁÐµÑĢÐ²": 3020,
      "ÐŃÐ»ÐµÐ¼ÐµÐ½ÑĤ": 3021,
      "cache": 3022,
      "last": 3023,
      "Ð¸Ð°Ð½": 3024,
      "ĠĠĠĠĠĠĠĠĠ": 3025,
      "ÐĶÐ»Ð¸Ð½Ð°": 3026,
      "ĠÑĤÐ¸Ð¿Ð°": 3027,
      "price": 3028,
      "ÐµÐ¶Ð´": 3029,
      "traits": 3030,
      "AG": 3031,
      "Cre": 3032,
      "ision": 3033,
      "impl": 3034,
      "rate": 3035,
      "sal": 3036,
      "Ġent": 3037,
      "ĠÑĨÐ¸": 3038,
      "ines": 3039,
      "lem": 3040,
      "Ġmerge": 3041,
      "Ġfield": 3042,
      "Ġcity": 3043,
      "ical": 3044,
      "Ð¼Ð½Ð¾Ð¶": 3045,
      "Ġdecltype": 3046,
      "[]()": 3047,
      "ÐĿÐ°Ð¹Ð´ÐµÐ½": 3048,
      "ĠConnection": 3049,
      "Ġuse": 3050,
      "Ġ[&": 3051,
      "ĠÐ¿Ð¾Ð»ÑĥÑĩ": 3052,
      "ĠÑĤÐ¸Ð¿Ð¾Ð²": 3053,
      "ĠÑģÑĤÑĢÐ¾ÐºÑĥ": 3054,
      "notify": 3055,
      "ÑĭÐ²Ð¾Ð´": 3056,
      "scription": 3057,
      "12345": 3058,
      "Seconds": 3059,
      "Ð¾Ð¿Ð¾Ð»Ð½Ð¸ÑĤÐµÐ»ÑĮ": 3060,
      "19": 3061,
      ">:": 3062,
      "Use": 3063,
      "Vec": 3064,
      "gen": 3065,
      "Ġmatch": 3066,
      "Ġifstream": 3067,
      "ched": 3068,
      "versal": 3069,
      "Ð¼ÐµÑĤ": 3070,
      "apple": 3071,
      "ÑĢÑĥÐ¶": 3072,
      "undo": 3073,
      "Ġsuccessf": 3074,
      "Pos": 3075,
      "ti": 3076,
      "target": 3077,
      "ĠÐ¨": 3078,
      "Ġdo": 3079,
      "Ġbinary": 3080,
      "ilter": 3081,
      "ĠÐ´ÐµÐ»": 3082,
      "ĠAF": 3083,
      "ĠprintArray": 3084,
      "Ġsetprecision": 3085,
      "ĠÐĴÑĭÐ²Ð¾Ð´": 3086,
      "refCount": 3087,
      "Ġshow": 3088,
      "ĠDatabase": 3089,
      "ĠAnimal": 3090,
      "Ð¾ÑıÐ½Ð¸Ðµ": 3091,
      "ĠÐºÐ¾Ð¼Ð¿Ð¸Ð»ÑıÑĨÐ¸Ð¸": 3092,
      "Ġhtons": 3093,
      "Current": 3094,
      "Dep": 3095,
      "Yes": 3096,
      "block": 3097,
      "Ġ\\\"(\\\"": 3098,
      "Ġ\\\"\\\")": 3099,
      "Ð¸Ñħ": 3100,
      "ÑĢÐ°Ð½": 3101,
      "ÑĢÐ¾Ñģ": 3102,
      "ars": 3103,
      "Ġpower": 3104,
      "Ġcan": 3105,
      "ities": 3106,
      "Ð²ÑĢÐ°Ñī": 3107,
      "Ġidx": 3108,
      "ĠEmp": 3109,
      "ĠÐ²ÑĭÐ¿Ð¾Ð»Ð½": 3110,
      "ĠState": 3111,
      "Ġencoded": 3112,
      "Ġ\\\"'\\\"": 3113,
      "Ġblocks": 3114,
      ">());\\": 3115,
      "Origin": 3116,
      "Table": 3117,
      "famil": 3118,
      "Ġreset": 3119,
      "cont": 3120,
      "Ġcoeffs": 3121,
      "ĠÐºÐ°Ðº": 3122,
      "Ð°Ð½Ð¸Ñİ": 3123,
      "imen": 3124,
      "ĠNum": 3125,
      "ÑĢÐ°Ð±Ð¾ÑĤÐºÐ°": 3126,
      "Ð¾ÑĢÐ¸ÑĤÐµÑĤ": 3127,
      "family": 3128,
      "ES": 3129,
      "reinterpret": 3130,
      "Ð½Ð¸Ð³": 3131,
      "Ġvolume": 3132,
      "ÐµÐ½Ð½Ð°Ñı": 3133,
      "ĠCh": 3134,
      "Ġhead": 3135,
      "Ð´Ð¸Ð½": 3136,
      "Ð¾Ð»ÑĮÐº": 3137,
      "tains": 3138,
      "ĠÑĢÐ°Ð·Ð¼ÐµÑĢ": 3139,
      "Price": 3140,
      "servation": 3141,
      "Ġ\\\"/\\\"": 3142,
      "ek": 3143,
      "nstring": 3144,
      "Ġorder": 3145,
      "level": 3146,
      "Ġmtx": 3147,
      "ĠTree": 3148,
      "ĠBox": 3149,
      "ĠMessage": 3150,
      "Ġconnection": 3151,
      "types": 3152,
      "ĠID": 3153,
      "Interest": 3154,
      "quire": 3155,
      "Div": 3156,
      "Var": 3157,
      "oice": 3158,
      "xy": 3159,
      "ÑģÐº": 3160,
      "tex": 3161,
      "Ð¿ÑĢ": 3162,
      "minant": 3163,
      "ĠÐ³Ð¾Ð´": 3164,
      "ĠÐ¢ÐµÑģÑĤ": 3165,
      "ĠÑĤÑĢÐµ": 3166,
      "ĠTransaction": 3167,
      "Holder": 3168,
      "It": 3169,
      "Json": 3170,
      "erence": 3171,
      "pow": 3172,
      "orrow": 3173,
      "Ġfs": 3174,
      "Ġdb": 3175,
      "Ð»Ð¸Ð½": 3176,
      "Ġprefix": 3177,
      "Ġsp": 3178,
      "sizeof": 3179,
      "Record": 3180,
      "Ġinorder": 3181,
      "ifstream": 3182,
      "Substring": 3183,
      "ADD": 3184,
      "ĠBankAccount": 3185,
      "Ð²Ð°Ð´ÑĢÐ°ÑĤ": 3186,
      "dx": 3187,
      "match": 3188,
      "Ð¨": 3189,
      "Ġdq": 3190,
      "Ġsrc": 3191,
      "ĠÐ¿Ð°Ð»Ð¸Ð½Ð´ÑĢÐ¾Ð¼": 3192,
      "ĠÑģÐ¾ÑĢÑĤÐ¸ÑĢÐ¾Ð²": 3193,
      "Reference": 3194,
      "ĠÐ´Ð¾ÑģÑĤÑĥÐ¿": 3195,
      "Ġgre": 3196,
      "uffman": 3197,
      "Ġsettings": 3198,
      "Ġaddress": 3199,
      "ÐľÐ°ÑģÑģÐ¸Ð²": 3200,
      "ĠÑĢÐµÑĪ": 3201,
      "ABC": 3202,
      "Color": 3203,
      "ĠTemperature": 3204,
      "Dist": 3205,
      "aded": 3206,
      "grade": 3207,
      "matrix": 3208,
      "width": 3209,
      "Ġlo": 3210,
      "instance": 3211,
      "ĠÐķ": 3212,
      "Ġred": 3213,
      "arm": 3214,
      "Ġpid": 3215,
      "Ġbit": 3216,
      "Ð²Ð°": 3217,
      "ĠÐ²ÑĤÐ¾ÑĢ": 3218,
      "Ð´ÐµÐ»": 3219,
      "Ð°ÑģÑģÑĤ": 3220,
      "Ð¾Ð¿Ð°Ñģ": 3221,
      "Ð¾ÑĩÐºÐ°": 3222,
      "eady": 3223,
      "Ġreverse": 3224,
      "Ap": 3225,
      "evaluate": 3226,
      "ite": 3227,
      "lib": 3228,
      "nÐŁÑĢ": 3229,
      "patch": 3230,
      "Ġcenter": 3231,
      "verse": 3232,
      "Ġlibrary": 3233,
      "Ġ\\\"\\\\\\\"\\\"": 3234,
      "Ġdec": 3235,
      "Ð´ÐµÐºÑģ": 3236,
      "ĠNULL": 3237,
      "ĠÑĢÐ°Ð´": 3238,
      "ĠAny": 3239,
      "Ġconstructor": 3240,
      "Ð»Ð¾ÑīÐ°Ð´ÑĮ": 3241,
      "dis": 3242,
      "fer": 3243,
      "running": 3244,
      "Ġ.": 3245,
      "Ġsig": 3246,
      "Ġload": 3247,
      "Ġrelease": 3248,
      "Ġavailable": 3249,
      "Cost": 3250,
      "Ð¿ÑĢÐµÐ´ÐµÐ»": 3251,
      "escri": 3252,
      "ultiplier": 3253,
      "Ġlevel": 3254,
      "Empty": 3255,
      "cessed": 3256,
      "fixed": 3257,
      "uck": 3258,
      "Ð«": 3259,
      "Ġlow": 3260,
      "student": 3261,
      "rer": 3262,
      "derer": 3263,
      "ÑĢÐ°Ð½Ð¸": 3264,
      "Ġdfs": 3265,
      "Ġ18": 3266,
      "itor": 3267,
      "ĠÑģÑĩÐµÑĤ": 3268,
      "ĠSer": 3269,
      "ĠSquare": 3270,
      "ecut": 3271,
      "printInfo": 3272,
      "Ġzero": 3273,
      "ABLE": 3274,
      "Ð¸ÑĦÐ¸Ðº": 3275,
      "----------------": 3276,
      "uda": 3277,
      "requency": 3278,
      "ĠBigInt": 3279,
      "Person": 3280,
      "Singleton": 3281,
      "ered": 3282,
      "mul": 3283,
      "utation": 3284,
      "clval": 3285,
      "Ġrunning": 3286,
      "Ġgcd": 3287,
      "Ð°Ð»Ð¸Ð´": 3288,
      "ĠAdd": 3289,
      "Ġofstream": 3290,
      "color": 3291,
      "ĠÑģÑĤÑĢÐ¾ÐºÐ°": 3292,
      "Ð°Ð±Ð»Ð¾Ð½": 3293,
      "ĠEmployee": 3294,
      "ĠNumber": 3295,
      "Ð¾Ð»ÑĮÐºÐ¾": 3296,
      "23": 3297,
      "AP": 3298,
      "Case": 3299,
      "IP": 3300,
      "]]": 3301,
      "nÐĶ": 3302,
      "dec": 3303,
      "uest": 3304,
      "Ġbuild": 3305,
      "getValue": 3306,
      "lication": 3307,
      "Ð°Ð»Ð»": 3308,
      "ÑĥÑİÑī": 3309,
      "Ġinterest": 3310,
      "balance": 3311,
      "Ġ\\\"================": 3312,
      "Ġfactory": 3313,
      "setprecision": 3314,
      "*>(&": 3315,
      "gistered": 3316,
      "ĠÐ¾ÑĪÐ¸Ð±": 3317,
      "Ġmodel": 3318,
      "PE": 3319,
      "graph": 3320,
      "ise": 3321,
      "tv": 3322,
      "reset": 3323,
      "Ġdigit": 3324,
      "isValid": 3325,
      "ĠÐ¿Ð¾ÑĢÑıÐ´": 3326,
      "mage": 3327,
      "ÑĨÐµÐ½": 3328,
      "ĠÐŁÐ¾Ð»": 3329,
      "Ð¡ÑĤÑĢÐ¾Ðº": 3330,
      "ĠÐĹÐ°Ð¿": 3331,
      "eekday": 3332,
      "65": 3333,
      "bal": 3334,
      "ere": 3335,
      "flags": 3336,
      "ten": 3337,
      "âľ": 3338,
      "Ġ^": 3339,
      "Ġsi": 3340,
      "Ġstep": 3341,
      "resize": 3342,
      "ĠÐĽ": 3343,
      "Ġ11": 3344,
      "Ġhost": 3345,
      "Ð°Ð½Ð¾Ð²": 3346,
      "ĠÐ·Ð°Ð´Ð°Ñĩ": 3347,
      "ĠComplexNumber": 3348,
      "ÐĹÐ½Ð°ÑĩÐµÐ½Ð¸Ðµ": 3349,
      "Mo": 3350,
      "gress": 3351,
      "nÐŁÐ¾ÑģÐ»Ðµ": 3352,
      "variable": 3353,
      "Ġlocal": 3354,
      "Ġmust": 3355,
      "Ġfd": 3356,
      "Ġperm": 3357,
      "Ġcategory": 3358,
      "ÑĥÐ±": 3359,
      "ÑĥÑĢÐ°": 3360,
      "iton": 3361,
      "ÐµÑĤÑĢ": 3362,
      "Ġ'-": 3363,
      "Ð·Ñı": 3364,
      "ÐµÐ»ÑĮÐ·Ñı": 3365,
      "Ð¸Ð²Ð°ÐµÐ¼": 3366,
      "STRE": 3367,
      "product": 3368,
      "Leap": 3369,
      "ĠÐ¼Ð°ÑģÑģÐ¸Ð²Ð°": 3370,
      "ÑĥÑģÐºÐ°": 3371,
      "Colleague": 3372,
      "cstdlib": 3373,
      "ĠÑĨÐ¸ÑĦ": 3374,
      "STREAM": 3375,
      "Document": 3376,
      "Ġpop": 3377,
      "Ġboolalpha": 3378,
      "pher": 3379,
      "ĠNon": 3380,
      "Ð¸ÐºÑģ": 3381,
      "Ð°ÑĢÑĤ": 3382,
      "ĠÐ²ÑĭÑĩÐ¸ÑģÐ»": 3383,
      "sorted": 3384,
      "ADDR": 3385,
      "Det": 3386,
      "cat": 3387,
      "hello": 3388,
      "ood": 3389,
      "wner": 3390,
      "ĠÐĵ": 3391,
      "Ġeps": 3392,
      "ĠMe": 3393,
      "ĠAc": 3394,
      "ached": 3395,
      "ified": 3396,
      "ĠEn": 3397,
      "ĠGame": 3398,
      "Ġquery": 3399,
      "tasks": 3400,
      "##": 3401,
      ")\\\");\\": 3402,
      "For": 3403,
      "Over": 3404,
      "link": 3405,
      "stamp": 3406,
      "section": 3407,
      "Ġperson": 3408,
      "Ð°Ð¶": 3409,
      "ates": 3410,
      "lobal": 3411,
      "ĠÐ²ÐµÑĢÑĪ": 3412,
      "tuple": 3413,
      "errno": 3414,
      "cret": 3415,
      "ĠÐĶÐµÐ¼Ð¾Ð½ÑģÑĤÑĢÐ°ÑĨÐ¸Ñı": 3416,
      "ÑıÑĤÑĮ": 3417,
      "ĠÐ´Ð¾Ð»Ð¶Ð½Ð¾": 3418,
      "Ġusers": 3419,
      "ĠColor": 3420,
      "swap": 3421,
      "Digit": 3422,
      "Even": 3423,
      "FS": 3424,
      "bst": 3425,
      "negative": 3426,
      "pi": 3427,
      "Â²": 3428,
      "ĠÑģÑĤÑĢ": 3429,
      "ĠÐ¾Ñģ": 3430,
      "Ġcard": 3431,
      "ular": 3432,
      "ĠSub": 3433,
      "mask": 3434,
      "Ð´Ð²": 3435,
      "peration": 3436,
      "values": 3437,
      "ĠÑĢÐµÐ·ÑĥÐ»ÑĮÑĤÐ°ÑĤ": 3438,
      "Ð¸ÑĨÐ°": 3439,
      "okenType": 3440,
      "Uni": 3441,
      "ĠÐ£Ð´Ð°Ð»": 3442,
      "Ġweights": 3443,
      "Allocator": 3444,
      "ĠÐ´Ð°Ð½Ð½ÑĭÑħ": 3445,
      "Ġdestroyed": 3446,
      "40": 3447,
      "Version": 3448,
      "hren": 3449,
      "ome": 3450,
      "sp": 3451,
      "stat": 3452,
      "Ð°ÑİÑī": 3453,
      "sic": 3454,
      "Ġ16": 3455,
      "threads": 3456,
      "boolalpha": 3457,
      "ĠStack": 3458,
      "ĠOr": 3459,
      "ĠWidget": 3460,
      "Ġmethod": 3461,
      "ĠÐ²ÑģÐµÑħ": 3462,
      "heit": 3463,
      "ĠThreadSafe": 3464,
      "Ġcmd": 3465,
      "hrenheit": 3466,
      "Descri": 3467,
      "Month": 3468,
      "VAL": 3469,
      "Work": 3470,
      "book": 3471,
      "buf": 3472,
      "car": 3473,
      "case": 3474,
      "Ð¯": 3475,
      "det": 3476,
      "Ġvertices": 3477,
      "ÑģÑĤÐ°Ð²": 3478,
      "Ġ---": 3479,
      "Ġlimit": 3480,
      "inder": 3481,
      "Storage": 3482,
      "ĠÐºÐ»Ð°ÑģÑģ": 3483,
      "ĠmaxVal": 3484,
      "ÐµÑģÑĥÑĢÑģ": 3485,
      "},{": 3486,
      "ĠÐ¡ÑģÑĭÐ»": 3487,
      "ĠÑĢÐ°Ð²": 3488,
      "Ġcomponents": 3489,
      "ibonacci": 3490,
      "ĠÐľÐµÑĤÐ¾Ð´": 3491,
      "Ġ\\\\\\\"": 3492,
      "scribe": 3493,
      "ĠÑģÐ¸Ð¼Ð²Ð¾Ð»Ð¾Ð²": 3494,
      "ĠÐ¿ÐµÑĢÐµÐ¼ÐµÑī": 3495,
      "ĠÐ¡Ð¾Ð·Ð´Ð°Ð½Ð¸Ðµ": 3496,
      "ĲâķĲâķĲâķĲâķĲâķĲâķĲâķĲâķ": 3497,
      "ĠÑĤÐµÐºÑģÑĤ": 3498,
      "<<(": 3499,
      "Binary": 3500,
      "ROR": 3501,
      "World": 3502,
      "lt": 3503,
      "nvector": 3504,
      "ĠX": 3505,
      "ĠÐ°ÑĢ": 3506,
      "Ð½ÑĥÑĤ": 3507,
      "Ġreceived": 3508,
      "Ġep": 3509,
      "ĠCalculator": 3510,
      "ĠÐ´Ð¾Ð±Ð°Ð²": 3511,
      "Ð¾ÑĢÑĢÐµÐºÑĤ": 3512,
      "ĠÐ¸ÑģÐ¿Ð¾Ð»ÑĮÐ·Ð¾Ð²": 3513,
      "ofstream": 3514,
      "Ð±Ð¾ÑĢ": 3515,
      "Arr": 3516,
      "ĠÐĶÐ¾Ð¿Ð¾Ð»Ð½Ð¸ÑĤÐµÐ»ÑĮ": 3517,
      "ĠÑĦÑĥÐ½ÐºÑĨÐ¸Ñı": 3518,
      "ĠGraph": 3519,
      "Ð¸ÑĩÐµÑģÐºÐ¸": 3520,
      "Ġdestination": 3521,
      "Ð¸ÑĦÑĢÐ¾Ð²": 3522,
      "Ġscalar": 3523,
      "Ð¸ÑĩÐµÑģÐºÐ¾Ðµ": 3524,
      "Ġroom": 3525,
      "BLOCK": 3526,
      "cnt": 3527,
      "totype": 3528,
      "ĠÐ¾ÑģÑĤ": 3529,
      "Ð¸ÑĥÑģ": 3530,
      "alth": 3531,
      "Ð»ÐµÐ½Ð¸Ñı": 3532,
      "Ġhandlers": 3533,
      "Ġchange": 3534,
      "ivot": 3535,
      "Ġ1024": 3536,
      "ventory": 3537,
      "ĠÑĥÑģÑĤÐ°Ð½Ð¾Ð²": 3538,
      "haredPtr": 3539,
      "ÐķÐĿ": 3540,
      "Ġsides": 3541,
      "TreeNode": 3542,
      "Ġresources": 3543,
      "cntl": 3544,
      "NO": 3545,
      "__": 3546,
      "bind": 3547,
      "sa": 3548,
      "ĠEx": 3549,
      "ÑĤÐ¾Ð¼": 3550,
      "Ġeven": 3551,
      "isor": 3552,
      "ĠCustom": 3553,
      "sets": 3554,
      "ĠMemory": 3555,
      "ĠÐ¿ÑĢÐ¾ÑģÑĤ": 3556,
      "ĠÑĦÐ¾ÑĢÐ¼": 3557,
      "rieNode": 3558,
      "Door": 3559,
      "MIN": 3560,
      "MENT": 3561,
      "RI": 3562,
      "cy": 3563,
      "down": 3564,
      "gate": 3565,
      "Ġcelsius": 3566,
      "utable": 3567,
      "arpa": 3568,
      "anana": 3569,
      "ÑĥÐ»Ñı": 3570,
      "Ġelem": 3571,
      "ÑĩÐ¸Ðº": 3572,
      "ĠÐ²ÐµÑĢ": 3573,
      "ĠÐ´Ð»Ð¸Ð½": 3574,
      "Ġresults": 3575,
      "ĠMath": 3576,
      "--)": 3577,
      "ĠÑĩÐµÑĤ": 3578,
      "ÐµÑģÑģ": 3579,
      "ÑįÑĪ": 3580,
      "ĠStatus": 3581,
      "Ġtimeout": 3582,
      "STNode": 3583,
      "ÑĥÐ½Ð´": 3584,
      "ĠÐĺÑģÐ¿Ð¾Ð»ÑĮÐ·ÑĥÐµÐ¼": 3585,
      "Ġstudents": 3586,
      "Ð²ÐµÑĢÑĤ": 3587,
      "Ġedges": 3588,
      "netinet": 3589,
      "CC": 3590,
      "Custom": 3591,
      "Calculator": 3592,
      "]))": 3593,
      "ace": 3594,
      "box": 3595,
      "ness": 3596,
      "we": 3597,
      "Ġuni": 3598,
      "comm": 3599,
      "Ð½Ñı": 3600,
      "sequence": 3601,
      "Ġpi": 3602,
      "Ġspeed": 3603,
      "getInstance": 3604,
      "licit": 3605,
      "ĠÑģÐ¾Ð²": 3606,
      "Ð°ÑĤÐ°": 3607,
      "Stats": 3608,
      "ÑĢÑĥÑĪ": 3609,
      "Ð¢ÐµÐº": 3610,
      "ĠÐ¾Ð±ÑĢÐ°Ð±Ð¾ÑĤ": 3611,
      "actorial": 3612,
      "ĠÑģÑģÑĭÐ»ÐºÐ°": 3613,
      "ĠINF": 3614,
      "show": 3615,
      "Ġscale": 3616,
      "ming": 3617,
      "osi": 3618,
      "src": 3619,
      "climits": 3620,
      "trans": 3621,
      "ÑĨÐ¸Ð¹": 3622,
      "Ġinv": 3623,
      "ĠgetType": 3624,
      "counter": 3625,
      "ĠĠĠĠĠĠĠĠĠĠĠĠĠĠĠĠĠĠĠĠĠĠĠĠĠĠĠ": 3626,
      "active": 3627,
      "imum": 3628,
      "Idx": 3629,
      "ÐľÐ°ÐºÑģÐ¸Ð¼Ð°Ð»ÑĮ": 3630,
      "ĠÑĢÐµ": 3631,
      "days": 3632,
      "allable": 3633,
      "ĠÐĶÐ¾Ð±Ð°Ð²Ð»ÑıÐµÐ¼": 3634,
      "ÑĥÑģÐºÐ°ÐµÐ¼": 3635,
      "([](": 3636,
      "/(": 3637,
      "First": 3638,
      "Right": 3639,
      "Us": 3640,
      "Widget": 3641,
      "board": 3642,
      "ipher": 3643,
      "used": 3644,
      "clone": 3645,
      "Ġphone": 3646,
      "Ġssize": 3647,
      "Ġsuffix": 3648,
      "Ð°Ð½Ñģ": 3649,
      "Ġ31": 3650,
      "Ġincrement": 3651,
      "Ð¾Ð´Ð¸ÑĦÐ¸Ðº": 3652,
      "\\\");": 3653,
      "Ð¾Ð±ÑĭÑĤ": 3654,
      "ÑĥÐ¼ÐµÐ½ÑĤ": 3655,
      "Ġexpression": 3656,
      "Ġshift": 3657,
      "Ġevents": 3658,
      "Ġposition": 3659,
      "Ð¾Ð½ÑģÑĤÑĢÑĥÐºÑĤÐ¾ÑĢ": 3660,
      "gregate": 3661,
      "ĠÐĴÑĭÑĩÐ¸ÑģÐ»": 3662,
      "ĠÐ²Ð¾Ð·ÑĢÐ°ÑģÑĤ": 3663,
      "layer": 3664,
      "ĠÑģÐ¾Ð¾Ð±Ñī": 3665,
      "AII": 3666,
      "PU": 3667,
      "vg": 3668,
      "ÐµÐ¾Ð±": 3669,
      "Ð°ÐµÑĤÑģÑı": 3670,
      "Ġreq": 3671,
      "arted": 3672,
      "Ġcuda": 3673,
      "Ġsa": 3674,
      "Ġforward": 3675,
      "ÐºÐ¾Ð¹": 3676,
      "Ġwrapper": 3677,
      "Ġrate": 3678,
      "(),\\": 3679,
      "Ġthe": 3680,
      "emon": 3681,
      "acc": 3682,
      "ÐµÐ¹ÑģÑĤÐ²": 3683,
      "nown": 3684,
      "ĠÑģÑģÑĭÐ»ÐºÐ¸": 3685,
      "Ġquick": 3686,
      "Ġserialize": 3687,
      "ĠÑģÐ»Ð¾Ð²": 3688,
      "ĠÐ¿ÑĢÐ¸Ð¾ÑĢÐ¸ÑĤÐµÑĤ": 3689,
      "ĠMultiton": 3690,
      "div": 3691,
      "pose": 3692,
      "wo": 3693,
      "\\\"},": 3694,
      "Ġiss": 3695,
      "Ġfail": 3696,
      "Ġpassword": 3697,
      "Ġoffset": 3698,
      "Ġowner": 3699,
      "ĠÐ¿Ð°ÑĢ": 3700,
      "ĠSort": 3701,
      "...);\\": 3702,
      "1000": 3703,
      "Ġexplicit": 3704,
      "random": 3705,
      ".','": 3706,
      "Gen": 3707,
      "Posit": 3708,
      "Perm": 3709,
      "UE": 3710,
      "US": 3711,
      "gment": 3712,
      "house": 3713,
      "limits": 3714,
      "ping": 3715,
      "Ġcondition": 3716,
      "()>": 3717,
      "ĠÐ§": 3718,
      "Ġmag": 3719,
      "Ġevaluate": 3720,
      "ĠService": 3721,
      "strlen": 3722,
      "ĠÐ±ÑĥÐº": 3723,
      "ĠÐ±Ð¾Ð»ÑĮÑĪ": 3724,
      "ĠÑįÐ»ÐµÐ¼ÐµÐ½ÑĤÑĭ": 3725,
      "encies": 3726,
      "Blocks": 3727,
      "RUCache": 3728,
      "euron": 3729,
      "Ġ---\\\"": 3730,
      "ÐµÐ¾Ð±ÑĢÐ°Ð·": 3731,
      "Tra": 3732,
      "pu": 3733,
      "square": 3734,
      "visitor": 3735,
      "Ġ[]()": 3736,
      "deg": 3737,
      "Ġfront": 3738,
      "Ġ*(": 3739,
      "Ġlarge": 3740,
      "Ġhex": 3741,
      "mplement": 3742,
      "ĠcurrentState": 3743,
      "Ð¾Ð¿ÑĭÑĤ": 3744,
      "Ð¶Ðµ": 3745,
      "Ġallocated": 3746,
      "Ġdiscount": 3747,
      "Ð°ÑĤÑĢÐ¸ÑĨÐ°": 3748,
      "Ð´ÑĢÐµÑģ": 3749,
      "Employee": 3750,
      "Ð§Ð¸ÑģÐ»Ð¾": 3751,
      "Ð¡ÑĤÑĢÐ¾ÐºÐ°": 3752,
      "nitude": 3753,
      "ral": 3754,
      "variant": 3755,
      "};": 3756,
      "ĠÐŃ": 3757,
      "Ġversion": 3758,
      "Ġdoor": 3759,
      "Ð»Ð¾Ðº": 3760,
      "union": 3761,
      "==(": 3762,
      "Ġ#\\\"": 3763,
      "olar": 3764,
      "ÐµÑĢÑĮ": 3765,
      "ĠÐ¿Ð¾ÑģÐ»ÐµÐ´": 3766,
      "ĠÑģÐ¾ÑģÑĤ": 3767,
      "ptrTo": 3768,
      "Ð¾ÑĢÐ´Ð¸Ð½": 3769,
      "arehouse": 3770,
      "Ð¾Ð´ÐµÑĢÐ¶": 3771,
      "ÑĨÐ¸Ñİ": 3772,
      "Ġconver": 3773,
      "irtualBase": 3774,
      "ĠÑĢÐ°Ð·ÑĢÑĥÑĪ": 3775,
      "Ġaccounts": 3776,
      "Subsets": 3777,
      "ÐµÐ¿ÐµÑĢÑĮ": 3778,
      "Ġpercent": 3779,
      "\\\\\\\":": 3780,
      "1234567": 3781,
      "Ð¾ÑĢÐ´Ð¸Ð½Ð°ÑĤ": 3782,
      "EX": 3783,
      "Height": 3784,
      "Light": 3785,
      "OD": 3786,
      "Op": 3787,
      "Par": 3788,
      "Room": 3789,
      "Title": 3790,
      "ggregate": 3791,
      "declval": 3792,
      "att": 3793,
      "argest": 3794,
      "ÑĭÐ¼": 3795,
      "Ð¸Ð¶": 3796,
      "ĠÐ¿ÑĢÐ°Ð²": 3797,
      "ultip": 3798,
      "ĠCON": 3799,
      "ÑĢÐ°Ð¶": 3800,
      "ÐŁÐ»Ð¾ÑīÐ°Ð´ÑĮ": 3801,
      "ÑģÐ¿ÐµÑĪ": 3802,
      "ÑĥÐ¼Ð¼": 3803,
      "ById": 3804,
      "ĠÑģÑĤÑĢÐ¾ÐºÐ¸": 3805,
      "ÑıÐ¼Ð¾": 3806,
      "Ġclear": 3807,
      "Ġprimes": 3808,
      "ĠÑĤÑĢÐµÑĥÐ³Ð¾Ð»ÑĮÐ½Ð¸Ðº": 3809,
      "nÐŁÑĢÐ¸Ð¼ÐµÑĢ": 3810,
      "01": 3811,
      "35": 3812,
      "Double": 3813,
      "From": 3814,
      "Graph": 3815,
      "Negative": 3816,
      "Sh": 3817,
      "ule": 3818,
      "ĠÐ°Ð²": 3819,
      "ÑĢÐ¾": 3820,
      "Ġtri": 3821,
      "Ġpow": 3822,
      "Ġsin": 3823,
      "uld": 3824,
      "Ġdescription": 3825,
      "Recursive": 3826,
      "stration": 3827,
      "\\\")\\": 3828,
      "typeinfo": 3829,
      "ĠRE": 3830,
      "sides": 3831,
      "egral": 3832,
      "output": 3833,
      "lyweight": 3834,
      "operation": 3835,
      "ELD": 3836,
      "Ġnormalize": 3837,
      "FIELD": 3838,
      "Generator": 3839,
      "New": 3840,
      "Radius": 3841,
      "Ut": 3842,
      "offset": 3843,
      "win": 3844,
      "Ð°ÑİÑĤ": 3845,
      "Ð¸ÑģÑĤÑĢ": 3846,
      "ÐµÐ½Ð½Ð¾Ðµ": 3847,
      "Ð¾Ð²Ð°ÑĢ": 3848,
      "ÐµÑĢÐµÐ²": 3849,
      "ĠÐ¿ÑĢÐ¾Ð²ÐµÑĢ": 3850,
      "++;": 3851,
      "ĠÑģÐ¸ÑģÑĤÐµÐ¼": 3852,
      "Ð¸ÑĤÐµÐ»": 3853,
      "ĠBinary": 3854,
      "ÐºÐ°Ñı": 3855,
      "Ð·Ð¼ÐµÐ½": 3856,
      "ocket": 3857,
      "app": 3858,
      "ĠÐ±Ð¸ÑĤ": 3859,
      "ĠLine": 3860,
      "ÐľÐ°ÑĤÑĢÐ¸ÑĨÐ°": 3861,
      "ĠÑģÑĤÑĥÐ´ÐµÐ½ÑĤ": 3862,
      "Ġallocate": 3863,
      "Diff": 3864,
      "Util": 3865,
      "';": 3866,
      "77": 3867,
      "bug": 3868,
      "freq": 3869,
      "nunion": 3870,
      "ould": 3871,
      "Ġdot": 3872,
      "Ġcat": 3873,
      "olute": 3874,
      "Ð²ÐµÑĤ": 3875,
      "ĠTrieNode": 3876,
      "Complex": 3877,
      "Ġgrid": 3878,
      "Ġgroup": 3879,
      "ĠisValid": 3880,
      "INT": 3881,
      "ĠÐ²ÑĭÐ·Ð¾Ð²": 3882,
      "ĠÐĺÐ½": 3883,
      "Component": 3884,
      "Access": 3885,
      "Ġallocator": 3886,
      "ĠĠĠĠĠĠĠĠĠĠĠĠĠĠĠĠĠĠĠĠĠĠ": 3887,
      "Trans": 3888,
      "maining": 3889,
      "Content": 3890,
      "ÐµÐ¶Ð´Ñĥ": 3891,
      "ĠTreeNode": 3892,
      "Bob": 3893,
      "rec": 3894,
      "enable": 3895,
      "entry": 3896,
      "context": 3897,
      "Ġcost": 3898,
      "ĠSet": 3899,
      "ĠÐ½Ð¾Ð²": 3900,
      "Ġdatabase": 3901,
      "Ġ500": 3902,
      "ĠÐ¸Ð»Ð¸": 3903,
      "ÑįÑĦÑĦ": 3904,
      "Ġ80": 3905,
      "egment": 3906,
      "pecification": 3907,
      "Ð¸ÑĨÐ¸ÐµÐ½ÑĤ": 3908,
      "Ð¸Ð¼Ð¾ÑģÑĤÑĮ": 3909,
      "Copyable": 3910,
      "Original": 3911,
      "ĠSerializ": 3912,
      "ĠAccount": 3913,
      "osite": 3914,
      "ÑįÑĦÑĦÐ¸ÑĨÐ¸ÐµÐ½ÑĤ": 3915,
      "CS": 3916,
      "Line": 3917,
      "PEN": 3918,
      "SL": 3919,
      "field": 3920,
      "ru": 3921,
      "send": 3922,
      "var": 3923,
      "Ġ\"": 3924,
      "erg": 3925,
      "device": 3926,
      "Ġrest": 3927,
      "Ġregister": 3928,
      "ÑĤÐµÐ³": 3929,
      "sec": 3930,
      "Ġtable": 3931,
      "Ġaction": 3932,
      "Ġborrow": 3933,
      "Ġ13": 3934,
      "ĠÐ¼ÐµÐ¶Ð´Ñĥ": 3935,
      "101": 3936,
      "Ġses": 3937,
      "Ġengine": 3938,
      "ĠObject": 3939,
      "Ð¸Ð·Ð²ÐµÐ´": 3940,
      "ĠÑįÐ»ÐµÐ¼ÐµÐ½ÑĤÐ°": 3941,
      "Ð¼ÐµÐ½Ð°": 3942,
      "ÑĥÑīÐµÑģÑĤÐ²": 3943,
      "Method": 3944,
      "ĠÐ¸Ð¼Ðµ": 3945,
      "Unique": 3946,
      "ÑĤÐµÐ³ÑĢ": 3947,
      ")>": 3948,
      "At": 3949,
      "HE": 3950,
      "Hel": 3951,
      "]=": 3952,
      "ealth": 3953,
      "mit": 3954,
      "ĠÐ¾Ðº": 3955,
      "Ġ\\\"Â°": 3956,
      "Ġstarted": 3957,
      "Ġaverage": 3958,
      "Ġbits": 3959,
      "Ð¼ÐµÐ½Ð¸": 3960,
      "Ð°Ð»Ð°Ð½Ñģ": 3961,
      "ĠnewNode": 3962,
      "ÐĴÐµÐºÑĤÐ¾ÑĢ": 3963,
      "Ġconvert": 3964,
      "aps": 3965,
      "Ð¡ÑĢÐµÐ´Ð½": 3966,
      "ully": 3967,
      "ĠÐ¿ÑĢÐ¸Ñģ": 3968,
      "uplic": 3969,
      "Ð³Ð¾ÑĢÐ¸ÑĤ": 3970,
      "ĠÐ¾Ð±ÑĢÐ°ÑĤ": 3971,
      "ĠÐ¾ÑĤÐºÑĢ": 3972,
      "Struct": 3973,
      "ÑĭÐ²Ð°ÐµÐ¼": 3974,
      "Ġrecv": 3975,
      "ĠÐ¼Ð°ÑĤÑĢÐ¸ÑĨÑĭ": 3976,
      "ĠÐ¿Ð¾Ð·Ð¸ÑĨÐ¸Ð¸": 3977,
      "Ð°ÑģÑģÑĤÐ¾ÑıÐ½Ð¸Ðµ": 3978,
      "ĠÑĨÐ¸ÑĦÑĢ": 3979,
      "500": 3980,
      "88": 3981,
      "AS": 3982,
      "RT": 3983,
      "hex": 3984,
      "lue": 3985,
      "object": 3986,
      "tter": 3987,
      "ĠHandler": 3988,
      "enderer": 3989,
      "Ð°ÑĪ": 3990,
      "ÑĢÐ¾Ð±": 3991,
      "Ġ},": 3992,
      "async": 3993,
      "ĠĠĠĠĠĠĠĠĠĠĠĠĠĠĠĠĠĠĠĠĠĠĠĠĠĠĠĠĠĠĠĠ": 3994,
      "ĠÐŁÐ¾Ð¸ÑģÐº": 3995,
      "ĠLog": 3996,
      "ĠminVal": 3997,
      "ĠcacheMap": 3998,
      "STRU": 3999,
      "cryption": 4000,
      "ĠÐ¾Ð¿ÑĢÐµÐ´ÐµÐ»": 4001,
      "Ġgrades": 4002,
      "ĠÐ¼Ð¾Ð¶Ð½Ð¾": 4003,
      "ĠÐ·Ð°ÐºÐ°Ð·": 4004,
      "gramming": 4005,
      "ĠÐ¿Ð¾Ð»ÑĮÐ·Ð¾Ð²Ð°ÑĤÐµÐ»": 4006,
      "STRUCT": 4007,
      "-(": 4008,
      "200": 4009,
      "33": 4010,
      "55": 4011,
      ">>(": 4012,
      "Dis": 4013,
      "View": 4014,
      "aa": 4015,
      "ake": 4016,
      "Ġundo": 4017,
      "steady": 4018,
      "\\\"),": 4019,
      "copy": 4020,
      "integral": 4021,
      "ÑģÐµÐ³Ð¾": 4022,
      "container": 4023,
      "Ġtag": 4024,
      "Ġpivot": 4025,
      "Ġlight": 4026,
      "Ġht": 4027,
      "ĠÐºÐ»ÑİÑĩ": 4028,
      "chars": 4029,
      "ÐµÐ·Ð¾Ð¿Ð°Ñģ": 4030,
      "Ġaccess": 4031,
      "Ġ123": 4032,
      "Ġ255": 4033,
      "ĠDemo": 4034,
      "Interface": 4035,
      "ĠÐ¿Ð¾Ð»Ð¾Ð¶Ð¸ÑĤÐµÐ»ÑĮÐ½ÑĭÐ¼": 4036,
      "ĠÑģÐ¾ÑĢÑĤÐ¸ÑĢÐ¾Ð²ÐºÐ¸": 4037,
      "ĠOrder": 4038,
      "(\\": 4039,
      "Span": 4040,
      "network": 4041,
      "vance": 4042,
      "ÐµÑĨ": 4043,
      "depth": 4044,
      "Ġfuture": 4045,
      "Ġsym": 4046,
      "ĠÐ¿Ð°": 4047,
      "ĠÐ¿Ð°Ð¼": 4048,
      "ĠSize": 4049,
      "Ð¿Ð°Ð´": 4050,
      "ĠisPrime": 4051,
      "1024": 4052,
      "Ð¸ÑģÐºÐ°": 4053,
      "acy": 4054,
      "attery": 4055,
      "Ġ90": 4056,
      "encry": 4057,
      "2024": 4058,
      "Entry": 4059,
      "ĠÐłÐ°Ð·": 4060,
      "points": 4061,
      "Primes": 4062,
      "Ġloaded": 4063,
      "ĠÐķÑģÐ»Ð¸": 4064,
      "ÐµÐ¾Ð±ÑĢÐ°Ð·Ð¾Ð²": 4065,
      "circle": 4066,
      "my": 4067,
      "mode": 4068,
      "nT": 4069,
      "Ġobs": 4070,
      "ross": 4071,
      "getId": 4072,
      "Ð²ÐµÐ»": 4073,
      "ĠÑģÐ¾Ð±ÑĭÑĤ": 4074,
      "ĠÑģÑĥÐ¼Ð¼": 4075,
      "ĠTotal": 4076,
      "ĠTriangle": 4077,
      "Common": 4078,
      ">(\\": 4079,
      "andid": 4080,
      "[],": 4081,
      "Ġprocessed": 4082,
      "ÑģÑĤÑĢÑĥÐºÑĤÐ¾ÑĢ": 4083,
      "found": 4084,
      "Ġcompressed": 4085,
      "Ð¾ÑģÑĮ": 4086,
      "Ð°ÐºÑģÐ¸Ð¼ÑĥÐ¼": 4087,
      "Ġobjects": 4088,
      "Days": 4089,
      "ĠÐ¾Ð´Ð¸Ð½": 4090,
      "ĠÐºÐ¾Ð¾ÑĢÐ´Ð¸Ð½Ð°ÑĤ": 4091,
      "Description": 4092,
      "'},\\": 4093,
      "Average": 4094,
      "Card": 4095,
      "LET": 4096,
      "SET": 4097,
      "SON": 4098,
      "equal": 4099,
      "pool": 4100,
      "Ġ);\\": 4101,
      "Ð½ÐµÑĢ": 4102,
      "Ġiter": 4103,
      "Ġrear": 4104,
      "Ġremo": 4105,
      "icro": 4106,
      "oly": 4107,
      "Ġnames": 4108,
      "Ġwarehouse": 4109,
      "Ġcommand": 4110,
      "ĠST": 4111,
      "aren": 4112,
      "ÐĴÑģÐµ": 4113,
      "ĠÑĩÐ»ÐµÐ½": 4114,
      "ĠÑĩÑĤÐ¾": 4115,
      "ÐĿÐŀ": 4116,
      "ĠLRUCache": 4117,
      "ÐĺÐ½": 4118,
      "tocol": 4119,
      "Files": 4120,
      "Ġ99": 4121,
      "Ġanother": 4122,
      "ÐŁÑĢÐ¾": 4123,
      "components": 4124,
      "ĠÐ¸Ð½Ð´ÐµÐºÑģ": 4125,
      "Ġperimeter": 4126,
      "Ġworkers": 4127,
      "ÐµÐ²ÐµÑĢÐ½ÑĭÐ¹": 4128,
      "Ġsuccessfully": 4129,
      "ĠÐ£Ð´Ð°Ð»ÑıÐµÐ¼": 4130,
      "Field": 4131,
      "Iterator": 4132,
      "Ġ\\\"âľ": 4133,
      "Ġfabs": 4134,
      "Ġvar": 4135,
      "uel": 4136,
      "ges": 4137,
      "Ġwait": 4138,
      "Ġlazy": 4139,
      "ÐµÐ½Ð¸ÐµÐ¼": 4140,
      "person": 4141,
      "Ġgetline": 4142,
      "ĠVisitor": 4143,
      "ÐµÑģÐº": 4144,
      "ĠÐĶÐ»Ñı": 4145,
      "ÐĲÐ´ÑĢÐµÑģ": 4146,
      "ĠÐļÐ¾Ð½ÑģÑĤÑĢÑĥÐºÑĤÐ¾ÑĢ": 4147,
      "ATE": 4148,
      "ĠInter": 4149,
      "ĠValidation": 4150,
      "icroseconds": 4151,
      "Button": 4152,
      "CO": 4153,
      "Not": 4154,
      "capacity": 4155,
      "known": 4156,
      "sole": 4157,
      "()\\": 4158,
      "Ð»ÐµÐºÑģ": 4159,
      "Ġpalindrome": 4160,
      "Ġavg": 4161,
      "Ð°Ð±Ð¾ÑĤ": 4162,
      "tric": 4163,
      "change": 4164,
      "Ġ--": 4165,
      "isdigit": 4166,
      "ÐµÑĢÐµÐ´": 4167,
      "ĠÑģÑĥÐ¼Ð¼Ð°": 4168,
      "Ð¼Ð¾Ð¶": 4169,
      "Ġ32": 4170,
      "Ġinit": 4171,
      "ĠgetValue": 4172,
      "ĠPayment": 4173,
      "Ġ45": 4174,
      "Ġoverflow": 4175,
      "ÐµÑģÑı": 4176,
      "Ð¾ÑģÑĤÑĮ": 4177,
      "Ġalign": 4178,
      "Ġmost": 4179,
      "subscribe": 4180,
      "ĠÐ¸Ð·Ð¼ÐµÐ½Ð¸": 4181,
      "ÐµÐ³Ð¸ÑģÑĤÑĢ": 4182,
      "Ġcontrol": 4183,
      "Ð¸ÑĩÐµÑģÐºÐ°Ñı": 4184,
      "ÑĢÐ°Ð²Ð½ÐµÐ½Ð¸Ñı": 4185,
      "rector": 4186,
      "ĠÐ²Ð¾Ð·Ð²ÑĢÐ°Ñī": 4187,
      "ĠÐ¸Ð·Ð¼ÐµÐ½ÐµÐ½Ð¸Ñı": 4188,
      "ĠÑĢÐ°Ð´Ð¸ÑĥÑģ": 4189,
      "Ð¸Ð·Ð²ÐµÐ´ÐµÐ½Ð¸Ðµ": 4190,
      "Helper": 4191,
      "Ð³Ð¾ÑĢÐ¸ÑĤÐ¼": 4192,
      "Mod": 4193,
      "TH": 4194,
      "optional": 4195,
      "onus": 4196,
      "seek": 4197,
      "Ġmet": 4198,
      "Ġmutable": 4199,
      "Ġsk": 4200,
      "Ð²ÐµÑģÑĤ": 4201,
      "Ġ24": 4202,
      "ĠÐ½ÐµÐ»ÑĮÐ·Ñı": 4203,
      "Ġchunk": 4204,
      "Ġinfo": 4205,
      "Ð¸ÑĤÑģÑı": 4206,
      "ĠPrint": 4207,
      "etwe": 4208,
      "ĠDE": 4209,
      "ĠDog": 4210,
      "ĠDocument": 4211,
      "ÑĪÐµ": 4212,
      "ĠÑĥÑģÐ¿ÐµÑĪ": 4213,
      "Names": 4214,
      "listen": 4215,
      "Ġexponent": 4216,
      "Ġshort": 4217,
      "ĠÐ¿Ð¾Ð´ÑģÑĤÑĢÐ¾Ðº": 4218,
      "Ġtransform": 4219,
      "ĠÐ´Ð°Ð½Ð½ÑĭÐµ": 4220,
      "allest": 4221,
      "Ġpages": 4222,
      "Overdue": 4223,
      "lta": 4224,
      "etween": 4225,
      "13": 4226,
      "Equal": 4227,
      "ahrenheit": 4228,
      "bits": 4229,
      "cp": 4230,
      "do": 4231,
      "email": 4232,
      "ms": 4233,
      "title": 4234,
      "was": 4235,
      "Ġ\\\".\\\"": 4236,
      "release": 4237,
      "orter": 4238,
      "Ġrecomm": 4239,
      "Ġbest": 4240,
      "ÐµÐ½Ñĭ": 4241,
      "transaction": 4242,
      "Ġlps": 4243,
      "Ġlcs": 4244,
      "Ð¼ÐµÑģÑĤ": 4245,
      "ĠisOn": 4246,
      "Ð¾ÑĤÐ°": 4247,
      "ÑĢÐ°ÑĦ": 4248,
      "scale": 4249,
      "ĠResourceWrapper": 4250,
      "ÐŀÐ±Ñī": 4251,
      "ĠÑģÐ»ÑĥÑĩ": 4252,
      "Ġdifference": 4253,
      "ĠÐ¿ÑĢÐ¾ÑĨ": 4254,
      "ĠÑģÐµÐºÑĥÐ½Ð´": 4255,
      "winPrimes": 4256,
      "Ġrecommend": 4257,
      "BU": 4258,
      "Range": 4259,
      "bad": 4260,
      "can": 4261,
      "ratio": 4262,
      "Ġ\\\"+": 4263,
      "come": 4264,
      "Ð»Ð¾Ð¶": 4265,
      "ries": 4266,
      "ÐµÐ¼Ð¿ÐµÑĢ": 4267,
      "Ġheader": 4268,
      "Ġrank": 4269,
      "ifier": 4270,
      "Ð¾Ð³ÑĢ": 4271,
      "Ð¾Ð¶Ð´": 4272,
      "ÐľÐ¸Ð½": 4273,
      "Ġstates": 4274,
      "Ð¸ÑģÑĤÐ¸ÐºÐ°": 4275,
      "ÐŀÑĤÑģÐ¾ÑĢÑĤÐ¸ÑĢÐ¾Ð²Ð°Ð½": 4276,
      "Printer": 4277,
      "ĠÐ½Ð°ÑĩÐ°Ð»": 4278,
      "ĠÐ±ÑĥÐºÐ²": 4279,
      "degree": 4280,
      "Ð¾Ð¿ÑĭÑĤÐºÐ°": 4281,
      "ÐµÐ¼Ð¿ÐµÑĢÐ°ÑĤ": 4282,
      "Len": 4283,
      "OW": 4284,
      "VER": 4285,
      "banana": 4286,
      "ored": 4287,
      "regex": 4288,
      "Ġpush": 4289,
      "Ġcannot": 4290,
      "Ġsave": 4291,
      "Ġ19": 4292,
      "ulation": 4293,
      "Ð¾Ð²Ð°Ñı": 4294,
      "isalpha": 4295,
      "ĠCategory": 4296,
      "001": 4297,
      "ĠÐ½Ñĥ": 4298,
      "ĠÐ½ÐµÑĤ": 4299,
      "ĠÐ´ÑĢÑĥÐ³": 4300,
      "ĠDoor": 4301,
      "mod": 4302,
      "mento": 4303,
      "Ð°Ð½Ð¸ÐµÐ¼": 4304,
      "Ð¸Ð²Ð°Ð½Ð¸Ðµ": 4305,
      "ĠLibrary": 4306,
      "acquire": 4307,
      "Ð¢Ð¾ÑĩÐºÐ°": 4308,
      "ĠÐ¾ÑĤÑģÐ¾ÑĢÑĤÐ¸ÑĢÐ¾Ð²Ð°Ð½": 4309,
      "Ġany": 4310,
      "ĠJsonException": 4311,
      "crypt": 4312,
      "Ġdispatch": 4313,
      "ĠÐ½Ð°Ð¹Ð´ÐµÐ½Ð¾": 4314,
      "ĠÑĨÐµÐ»": 4315,
      "Ġapply": 4316,
      "ĠÐ·Ð°Ð¿Ð¸Ñģ": 4317,
      "ĠÐ¿Ð¾Ð²ÑĤÐ¾ÑĢ": 4318,
      "Ð´Ð²Ð¸Ð³": 4319,
      "!\\\";\\": 4320,
      "&>(": 4321,
      "GB": 4322,
      "Hour": 4323,
      "TE": 4324,
      "TY": 4325,
      "istream": 4326,
      "nÐłÐ°Ð·Ð¼ÐµÑĢ": 4327,
      "ope": 4328,
      "Ġâ": 4329,
      "Ġraw": 4330,
      "ertex": 4331,
      "arri": 4332,
      "arning": 4333,
      "Ġflag": 4334,
      "Ġbank": 4335,
      "Ġmask": 4336,
      "cks": 4337,
      "Ġformat": 4338,
      "Ð¼Ñı": 4339,
      "Ġdemon": 4340,
      "Ġhistory": 4341,
      "ĠÐ´ÐµÐ¹ÑģÑĤÐ²": 4342,
      "ĠÐ´ÐµÑĢÐµÐ²": 4343,
      "Ġrun": 4344,
      "Ġ\\\",\\\"": 4345,
      "ĠFixed": 4346,
      "ĠVehicle": 4347,
      "Ð¾ÑģÑĤÐ°ÑĤ": 4348,
      "Child": 4349,
      "ÑĥÐºÑĤ": 4350,
      "ĠaccountNumber": 4351,
      "rectory": 4352,
      "Server": 4353,
      "ĠÑĦÑĥÐ½ÐºÑĨÐ¸Ð¸": 4354,
      "Division": 4355,
      "ĠÐ¸Ð¼ÐµÐµÑĤ": 4356,
      "opecks": 4357,
      "<>": 4358,
      "Mediator": 4359,
      "Password": 4360,
      "Tag": 4361,
      "Vehicle": 4362,
      "increment": 4363,
      "aterm": 4364,
      "Ð½ÐµÐ¹": 4365,
      "Ð¾Ð²Ð°ÑĤÐµÐ»ÑĮ": 4366,
      "++]": 4367,
      "Ġcos": 4368,
      "Ġhour": 4369,
      "Coord": 4370,
      "serter": 4371,
      "Statistics": 4372,
      "ĠÐºÐ¾Ð¼": 4373,
      "Ð¾Ð¿ÑĥÑģÐºÐ°ÐµÐ¼": 4374,
      "adians": 4375,
      "Ġnodes": 4376,
      "...)": 4377,
      "Refs": 4378,
      "Ġ\\\"':": 4379,
      "TION": 4380,
      "Ġ\\\"]\\\"": 4381,
      "ĠÐ´Ð¾Ð»Ð¶ÐµÐ½": 4382,
      "Ġtraversal": 4383,
      "holds": 4384,
      "Distance": 4385,
      "ÑĨÐµÐ½ÐºÐ°": 4386,
      "ĠÐ¡ÑģÑĭÐ»ÐºÐ°": 4387,
      "atermark": 4388,
      ">())": 4389,
      "Non": 4390,
      "Network": 4391,
      "PA": 4392,
      "PO": 4393,
      "by": 4394,
      "bol": 4395,
      "gular": 4396,
      "header": 4397,
      "sync": 4398,
      "ĠK": 4399,
      "ĠÐ°Ð»": 4400,
      "inserter": 4401,
      "Ġren": 4402,
      "Ġreference": 4403,
      "Ġfrequency": 4404,
      "Ġdimen": 4405,
      "ane": 4406,
      "ssert": 4407,
      "Ð¾Ð²Ð¾Ðµ": 4408,
      "ĠText": 4409,
      "address": 4410,
      "ĠAct": 4411,
      "ĠmaxLength": 4412,
      "ĠÑĤÐµÑģÑĤ": 4413,
      "ĠÑĥÐ¶Ðµ": 4414,
      "Ġfiles": 4415,
      "ĠÐ¿ÑĢÐ¾Ð±": 4416,
      "Ð°ÐºÑĤ": 4417,
      "ĠÑĢÐµÑģÑĥÑĢÑģ": 4418,
      "Ġencrypted": 4419,
      "RES": 4420,
      "ĠÐºÐ¾Ð½ÑĤ": 4421,
      "ÐµÐ¶Ð¸Ð¼": 4422,
      "Items": 4423,
      "Processing": 4424,
      "256": 4425,
      "ĠQuantity": 4426,
      ":%": 4427,
      "SIG": 4428,
      "[(": 4429,
      "ia": 4430,
      "uit": 4431,
      "ving": 4432,
      "Ġrot": 4433,
      "inish": 4434,
      "cope": 4435,
      "coefficients": 4436,
      "Ð½Ð¸ÑĨÐ°": 4437,
      "ings": 4438,
      "Ġcart": 4439,
      "Ġbst": 4440,
      "ÑĥÐµÑĤ": 4441,
      "olat": 4442,
      "pass": 4443,
      "Ð²Ð»": 4444,
      "Ġcoefficients": 4445,
      "ĠSystem": 4446,
      "mainder": 4447,
      "Ð°Ð½Ð¾": 4448,
      "Ġrc": 4449,
      "ĠDemon": 4450,
      "Ð¿ÑĢÐ°Ð²": 4451,
      "ĠÐºÑįÑĪ": 4452,
      "Ġ400": 4453,
      "ÐĴÑģÐµÐ³Ð¾": 4454,
      "Ġcharact": 4455,
      "ĠÐŁÐ¾Ð´": 4456,
      "ĠÑĥÐ¼Ð½Ð¾Ð¶": 4457,
      "ĠÐ¿ÑĢÐ¸Ð²": 4458,
      "ĠResult": 4459,
      "Ġsection": 4460,
      "ToString": 4461,
      "Unknown": 4462,
      "TIME": 4463,
      "cstdint": 4464,
      "ializer": 4465,
      "Ġcartesian": 4466,
      "Ġplugins": 4467,
      "Entities": 4468,
      "roller": 4469,
      "Ġsmall": 4470,
      "Ġcleanup": 4471,
      "Ġentity": 4472,
      "ĠÐ¨Ð°Ð±Ð»Ð¾Ð½": 4473,
      "AA": 4474,
      "Longest": 4475,
      "Port": 4476,
      "TP": 4477,
      "dir": 4478,
      "nauto": 4479,
      "vin": 4480,
      "weak": 4481,
      "Ġ::": 4482,
      "ĠKey": 4483,
      "Ġmedi": 4484,
      "Ġdir": 4485,
      "Ġph": 4486,
      "iddle": 4487,
      "uler": 4488,
      "Ġ26": 4489,
      "ĠÑģÐµÑĢ": 4490,
      "Ġcomplex": 4491,
      "Ġrand": 4492,
      "Ġstrlen": 4493,
      "Values": 4494,
      "ĠtoString": 4495,
      "Ġsecret": 4496,
      "Ġ999": 4497,
      "Ġexpected": 4498,
      "ABAB": 4499,
      "ĠResourceHolder": 4500,
      "Ġallocations": 4501,
      "Ð¸ÑĦÐ¼ÐµÑĤ": 4502,
      "ÐĺÑģÑħÐ¾Ð´Ð½Ð°Ñı": 4503,
      "ribution": 4504,
      "Ð¢ÐµÐºÑĥÑī": 4505,
      "Ð¡ÑĢÐµÐ´Ð½ÐµÐµ": 4506,
      "Free": 4507,
      "UM": 4508,
      "observer": 4509,
      "vie": 4510,
      "Ġ\\\"\\": 4511,
      "ÐµÑĨÐ¸": 4512,
      "Ġnon": 4513,
      "Ġcall": 4514,
      "Ġassert": 4515,
      "Ð¾Ð²ÑĭÐµ": 4516,
      "ĠCache": 4517,
      "strcmp": 4518,
      "ĠBit": 4519,
      "Ġgap": 4520,
      "ÐµÐºÐ¾ÑĢÑĢÐµÐºÑĤ": 4521,
      "INF": 4522,
      "ĠprintInfo": 4523,
      "ĠRoom": 4524,
      "toString": 4525,
      "acation": 4526,
      "Prototype": 4527,
      "epoll": 4528,
      "ĠIterator": 4529,
      "ĠÐ¿ÐµÑĢÐµÐ´": 4530,
      "ĠÐ²ÑĭÑĢÐ°Ð¶": 4531,
      "Ð°Ð»ÑĮÐ½ÑĭÐµ": 4532,
      "ĠrefCount": 4533,
      "compare": 4534,
      "eneric": 4535,
      "expected": 4536,
      "FFER": 4537,
      "Ġconnections": 4538,
      "Ġservices": 4539,
      "otes": 4540,
      "ĠÐ´Ð¸Ð°Ð¿Ð°Ð·Ð¾Ð½Ð°": 4541,
      "control": 4542,
      "ÑĢÐ°Ð½Ð¸ÑĨ": 4543,
      "Ġ'-')": 4544,
      "cases": 4545,
      "123456789": 4546,
      ")->": 4547,
      "ESS": 4548,
      "lie": 4549,
      "ts": 4550,
      "ret": 4551,
      "ĠÐ¦": 4552,
      "Ġiterator": 4553,
      "ÑĤÐµ": 4554,
      "Ġderived": 4555,
      "Ġboard": 4556,
      "ÑĭÑĩ": 4557,
      "ÐµÐ½Ð½ÑĭÐµ": 4558,
      "ĠÐºÐ½Ð¸Ð³": 4559,
      "Types": 4560,
      "Ð¡Ð¢": 4561,
      "ĠList": 4562,
      "ĠLazy": 4563,
      "Ð¾Ð¿Ð¸ÑĢÐ¾Ð²Ð°Ð½": 4564,
      "Ð¾Ð³ÑĢÐ°Ð¼": 4565,
      "structor": 4566,
      "Ð¸ÐºÐ»": 4567,
      "Ġprocessing": 4568,
      "Ð»Ð¸ÐµÐ½ÑĤ": 4569,
      "Ġusername": 4570,
      "Engine": 4571,
      "ÑĤÐ°ÑĤÐ¸ÑģÑĤÐ¸ÐºÐ°": 4572,
      "Ġ\\\"[\\\"": 4573,
      "Ġletter": 4574,
      "Ġpointer": 4575,
      "rams": 4576,
      "Ð¸ÑĩÐµÑģÐºÐ¸Ð¹": 4577,
      "Checker": 4578,
      "connected": 4579,
      "Ð§Ð¸ÑģÐ»Ð°": 4580,
      "ĠÐ¾Ð¿ÐµÑĢÐ°ÑĤÐ¾ÑĢ": 4581,
      "Ð¸ÑģÐ¾ÐºÐ¾Ñģ": 4582,
      "ĠÐ¿Ð°ÑĢÐ°Ð¼": 4583,
      "37": 4584,
      "CLA": 4585,
      "Era": 4586,
      "FIN": 4587,
      "Pin": 4588,
      "PRO": 4589,
      "UR": 4590,
      "calculate": 4591,
      "microseconds": 4592,
      "nel": 4593,
      "cos": 4594,
      "Ġstream": 4595,
      "Ð¾Ð¸Ð¼Ð¾ÑģÑĤÑĮ": 4596,
      "Ð¸Ð½Ñĭ": 4597,
      "Ġtail": 4598,
      "Ð»Ð¸Ñĩ": 4599,
      "Ġcur": 4600,
      "ueDate": 4601,
      "Ġbox": 4602,
      "ismatch": 4603,
      "ĠÑģÐ°Ð¼": 4604,
      "Ġlines": 4605,
      "ĠTokenType": 4606,
      "Ġ300": 4607,
      "ason": 4608,
      "Ġratio": 4609,
      "ĠÐ±Ñĭ": 4610,
      "Example": 4611,
      "imized": 4612,
      "Ð¸Ð²Ð½ÑĭÐ¹": 4613,
      "ants": 4614,
      "ĠÐ²ÑĭÑģ": 4615,
      "ĠÐĴÐ¾Ð·": 4616,
      "Ġmoved": 4617,
      "Ġcreator": 4618,
      "&)>": 4619,
      "CKET": 4620,
      "ĠDateTime": 4621,
      "Tasks": 4622,
      "Ġproducts": 4623,
      "ĠÑģÐ»Ð¾Ð¶": 4624,
      "udget": 4625,
      "ĠÐ²ÑĢÐµÐ¼ÐµÐ½Ð¸": 4626,
      "quired": 4627,
      "ĠÑĥÐ´Ð°Ð»ÐµÐ½Ð¸Ñı": 4628,
      "vertices": 4629,
      "Actor": 4630,
      "MyClass": 4631,
      "ĠÐ¿Ð¾ÑĢÑıÐ´ÐºÐµ": 4632,
      "ĠÑĥÑģÑĤÐ°Ð½Ð¾Ð²Ð»ÐµÐ½": 4633,
      "ÑĤÐ¾Ð¼Ð°ÑĤ": 4634,
      "ĠÑģÐ¾Ð²Ð¿Ð°Ð´": 4635,
      "ĠÐ¿ÑĢÐ¾Ð²ÐµÑĢÐºÐ¸": 4636,
      "Erased": 4637,
      "City": 4638,
      "DP": 4639,
      "LD": 4640,
      "Power": 4641,
      "Suffix": 4642,
      "even": 4643,
      "fix": 4644,
      "fill": 4645,
      "over": 4646,
      "window": 4647,
      "ens": 4648,
      "ÐµÑĦ": 4649,
      "Ġmutex": 4650,
      "Ġnegative": 4651,
      "Ġoptional": 4652,
      "Ð²Ð°Ð½": 4653,
      "velo": 4654,
      "Remove": 4655,
      "ĠPRO": 4656,
      "ÑĦÐµÑĢ": 4657,
      "ĠmaxSize": 4658,
      "Ġcomponent": 4659,
      "ĠprocessBy": 4660,
      "ĠÐ¾Ð±Ð¼ÐµÐ½Ð°": 4661,
      "ĠÐ²ÑĭÐ±Ð¾ÑĢ": 4662,
      "Ġenum": 4663,
      "ĠÐŀÑĤ": 4664,
      "ĠÐĺÐ·Ð¼ÐµÐ½": 4665,
      "Completed": 4666,
      "Ġatt": 4667,
      "Points": 4668,
      "distribution": 4669,
      "Ġconnected": 4670,
      "cheduler": 4671,
      "ecuting": 4672,
      "tended": 4673,
      "ĠNonCopyable": 4674,
      "265": 4675,
      "ACT": 4676,
      "CV": 4677,
      "CON": 4678,
      "Loc": 4679,
      "NT": 4680,
      "Part": 4681,
      "Variable": 4682,
      "cal": 4683,
      "fect": 4684,
      "ĠY": 4685,
      "lection": 4686,
      "Ġmediator": 4687,
      "Ġfl": 4688,
      "Ġfill": 4689,
      "Ġcb": 4690,
      "ĠSharedPtr": 4691,
      "Ġlay": 4692,
      "Ġ36": 4693,
      "Ġ'.": 4694,
      "Ġglobal": 4695,
      "ÑģÐ»Ð¾Ð²": 4696,
      "tern": 4697,
      "Ð¡Ðº": 4698,
      "ĠÐ·Ð½": 4699,
      "minutes": 4700,
      "Expected": 4701,
      "Computations": 4702,
      "Throw": 4703,
      "rected": 4704,
      "Ġmiddle": 4705,
      "ÐŀÐ±ÑĬ": 4706,
      "Ġmean": 4707,
      "ansitions": 4708,
      "inputs": 4709,
      "14159265": 4710,
      "implExample": 4711,
      "ÐĿÐ°Ð¹Ð´ÐµÐ½Ð¾": 4712,
      "Depend": 4713,
      "ÑıÐ¼Ð¾ÑĥÐ³Ð¾Ð»ÑĮÐ½Ð¸Ðº": 4714,
      "Ġskip": 4715,
      ")(": 4716,
      ")\\\";\\": 4717,
      ".\\\\": 4718,
      "CRC": 4719,
      "ECT": 4720,
      "Found": 4721,
      "Up": 4722,
      "af": 4723,
      "dy": 4724,
      "gcount": 4725,
      "hours": 4726,
      "Ġsign": 4727,
      "ĠÐµÐ´Ð¸Ð½": 4728,
      "uter": 4729,
      "ĠÐ¶": 4730,
      "Ġtm": 4731,
      "Ġtimer": 4732,
      "ubble": 4733,
      "ÐºÐ¾Ð´": 4734,
      "ison": 4735,
      "Ð²Ð¾Ð±": 4736,
      "Ġdepth": 4737,
      "Ġinet": 4738,
      "Ġ5000": 4739,
      "ready": 4740,
      "ÐĴÑĤÐ¾ÑĢ": 4741,
      "Ġprod": 4742,
      "fore": 4743,
      "ĠÐ²ÑĭÐ²Ð¾Ð´": 4744,
      "rawing": 4745,
      "Ġmessages": 4746,
      "tical": 4747,
      "ĠÑģÐºÐ¸Ð´": 4748,
      "Ð¤Ð°Ð¹Ð»": 4749,
      "criminant": 4750,
      "ĠÐ´Ð¸Ð°Ð¿Ð°Ð·Ð¾Ð½": 4751,
      "Ġ\\\"================================": 4752,
      "ĠÐ²ÑĭÑĩÐ¸ÑģÐ»ÐµÐ½Ð¸Ñı": 4753,
      "ĠÑĥÑģÐ¿ÐµÑĪÐ½Ð¾": 4754,
      "ÐŀÑĤÑģÐ¾ÑĢÑĤÐ¸ÑĢÐ¾Ð²Ð°Ð½Ð½ÑĭÐ¹": 4755,
      "Category": 4756,
      "Rating": 4757,
      "SO": 4758,
      "Triangle": 4759,
      "sl": 4760,
      "safe": 4761,
      "reference": 4762,
      "()),": 4763,
      "atures": 4764,
      "led": 4765,
      "ÑĤÐµÐ½Ð¸Ðµ": 4766,
      "arison": 4767,
      "adj": 4768,
      "Ġ22": 4769,
      "ĠÑģÑĥÑīÐµÑģÑĤÐ²": 4770,
      "arry": 4771,
      "ĠinUse": 4772,
      "ĠgetInstance": 4773,
      "Stream": 4774,
      "addEdge": 4775,
      "ÐŁÐ¾Ð´": 4776,
      "Ġtransition": 4777,
      "place": 4778,
      "ĠÑĤÐ¾Ð²Ð°ÑĢ": 4779,
      "Context": 4780,
      "ÐłÐĲ": 4781,
      "ĠÐ¡Ð¿": 4782,
      "Ġcolleague": 4783,
      "Ġheights": 4784,
      "ĠÐŁÑĢÐ¾Ð¿ÑĥÑģÐºÐ°ÐµÐ¼": 4785,
      "ĠÐ¿Ð¾Ð¸ÑģÐºÐ°": 4786,
      "ĠÑģÑĤÐ°ÑĤ": 4787,
      "apab": 4788,
      "ARD": 4789,
      "grees": 4790,
      "Ġactor": 4791,
      "Settings": 4792,
      "diff": 4793,
      "Ġdivisor": 4794,
      "otel": 4795,
      "ĠÐºÐ¾Ð¿Ð¸ÑĢÐ¾Ð²Ð°Ð½Ð¸Ñı": 4796,
      "Ġsymbol": 4797,
      "encrypted": 4798,
      "!=(": 4799,
      "Final": 4800,
      "Socket": 4801,
      "author": 4802,
      "bot": 4803,
      "bda": 4804,
      "hn": 4805,
      "oi": 4806,
      "oot": 4807,
      "{}": 4808,
      "inf": 4809,
      "cores": 4810,
      "Ġ{}": 4811,
      "ÐµÑģÐ»Ð¸": 4812,
      "ambda": 4813,
      "Ġview": 4814,
      "Ġdog": 4815,
      "track": 4816,
      "iter": 4817,
      "Ġwri": 4818,
      "Ġdecrypted": 4819,
      "ĠÐ½ÑĥÐ»": 4820,
      "Ġ'+": 4821,
      "ĠBlock": 4822,
      "()))": 4823,
      "ĠÐºÐ¾Ð´": 4824,
      "ĠÐºÐ²Ð°Ð´ÑĢÐ°ÑĤ": 4825,
      "));": 4826,
      ">>>": 4827,
      "Ġtoday": 4828,
      "ĠFD": 4829,
      "ÐĿÐ°": 4830,
      "ĠCoffee": 4831,
      "Ġtests": 4832,
      "ĠJSON": 4833,
      "Ġreading": 4834,
      "Ġfactories": 4835,
      "ĠINADDR": 4836,
      "Ġclients": 4837,
      "&&...": 4838,
      "Ġargument": 4839,
      "ANY": 4840,
      "Ð¸Ð½Ð°Ð»ÑĮ": 4841,
      "Books": 4842,
      "Temperature": 4843,
      "Ġinitialized": 4844,
      "ĠÐĳÐ°Ð·": 4845,
      "Active": 4846,
      "ÐŁÐµÑĢÐ²ÑĭÐ¹": 4847,
      "ĠCheck": 4848,
      "Ġiterations": 4849,
      "TYPE": 4850,
      "*,": 4851,
      "</": 4852,
      "Duplic": 4853,
      "IC": 4854,
      "Success": 4855,
      "_(": 4856,
      "ees": 4857,
      "ias": 4858,
      "lab": 4859,
      "nion": 4860,
      "utdown": 4861,
      "getType": 4862,
      "ĠCl": 4863,
      "Ġdesc": 4864,
      "ĠDouble": 4865,
      "Ġ!(*": 4866,
      "owner": 4867,
      "ĠAp": 4868,
      "ĠÐŁÐ¾Ð¿ÑĭÑĤÐºÐ°": 4869,
      "apply": 4870,
      "reshold": 4871,
      "elsius": 4872,
      "ĠVirtualBase": 4873,
      "ÐłÐŀ": 4874,
      "Ð³Ð¾Ð»": 4875,
      "cmd": 4876,
      "Ð°Ð»ÑĮÐ½ÑĭÐ¹": 4877,
      "ERROR": 4878,
      "sockopt": 4879,
      "Ġdict": 4880,
      "Ġ\\\")\\\";\\": 4881,
      "ĠProcess": 4882,
      "loyees": 4883,
      "izer": 4884,
      "udio": 4885,
      "aternion": 4886,
      "laying": 4887,
      "ĠÐŀÐ±ÑĢÐ°Ð±Ð¾ÑĤÐºÐ°": 4888,
      "Ð¸Ð¼Ð¾ÑģÑĤÐ¸": 4889,
      "ĠÑĢÐ°Ð±Ð¾ÑĤÑĭ": 4890,
      "ĠTransactionType": 4891,
      "uffmanNode": 4892,
      "Ð°Ð¶Ð´": 4893,
      "ultiplication": 4894,
      "Ġmeters": 4895,
      "ÐµÐ¼Ð¿ÐµÑĢÐ°ÑĤÑĥÑĢÐ°": 4896,
      "Ð¾ÑģÑĤÐ°ÑĤÐ¾Ñĩ": 4897,
      "1415926535": 4898,
      "SQ": 4899,
      "Score": 4900,
      "ilog": 4901,
      "och": 4902,
      "oole": 4903,
      "ĠÐ°Ð´": 4904,
      "ĠÐ¾Ñĩ": 4905,
      "reverse": 4906,
      "ÑģÐ¸Ñı": 4907,
      "Ġvehicle": 4908,
      "Ġbound": 4909,
      "Ð¾Ð»ÐµÐµ": 4910,
      "ĠgetId": 4911,
      "ÐŁÑĢÐ¾Ð²ÐµÑĢÐºÐ°": 4912,
      "Ð¸Ð¼ÐµÐ½": 4913,
      "quantity": 4914,
      "ecution": 4915,
      "Ð¾Ð¼ÐµÑĢ": 4916,
      "ĠÑĥÐ¼": 4917,
      "ĠLight": 4918,
      "ÐľÐµÑĤÐ¾Ð´": 4919,
      "itional": 4920,
      "END": 4921,
      "ĠÐłÐ°Ð±Ð¾ÑĤ": 4922,
      "Ġparam": 4923,
      "ĠÐ¿ÐµÑĢÐ²Ð¾Ð³Ð¾": 4924,
      "requent": 4925,
      "ĠÐ´Ð²Ð°": 4926,
      "Ġusage": 4927,
      "Reader": 4928,
      "ĠÑĢÐ°Ð±Ð¾ÑĤÑĥ": 4929,
      "Ġcustomer": 4930,
      "ĠÐļÐ¾Ð½ÑģÑĤÐ°Ð½ÑĤ": 4931,
      "([&": 4932,
      "ĠÐŁÐ¾Ð»ÑĥÑĩ": 4933,
      "veloper": 4934,
      "oolean": 4935,
      ")[": 4936,
      "Clo": 4937,
      "Email": 4938,
      "Group": 4939,
      "Page": 4940,
      "Simple": 4941,
      "bserv": 4942,
      "custom": 4943,
      "limit": 4944,
      "mary": 4945,
      "nÐļ": 4946,
      "xFF": 4947,
      "stBuilder": 4948,
      "init": 4949,
      "ensive": 4950,
      "ÑĤÑĮ": 4951,
      "alf": 4952,
      "aly": 4953,
      "ÑģÐºÐ»ÑİÑĩ": 4954,
      "Ġfa": 4955,
      "Ð»Ð¸Ð·": 4956,
      "Ġprivate": 4957,
      "Ġcast": 4958,
      "icy": 4959,
      "Ġsent": 4960,
      "Ġodd": 4961,
      "risk": 4962,
      "olve": 4963,
      "ĠÑģÐ¾Ð´ÐµÑĢÐ¶": 4964,
      "ĠTimer": 4965,
      "Coffee": 4966,
      "pter": 4967,
      "ĠBU": 4968,
      "Ġstrcpy": 4969,
      "ÑĪÐ¸Ð¹": 4970,
      "ctionary": 4971,
      "ĠAstBuilder": 4972,
      "ĠÐ¼Ð°ÐºÑģÐ¸Ð¼Ð°Ð»ÑĮ": 4973,
      "ecret": 4974,
      "Ġexample": 4975,
      "Ð¾Ð¶Ð´ÐµÐ½": 4976,
      "ÐĺÐķ": 4977,
      "ÐĺÐ¼Ñı": 4978,
      "ÐĺÐ²Ð°Ð½": 4979,
      "ĠÐ¡ÑĤ": 4980,
      "Ð°Ð²Ð»": 4981,
      "ĠObserver": 4982,
      "ÑģÑĤÐ°Ð½Ð°Ð²Ð»": 4983,
      "venue": 4984,
      "Ġparser": 4985,
      "ĠÐ¸Ð½ÑĤÐµÐ³ÑĢ": 4986,
      "Ġ'\\\\\\\"": 4987,
      "Validator": 4988,
      "ANS": 4989,
      "Ð¸Ð½Ð°ÑĢ": 4990,
      "ĠÑĦÐ°Ð¹Ð»Ð°": 4991,
      "ĠÑģÐ¾Ð·Ð´Ð°Ð½Ð°": 4992,
      "ĠBigInteger": 4993,
      "LAY": 4994,
      "ĠÐĶÐ¾Ð±Ð°Ð²Ð»ÐµÐ½Ð¸Ðµ": 4995,
      "Ġcleaned": 4996,
      "ĠEncryption": 4997,
      "ĠSubject": 4998,
      "ĠÑĦÐ¾ÑĢÐ¼Ð°ÑĤ": 4999,
      "ĠÐ´ÐµÐ¹ÑģÑĤÐ²Ð¸ÑĤÐµÐ»ÑĮ": 5000,
      "bservable": 5001,
      "':\\": 5002,
      "Lo": 5003,
      "Zero": 5004,
      "ncpy": 5005,
      "vi": 5006,
      "\\\"),\\": 5007,
      "config": 5008,
      "ÐºÐ¾Ð¼": 5009,
      "Ġweak": 5010,
      "ĠCre": 5011,
      "Ġdelta": 5012,
      "Ð°Ð½Ð½ÑĭÐ¹": 5013,
      "ĠÐ´ÐµÐ¼Ð¾Ð½ÑģÑĤÑĢ": 5014,
      "Course": 5015,
      "Ġ'{": 5016,
      "ÐµÐ´ÑĥÑİÑī": 5017,
      "ÑĢÐ°Ð´": 5018,
      "Ġcontains": 5019,
      ")))": 5020,
      "ĠÐ·Ð°": 5021,
      "Connect": 5022,
      "ÐĿÐµÐ²ÐµÑĢÐ½ÑĭÐ¹": 5023,
      "ĠÐ¿ÑĢÐµÐ¾Ð±ÑĢÐ°Ð·Ð¾Ð²": 5024,
      "ÑĢÑĥÐ·": 5025,
      "Ð³ÑĥÐ¼ÐµÐ½ÑĤ": 5026,
      "fail": 5027,
      "ÑĢÐµÐ¼Ñı": 5028,
      "Ġbooks": 5029,
      "ÐŀÐ±ÑĢÐ°Ð±Ð¾ÑĤÐºÐ°": 5030,
      "Ġbegin": 5031,
      "Ġnotify": 5032,
      "Ġrectangle": 5033,
      "ĠÐºÐ¾ÑįÑĦÑĦÐ¸ÑĨÐ¸ÐµÐ½ÑĤ": 5034,
      "Ġmemset": 5035,
      "ĠÑģÑĩÐµÑĤÑĩÐ¸Ðº": 5036,
      "ĠÐ·Ð°Ð´Ð°ÑĩÐ¸": 5037,
      "Using": 5038,
      "ĠÑģÐ¾Ð¾Ð±ÑīÐµÐ½Ð¸Ðµ": 5039,
      "ternative": 5040,
      "199": 5041,
      "CAL": 5042,
      "Callable": 5043,
      "Failed": 5044,
      "OP": 5045,
      "ODE": 5046,
      "TTP": 5047,
      "erent": 5048,
      "fl": 5049,
      "mark": 5050,
      "uce": 5051,
      "view": 5052,
      "Ġ\\\"{": 5053,
      "complex": 5054,
      "recursive": 5055,
      "enqueue": 5056,
      "ÑĢÐµÑģ": 5057,
      "ÑĢÑĭÑĤ": 5058,
      "Ġmultiplier": 5059,
      "Ġneuron": 5060,
      "Ġca": 5061,
      "Ġbind": 5062,
      "Ġbuf": 5063,
      "ÐµÐ½ÐµÑĢ": 5064,
      "ÑĩÐ°Ð½Ð¸Ñİ": 5065,
      "ĠÐ¿ÑĥÑĤ": 5066,
      "example": 5067,
      "ĠCRC": 5068,
      "Ġcommon": 5069,
      "Ġcoffee": 5070,
      "Ð°Ð½ÑĤ": 5071,
      "Ð¾Ð»ÑĩÐ°Ð½Ð¸Ñİ": 5072,
      "setState": 5073,
      "Ġxor": 5074,
      "Ð¾ÑĢÐ¾": 5075,
      "Ġ',": 5076,
      "oman": 5077,
      "elf": 5078,
      "ĠmaxCount": 5079,
      "ÑģÑĤÑĢÐ¾": 5080,
      "ĠÐ¾Ð±ÑħÐ¾Ð´": 5081,
      "ĠStatistics": 5082,
      "ĠcacheList": 5083,
      "ĠWeekday": 5084,
      "Ġquot": 5085,
      "({\\\"": 5086,
      "ÑĥÐ¿ÑĢ": 5087,
      "ARY": 5088,
      "ANG": 5089,
      "MPLE": 5090,
      "ÑıÐ¼Ð±": 5091,
      "ĠÐ²ÐµÐºÑĤÐ¾ÑĢÐ°": 5092,
      "ĠĠĠĠĠĠĠĠĠĠĠĠĠĠĠĠĠĠĠĠĠĠĠĠĠĠ": 5093,
      "Model": 5094,
      "parse": 5095,
      "ĠPluginManager": 5096,
      "Ð¿ÑĢÐµÐ´ÐµÐ»ÐµÐ½Ð¸Ðµ": 5097,
      ".','.','": 5098,
      "Ð¾ÑģÑĤÐ°ÑĤÐ¾ÑĩÐ½Ð¾": 5099,
      "ĠÑĥÐ¼Ð¾Ð»ÑĩÐ°Ð½Ð¸Ñİ": 5100,
      "31": 5101,
      "ASE": 5102,
      "Dynamic": 5103,
      "GIN": 5104,
      "Handle": 5105,
      "Image": 5106,
      "LI": 5107,
      "Operation": 5108,
      "multiply": 5109,
      "normal": 5110,
      "rd": 5111,
      "sm": 5112,
      "ÐĻ": 5113,
      "reet": 5114,
      "()]": 5115,
      "alternative": 5116,
      "oned": 5117,
      "conn": 5118,
      "Ġtv": 5119,
      "Ġtriangle": 5120,
      "Ð»Ð¸Ðº": 5121,
      "Ġare": 5122,
      "Ġbutton": 5123,
      "Ġ180": 5124,
      "ÐµÐ½Ð´": 5125,
      "tell": 5126,
      "itions": 5127,
      "\\\\\\\\": 5128,
      "Ġcomm": 5129,
      "Ġcourse": 5130,
      "ĠÐ²Ð°Ð»Ð¸Ð´": 5131,
      "ÑĢÐ°Ðº": 5132,
      "reading": 5133,
      "Ġprom": 5134,
      "ĠÑĤÐ¾Ð»ÑĮÐºÐ¾": 5135,
      "Ð°ÑģÑĪ": 5136,
      "ĠRAII": 5137,
      "ĠNot": 5138,
      "access": 5139,
      "rency": 5140,
      "timeout": 5141,
      "Change": 5142,
      "Ð¢ÐµÑģÑĤ": 5143,
      "displayInfo": 5144,
      "ÐµÐ²Ð¾Ð¹": 5145,
      "ĠÐĿÐµ": 5146,
      "compressed": 5147,
      "formance": 5148,
      "ĠÐ´Ð¾Ð»Ð¶Ð½Ð°": 5149,
      "Checked": 5150,
      "Ġpartition": 5151,
      "ÐºÐ»ÑİÑĩÐµÐ½": 5152,
      "ĠSmartPointer": 5153,
      "content": 5154,
      "ĠÐ²ÐµÑĢÑĪÐ¸Ð½": 5155,
      "Ġforwarding": 5156,
      "mplementation": 5157,
      "ptrToPtr": 5158,
      "Ġmedian": 5159,
      "84": 5160,
      "BE": 5161,
      "CP": 5162,
      "II": 5163,
      "Pol": 5164,
      "acle": 5165,
      "ĠÐµÑģÐ»Ð¸": 5166,
      "ÑĢÐ¸": 5167,
      "Ġmismatch": 5168,
      "sil": 5169,
      "Ġpayment": 5170,
      "Ġcy": 5171,
      "Ġcross": 5172,
      "Ġcarry": 5173,
      "entity": 5174,
      "pable": 5175,
      "ĠSSL": 5176,
      "strcpy": 5177,
      "Ġchain": 5178,
      "Ġchoice": 5179,
      "ĠPair": 5180,
      "eta": 5181,
      "Ġgood": 5182,
      "opping": 5183,
      "addable": 5184,
      "Ð·Ð²Ð»": 5185,
      "terminant": 5186,
      "esar": 5187,
      "Ġadvance": 5188,
      "ell": 5189,
      "ĠÐ¿ÑĢÐ¸Ð¼ÐµÑĢ": 5190,
      "Ð¾Ð¿ÑĢÐµÐ´ÐµÐ»": 5191,
      "ÐłÐķ": 5192,
      "ÐłÐ°ÑģÑģÑĤÐ¾ÑıÐ½Ð¸Ðµ": 5193,
      "ĠÐ¡ÑĢÐ°Ð²Ð½ÐµÐ½Ð¸Ðµ": 5194,
      "ĠRequest": 5195,
      "memset": 5196,
      "prev": 5197,
      "ĠfindMax": 5198,
      "Ð¾ÑģÐ¾Ð±": 5199,
      "ÑıÑĤÐ¸": 5200,
      "ĠÑĤÑĢÐ¸": 5201,
      "Another": 5202,
      "Addr": 5203,
      "Ġ\\\"*\\\"": 5204,
      "bitset": 5205,
      "Enter": 5206,
      "ĠÑĥÐºÐ°Ð·Ð°ÑĤÐµÐ»Ñı": 5207,
      "ircuit": 5208,
      "itespace": 5209,
      "Ġpermutations": 5210,
      "divide": 5211,
      "Discount": 5212,
      "Ð²ÐµÐ»Ð¸Ñĩ": 5213,
      "seekg": 5214,
      "copeGuard": 5215,
      "olatile": 5216,
      "ĠDemonstration": 5217,
      "MPLEMENT": 5218,
      "BO": 5219,
      "CH": 5220,
      "Here": 5221,
      "NING": 5222,
      "Ste": 5223,
      "Weight": 5224,
      "bn": 5225,
      "json": 5226,
      "step": 5227,
      "inte": 5228,
      "ingHere": 5229,
      "Ð»Ð°Ð´": 5230,
      "anc": 5231,
      "Ġsensor": 5232,
      "ÐºÐ°Ð¼Ð¸": 5233,
      "ĠSuffix": 5234,
      "ĠÐ½ÐµÐ²": 5235,
      "strate": 5236,
      "strong": 5237,
      "Ġ'[": 5238,
      "Ð¸ÑĤÐ°ÑĨÐ¸Ñı": 5239,
      "ĠPar": 5240,
      "ĠPattern": 5241,
      "aged": 5242,
      "ĠisOpen": 5243,
      "ĠÑĩÑĤ": 5244,
      "Ġextra": 5245,
      "achine": 5246,
      "Aligned": 5247,
      "crease": 5248,
      "ody": 5249,
      "ĠConst": 5250,
      "Ġsequence": 5251,
      "Ð¢Ð¸Ð¿": 5252,
      "Ð¸Ð·Ð²ÐµÑģÑĤ": 5253,
      "Ġ[\\\"": 5254,
      "ÐĲÐ½": 5255,
      "ĠlogFile": 5256,
      "Users": 5257,
      "ĠÐ³Ð»": 5258,
      "ĠÑģÑģÑĭÐ»Ð¾Ðº": 5259,
      "ĠÑģÑģÑĭÐ»ÐºÐµ": 5260,
      "ĠÑģÑĤÐ¾Ð¸Ð¼Ð¾ÑģÑĤÑĮ": 5261,
      "Ġready": 5262,
      "Ð°Ð»Ð¸Ð·Ð°ÑĨÐ¸Ð¸": 5263,
      "Ġcodes": 5264,
      "ĠÑĨÐ¸ÐºÐ»": 5265,
      "Codes": 5266,
      "Ð°ÑħÐ²": 5267,
      "EndingHere": 5268,
      "Ġ[&](": 5269,
      "ĠÐ°ÑĢÐ³ÑĥÐ¼ÐµÐ½ÑĤ": 5270,
      "ĠÐ±Ð¾Ð»ÑĮÑĪÐµ": 5271,
      "ĠÐ¿ÑĢÐ¸ÑģÐ²Ð°": 5272,
      "andidate": 5273,
      "ĠÐºÐ¾Ð¾ÑĢÐ´Ð¸Ð½Ð°ÑĤÑĭ": 5274,
      "password": 5275,
      "Ġcharacters": 5276,
      "Ġ3600": 5277,
      ")));\\": 5278,
      "71": 5279,
      "Fahrenheit": 5280,
      "Library": 5281,
      "Renderer": 5282,
      "Write": 5283,
      "aused": 5284,
      "bb": 5285,
      "category": 5286,
      "fcntl": 5287,
      "heap": 5288,
      "prom": 5289,
      "Ġ\\\"(": 5290,
      "ĠÐ¥": 5291,
      "Ð½Ð¸Ð¼": 5292,
      "Ġremaining": 5293,
      "onitor": 5294,
      "ctx": 5295,
      "unch": 5296,
      "ÐµÐ½Ð½ÑĭÑħ": 5297,
      "ĠconstRef": 5298,
      "getData": 5299,
      "Ð²Ð¾": 5300,
      "igen": 5301,
      "ĠÑģÑĢÐµÐ´": 5302,
      "Ġdecorator": 5303,
      "Registered": 5304,
      "ĠÐ²Ð¸ÑģÐ¾ÐºÐ¾Ñģ": 5305,
      "Ġ'/": 5306,
      "Ð¸ÑĤÐµÑĢ": 5307,
      "Ð¿Ð»": 5308,
      "ĠÐ·Ð°ÑħÐ²": 5309,
      "printable": 5310,
      "ĠÑĥÑĢÐ°Ð²Ð½ÐµÐ½Ð¸Ðµ": 5311,
      "tolower": 5312,
      "ĠEmail": 5313,
      "Protocol": 5314,
      "ixel": 5315,
      "roman": 5316,
      "ĠIP": 5317,
      "ÐµÐ¹Ð½ÐµÑĢ": 5318,
      "Strings": 5319,
      "jection": 5320,
      "ĠÐ»Ð¸": 5321,
      "Ð¾Ð±Ð°Ð²Ð»ÐµÐ½": 5322,
      "Ġ256": 5323,
      "ÑĤÐµÑĢÐ½": 5324,
      "ĠCompare": 5325,
      "MPLET": 5326,
      "FILE": 5327,
      "ĠÐ¿Ð¾Ð·Ð¸ÑĨÐ¸Ñı": 5328,
      "ĠÑģÑĤÑĢÑĥÐºÑĤ": 5329,
      "ergy": 5330,
      "Ġalignof": 5331,
      "ÐľÐ¸Ð½Ð¸Ð¼Ð°Ð»ÑĮ": 5332,
      "ÑģÑĤÐ°Ð½Ð°Ð²Ð»Ð¸Ð²Ð°ÐµÐ¼": 5333,
      "02": 5334,
      "60": 5335,
      "85": 5336,
      "96": 5337,
      "Header": 5338,
      "Machine": 5339,
      "SA": 5340,
      "ggle": 5341,
      "ohn": 5342,
      "success": 5343,
      "tri": 5344,
      "table": 5345,
      "Ġup": 5346,
      "ins": 5347,
      "return": 5348,
      "Ġ(&": 5349,
      "Ġcached": 5350,
      "Ġbfs": 5351,
      "ĠSpecification": 5352,
      "Rest": 5353,
      "Ġindent": 5354,
      "ĠPer": 5355,
      "Ġstrategy": 5356,
      "()));\\": 5357,
      "ĠÐ¸ÑĤÐµÑĢ": 5358,
      "Initial": 5359,
      "ĠĠĠĠĠĠĠĠĠĠĠĠĠĠĠĠĠĠ": 5360,
      "abled": 5361,
      "Ð¡ÑĩÐµÑĤ": 5362,
      "rightness": 5363,
      "ĠprintAll": 5364,
      "ĠNew": 5365,
      "Ġcompare": 5366,
      "Chain": 5367,
      "ĠOperation": 5368,
      "Ġtimestamp": 5369,
      "ĠÐ³ÑĢÐ°Ð½Ð¸ÑĨ": 5370,
      "And": 5371,
      "Ġinitialize": 5372,
      "Allocated": 5373,
      "Interval": 5374,
      "Students": 5375,
      "ĠConnectionPool": 5376,
      "chedule": 5377,
      "ecuted": 5378,
      "ĠÐĺÐ½Ð¸ÑĨÐ¸": 5379,
      "ÐµÑĢÐµÐ´ÑĮ": 5380,
      "<>\\": 5381,
      "Break": 5382,
      "Down": 5383,
      "Opt": 5384,
      "UL": 5385,
      "_;": 5386,
      "ired": 5387,
      "Ðĸ": 5388,
      "Ġor": 5389,
      "Ġ\\\"//": 5390,
      "reed": 5391,
      "ermo": 5392,
      "intValue": 5393,
      "orph": 5394,
      "orary": 5395,
      "endance": 5396,
      "Ġreservation": 5397,
      "Ġremainder": 5398,
      "ÑĢÐ¸Ð³": 5399,
      "ÑģÑĩÐµÑĤ": 5400,
      "Ġ(-": 5401,
      "sect": 5402,
      "Ġfact": 5403,
      "Ġfcntl": 5404,
      "ĠtwinPrimes": 5405,
      "ceive": 5406,
      "Ġspec": 5407,
      "ential": 5408,
      "ÑĮÑİÑĤ": 5409,
      "ÐµÑĢÑħ": 5410,
      "Ġ23": 5411,
      "ĠSh": 5412,
      "Ġdevice": 5413,
      "Ġdecoded": 5414,
      "Ð°Ð½Ð´": 5415,
      "Ġxml": 5416,
      "ĠÐ½ÐµÐ´": 5417,
      "ĠÐ½Ð°Ð»": 5418,
      "ffic": 5419,
      "Ġ'*": 5420,
      "indent": 5421,
      "ĠDynamic": 5422,
      "ĠDFS": 5423,
      "ops": 5424,
      "ÐŁÐ¾Ð¸ÑģÐº": 5425,
      "Ð¸Ð¼ÑĥÐ»Ñı": 5426,
      "plit": 5427,
      "ÐµÐºÑĥÑĢÑģ": 5428,
      "database": 5429,
      "resent": 5430,
      "pheric": 5431,
      "Ð¡Ð»": 5432,
      "ÐŀÐĶ": 5433,
      "Ð¸ÑģÑĮ": 5434,
      "):\\\";\\": 5435,
      "ĠÐŀÑģ": 5436,
      "ĠÑĢÐ°Ð·Ð½ÑĭÑħ": 5437,
      "Ġshould": 5438,
      "completed": 5439,
      "Ġserializer": 5440,
      "ĠÐ½Ð°Ð¹Ð´ÐµÐ½Ð°": 5441,
      "ĠÑģÐ¸Ð¼Ð²Ð¾Ð»Ñĭ": 5442,
      "Ġinstances": 5443,
      "ĠSOL": 5444,
      "Ġchildren": 5445,
      "Reading": 5446,
      "ĠÐ·Ð°Ð²Ð¸Ñģ": 5447,
      "ĠÐ´Ð¾ÑģÑĤÑĥÐ¿Ð°": 5448,
      "Move": 5449,
      "ÑĥÐ±Ð»Ð¸Ðº": 5450,
      "ĠÑĢÐ°Ð²Ð½Ñĭ": 5451,
      "ĠÐ°ÑĢÐ¸ÑĦÐ¼ÐµÑĤ": 5452,
      "Position": 5453,
      "ĠallocatedBlocks": 5454,
      "ĠÐ¿Ð°Ð¼ÑıÑĤÐ¸": 5455,
      "SOCKET": 5456,
      "ilograms": 5457,
      "ĠÐ´ÐµÐ¼Ð¾Ð½ÑģÑĤÑĢÐ°ÑĨÐ¸Ð¸": 5458,
      "ermostat": 5459,
      "pherical": 5460,
      "ÑĥÐ±Ð»Ð¸ÐºÐ°ÑĤ": 5461,
      "*()": 5462,
      "-%": 5463,
      "90": 5464,
      "Bound": 5465,
      "Capacity": 5466,
      "Drawing": 5467,
      "Full": 5468,
      "Factorial": 5469,
      "Ident": 5470,
      "Multiply": 5471,
      "Smart": 5472,
      "ccur": 5473,
      "dated": 5474,
      "group": 5475,
      "oth": 5476,
      "pq": 5477,
      "rbegin": 5478,
      "wrapper": 5479,
      "Ð¥": 5480,
      "ĠÐ°Ð½": 5481,
      "Ġstorage": 5482,
      "deallocate": 5483,
      "Ġregex": 5484,
      "onal": 5485,
      "ctl": 5486,
      "Ġcap": 5487,
      "Ġcalle": 5488,
      "ĠĠĠĠĠĠĠĠĠĠ": 5489,
      "ÑıÑĢ": 5490,
      "ulate": 5491,
      "nput": 5492,
      "Ġdegrees": 5493,
      "Ð°Ð½Ð½ÑĭÐµ": 5494,
      "andard": 5495,
      "ĠMiddle": 5496,
      "Ð¾ÑĤÐ¾ÑĢ": 5497,
      "query": 5498,
      "Ġoperators": 5499,
      "ĠÐ·Ð°Ð¼": 5500,
      "ĠÐ±Ð°Ð»Ð°Ð½Ñģ": 5501,
      "ĠptrTo": 5502,
      "ÐµÑģÑĮ": 5503,
      "Ġcloned": 5504,
      "Ġminor": 5505,
      "foo": 5506,
      "ĠÐŀÑĩ": 5507,
      "Ð°Ð¿ÑĢ": 5508,
      "ĠWindow": 5509,
      "ĠÐ³ÑĢÐ°Ð´": 5510,
      "ĠÐ»ÐµÑĤ": 5511,
      "Plugins": 5512,
      "Ð¡ÑĤÑĥÐ´ÐµÐ½ÑĤ": 5513,
      "ÐºÑĢÐµÑĤ": 5514,
      "Ġfibonacci": 5515,
      "ĠÐ´Ð²Ñĥ": 5516,
      "ĠÐ¿Ð¾Ð»ÑĮÐ·Ð¾Ð²Ð°ÑĤÐµÐ»ÑĮ": 5517,
      "AGE": 5518,
      "Ġentries": 5519,
      "App": 5520,
      "ĠÐ²ÐµÑĢÑĪÐ¸Ð½Ñĭ": 5521,
      "ĠÐ¾Ð±ÑĢÐ°Ð±Ð¾ÑĤÐºÐ¸": 5522,
      "Ð¾Ð´Ð¸ÑĦÐ¸ÐºÐ°ÑĨÐ¸Ñı": 5523,
      "ĠÐ¿ÑĢÐ¾Ð±ÐµÐ»": 5524,
      "ĠÑĥÐ¼Ð½Ð¾Ð¶ÐµÐ½Ð¸Ñı": 5525,
      "Ġrandom": 5526,
      "ĠÐ·Ð½Ð°Ðº": 5527,
      "ubbleSort": 5528,
      "SQL": 5529,
      "risky": 5530,
      "Ġcalled": 5531,
      "*[": 5532,
      "21": 5533,
      "Celsius": 5534,
      "FL": 5535,
      "Five": 5536,
      "GS": 5537,
      "derived": 5538,
      "head": 5539,
      "ipe": 5540,
      "ited": 5541,
      "pn": 5542,
      "Ð¬": 5543,
      "command": 5544,
      "enu": 5545,
      "Ġmoney": 5546,
      "Ġtuple": 5547,
      "sis": 5548,
      "Ġpas": 5549,
      "another": 5550,
      "Ġspan": 5551,
      "Ġostream": 5552,
      "getTotal": 5553,
      "ĠÑģÐ±": 5554,
      "Reload": 5555,
      "etch": 5556,
      "Ġguest": 5557,
      "owels": 5558,
      "ÐĴÐ¾Ð·": 5559,
      "Ġoperations": 5560,
      "ĠmaxValue": 5561,
      "printStats": 5562,
      "ĠÐ±Ð°Ð»Ð»": 5563,
      "ĠFibonacci": 5564,
      "ĠÑĥÐ·": 5565,
      "ÐĿÐµÐ´": 5566,
      "ĠÐ¿ÑĢÐ¾Ð´": 5567,
      "Ġsetsockopt": 5568,
      "ĠLO": 5569,
      "Ġ10000": 5570,
      "ĠtotalSeconds": 5571,
      "Ġselect": 5572,
      "Ġused": 5573,
      "Ġalarm": 5574,
      "ĠStorage": 5575,
      "ĠÑĢÐ°Ð·Ð´ÐµÐ»": 5576,
      "ÐĹÐ°Ð´Ð°Ñĩ": 5577,
      "Ġreader": 5578,
      "Ġ\\\"-\\\"": 5579,
      "Ġpositive": 5580,
      "Ġinputs": 5581,
      "ĠÐ¾ÑĪÐ¸Ð±ÐºÐ°": 5582,
      "Ġmodify": 5583,
      "Ð¡ÑĤÐµÐº": 5584,
      "ĠÑģÐºÐ¾Ð¿Ð¸ÑĢÐ¾Ð²Ð°Ð½": 5585,
      "Ġlisten": 5586,
      "weights": 5587,
      "ITE": 5588,
      "ĠColleague": 5589,
      "Ġmerged": 5590,
      "Ġsuccessful": 5591,
      "cartesian": 5592,
      "ĲâķĲâķĲâķĲâķĲâķĲâķĲâķĲâķĲâķĲâķĲâķĲâķĲâķĲâķĲâķĲâķ": 5593,
      "ĠÐ´Ð¾Ð±Ð°Ð²Ð»ÐµÐ½Ð¸Ñı": 5594,
      "Ġsession": 5595,
      "ĠÐ¾ÑĤÐºÑĢÑĭÑĤ": 5596,
      "ÑĢÐ¾Ð±ÑĮ": 5597,
      "Ġrecommendations": 5598,
      "ĠActor": 5599,
      "ĠRoomType": 5600,
      "19937": 5601,
      "silon": 5602,
      "Aggregate": 5603,
      "NON": 5604,
      "OT": 5605,
      "So": 5606,
      "Segment": 5607,
      "hour": 5608,
      "nÐĺ": 5609,
      "olog": 5610,
      "rink": 5611,
      "speed": 5612,
      "tom": 5613,
      "ĠUn": 5614,
      "ĠQueue": 5615,
      "\\\"});\\": 5616,
      "Ġrecord": 5617,
      "Ġvariant": 5618,
      "Ġbig": 5619,
      "ang": 5620,
      "Ġsl": 5621,
      "room": 5622,
      "execution": 5623,
      "Ġworld": 5624,
      "Ġdeterminant": 5625,
      "ĠÐ½Ð¾Ð»ÑĮ": 5626,
      "Ġinver": 5627,
      "Ġrw": 5628,
      "ĠBuffer": 5629,
      "ĠnewData": 5630,
      "ivity": 5631,
      "ÑĦÐ¾ÑĢÐ¼": 5632,
      "Ð¸Ð½Ð³": 5633,
      "ĠVec": 5634,
      "Ð°Ð·Ð²": 5635,
      "ĠRED": 5636,
      "Ġtypes": 5637,
      "ÐµÑģÑĤÑĮ": 5638,
      "ĠElement": 5639,
      "Ġsem": 5640,
      "Ġcomplete": 5641,
      "ÐļÐĲ": 5642,
      "ĠÑįÑĤÐ¾": 5643,
      "ĠÐ¿ÐµÑĢÐµ": 5644,
      "ETH": 5645,
      "ĠfindMin": 5646,
      "ĠÑģÑĤÐ°ÑĢ": 5647,
      "launch": 5648,
      "ĠÐºÐ¾Ð½ÑģÑĤÑĢÑĥÐºÑĤÐ¾ÑĢ": 5649,
      "Charlie": 5650,
      "Client": 5651,
      "Ġtopolog": 5652,
      "ught": 5653,
      "OUNT": 5654,
      "ĠĠĠĠĠĠĠĠĠĠĠĠĠĠĠĠĠĠĠĠĠĠĠĠĠ": 5655,
      "ĠÐ¿ÐµÑĢÐµÐ¼ÐµÐ½Ð½ÑĥÑİ": 5656,
      "ĠÑĥÐºÐ°Ð·Ð°ÑĤÐµÐ»ÐµÐ¹": 5657,
      "withdraw": 5658,
      "ircum": 5659,
      "ĠAlloc": 5660,
      "Ġfutures": 5661,
      "Ġfields": 5662,
      "ÑģÐºÐ¸Ð¹": 5663,
      "ĠÐ²ÐµÑĢÑħ": 5664,
      "ĠÑĢÐ°Ð·ÑĢÑĥÑĪÐµÐ½": 5665,
      "ĠSettings": 5666,
      "Ġrotate": 5667,
      "1234567890": 5668,
      "ĠÐĺÐ·Ð¼ÐµÐ½ÐµÐ½Ð¸Ðµ": 5669,
      "ĠÑĤÐ¾Ð²Ð°ÑĢÐ°": 5670,
      "Ð¸ÑĤÐµÑĢÐ°Ð»": 5671,
      "Ġtopological": 5672,
      "Cy": 5673,
      "Cart": 5674,
      "CAP": 5675,
      "Digits": 5676,
      "LU": 5677,
      "Msg": 5678,
      "Row": 5679,
      "Source": 5680,
      "cc": 5681,
      "history": 5682,
      "lvin": 5683,
      "nap": 5684,
      "run": 5685,
      "share": 5686,
      "store": 5687,
      "inate": 5688,
      "common": 5689,
      "rection": 5690,
      "Ð°ÑĨÐ¸Ð¹": 5691,
      "contains": 5692,
      "Ġve": 5693,
      "Ð»Ð°": 5694,
      "Ġpolynomial": 5695,
      "ĠpImpl": 5696,
      "Ġ14": 5697,
      "ÑıÐ·": 5698,
      "iod": 5699,
      "Ð¾Ð²ÑĭÑħ": 5700,
      "Ġ27": 5701,
      "Ġstringstream": 5702,
      "ĠÐ²Ð¾": 5703,
      "ĠÐ½ÐµÑģÐº": 5704,
      "ĠÐ´ÑĥÐ±Ð»Ð¸ÐºÐ°ÑĤ": 5705,
      "kelvin": 5706,
      "ÐµÑĤÐ°": 5707,
      "Ġinline": 5708,
      "ÑĢÐ°Ð±": 5709,
      "ĠÐºÐ°Ð¶Ð´": 5710,
      "opped": 5711,
      "ĠÐ¸ÑģÐ¿Ð¾Ð»ÑĮÐ·Ð¾Ð²Ð°Ð½Ð¸Ðµ": 5712,
      "backup": 5713,
      "vals": 5714,
      "ĠÐ¼ÐµÐ½": 5715,
      "Ġextract": 5716,
      "Ð°ÐºÐ°Ð·": 5717,
      "ÐļÐ¾Ð½": 5718,
      "ÐļÐ²Ð°Ð´ÑĢÐ°ÑĤ": 5719,
      "ĠÑĢÐµÐ±": 5720,
      "ĠÐ¾Ð±Ñī": 5721,
      "ĠÐ³ÑĢÐ°ÑĦ": 5722,
      "ÐµÑĪÐµÐ½Ð¸Ðµ": 5723,
      "originator": 5724,
      "Ġemployees": 5725,
      "shot": 5726,
      "Quotes": 5727,
      "Sequence": 5728,
      "Ġdistances": 5729,
      "ĠComponent": 5730,
      "ĠSimpleSpan": 5731,
      "abcdef": 5732,
      "ĠTesting": 5733,
      "ĠExpressionException": 5734,
      "csv": 5735,
      "nÐŁÑĢÐ¾Ð²ÐµÑĢÐºÐ°": 5736,
      "ĠQuaternion": 5737,
      "ĠÐ¼Ð¸Ð½Ð¸Ð¼ÑĥÐ¼": 5738,
      "Created": 5739,
      "ĠÑĢÐµÑĪÐµÐ½Ð¸Ñı": 5740,
      "Ġreduce": 5741,
      "decimal": 5742,
      "DoorState": 5743,
      "transform": 5744,
      "Ġconverter": 5745,
      "ĠPaymentRequest": 5746,
      "ĠÐ°Ð»Ð³Ð¾ÑĢÐ¸ÑĤÐ¼": 5747,
      "INFO": 5748,
      "ĠÐ´Ð¸Ð°Ð¿Ð°Ð·Ð¾Ð½Ðµ": 5749,
      "ĠÐłÐ°Ð±Ð¾ÑĤÐ°": 5750,
      "ĠBUFFER": 5751,
      "orphic": 5752,
      "napshot": 5753,
      "'\\": 5754,
      "AIN": 5755,
      "Author": 5756,
      "GR": 5757,
      "LY": 5758,
      "SU": 5759,
      "UN": 5760,
      "bra": 5761,
      "fir": 5762,
      "tion": 5763,
      "Ġregistered": 5764,
      "Ġflist": 5765,
      "Ġfilter": 5766,
      "sity": 5767,
      "Ġbattery": 5768,
      "Ġbetween": 5769,
      "versity": 5770,
      "ĠCO": 5771,
      "ĠSensor": 5772,
      "Ġhealth": 5773,
      "Ġinner": 5774,
      "istic": 5775,
      "ĠDi": 5776,
      "Ġguard": 5777,
      "ĠisPalindrome": 5778,
      "ĠisLeap": 5779,
      "Ġ&&\\": 5780,
      "Ð¾ÐºÐ°Ð·": 5781,
      "ested": 5782,
      "ĠFinal": 5783,
      "Ġ||\\": 5784,
      "locity": 5785,
      "ĠRGB": 5786,
      "Ġ64": 5787,
      "Ġ%=": 5788,
      "ĠER": 5789,
      "timestamp": 5790,
      "ĠÑįÑĤ": 5791,
      "ĠÑĢÐµÐ³Ð¸ÑģÑĤÑĢ": 5792,
      "Ġ2024": 5793,
      "ĠÐĺÐ¼": 5794,
      "Ġleg": 5795,
      "Ð»ÑİÐ´": 5796,
      "LOG": 5797,
      "ĠÐ¸Ð½ÑĤÐµÑĢ": 5798,
      "ElementA": 5799,
      "ÐĽÐĺ": 5800,
      "Squares": 5801,
      "isspace": 5802,
      "ĠÑħÐµÑĪ": 5803,
      "ĠÑĤÐµÐºÑĥÑī": 5804,
      "Ġmemcpy": 5805,
      "ĠÐ²ÑĭÐ¿Ð¾Ð»Ð½ÐµÐ½Ð¸Ñı": 5806,
      "JsonNode": 5807,
      "Ð°Ð»Ð»ÐµÐ»ÑĮ": 5808,
      "ĠÐĶÐ¾Ð¿Ð¾Ð»Ð½Ð¸ÑĤÐµÐ»ÑĮÐ½ÑĭÐµ": 5809,
      "Ð¸ÑĩÐµÑģÐºÐ¸Ðµ": 5810,
      "ĠÐĴÑĭÑĩÐ¸ÑģÐ»ÐµÐ½Ð¸Ðµ": 5811,
      "ĠÐĴÑĭÑĩÐ¸ÑģÐ»ÑıÐµÐ¼": 5812,
      "Ġmagnitude": 5813,
      "ÐµÑģÑıÑĨ": 5814,
      "TEMP": 5815,
      "ĠÐµÐ´Ð¸Ð½Ð¸ÑĨ": 5816,
      "ĠClient": 5817,
      "ĠÐ·Ð°ÑħÐ²Ð°ÑĤ": 5818,
      "firm": 5819,
      "!\\\");\\": 5820,
      "Box": 5821,
      "Math": 5822,
      "Mana": 5823,
      "OS": 5824,
      "Pre": 5825,
      "Pattern": 5826,
      "SV": 5827,
      "WR": 5828,
      "Width": 5829,
      "eb": 5830,
      "gency": 5831,
      "rin": 5832,
      "ump": 5833,
      "ĠExpr": 5834,
      "ĠÐµÑģÑĤÑĮ": 5835,
      "inanc": 5836,
      "urch": 5837,
      "seq": 5838,
      "Ġfo": 5839,
      "Ġfuel": 5840,
      "Ð»Ð¾": 5841,
      "Ġbin": 5842,
      "strings": 5843,
      "ritical": 5844,
      "transition": 5845,
      "Ġed": 5846,
      "adr": 5847,
      "->()": 5848,
      "vertex": 5849,
      "ĠÑģÑĢÐ°Ð²Ð½ÐµÐ½Ð¸Ðµ": 5850,
      "ĠÑģÑĢÐ°Ð²Ð½ÐµÐ½Ð¸Ñı": 5851,
      "ĠÑģÐ´Ð²Ð¸Ð³": 5852,
      "ĠCSV": 5853,
      "Ġcom": 5854,
      "ĠStr": 5855,
      "Repe": 5856,
      "ĠÐ²Ð·": 5857,
      "ĠÐ½Ð¾Ð¼ÐµÑĢ": 5858,
      "Ð¾ÑĢÐ¾Ð´": 5859,
      "Ġrating": 5860,
      "ĠgetTotal": 5861,
      "ĠÐºÐ»Ð¸ÐµÐ½ÑĤ": 5862,
      "ĠÐ¸ÑģÐ¿Ð¾Ð»ÑĮÐ·ÑĥÐµÐ¼": 5863,
      "ĠAudio": 5864,
      "term": 5865,
      "ĠÐ¼Ð¾Ð´Ð¸ÑĦÐ¸Ðº": 5866,
      "ĠÐ¼ÑĮÑİÑĤ": 5867,
      "keys": 5868,
      "ĠmaxEndingHere": 5869,
      "ĠÑĤÐ°Ð¹": 5870,
      "Ð¾Ð½ÐµÐ½ÑĤ": 5871,
      "ĠÑĥÑģÐ»Ð¾Ð²": 5872,
      "signment": 5873,
      "ĠtotalArea": 5874,
      "Ġseg": 5875,
      "ÐļÐ½Ð¸Ð³": 5876,
      "ĠIs": 5877,
      "ĠItem": 5878,
      "ĠIMPLEMENT": 5879,
      "ToId": 5880,
      "ĠÐ¿ÐµÑĢÐµÑģÑĤ": 5881,
      "Ġ70": 5882,
      "ĠÐŀÐ¿ÐµÑĢ": 5883,
      "Ġsubtract": 5884,
      "ĠÑģÑĤÐµÐ¿": 5885,
      "Ġatomic": 5886,
      "ÐºÐ°Ð·Ð°ÑĤÐµÐ»ÑĮ": 5887,
      "curring": 5888,
      "ĠÐ»Ð¾Ð³": 5889,
      "ĠJsonObject": 5890,
      "ĠÐľÐ¾Ð´Ð¸ÑĦÐ¸ÐºÐ°ÑĨÐ¸Ñı": 5891,
      "Ġmonthly": 5892,
      "ĠTypeErased": 5893,
      "OfDay": 5894,
      "center": 5895,
      "ÐĿÐµÐ¸Ð·Ð²ÐµÑģÑĤ": 5896,
      "ollars": 5897,
      "TRACT": 5898,
      "ĠÐºÐ¾ÑĢÑĢÐµÐºÑĤ": 5899,
      "ĠÐ¾Ð±ÑĬÐµÐºÑĤÐ¾Ð²": 5900,
      "Ġdivide": 5901,
      "ĠmemoryPool": 5902,
      "ĠÐ¿ÐµÑĢÐµÐ¼ÐµÐ½Ð½Ð¾Ð¹": 5903,
      "Ġ__": 5904,
      "Ġneighbors": 5905,
      "Creating": 5906,
      "ĠÐ¿ÐµÑĢÐµÐ¼ÐµÑīÐµÐ½Ð¸Ñı": 5907,
      "Permutations": 5908,
      "Parser": 5909,
      "ĠÑĤÑĢÐµÑĥÐ³Ð¾Ð»ÑĮÐ½Ð¸ÐºÐ°": 5910,
      "ĠÐ¿Ð¾Ð»ÑĮÐ·Ð¾Ð²Ð°ÑĤÐµÐ»Ñı": 5911,
      "ĠÑģÐ¾Ð±ÑĭÑĤÐ¸Ð¹": 5912,
      "BUG": 5913,
      "CLARE": 5914,
      "Dependencies": 5915,
      "ĠÐ°Ð´ÑĢÐµÑģ": 5916,
      "Policy": 5917,
      "ipeline": 5918,
      "inancial": 5919,
      "urchase": 5920,
      "ĠÐ¼Ð¾Ð´Ð¸ÑĦÐ¸ÐºÐ°ÑĨÐ¸Ð¸": 5921,
      ")-": 5922,
      "Ca": 5923,
      "Oper": 5924,
      "Ratio": 5925,
      "Sm": 5926,
      "Spec": 5927,
      "db": 5928,
      "eed": 5929,
      "nÐ£": 5930,
      "nÐĴÑĭ": 5931,
      "nÐĶÐ¾": 5932,
      "ĠÂ": 5933,
      "Ġ...": 5934,
      "atis": 5935,
      "Ġreport": 5936,
      "urpose": 5937,
      "unlock": 5938,
      "Ġblue": 5939,
      "Ġ120": 5940,
      "ÑıÑİÑī": 5941,
      "umulate": 5942,
      "peek": 5943,
      "isPrime": 5944,
      "Ð²Ð°ÑĢ": 5945,
      "ĠÐ¿ÑĢÐ¾Ð²ÐµÑĢÐºÐ°": 5946,
      "exit": 5947,
      "Ġwater": 5948,
      "ĠSafe": 5949,
      "Ð°Ð½Ð°": 5950,
      "ĠÐ²Ð¸Ð´": 5951,
      "ÐµÐ½Ð¸Ð¸": 5952,
      "percent": 5953,
      "ÐµÑĤÑĮ": 5954,
      "Ġ'}": 5955,
      "Ġrd": 5956,
      "ĠgetData": 5957,
      "());": 5958,
      "ÐŁÐ¾Ð»": 5959,
      "Ð¾ÑĤÑĥ": 5960,
      "agonal": 5961,
      "response": 5962,
      "ÐŀÑĩ": 5963,
      "acter": 5964,
      "ĠFunc": 5965,
      "locale": 5966,
      "ifi": 5967,
      "ÐĶÐ¾Ð±Ð°Ð²Ð»ÐµÐ½": 5968,
      "Ġ1000000": 5969,
      "toupper": 5970,
      "ĠRegistry": 5971,
      "ĠContext": 5972,
      "ĠÐĶÐ¾ÑģÑĤÑĥÐ¿": 5973,
      "ĠOther": 5974,
      "LECT": 5975,
      "Ġclosed": 5976,
      "ĠÑĤÐ¸Ð¿Ñĭ": 5977,
      "ÐŁÑĢÐ¸Ð²": 5978,
      "The": 5979,
      "ĠResourcePool": 5980,
      "Ð°Ð±Ð»ÑİÐ´": 5981,
      "ĠÐ¸Ð½Ð¸ÑĨÐ¸": 5982,
      "Ġactual": 5983,
      "Ġappro": 5984,
      "ĠStringWrapper": 5985,
      "operators": 5986,
      "ĠÐ¼Ð¸Ð½Ð¸Ð¼Ð°Ð»ÑĮ": 5987,
      "ĠSmartArray": 5988,
      "ĠAligned": 5989,
      "Ð¸ÑģÑĤÐµÐ¼Ð°": 5990,
      "ÐŃÐ»ÐµÐ¼ÐµÐ½ÑĤÑĭ": 5991,
      "Ð¸Ð°Ð½ÑĤ": 5992,
      "Ð¨Ð°Ð³": 5993,
      "ĠÑĢÐµÑĪÐµÐ½Ð¸Ð¹": 5994,
      "Ġdecimal": 5995,
      "ferred": 5996,
      "Ð¿ÑĢÐµÐ´ÐµÐ»Ð¸ÑĤÐµÐ»ÑĮ": 5997,
      "ĠÐ¾ÑģÐ½Ð¾Ð²": 5998,
      "Ð½ÑĥÑĤÑĢÐ¸": 5999,
      "Ġchanged": 6000,
      "ĠÑģÑĤÑĥÐ´ÐµÐ½ÑĤÐ¾Ð²": 6001,
      "ccurrence": 6002,
      "ĠÐ³ÑĢÐ°Ð´ÑĥÑģ": 6003,
      "ircumference": 6004,
      "ĠERROR": 6005,
      "atisf": 6006,
      ".\\\";\\": 6007,
      "ACK": 6008,
      "Abs": 6009,
      "AME": 6010,
      "Cipher": 6011,
      "EE": 6012,
      "FIG": 6013,
      "Filter": 6014,
      "Frequent": 6015,
      "GET": 6016,
      "ML": 6017,
      "Mem": 6018,
      "Ops": 6019,
      "Phone": 6020,
      "Pending": 6021,
      "RAII": 6022,
      "Tuple": 6023,
      "Vertex": 6024,
      "byte": 6025,
      "doc": 6026,
      "eam": 6027,
      "jug": 6028,
      "lish": 6029,
      "nÐĴÐ²ÐµÐ´Ð¸ÑĤÐµ": 6030,
      "noexcept": 6031,
      "sv": 6032,
      "triangle": 6033,
      "ured": 6034,
      "ĠÐµÑī": 6035,
      "Ġ\\\"\\\",": 6036,
      "Ġstats": 6037,
      "ern": 6038,
      "Ġms": 6039,
      "the": 6040,
      "ÑĥÐµÐ¼": 6041,
      "trics": 6042,
      "peak": 6043,
      "ÑĮÑİ": 6044,
      "Ġwill": 6045,
      "very": 6046,
      "Ġlst": 6047,
      "ĠTR": 6048,
      "Ġdeposit": 6049,
      "Ġdepend": 6050,
      "Reservation": 6051,
      "ket": 6052,
      "Ġ']": 6053,
      "ĠPool": 6054,
      "ĠDis": 6055,
      "ĠDep": 6056,
      "ÑħÑĢÐ°Ð½": 6057,
      "InMonth": 6058,
      "ĠÐ¼Ð¸ÑĢ": 6059,
      "Ġchars": 6060,
      "printStatus": 6061,
      "imed": 6062,
      "Ġ===\\\\": 6063,
      "ÐĿÐ°Ñĩ": 6064,
      "Ð¸Ð²Ð°Ð½Ð¸Ñı": 6065,
      "ĠcurrentTemp": 6066,
      "Ð°ÐºÑĤÐ¾ÑĢ": 6067,
      "logger": 6068,
      "Ġseq": 6069,
      "antType": 6070,
      "Ġaligned": 6071,
      "ĠÑįÐº": 6072,
      "ĠÐ¾Ð±Ð½Ð¾Ð²": 6073,
      "queueMutex": 6074,
      "Ð¸Ð·Ð²Ð¾Ð´": 6075,
      "ĠÐŀÐ¿ÑĢÐµÐ´ÐµÐ»ÐµÐ½Ð¸Ðµ": 6076,
      "Ġanimal": 6077,
      "scape": 6078,
      "ĠÑĢÐ°Ð·Ð½ÑĭÐ¼Ð¸": 6079,
      "results": 6080,
      "ĠÐļÐ¾Ð¿": 6081,
      "Ġcontroller": 6082,
      "ABABC": 6083,
      "Ð¸ÑĢÐ¾Ð²Ð°Ð½Ð°": 6084,
      "Ð¸ÑĢÐ¾Ð²Ð°Ð½Ð½Ð°Ñı": 6085,
      "ĠcheckOut": 6086,
      "Ð¼Ð°ÑĥÑĤ": 6087,
      "aker": 6088,
      "LOW": 6089,
      "ÐµÐ¿Ð¾Ð»Ð½": 6090,
      "Ġmemo": 6091,
      "Ð°ÑĩÐ°": 6092,
      "greater": 6093,
      "Ġstopped": 6094,
      "Ġinsertions": 6095,
      "SSL": 6096,
      "ĠÑģÐºÐ¾ÑĢ": 6097,
      "celer": 6098,
      "Ġroute": 6099,
      "ACC": 6100,
      "ĠConcreteObserver": 6101,
      "ĠÑĥÐ´Ð°Ð»ÐµÐ½": 6102,
      "pository": 6103,
      "ĠdaysInMonth": 6104,
      "Ġdocs": 6105,
      "ĠÐºÐ¾ÑĢÐ½Ñı": 6106,
      "ĠwindowSize": 6107,
      "ĠfreeList": 6108,
      "ÑĢÑĥÐ¶ÐµÑģÑĤÐ²": 6109,
      "Ġdomain": 6110,
      "Interests": 6111,
      "ĠÐ¢ÐµÑģÑĤÐ¸ÑĢÐ¾Ð²Ð°Ð½Ð¸Ðµ": 6112,
      "Ġfsm": 6113,
      "ĠÐ²ÑĤÐ¾ÑĢÐ¾Ð³Ð¾": 6114,
      "discriminant": 6115,
      "BinaryOp": 6116,
      "ĠÐ¸ÑģÐ¿Ð¾Ð»ÑĮÐ·Ð¾Ð²Ð°Ð½Ð¸ÐµÐ¼": 6117,
      "ĠCONFIG": 6118,
      "ASK": 6119,
      "Ġ\\\"âľĹ": 6120,
      "soleLogger": 6121,
      "ĠÐ¸Ð·Ð¼ÐµÐ½Ð¸ÑĤÑĮ": 6122,
      "Ġdispatcher": 6123,
      "POLL": 6124,
      "ĠÐ¨Ð°Ð±Ð»Ð¾Ð½Ð½Ð°Ñı": 6125,
      "ĠBitSet": 6126,
      "Ġlayers": 6127,
      "ÑĥÐ¿ÑĢÐµÐ¶Ð´": 6128,
      "tellg": 6129,
      "Ġcommit": 6130,
      "Ð·Ð²Ð»ÐµÑĩ": 6131,
      "promise": 6132,
      "MPLETED": 6133,
      "ĠÐ¿Ð¾Ð·Ð¸ÑĨÐ¸ÑıÑħ": 6134,
      "ĠÐ½Ð°Ð»Ð¸Ñĩ": 6135,
      "ĠRGBColor": 6136,
      "ĠÐĺÐ¼Ð¸ÑĤÐ°ÑĨÐ¸Ñı": 6137,
      "jugate": 6138,
      ")/": 6139,
      "AE": 6140,
      "Far": 6141,
      "Flags": 6142,
      "Guest": 6143,
      "Mass": 6144,
      "Payment": 6145,
      "Speed": 6146,
      "asic": 6147,
      "build": 6148,
      "mt": 6149,
      "null": 6150,
      "yes": 6151,
      "delete": 6152,
      "sell": 6153,
      "Ġfinal": 6154,
      "Ġvia": 6155,
      "Ġdown": 6156,
      "Ġpost": 6157,
      "ged": 6158,
      "Ġsr": 6159,
      "ummy": 6160,
      "ÑĩÐ¸ÑĤ": 6161,
      "Ġ2000": 6162,
      "++];\\": 6163,
      "ĠÑģÑĢÐµÐ´Ð½": 6164,
      "Ġltm": 6165,
      "Ð¼Ð°ÑģÑģÐ¸Ð²": 6166,
      "Ġdeallocate": 6167,
      "Ð¾ÑĢÐ¾Ð½": 6168,
      "ÐµÐ»ÐµÐ½Ð¸Ðµ": 6169,
      "Ġ';\\": 6170,
      "Ġ50000": 6171,
      "ĠMo": 6172,
      "ÑĦÐ¾ÑĢ": 6173,
      "apsed": 6174,
      "Ð¡Ð°Ð¼": 6175,
      "ĠÑĤÐµÐ¿ÐµÑĢÑĮ": 6176,
      "ĠVariant": 6177,
      "Ġtemperature": 6178,
      "Ġminute": 6179,
      "Algorithm": 6180,
      "Ġsegment": 6181,
      "ible": 6182,
      "ERS": 6183,
      "Ġshutdown": 6184,
      "ĠÐłÐķ": 6185,
      "Ġ\\\"):\\\"": 6186,
      "ĠsideB": 6187,
      "ĠsideC": 6188,
      "events": 6189,
      "ĠJsonArray": 6190,
      "ÑĭÐ²Ð°ÐµÑĤ": 6191,
      "script": 6192,
      "Select": 6193,
      "ĠÑģÐ¾ÐµÐ´Ð¸Ð½": 6194,
      "ĠÑĥÐ´Ð°Ð»Ð¾ÑģÑĮ": 6195,
      "ĠÐ·Ð°Ð¿ÑĢÐ¾Ñģ": 6196,
      "floating": 6197,
      "ĠÐ¿ÐµÑĢÐ²ÑĭÐ¹": 6198,
      "ĠÐŀÐ±Ð½Ð¾Ð²": 6199,
      "allel": 6200,
      "ĠÐ¿ÑĢÐ¾Ð¸Ð·Ð²ÐµÐ´ÐµÐ½Ð¸Ðµ": 6201,
      "ĠÐ¿ÑĢÐµÐ´ÑģÑĤÐ°Ð²": 6202,
      "Ġtokens": 6203,
      "Ð¿ÑĢÐ¾Ñī": 6204,
      "VALUE": 6205,
      "Ġepsilon": 6206,
      "attach": 6207,
      "ĠSerializable": 6208,
      "HECK": 6209,
      "ĠÐ¾Ð±ÑĢÐ°ÑĤÐ½Ð¾Ð¼": 6210,
      "ĠÐ¾Ð´Ð¸Ð½Ð°Ðº": 6211,
      "ĠPrinter": 6212,
      "ĠÑģÐ»ÑĥÑĩÐ°Ð¹": 6213,
      "arrival": 6214,
      "ÐĴÐ¾Ð·ÑĢÐ°ÑģÑĤ": 6215,
      "ĠÐµÑīÐµ": 6216,
      ")>;\\": 6217,
      "Ax": 6218,
      "Ada": 6219,
      "Be": 6220,
      "Dir": 6221,
      "Fibonacci": 6222,
      "ISS": 6223,
      "PS": 6224,
      "PLAY": 6225,
      "TokenType": 6226,
      "average": 6227,
      "budget": 6228,
      "eve": 6229,
      "grid": 6230,
      "hen": 6231,
      "lf": 6232,
      "lind": 6233,
      "lines": 6234,
      "nx": 6235,
      "rical": 6236,
      "tected": 6237,
      "taker": 6238,
      "µs": 6239,
      "Ġctx": 6240,
      "\\\"}\\": 6241,
      "Ġ\\\"):": 6242,
      "reap": 6243,
      "rees": 6244,
      "Ð½Ð¸Ñĩ": 6245,
      "ÑĤÐ¾Ð¶": 6246,
      "ÑĢÐµ": 6247,
      "ÑĢÐµÐ·": 6248,
      "Ġmst": 6249,
      "Ġvars": 6250,
      "Ġpoly": 6251,
      "annel": 6252,
      "gebra": 6253,
      "ection": 6254,
      "Ġ150": 6255,
      "cho": 6256,
      "ileage": 6257,
      "ĠCOL": 6258,
      "ĠSegment": 6259,
      "serve": 6260,
      "ĠgetMax": 6261,
      "ĠPhone": 6262,
      "ĠPRI": 6263,
      "aretaker": 6264,
      ">(*": 6265,
      "Ð¿Ð¾": 6266,
      "ĠBSTNode": 6267,
      "Ġgpa": 6268,
      "ĠÐºÐ¾ÑĤÐ¾ÑĢ": 6269,
      "ands": 6270,
      "Ð°Ð»Ð°": 6271,
      "Ġthreshold": 6272,
      "ĠÐ¼Ð½Ð¾Ð³Ð¾": 6273,
      "ĠÐ¼ÐµÑģÑıÑĨ": 6274,
      "Ġproject": 6275,
      "TypeInfo": 6276,
      "Ð¡Ð¾": 6277,
      "ĠÐ·Ð°Ð´": 6278,
      "Ġexit": 6279,
      "imited": 6280,
      "ĠÐ¿ÑĢÐ¸Ð½": 6281,
      "ĠRoman": 6282,
      "tempts": 6283,
      "Ð¾Ð¶Ð½Ð¾": 6284,
      "ĠEPOLL": 6285,
      "Algebra": 6286,
      "Ð°ÑĢÐ¿Ð»": 6287,
      "rivial": 6288,
      "Ġenergy": 6289,
      "ipient": 6290,
      "Ġ2023": 6291,
      "ĠÐ·Ð½Ð°ÑĩÐµÐ½Ð¸Ð¹": 6292,
      "ĠuserManager": 6293,
      "osthen": 6294,
      "Subject": 6295,
      "rectangle": 6296,
      "Transition": 6297,
      "ÐĽÐ¬": 6298,
      "Tests": 6299,
      "255": 6300,
      "ACE": 6301,
      "Ġbackup": 6302,
      "position": 6303,
      "connections": 6304,
      "Ġintersection": 6305,
      "ĠÐ¼ÐµÑĤÐ¾Ð´Ð°": 6306,
      "ĠConfigException": 6307,
      "Entity": 6308,
      "euristic": 6309,
      "Ġgenerator": 6310,
      "Serializ": 6311,
      "partition": 6312,
      "elements": 6313,
      "targets": 6314,
      "ĠDatabaseConnection": 6315,
      "ĠÐ¾ÑĪÐ¸Ð±Ð¾Ðº": 6316,
      "ĠGameState": 6317,
      "Ð°ÑİÑīÐ°Ñı": 6318,
      "ĠÐ¸ÑģÐ¿Ð¾Ð»ÑĮÐ·Ð¾Ð²Ð°Ð½Ð¸Ñı": 6319,
      "ĠMemoryTracker": 6320,
      "ĠÐ´Ð»Ð¸Ð½Ñĥ": 6321,
      "Usage": 6322,
      "Traversal": 6323,
      "ĠInterface": 6324,
      "ĠValidationResult": 6325,
      "ĠmostFrequent": 6326,
      "Modified": 6327,
      "ĠÐ±ÑĥÐºÐ²Ñĭ": 6328,
      "Coordinate": 6329,
      "Ġrender": 6330,
      "inished": 6331,
      "apability": 6332,
      "ĠProcessing": 6333,
      "ooleanExpression": 6334,
      "Ġcaesar": 6335,
      "ÐĿÐµÐ´Ð¾ÑģÑĤÐ°ÑĤÐ¾ÑĩÐ½Ð¾": 6336,
      "ĠÂµs": 6337,
      "Axis": 6338,
      "Adapter": 6339,
      "lindrical": 6340,
      "reapNode": 6341,
      "Algebraic": 6342,
      "osthenes": 6343,
      ")]": 6344,
      "82": 6345,
      "IAL": 6346,
      "OOL": 6347,
      "YES": 6348,
      "apt": 6349,
      "gb": 6350,
      "off": 6351,
      "suffix": 6352,
      "Ġerrno": 6353,
      "Ġ{-": 6354,
      "Ð¸Ð°Ð³": 6355,
      "less": 6356,
      "leter": 6357,
      "Ġver": 6358,
      "Ġpl": 6359,
      "Ġcalcul": 6360,
      "Ġbob": 6361,
      "Ġ17": 6362,
      "usage": 6363,
      "lot": 6364,
      "isEmpty": 6365,
      "exist": 6366,
      "race": 6367,
      "ĠSe": 6368,
      "Ġlvalue": 6369,
      "Ġlargest": 6370,
      "Ð¼Ñĭ": 6371,
      "Ġhuffman": 6372,
      "service": 6373,
      "ĠgetDescription": 6374,
      "ÐŁÑĢÐµÐ´": 6375,
      "ĠÐ¸ÑģÑħÐ¾Ð´": 6376,
      "ĠprintSize": 6377,
      "printAll": 6378,
      "ĠRT": 6379,
      "andling": 6380,
      "Ð°ÑĢÐ¸Ð°Ð½ÑĤ": 6381,
      "ĠÑĢÐµÐ¶Ð¸Ð¼": 6382,
      "ĠÐŁÑĢÐµÐ´": 6383,
      "ĠÐŁÑĢÐ¾ÑģÑĤ": 6384,
      "150": 6385,
      "ĠdisplayInfo": 6386,
      "999": 6387,
      "joinable": 6388,
      "Ġsender": 6389,
      "Ġbackend": 6390,
      "ĠThreadPool": 6391,
      "Ð¸Ð°Ð¿Ð°Ð·Ð¾Ð½": 6392,
      "bitmask": 6393,
      "ĠÐ¾Ð¿ÐµÑĢÐ°ÑĨÐ¸Ð¸": 6394,
      "ĠbadChar": 6395,
      "ĠÐļÐ¾Ð½ÐºÑĢÐµÑĤ": 6396,
      "192": 6397,
      "ĠÐ²ÑĤÐ¾ÑĢÐ¾Ð¹": 6398,
      "ÐķÐĿÐĺÐķ": 6399,
      "ĠquickSort": 6400,
      "ĠÐ°Ð²ÑĤÐ¾Ð¼Ð°ÑĤ": 6401,
      "ĠÑģÐ¸ÑģÑĤÐµÐ¼Ñĭ": 6402,
      "ĠdotProduct": 6403,
      "ĠÐ¿Ð¾Ð´ÑģÑĤÑĢÐ¾ÐºÐ¸": 6404,
      "Ġ1900": 6405,
      "adjacency": 6406,
      "Ġquotient": 6407,
      "Serializable": 6408,
      "432": 6409,
      "87": 6410,
      "Bonus": 6411,
      "Flag": 6412,
      "Fraction": 6413,
      "Form": 6414,
      "Generic": 6415,
      "Heap": 6416,
      "Health": 6417,
      "Paren": 6418,
      "SharedPtr": 6419,
      "Scheduler": 6420,
      "Term": 6421,
      "^\\\"": 6422,
      "available": 6423,
      "lvalue": 6424,
      "ns": 6425,
      "nAfter": 6426,
      "two": 6427,
      "wd": 6428,
      "Ġ)": 6429,
      "Ġoriginator": 6430,
      "reserve": 6431,
      "()>>": 6432,
      "Ð¸Ñİ": 6433,
      "secret": 6434,
      "Ġtx": 6435,
      "Ġdst": 6436,
      "ĠdueDate": 6437,
      "sid": 6438,
      "ube": 6439,
      "Ġparen": 6440,
      "Ġbrand": 6441,
      "Ġsound": 6442,
      "Ġsplit": 6443,
      "ulus": 6444,
      "Ġescape": 6445,
      "ĠdoubleValue": 6446,
      "isOn": 6447,
      "ĠScopeGuard": 6448,
      "Ġ\\\"\\\\\\\\": 6449,
      "Ġdev": 6450,
      "Ġhotel": 6451,
      "asing": 6452,
      "ĠPI": 6453,
      "Stage": 6454,
      "ĠÐºÑĢÑĥÐ³": 6455,
      "ĠÐ¸ÑģÐºÐ»ÑİÑĩ": 6456,
      "Insert": 6457,
      "ĠAsync": 6458,
      "Ġthermostat": 6459,
      "ĠisS": 6460,
      "ĠÐ¼Ð¾Ð³": 6461,
      "ĠÐ¼ÐµÐ½ÑĮ": 6462,
      "ĠÐ¼Ð°ÐºÑģÐ¸Ð¼ÑĥÐ¼": 6463,
      "ĠÐŁÐ°ÑĢ": 6464,
      "Ð¡Ð¿": 6465,
      "Ð¡Ð¸Ð¼Ð²Ð¾Ð»": 6466,
      "Ġexecuted": 6467,
      "ather": 6468,
      "ĠÐ±Ð°Ð·": 6469,
      "ÐŀÐ¿ÑĢÐµÐ´ÐµÐ»Ð¸ÑĤÐµÐ»ÑĮ": 6470,
      "ĠFlyweight": 6471,
      "ĠÑĥÐ²ÐµÐ»Ð¸Ñĩ": 6472,
      "Ð¸Ð½ÐµÐ¹": 6473,
      "ÐĿÐ«": 6474,
      "ĠLe": 6475,
      "ĠtypeStr": 6476,
      "ĠtextHash": 6477,
      "ĠÐ¡ÑĤÐ°ÑĤÐ¸ÑģÑĤÐ¸ÐºÐ°": 6478,
      "Alarm": 6479,
      "Ġacquire": 6480,
      "Ġlocked": 6481,
      "magnitude": 6482,
      "Ġenable": 6483,
      "ÑħÐ¾Ð´Ð¸Ð¼": 6484,
      "Ġansw": 6485,
      "ĠGU": 6486,
      "LEN": 6487,
      "ĠÐļÐ»Ð°ÑģÑģ": 6488,
      "Acc": 6489,
      "Ġtargets": 6490,
      "Ġdictionary": 6491,
      "ariance": 6492,
      "ÐĹÐ°Ð¿": 6493,
      "Character": 6494,
      "Ð°Ð±ÑĢ": 6495,
      "ĠÐ¤Ð¾ÑĢÐ¼": 6496,
      "ShapeVisitor": 6497,
      "ARGS": 6498,
      "ĠÑģÐ»ÐµÐ´ÑĥÑİÑī": 6499,
      "ElementB": 6500,
      "conditional": 6501,
      "Animal": 6502,
      "servations": 6503,
      "Ġapple": 6504,
      "IGH": 6505,
      "Ġtranspose": 6506,
      "Ġinterpret": 6507,
      "ThreadSafe": 6508,
      "Words": 6509,
      "ĠÐ¼ÐµÑĤÐ¾Ð´Ð¾Ð²": 6510,
      "TRACE": 6511,
      "Ð½Ð¾Ð¶ÐµÑģÑĤÐ²": 6512,
      "ĠÐ¼Ð°ÑĤÑĢÐ¸ÑĨÐ°": 6513,
      "rollback": 6514,
      "ĠÐ·Ð°ÐºÑĢÑĭÑĤ": 6515,
      "ĠÑĦÑĥÐ½ÐºÑĨÐ¸Ñİ": 6516,
      "ĠÐ¨Ð°Ð³": 6517,
      "ĠÑĢÐ°Ð´Ð¸Ð°Ð½": 6518,
      "ĠSerialization": 6519,
      "Ġsessions": 6520,
      "ĠÐ½ÑĥÐ¶": 6521,
      "ĠÑģÐ¾Ð²Ð¿Ð°Ð´Ð°ÑİÑĤ": 6522,
      "ÐµÑĦÐ¸ÐºÑģ": 6523,
      "ĠPROT": 6524,
      "Pages": 6525,
      "ÑĢÑĥÐ·ÐºÐ°": 6526,
      "ÐĲÐ½Ð½Ð°": 6527,
      "enuItem": 6528,
      "ÐĹÐ°Ð´Ð°ÑĩÐ°": 6529,
      "SoFar": 6530,
      "ĠtopologicalSort": 6531,
      "ĠÐ¿ÐµÑĢÐµÑģÑĤÐ°Ð½Ð¾Ð²": 6532,
      "ÐŁÑĢÐ¸Ð²ÐµÑĤ": 6533,
      "Absolute": 6534,
      "ABABCABAB": 6535,
      "Selector": 6536,
      "Ð½Ð¸ÑĩÑĤÐ¾Ð¶": 6537,
      "ĠPRIME": 6538,
      "ĠRomanNumber": 6539,
      "Ġanswers": 6540,
      "DB": 6541,
      "HTTP": 6542,
      "Input": 6543,
      "John": 6544,
      "Off": 6545,
      "Pass": 6546,
      "Playing": 6547,
      "Sign": 6548,
      "Virtual": 6549,
      "]();\\": 6550,
      "bies": 6551,
      "cb": 6552,
      "factorial": 6553,
      "malloc": 6554,
      "ny": 6555,
      "nlong": 6556,
      "ostringstream": 6557,
      "ĠName": 6558,
      "ĠInteger": 6559,
      "Ġreinterpret": 6560,
      "align": 6561,
      "arable": 6562,
      "Ġmt": 6563,
      "Ġman": 6564,
      "Ġno": 6565,
      "construct": 6566,
      "Ġcmp": 6567,
      "Ġack": 6568,
      "Ġsleep": 6569,
      "tered": 6570,
      "ÑĩÐ»ÐµÐ½": 6571,
      "Ġdestructor": 6572,
      "Report": 6573,
      "Ð´ÐµÐ¼": 6574,
      "ĠÐ´Ð»Ð¸Ð½Ð°": 6575,
      "Ð°ÑĤÐ¾Ðº": 6576,
      "ÐµÑĤÑĢÐ¾Ð²": 6577,
      "ĠPerm": 6578,
      "ĠButton": 6579,
      "Ð°Ð»ÑıÑĢ": 6580,
      "Ġtransitions": 6581,
      "erry": 6582,
      "ĠÑĩÐ°Ñģ": 6583,
      "ÐµÐºÐ¾Ð¼": 6584,
      "Ġprogramming": 6585,
      "Ð¡ÑĢÐµÐ´": 6586,
      "Ġexist": 6587,
      "ĠÐ±Ð»Ð¾Ðº": 6588,
      "Ð¾Ð¿ÑĥÑģÑĤ": 6589,
      "ÐĺÐ·Ð²Ð»ÐµÑĩ": 6590,
      "rend": 6591,
      "memcpy": 6592,
      "username": 6593,
      "ÐĲÐ¢": 6594,
      "Ð°Ð»ÑĮÐ½Ð¾Ðµ": 6595,
      "ÑģÑĤÑĢÐ¾ÐºÐ°": 6596,
      "words": 6597,
      "Complete": 6598,
      "Ġunion": 6599,
      "ostgre": 6600,
      "ĠÐ¢Ð¸Ð¿": 6601,
      "Minutes": 6602,
      "ĠtopIndex": 6603,
      "ÑĥÐ³Ð¾Ð»ÑĮÐ½ÑĭÐ¹": 6604,
      "Setting": 6605,
      "DatabaseConnection": 6606,
      "obbies": 6607,
      "ĠÐ²Ð¾Ð·Ð¼Ð¾Ð¶": 6608,
      "ĠÑĦÐ°Ð¹Ð»Ð¾Ð²": 6609,
      "ÑİÑĤÑģÑı": 6610,
      "ÐŃÑĤÐ¾": 6611,
      "ĠÐºÐ¾Ð¼Ð¿Ð»ÐµÐºÑģ": 6612,
      "ĠÐĳÐµÐ·Ð¾Ð¿Ð°Ñģ": 6613,
      "ĠÑĪÐ°Ð±Ð»Ð¾Ð½": 6614,
      "ĠÐºÐ¾ÑĢÐµÐ½ÑĮ": 6615,
      "ĠConfiguration": 6616,
      "ĠÐ¾ÑĤÑĢÐ¸ÑĨÐ°ÑĤÐµÐ»ÑĮÐ½ÑĭÐ¼": 6617,
      "ĠÐ¿Ð¾Ð»ÑĥÑĩÐ¸ÑĤÑĮ": 6618,
      "ĠÐ´ÐµÐ»ÐµÐ½Ð¸Ðµ": 6619,
      "mulate": 6620,
      "Ġpopulation": 6621,
      "ĠÑĩÐµÑĤÐ½ÑĭÑħ": 6622,
      "Customer": 6623,
      "ĠÐ¿Ð¾ÑģÐ»ÐµÐ´Ð¾Ð²Ð°ÑĤÐµÐ»ÑĮ": 6624,
      "Ġ\\\"âľĵ": 6625,
      "Ð¾Ð³ÑĢÐµÑĪ": 6626,
      "ĠÐ´ÐµÑĢÐµÐ²Ð°": 6627,
      "Ġdimensions": 6628,
      "Ġcallback": 6629,
      "ÐŀÐ±ÑĬÐµÐ¼": 6630,
      "ANGLE": 6631,
      "ĠÑģÑĤÑĢÑĥÐºÑĤÑĥÑĢ": 6632,
      "NONBLOCK": 6633,
      "ostgreSQL": 6634,
      ")...": 6635,
      "Ad": 6636,
      "Action": 6637,
      "Float": 6638,
      "Hours": 6639,
      "ILogger": 6640,
      "Rect": 6641,
      "Rot": 6642,
      "Specification": 6643,
      "USE": 6644,
      "bound": 6645,
      "gener": 6646,
      "light": 6647,
      "nÐł": 6648,
      "rank": 6649,
      "titude": 6650,
      "world": 6651,
      "Ġlower": 6652,
      "Ġroman": 6653,
      "ined": 6654,
      "coped": 6655,
      "Ġsteady": 6656,
      "rever": 6657,
      "received": 6658,
      "():": 6659,
      "depend": 6660,
      "atted": 6661,
      "clic": 6662,
      "ÑĢÐ¾Ð½": 6663,
      "Ġnull": 6664,
      "Ġnorm": 6665,
      "Ð»Ð°Ð³": 6666,
      "ublish": 6667,
      "Ġpred": 6668,
      "ÑĭÑĪ": 6669,
      "tein": 6670,
      "Ġfork": 6671,
      "Ð¾Ð²Ð°": 6672,
      "ĠÐ¿Ð°Ðº": 6673,
      "Ġ29": 6674,
      "Ġcoeff": 6675,
      "otReload": 6676,
      "ĠTra": 6677,
      "ĠÐ²Ð¼ÐµÑģÑĤ": 6678,
      "ĠnumStr": 6679,
      "Ġindegree": 6680,
      "Ġrvalue": 6681,
      "ÐµÐ´Ð°ÑĩÐ°": 6682,
      "ĠProt": 6683,
      "Ġstrs": 6684,
      "ĠÐºÐ¼": 6685,
      "ĠMediator": 6686,
      "ĠMOD": 6687,
      "ÐĴÑĢÐµÐ¼Ñı": 6688,
      "ivation": 6689,
      "Ġoverdue": 6690,
      "Ġconv": 6691,
      "orders": 6692,
      "ĠisEmpty": 6693,
      "quential": 6694,
      "Ð¾ÐºÑĥÐ¼ÐµÐ½ÑĤ": 6695,
      "ession": 6696,
      "ĠÑĤÐ°Ðº": 6697,
      "Conver": 6698,
      "Ð±ÑĭÐ²": 6699,
      "ĠÐ¿ÑĢÑıÐ¼Ð¾ÑĥÐ³Ð¾Ð»ÑĮÐ½Ð¸Ðº": 6700,
      "ĠsetValue": 6701,
      "ĠRatio": 6702,
      "ÑģÑĤÑĢÐµÑĩ": 6703,
      "ÐµÑģÐµÑĩ": 6704,
      "today": 6705,
      "Ð¾ÑģÑĤÐ¸": 6706,
      "Ð¸ÑĢÐ¾Ð²ÐºÐ°": 6707,
      "Ġkilograms": 6708,
      "Ġuow": 6709,
      "',\\": 6710,
      "ĠImage": 6711,
      "preter": 6712,
      "ĠÑĢÐ°Ð·Ð±": 6713,
      "Expensive": 6714,
      "Ġsocklen": 6715,
      "Ġpairs": 6716,
      "Ð¼ÐµÐ½ÑĮ": 6717,
      "pointer": 6718,
      "rolled": 6719,
      "ĠHuffmanNode": 6720,
      "prime": 6721,
      "ÐłÐ°Ð·Ð½Ð¸ÑĨÐ°": 6722,
      "ARNING": 6723,
      "Minute": 6724,
      "ÐµÑīÐµÐ½Ð¸Ðµ": 6725,
      "OfFive": 6726,
      "centage": 6727,
      "racked": 6728,
      "1111": 6729,
      "Ġstoppable": 6730,
      "ĠThis": 6731,
      "OrderDerived": 6732,
      "Constant": 6733,
      "LACK": 6734,
      "Ġheapify": 6735,
      "aves": 6736,
      "ĠÐ¿Ð¾ÑĤÐ¾ÐºÐ¾Ð²": 6737,
      "Ġasync": 6738,
      "Ġtransactions": 6739,
      "MyResource": 6740,
      "ĠÐ¿ÑĥÑģÑĤÐ°": 6741,
      "ĠÐ±ÐµÐ·Ð¾Ð¿Ð°Ñģ": 6742,
      "perms": 6743,
      "Ġprocessors": 6744,
      "ĠMyClass": 6745,
      "Ġbitmask": 6746,
      "caten": 6747,
      "ÐľÐ°ÐºÑģÐ¸Ð¼Ð°Ð»ÑĮÐ½ÑĭÐ¹": 6748,
      "ĠSorting": 6749,
      "ĠLineSegment": 6750,
      "Ġcatal": 6751,
      "Att": 6752,
      "ĠÑĨÐ¸ÑĦÑĢÑĭ": 6753,
      "Ġ12345": 6754,
      "Ġtransformed": 6755,
      "ĠÐºÐ¾Ð½ÑĤÐµÐ¹Ð½ÐµÑĢ": 6756,
      "Ġphi": 6757,
      "ÐŁÐ¾Ð´ÑģÑĤÑĢÐ¾ÐºÐ°": 6758,
      "ĠÐ¡Ð¿ÐµÑĨÐ¸": 6759,
      "ĠÑģÐ¾Ð´ÐµÑĢÐ¶Ð¸ÑĤ": 6760,
      "ĠEncryptionSystem": 6761,
      "ĠÐ²Ð¸ÑģÐ¾ÐºÐ¾ÑģÐ½ÑĭÐ¹": 6762,
      "ÑĤÐµÑĢÐ½Ð°ÑĤ": 6763,
      "ĠÐĺÐ½Ð¸ÑĨÐ¸Ð°Ð»Ð¸Ð·Ð°ÑĨÐ¸Ñı": 6764,
      "Ð°Ð·Ð²Ð°Ð½Ð¸Ðµ": 6765,
      "Ġlegacy": 6766,
      "ĠÐ¼ÑĮÑİÑĤÐµÐºÑģ": 6767,
      "ÐŀÑĩÐµÑĢÐµÐ´ÑĮ": 6768,
      "reversed": 6769,
      ").\\\"": 6770,
      ">().": 6771,
      "Fail": 6772,
      "Front": 6773,
      "METH": 6774,
      "Pow": 6775,
      "Sample": 6776,
      "Wh": 6777,
      "]:": 6778,
      "cap": 6779,
      "fut": 6780,
      "ful": 6781,
      "hs": 6782,
      "jk": 6783,
      "nan": 6784,
      "Ġturn": 6785,
      "ĠÐ¾Ð¶": 6786,
      "description": 6787,
      "ond": 6788,
      "Ġdim": 6789,
      "Ġdummy": 6790,
      "sible": 6791,
      "Ð»ÐµÑĤ": 6792,
      "Ġcent": 6793,
      "ider": 6794,
      "Ġbuilder": 6795,
      "ullo": 6796,
      "chunk": 6797,
      "ilk": 6798,
      "Remo": 6799,
      "ĠÐ½Ð¾": 6800,
      "Ġ'('": 6801,
      "counts": 6802,
      "Inside": 6803,
      "Ð·Ð½Ð°Ñĩ": 6804,
      "ters": 6805,
      ">>;\\": 6806,
      "Ð¡Ð¾Ð²": 6807,
      "ĠFilter": 6808,
      "ĠÑĥÐ³Ð¾Ð»": 6809,
      "Ð¸Ð½Ð¾Ð¼": 6810,
      "Ġsec": 6811,
      "Ð¶Ð¸Ð´": 6812,
      "Ġenv": 6813,
      "Ġmore": 6814,
      "Ġmovie": 6815,
      "Ð¸ÑĤÐµÐ»ÑĮÐ½Ð°Ñı": 6816,
      "ĠÐĿÐ°": 6817,
      "Ð§ÐµÑĤ": 6818,
      "ization": 6819,
      "Query": 6820,
      "ÐĺÑģÑħÐ¾Ð´Ð½Ð¾Ðµ": 6821,
      "ĠÐ¾ÑĨÐµÐ½ÐºÐ°": 6822,
      "Ġperfect": 6823,
      "Blocked": 6824,
      "ĠÐĴÑĭÐ·Ð¾Ð²": 6825,
      "ridges": 6826,
      "ĠTaskStatus": 6827,
      "Ġ\"\"\\\\": 6828,
      "Ð¦Ðĺ": 6829,
      "ITY": 6830,
      "Ð¾Ð½Ð°Ð»ÑĮ": 6831,
      "Ð¾ÑģÐ»ÐµÐ´Ð¾Ð²Ð°ÑĤÐµÐ»ÑĮ": 6832,
      "nÐŁÐ¾Ð¸ÑģÐº": 6833,
      "ĠÑħÑĢÐ°Ð½": 6834,
      "ĠValidator": 6835,
      "--------------------------------": 6836,
      "bstacle": 6837,
      "ĠÑģÐ»Ð¾Ð²Ð¾": 6838,
      "ĠÐ°Ð²ÑĤÐ¾ÑĢ": 6839,
      "Ð¾Ð¶Ð´ÐµÐ½Ð¸Ñı": 6840,
      "Ġdemonstration": 6841,
      "ĠÐŁÐ¾Ð´ÑģÑĩÐµÑĤ": 6842,
      "Ġletters": 6843,
      "ĠÑģÑĥÑīÐµÑģÑĤÐ²ÑĥÐµÑĤ": 6844,
      "Duplicates": 6845,
      "Changed": 6846,
      "ĠÐ´Ð²ÑĥÑħ": 6847,
      "ĠÐ´ÑĥÐ±Ð»Ð¸ÐºÐ°ÑĤÐ¾Ð²": 6848,
      "ÐļÐ½Ð¸Ð³Ð°": 6849,
      "Caught": 6850,
      "ĠÐ³ÑĢÐ°Ð´ÑĥÑģÐ¾Ð²": 6851,
      "atisfied": 6852,
      "ĠTRANS": 6853,
      "ĠRTTI": 6854,
      "ĠÐ¾Ð¶Ð¸Ð´": 6855,
      "ullopt": 6856,
      "'};\\": 6857,
      "GPU": 6858,
      "IUM": 6859,
      "Largest": 6860,
      "PTRACE": 6861,
      "Volume": 6862,
      "[\"\"": 6863,
      "dog": 6864,
      "gain": 6865,
      "kar": 6866,
      "li": 6867,
      "sensor": 6868,
      "save": 6869,
      "week": 6870,
      "xed": 6871,
      "}});\\": 6872,
      "Ñĳ": 6873,
      "Ġur": 6874,
      "stoi": 6875,
      "income": 6876,
      "ÐµÑģÑĤÑĢÑĥÐºÑĤÐ¾ÑĢ": 6877,
      "eriv": 6878,
      "Ġrecursive": 6879,
      "Ġrequired": 6880,
      "ÑĤÐ¾Ð³": 6881,
      "amt": 6882,
      "Ġdt": 6883,
      "ced": 6884,
      "Ġcalculator": 6885,
      "unted": 6886,
      "Ġscores": 6887,
      "ÑĥÐ¶": 6888,
      "Ġem": 6889,
      "ading": 6890,
      "choice": 6891,
      "ÐºÐ»": 6892,
      "isOverdue": 6893,
      "Ġ21": 6894,
      "Ġ28": 6895,
      "ĠSim": 6896,
      "ĠToken": 6897,
      "utoff": 6898,
      "Ð¾Ð»Ñı": 6899,
      "ĠÐ²ÑģÑĤÐ°Ð²": 6900,
      "Ð´ÑĢÐ°": 6901,
      "ĠÐ½Ð¾Ð²ÑĭÐ¹": 6902,
      "Ġnuma": 6903,
      "Ġinventory": 6904,
      "ĠgetRegistry": 6905,
      "ĠgetField": 6906,
      "ĠPacket": 6907,
      "ĠPimplExample": 6908,
      "ĠcharCount": 6909,
      "Ġ|=": 6910,
      "append": 6911,
      "Ġprotected": 6912,
      "names": 6913,
      "ĠÐ·Ð°Ð³": 6914,
      "ĠÐ±Ð¾Ð»ÐµÐµ": 6915,
      "ĠÑĥÐ½Ð¸Ðº": 6916,
      "ĠÑĥÐ½Ð¸ÑĩÑĤÐ¾Ð¶": 6917,
      "ĠÑĥÐ±ÑĭÐ²": 6918,
      "Ð¸Ð½Ð°Ð¼": 6919,
      "ÐĿÐĲ": 6920,
      "ĠcurrentLength": 6921,
      "Ġ65": 6922,
      "Ġkm": 6923,
      "ĠtestData": 6924,
      "ĠÐ½ÐµÑĩÐµÑĤ": 6925,
      "Ġcompany": 6926,
      "Choice": 6927,
      "ÐļÐ¾Ð¼Ð¿": 6928,
      "Ġalice": 6929,
      "ĠtaskQueue": 6930,
      "ĠfindLongest": 6931,
      "ĠComplexMatrix": 6932,
      "ERIAL": 6933,
      "egacy": 6934,
      "ResourceWrapper": 6935,
      "Ġwithdraw": 6936,
      "laxed": 6937,
      "Ġleak": 6938,
      "CTX": 6939,
      "ORY": 6940,
      "Ð§Ð°ÑģÑĤ": 6941,
      "ĠHash": 6942,
      "Ð¸ÑģÑĤÐºÐ°": 6943,
      "Ð¸ÑģÑĤÐ¸Ðº": 6944,
      "ÐµÐ¿Ð¾ÑĩÐºÐ°": 6945,
      "EDIUM": 6946,
      "1234": 6947,
      "Testing": 6948,
      "ĠÐ´Ð¾Ð»Ð¶Ð½Ñĭ": 6949,
      "ĠÐ¿Ð¾Ð´Ð´": 6950,
      "racket": 6951,
      "Maximum": 6952,
      "checks": 6953,
      "ĠÐ¾Ð±ÑĬÑıÐ²": 6954,
      "Ð¾ÑıÐ½Ð¸Ñı": 6955,
      "Ġabsolute": 6956,
      "Ġnormalized": 6957,
      "ĠÑģÐ¿Ð¸ÑģÐ¾Ðº": 6958,
      "aving": 6959,
      "avings": 6960,
      "ircular": 6961,
      "Ġterms": 6962,
      "ĠÐ´ÐµÐ»ÐµÐ½Ð¸Ñı": 6963,
      "imension": 6964,
      "Ġgreen": 6965,
      "Ġgreet": 6966,
      "Ġsteps": 6967,
      "bstraction": 6968,
      "ĠÐ¾ÑģÑĤÐ°Ð½Ð¾Ð²": 6969,
      "ÐľÐ°ÐºÑģÐ¸Ð¼Ð°Ð»ÑĮÐ½Ð°Ñı": 6970,
      "Ġpercentage": 6971,
      "ĠÑģÑĤÑĥÐ´ÐµÐ½ÑĤÐ°": 6972,
      "ruits": 6973,
      "ergency": 6974,
      "ĠÐ·Ð°ÐºÐ°Ð·Ð¾Ð²": 6975,
      "ĠÑģÑĥÐ¼Ð¼Ñĥ": 6976,
      "ĠÐ¿ÑĢÐ¾ÑĨÐµÐ½ÑĤ": 6977,
      "ĠÐ¿ÑĢÐ¾ÑĨÐµÑģÑģ": 6978,
      "ĠÐ½Ð°ÑĩÐ°Ð»Ð¾": 6979,
      "Ġdimension": 6980,
      "ĠSystemConfig": 6981,
      "Ð¾Ð³ÑĢÐ°Ð¼Ð¼Ð°": 6982,
      "ĠÐĴÐ¾Ð·Ð²ÑĢÐ°Ñī": 6983,
      "ĠÐ¶Ðµ": 6984,
      "ĠÐĳÐ°Ð·Ð¾Ð²ÑĭÐ¹": 6985,
      "ĠÐºÐ¾ÑįÑĦÑĦÐ¸ÑĨÐ¸ÐµÐ½ÑĤÑĭ": 6986,
      "ÑıÐ¼Ð±Ð´Ð°": 6987,
      "small": 6988,
      "ĠFibonacciGenerator": 6989,
      "GRAM": 6990,
      "Ð°ÐºÑĤÐ¾ÑĢÐ¸": 6991,
      "Ð°ÑĢÐ¿Ð»Ð°ÑĤÐ°": 6992,
      "ĠÐ¼ÐµÐ½ÑĮÑĪÐµ": 6993,
      "'))": 6994,
      "70": 6995,
      "ATION": 6996,
      "Get": 6997,
      "IO": 6998,
      "IV": 6999,
      "Last": 7000,
      "Radians": 7001,
      "]--;\\": 7002,
      "gcd": 7003,
      "score": 7004,
      "spec": 7005,
      "timer": 7006,
      "Ġra": 7007,
      "Ġ...);\\": 7008,
      "desc": 7009,
      "Ð½ÐµÐ¼": 7010,
      "alnum": 7011,
      "connection": 7012,
      ">\\\\": 7013,
      "Ġmalloc": 7014,
      "Ġmark": 7015,
      "Ġplayer": 7016,
      "thing": 7017,
      "Ġsame": 7018,
      "Ġostringstream": 7019,
      "rip": 7020,
      "admin": 7021,
      "isPalindrome": 7022,
      "pages": 7023,
      "ird": 7024,
      "Ġdecrement": 7025,
      "Ġhold": 7026,
      "ĠÐ²Ð²Ð¾Ð´": 7027,
      "ĠÐ´Ð»Ð¸": 7028,
      "Ð¾ÑĢÑĦ": 7029,
      "Ġrsa": 7030,
      "Ð½Ð¾Ñģ": 7031,
      "[]>": 7032,
      "ÑĦÐ¸Ð³": 7033,
      "ÐŀÐł": 7034,
      "temperature": 7035,
      "ĠtotalSize": 7036,
      "Ġcompile": 7037,
      "ÐľÐ°ÐºÑģÐ¸Ð¼ÑĥÐ¼": 7038,
      "ÐļÐ°Ðº": 7039,
      "oneable": 7040,
      "ĠÑĢÐ°ÑģÑģÑĤ": 7041,
      "...(": 7042,
      "Ġtimeval": 7043,
      "ĠGRE": 7044,
      "ĠÐļÐ¾Ð¼Ð¿": 7045,
      "Compare": 7046,
      "Compression": 7047,
      "READ": 7048,
      "ONE": 7049,
      "ĠÑģÑĤÐ¾ÑĢÐ¾": 7050,
      "formation": 7051,
      "Ġyears": 7052,
      "Results": 7053,
      "LOS": 7054,
      "ĠÐ¢ÐµÐ¿ÐµÑĢÑĮ": 7055,
      "ĠTypeInfo": 7056,
      "ĠAnother": 7057,
      "bined": 7058,
      "TICAL": 7059,
      "green": 7060,
      "cents": 7061,
      "ĠÐĲÐ²": 7062,
      "ĠTrans": 7063,
      "Ġsquares": 7064,
      "Ð¾Ð»ÑĮÐ·Ð¾Ð²Ð°ÑĤÐµÐ»ÑĮ": 7065,
      "ĠÐºÐ¾Ð½ÑģÑĤÐ°Ð½ÑĤÐ½ÑĥÑİ": 7066,
      "OLD": 7067,
      "ĠinorderTraversal": 7068,
      "ĠÐ¾ÑĪÐ¸Ð±ÐºÐ¸": 7069,
      "ĠÑĢÐµÐ·ÑĥÐ»ÑĮÑĤÐ°ÑĤÐ°": 7070,
      "VALID": 7071,
      "RITICAL": 7072,
      "Ġuniform": 7073,
      "Ġfailure": 7074,
      "ĠÐ¿ÑĢÐ°Ð²Ð¸Ð»ÑĮ": 7075,
      "Ð¸ÑĤÐµÐ»Ñı": 7076,
      "ĠÐ¾ÐºÑĢÑĥÐ¶": 7077,
      "Ġtags": 7078,
      "ĠloadedPlugins": 7079,
      "ĠÑģÐ»ÑĥÑĩÐ°": 7080,
      "Ġdemonstrate": 7081,
      "Ġflush": 7082,
      "ĠÑģÐºÐ¸Ð´ÐºÐ°": 7083,
      "ĠCreating": 7084,
      "BEGIN": 7085,
      "fficLight": 7086,
      "celeration": 7087,
      "ĠÐ¿ÑĢÐµÐ´ÑģÑĤÐ°Ð²Ð»ÐµÐ½Ð¸Ðµ": 7088,
      "Ð¾Ð¿ÑĥÑģÑĤÐ¸Ð¼": 7089,
      "Ġholds": 7090,
      "ĠÐ´Ð»Ð¸Ð½Ñĭ": 7091,
      "ĠÑģÑĤÐ¾ÑĢÐ¾Ð½Ñĭ": 7092,
      "([]()": 7093,
      ")];\\": 7094,
      ")...);\\": 7095,
      "29": 7096,
      "Auto": 7097,
      "Async": 7098,
      "Bank": 7099,
      "CD": 7100,
      "Dec": 7101,
      "EY": 7102,
      "Hits": 7103,
      "MODE": 7104,
      "NET": 7105,
      "Pay": 7106,
      "Secret": 7107,
      "Two": 7108,
      "Vertices": 7109,
      "VirtualBase": 7110,
      "Water": 7111,
      "Whe": 7112,
      "blue": 7113,
      "dot": 7114,
      "dices": 7115,
      "dimension": 7116,
      "eels": 7117,
      "kopecks": 7118,
      "lor": 7119,
      "non": 7120,
      "nDE": 7121,
      "oStack": 7122,
      "pImpl": 7123,
      "salary": 7124,
      "smart": 7125,
      "uage": 7126,
      "xor": 7127,
      "yer": 7128,
      "});": 7129,
      "Ġrisky": 7130,
      "Ġ\\\"|": 7131,
      "relaxed": 7132,
      "ĠÐ¯": 7133,
      "Ð¸Ñī": 7134,
      "ÑĢÐ¾Ð¶Ð´ÐµÐ½": 7135,
      "ÑģÐ¾Ð»": 7136,
      "amage": 7137,
      "onment": 7138,
      "Ġfull": 7139,
      "Ġvacation": 7140,
      "Ġvowels": 7141,
      "Ð»Ð¸Ð¶": 7142,
      "Ġcandidate": 7143,
      "ĠintValue": 7144,
      "Ġaggregate": 7145,
      "Ġsq": 7146,
      "Ġsup": 7147,
      "ÑĥÑĦÑĦ": 7148,
      "ÑĥÑĦÐµÑĢ": 7149,
      "ÑıÐµÑĤÑģÑı": 7150,
      "Ġequal": 7151,
      "\\\\\\\",": 7152,
      "ÐºÑĤ": 7153,
      "ÐºÐ¾ÑģÑĤÑĮ": 7154,
      "getC": 7155,
      "ÑģÑĤÐ¾Ð¹": 7156,
      "isAvailable": 7157,
      "ironment": 7158,
      "(\\\".": 7159,
      "ĠShared": 7160,
      "Ġlink": 7161,
      "ĠTuple": 7162,
      "Ġdecompressed": 7163,
      "ĠÐ´Ð½ÐµÐ¹": 7164,
      "Ġinc": 7165,
      "ayThrow": 7166,
      "aylor": 7167,
      "Ð¸ÑĤÐ°": 7168,
      "ĠgetD": 7169,
      "ĠgetState": 7170,
      "ĠgetNext": 7171,
      "abab": 7172,
      "Store": 7173,
      "Ð°Ð»Ð¾": 7174,
      "ĠnewValue": 7175,
      "locked": 7176,
      "ĠisEven": 7177,
      "ĠĠĠĠĠĠĠĠĠĠĠĠĠĠĠĠĠĠĠĠĠĠĠĠĠĠĠĠĠĠĠĠĠĠĠĠĠĠ": 7178,
      "Ð¾Ð±ÐµÐ´": 7179,
      "esc": 7180,
      "Ġprogress": 7181,
      "Ġprototype": 7182,
      "ĠprintValue": 7183,
      "ĠÑĥÑĢÐ°Ð²Ð½ÐµÐ½Ð¸Ñı": 7184,
      "redit": 7185,
      "1010": 7186,
      "ĠRenderer": 7187,
      "ĠcurrentNode": 7188,
      "ÐłÐ°Ð²": 7189,
      "Ð¶Ð°ÑĤ": 7190,
      "Ġcompress": 7191,
      "ÐľÐ°ÑĢ": 7192,
      "filesystem": 7193,
      "ĠprocessData": 7194,
      "ĠÐ¿ÐµÑĢÐµÐ¿Ð¾Ð»Ð½": 7195,
      "ĠOK": 7196,
      "ÐµÐ¹ÑĤ": 7197,
      "Ġcreation": 7198,
      "ERT": 7199,
      "Ð½Ð¾ÑģÑĤÐ¾ÑĢÐ¾Ð½": 7200,
      "prod": 7201,
      "HelloPlugin": 7202,
      "currentState": 7203,
      "orderLevel": 7204,
      "ĠtargetTemp": 7205,
      "ĠuserService": 7206,
      "Enabled": 7207,
      "topIndex": 7208,
      "ĠbaseSalary": 7209,
      "ĠcheckIn": 7210,
      "ĠÐºÐ¾Ð½ÑĨ": 7211,
      "ALARY": 7212,
      "loadPlugin": 7213,
      "short": 7214,
      "ĠswapValues": 7215,
      "ÐĳÐµÐ·": 7216,
      "interval": 7217,
      "ĠComputation": 7218,
      "ÐµÑīÐ°ÐµÐ¼": 7219,
      "ĠtopNode": 7220,
      "ĠÐ¿Ð¾Ð´Ð¼Ð½Ð¾Ð¶": 7221,
      "ĠFileHandler": 7222,
      "ÑģÑĤÐ²Ð°": 7223,
      "ACITY": 7224,
      "Ġgeneration": 7225,
      "ĠInventory": 7226,
      "ĠSingletonLogger": 7227,
      "Ð¦ÐµÐ»": 7228,
      "ĠÐ¾Ð¿ÐµÑĢÐ°ÑĨÐ¸Ð¹": 7229,
      "ĠNetworkPacket": 7230,
      "Ġtrain": 7231,
      "issing": 7232,
      "ĠArrayIterator": 7233,
      "initializer": 7234,
      "ĠÑĩÐ°ÑģÑĤÐ¸": 7235,
      "Locking": 7236,
      "ĠÐºÐ¾Ð¿Ð¸ÑĢÐ¾Ð²Ð°Ð½Ð¸Ðµ": 7237,
      "ĠÐ¿Ð¾Ð»ÑĥÑĩÐµÐ½Ð¸Ñı": 7238,
      "CurrentState": 7239,
      "grades": 7240,
      "ÑĢÐ°Ð½Ð¸Ñĩ": 7241,
      "ĠMemento": 7242,
      "ĠusersById": 7243,
      "ĠreceivedData": 7244,
      "ĠExample": 7245,
      "Ġuniversity": 7246,
      "Ġscaled": 7247,
      "Permission": 7248,
      "uleOfFive": 7249,
      "fieldCount": 7250,
      "ĠÐ¿Ð°Ð¼ÑıÑĤÑĮ": 7251,
      "ĠListNode": 7252,
      "ĠLazyValue": 7253,
      "ĠÐ¿Ð°ÑĢÐ°Ð¼ÐµÑĤÑĢ": 7254,
      "Locator": 7255,
      "ĠCoffeeDecorator": 7256,
      "Ġvehicles": 7257,
      "Ġbounds": 7258,
      "ĠShopping": 7259,
      "Ð°Ð½Ð´Ð°ÑĢÑĤ": 7260,
      "ĠDynamicArray": 7261,
      "ĠÐ¿Ð¾Ð»ÑĮÐ·Ð¾Ð²Ð°ÑĤÐµÐ»ÑĮÑģÐº": 7262,
      "anguage": 7263,
      "sidual": 7264,
      "ĠSerializationRegistry": 7265,
      "ĠPermission": 7266,
      "ĠPrototype": 7267,
      "ÑģÐ¾Ð»ÑİÑĤ": 7268,
      "Ð½Ð¾ÑģÑĤÐ¾ÑĢÐ¾Ð½Ð½Ð¸Ð¹": 7269,
      "ĠÐ¿Ð¾Ð´Ð¼Ð½Ð¾Ð¶ÐµÑģÑĤÐ²": 7270,
      "BLE": 7271,
      "Cast": 7272,
      "Factor": 7273,
      "History": 7274,
      "ILE": 7275,
      "Limit": 7276,
      "OK": 7277,
      "RD": 7278,
      "UT": 7279,
      "ZER": 7280,
      "ai": 7281,
      "half": 7282,
      "rute": 7283,
      "volume": 7284,
      "Ġut": 7285,
      "ĠĠĠĠĠ": 7286,
      "intPtr": 7287,
      "endif": 7288,
      "Ð½ÐµÐµ": 7289,
      "aligned": 7290,
      "urses": 7291,
      "ÑĢÐ°Ñģ": 7292,
      "Ġva": 7293,
      "Ġdollars": 7294,
      "Ġcipher": 7295,
      "Ġbyte": 7296,
      "Ġbrute": 7297,
      "ious": 7298,
      "Ġ**": 7299,
      "ract": 7300,
      "ĠSH": 7301,
      "ĠÐ´ÐµÐº": 7302,
      "Coeffs": 7303,
      "abel": 7304,
      "ftime": 7305,
      "ĠArea": 7306,
      "Ġisbn": 7307,
      "plugin": 7308,
      "Ġproxy": 7309,
      "ĠmaxSoFar": 7310,
      "INE": 7311,
      "ĠÐ¿ÑĢÐµÑĦÐ¸ÐºÑģ": 7312,
      "aca": 7313,
      "Proxy": 7314,
      "Ġself": 7315,
      "):\\\\": 7316,
      "Ġmoving": 7317,
      "ÐĲÐ²": 7318,
      "progress": 7319,
      "LED": 7320,
      "ĠÐ·Ð½Ð°ÑĩÐµÐ½Ð¸ÐµÐ¼": 7321,
      "RED": 7322,
      "9999": 7323,
      "formatted": 7324,
      "\"\"]": 7325,
      "ÑĢÐ°Ð²Ð½Ð¸Ð²Ð°Ð½Ð¸Ðµ": 7326,
      "ORT": 7327,
      "Ð°Ð¹ÑĤÐ¸": 7328,
      "Truck": 7329,
      "ĠÐ¾ÑĨÐµÐ½": 7330,
      "ĠdistanceTo": 7331,
      "0001": 7332,
      "ĠDevice": 7333,
      "cell": 7334,
      "Ġrobot": 7335,
      "Address": 7336,
      "ĠTimeInterval": 7337,
      "OUBLE": 7338,
      "ÑĥÐ»Ð°": 7339,
      "Ġassignment": 7340,
      "Outer": 7341,
      "middle": 7342,
      "ĠÐ¼Ð¸Ð½ÑĥÑĤ": 7343,
      "Ð¾Ð±ÑīÐµÐ½Ð¸Ðµ": 7344,
      "ĠÐ·Ð°Ð²ÐµÑĢÑĪÐµÐ½Ð¸Ñı": 7345,
      "Deposit": 7346,
      "bstract": 7347,
      "ĠÑĢÐ°Ð²ÐµÐ½": 7348,
      "ĠÑĢÐµÐ°Ð»Ð¸Ð·Ð°ÑĨÐ¸Ñı": 7349,
      "ĠÐ§ÑĤÐµÐ½Ð¸Ðµ": 7350,
      "ultiple": 7351,
      "Transform": 7352,
      "ĠÐ¿Ð¾Ð»ÑĮÐ·Ð¾Ð²Ð°ÑĤÐµÐ»ÐµÐ¹": 7353,
      "SETFL": 7354,
      "Ġremoved": 7355,
      "ÐŁÑĢÐ¾Ð¸Ð·Ð²ÐµÐ´ÐµÐ½Ð¸Ðµ": 7356,
      "COMPLETED": 7357,
      "ĠÐ²Ð¾Ð·Ð²ÑĢÐ°ÑīÐ°ÐµÐ¼": 7358,
      "Ð¾Ð³ÑĢÐµÑģÑģ": 7359,
      "ĠÑģÐµÑĢÐ²ÐµÑĢ": 7360,
      "FINE": 7361,
      "ĠÐ²ÑĭÑģÐ¾ÑĤÑĥ": 7362,
      "ĠÐŁÐ¾Ð»ÑĥÑĩÐµÐ½Ð¸Ðµ": 7363,
      "ĠÐ´ÐµÐ¹ÑģÑĤÐ²Ð¸ÑĤÐµÐ»ÑĮÐ½ÑĭÑħ": 7364,
      "Step": 7365,
      "ĠLOG": 7366,
      "Operator": 7367,
      "aptop": 7368,
      "ĠTrafficLight": 7369,
      "METHOD": 7370,
      "ĠHashTable": 7371,
      "ÑĦÐ¸Ð³ÑĥÑĢÐ°": 7372,
      "ĠGREEN": 7373,
      "ZERO": 7374,
      "*\\\"": 7375,
      "44": 7376,
      "79": 7377,
      "BooleanExpression": 7378,
      "Critical": 7379,
      "DA": 7380,
      "DD": 7381,
      "Db": 7382,
      "Ed": 7383,
      "IS": 7384,
      "ITION": 7385,
      "Low": 7386,
      "Man": 7387,
      "Mouse": 7388,
      "PimplExample": 7389,
      "RA": 7390,
      "Root": 7391,
      "Sw": 7392,
      "VD": 7393,
      "WOU": 7394,
      "Watermark": 7395,
      "dq": 7396,
      "factor": 7397,
      "gth": 7398,
      "gion": 7399,
      "large": 7400,
      "lision": 7401,
      "mise": 7402,
      "ng": 7403,
      "sym": 7404,
      "ux": 7405,
      "zer": 7406,
      "Ġge": 7407,
      "Ġerr": 7408,
      "Ġupper": 7409,
      "Ġorders": 7410,
      "Ð¾ÑįÑĦÑĦÐ¸ÑĨÐ¸ÐµÐ½ÑĤ": 7411,
      "ĠÐĸ": 7412,
      "deposit": 7413,
      "ÑģÐ°": 7414,
      "Ġmana": 7415,
      "Ġdf": 7416,
      "Ġderiv": 7417,
      "Ð»Ð¸Ð²": 7418,
      "Ġpb": 7419,
      "Ġpack": 7420,
      "Ġpolar": 7421,
      "Ġcsv": 7422,
      "Ġsingle": 7423,
      "Ġoff": 7424,
      "road": 7425,
      "cherry": 7426,
      "isNegative": 7427,
      "ĠÐ¿Ð»": 7428,
      "ĠÐ¿Ð¾Ñģ": 7429,
      "expen": 7430,
      "Ġweek": 7431,
      "ĠÑģÐ¼": 7432,
      "ĠÑģÑĥÑĦÑĦ": 7433,
      "ĠCat": 7434,
      "ĠSpan": 7435,
      "ottom": 7436,
      "mac": 7437,
      "Ð¼Ð¸": 7438,
      "Ġ})\\": 7439,
      "Ð¾Ð»ÑģÑĤÐ¾Ð¹": 7440,
      "asSize": 7441,
      "ĠÐ½ÐµÑģ": 7442,
      "ĠÐ½ÐµÐºÐ¾ÑĢÑĢÐµÐºÑĤ": 7443,
      "ĠÐ´Ð¸Ð°Ð³": 7444,
      "html": 7445,
      "ĠPurchase": 7446,
      "pton": 7447,
      "ability": 7448,
      ">([](": 7449,
      "ĠstrData": 7450,
      "Ġstrncpy": 7451,
      "ĠÐºÐ¾Ð»": 7452,
      "ĠÐºÐ¾Ð»Ð¸ÑĩÐµÑģÑĤÐ²": 7453,
      "ÑĪÐµÐ½": 7454,
      "ĠÐ¸ÑģÑĤ": 7455,
      "ĠÐ¸ÑģÐ¿Ð¾Ð»ÑĮÐ·Ñĥ": 7456,
      "Ġexact": 7457,
      "Ð°Ð½Ð¸ÑĨ": 7458,
      "ĠÑĤÐ°Ð±Ð»": 7459,
      "Ġtolower": 7460,
      "ĠField": 7461,
      "ÐĿÐ¾Ð²ÑĭÐ¹": 7462,
      "ĠVariable": 7463,
      "ĠLength": 7464,
      "ĠLimited": 7465,
      "Ð°Ð¹ÑĪ": 7466,
      "ĠaddTo": 7467,
      "Ð¾Ð·Ð¸": 7468,
      "ĠEdge": 7469,
      "ĠEAG": 7470,
      "ĠEWOU": 7471,
      "ĠÐ¡Ð¾": 7472,
      "Ð¸ÑĢÐ¾Ð²Ð°ÑĤÑĮ": 7473,
      "Ġits": 7474,
      "Promise": 7475,
      "rength": 7476,
      "ĠkeyMap": 7477,
      "StateA": 7478,
      "ĠÐ¾Ð±Ð°": 7479,
      "ĠStream": 7480,
      "ĠtaskDependencies": 7481,
      "Ð¸Ð±Ð¾": 7482,
      "ĠOper": 7483,
      "ĠtimeOfDay": 7484,
      "STAN": 7485,
      "127": 7486,
      "Ġouter": 7487,
      "ÐķÐ¢": 7488,
      "ĠÐ³Ð¾ÑĢÐ¾Ð´": 7489,
      "ONLY": 7490,
      "This": 7491,
      "Ġ\\\"[\\\";\\": 7492,
      "ĠÐłÐµÐºÑĥÑĢÑģ": 7493,
      "ÑĢÐ°Ð²Ð½ÐµÐ½Ð¸Ð¹": 7494,
      "ĠbookCount": 7495,
      "ART": 7496,
      "Quantity": 7497,
      "Ġmodified": 7498,
      "Ġmodulus": 7499,
      "Ð¸ÑĩÐµÑģÐºÐ¾Ð³Ð¾": 7500,
      "456": 7501,
      "Checksum": 7502,
      "ĠÐ´Ð¾ÑħÐ¾Ð´": 7503,
      "ĠÑģÐºÐ¾Ð±": 7504,
      "Ð¸ÑĢÑĥÑİÑī": 7505,
      "Ð½Ð¾Ð²Ð½Ð¾Ð¹": 7506,
      "ĠRationalMatrix": 7507,
      "totalAmount": 7508,
      "ExprNode": 7509,
      "ĠConcreteColleague": 7510,
      "maton": 7511,
      "Ġbacktrack": 7512,
      "IGN": 7513,
      "Threads": 7514,
      "Ġpartitions": 7515,
      "edges": 7516,
      "Starting": 7517,
      "ĠNetworkException": 7518,
      "Ġsmallest": 7519,
      "Serialize": 7520,
      "Ġoptimized": 7521,
      "ĠÐ¿Ð¾Ð²ÐµÑĢÑħ": 7522,
      "destination": 7523,
      "ributes": 7524,
      "ĠÑĤÐ¾ÑĩÐºÐ¸": 7525,
      "ĠMultip": 7526,
      "Ġgreater": 7527,
      "ĠAnyCallable": 7528,
      "decay": 7529,
      "Ġsieve": 7530,
      "ĠÑģÑĤÑĢÐ°Ð½Ð¸ÑĨ": 7531,
      "omething": 7532,
      "Ð¸ÑĦÑĢÐ¾Ð²Ð°Ð½Ð½ÑĭÐ¹": 7533,
      "ĠMathError": 7534,
      "CCESS": 7535,
      "Ð¢ÐµÐºÑģÑĤ": 7536,
      "ĠÑĢÐ°Ð·ÑĢÑĥÑĪÐµÐ½Ð°": 7537,
      "ĠÐ½Ð¾Ð²Ð¾Ð³Ð¾": 7538,
      "ĠObjectTracker": 7539,
      "Ð¼ÐµÑģÑĤÐ¸Ð¼": 7540,
      "Ġrenderer": 7541,
      "Ð°ÐºÑĤÐ¸Ð²": 7542,
      "FINAE": 7543,
      "LDBLOCK": 7544,
      "Ġattendance": 7545,
      "ECTOR": 7546,
      "ooter": 7547,
      "ĠoddCount": 7548,
      "viction": 7549,
      "CheckedLocking": 7550,
      "igenere": 7551,
      "ĠÐ³ÑĢÐ°ÑĦÐ°": 7552,
      "ĠÑĤÐ°Ð¹Ð¼Ð°ÑĥÑĤ": 7553,
      "ĠÐŀÐ¿ÐµÑĢÐ°ÑĤÐ¾ÑĢ": 7554,
      "inancialAccount": 7555,
      "ÑĥÐ¿ÑĢÐµÐ¶Ð´ÐµÐ½Ð¸Ðµ": 7556,
      "ĠÐŀÐ±Ð½Ð¾Ð²Ð»ÑıÐµÐ¼": 7557,
      "ĠCOLS": 7558,
      "ĠÐ¿ÑĢÐ¸Ð½Ð¸Ð¼": 7559,
      "Ġtxn": 7560,
      "Insertions": 7561,
      "ĠÐ¼Ð¾Ð³ÑĥÑĤ": 7562,
      "ublisher": 7563,
      "ĠÐ¾ÐºÑĢÑĥÐ¶Ð½Ð¾ÑģÑĤÐ¸": 7564,
      "Wheels": 7565,
      "roadcast": 7566,
      "ĠEAGAIN": 7567,
      "ĠEWOULDBLOCK": 7568,
      "78": 7569,
      "Cle": 7570,
      "Call": 7571,
      "Head": 7572,
      "Money": 7573,
      "Parent": 7574,
      "SH": 7575,
      "Sensor": 7576,
      "Wait": 7577,
      "aive": 7578,
      "istringstream": 7579,
      "nname": 7580,
      "public": 7581,
      "power": 7582,
      "Ġctime": 7583,
      "Ġ\\\"!": 7584,
      "Ġ\\\"&": 7585,
      "Ġ\\\"<": 7586,
      "Ġ\\\"...\\\"": 7587,
      "Ġ\\\"---": 7588,
      "Ð°ÑĨÐ¸Ñİ": 7589,
      "dequeue": 7590,
      "decrypted": 7591,
      "Ð¸Ð¾ÑĢÐ¸ÑĤÐµÑĤ": 7592,
      "Ð¸ÐµÑģÑı": 7593,
      "Ð½ÐµÑģ": 7594,
      "Ð½ÐµÐ³Ð¾": 7595,
      "Ġnetwork": 7596,
      "Ġasc": 7597,
      "ÑıÑī": 7598,
      "rit": 7599,
      "ÐµÐ½Ð½Ð¾Ð³Ð¾": 7600,
      "mport": 7601,
      "getAccount": 7602,
      "isalnum": 7603,
      "ĠÐ¿Ð¾Ð¼": 7604,
      "version": 7605,
      "ĠCop": 7606,
      "paces": 7607,
      "Rec": 7608,
      "\\\",\\\"": 7609,
      "ĠÐ½Ð¸Ð¶": 7610,
      "ĠÐ½Ð°Ð±Ð»ÑİÐ´": 7611,
      "Ð¾ÑĢÐ¾Ð²": 7612,
      "Ġ');\\": 7613,
      "ĠgetAll": 7614,
      "ĠgetBalance": 7615,
      "ĠBLOCK": 7616,
      "Ġgame": 7617,
      "ĠÐºÐ°ÑĤ": 7618,
      "ĠMIN": 7619,
      "ĠManager": 7620,
      "addItem": 7621,
      "Ð¸Ð¼Ð¸": 7622,
      "Ð¹ÑĤÐµ": 7623,
      "ĠAll": 7624,
      "Nodes": 7625,
      "Ġcharge": 7626,
      "Ð¾ÑĤÐ¾Ð²": 7627,
      "Ġproto": 7628,
      "beg": 7629,
      "Ð¾Ð¼Ñĥ": 7630,
      "Ð¾Ð¼Ð±": 7631,
      "Ð¾Ð½Ð¸Ð¼": 7632,
      "Ð¾Ð½ÐµÑĩ": 7633,
      "ĠÐ±ÑĥÐ´": 7634,
      "ÐŀÐ¶Ð¸Ð´": 7635,
      "ĠFunction": 7636,
      "Ġwheels": 7637,
      "ÐĺÐ¡": 7638,
      "ÐĺÐľ": 7639,
      "ĠsumOf": 7640,
      "ĠRest": 7641,
      "ĠReport": 7642,
      "Ð°ÑĢÐ°": 7643,
      "Ð°ÑĢÑı": 7644,
      "fahrenheit": 7645,
      "ĠÑĢÐ°ÑģÑģÑĤÐ¾ÑıÐ½Ð¸Ðµ": 7646,
      "ToRemove": 7647,
      "Ð¸Ð±Ð¾Ð»ÑĮÑĪ": 7648,
      "ĠwordCount": 7649,
      "Ð°Ð¿ÑĢÐ°Ð²": 7650,
      "Ð¸ÑĤÐµÐ»ÑĮÐ½Ð¾": 7651,
      "Ġsubset": 7652,
      "ĠGPU": 7653,
      "Comparison": 7654,
      "complete": 7655,
      "compute": 7656,
      "Device": 7657,
      "Ġattempts": 7658,
      "hasNext": 7659,
      "Ġmonths": 7660,
      "ÐŀÐ±ÑĢÐ°ÑĤ": 7661,
      "Ð°Ð³ÑĢÐ°Ð¼": 7662,
      "Cloneable": 7663,
      "Elements": 7664,
      "ÑıÐ¼Ð¸": 7665,
      "ÑıÐ¼Ð¾Ð¹": 7666,
      "cstdio": 7667,
      "ACH": 7668,
      "positions": 7669,
      "Ġintern": 7670,
      "ĠÐ¿Ð¾Ð»Ð¾Ð¶Ð¸ÑĤÐµÐ»ÑĮÐ½Ð¾Ð¹": 7671,
      "ĠÑĪÐ°Ð³": 7672,
      "ĠÐ¿ÑĢÐµÐ´Ð¼ÐµÑĤ": 7673,
      "Windows": 7674,
      "Ð¾ÑĢÑĤÐ¸ÑĢÐ¾Ð²ÐºÐ°": 7675,
      "Ġinteger": 7676,
      "ĠÑĩÐ°ÑģÑĤÑĮ": 7677,
      "distanceTo": 7678,
      "Substrings": 7679,
      "ĠÑģÐ¾ÑĢÑĤÐ¸ÑĢÐ¾Ð²ÐºÐ°": 7680,
      "ĠinterestRate": 7681,
      "ĠÐ¾ÑģÐ²Ð¾Ð±": 7682,
      "detailed": 7683,
      "ĠÐ¡ÑģÑĭÐ»ÐºÐ¸": 7684,
      "ĠÑĤÐµÐºÑģÑĤÐ°": 7685,
      "ĠÐ¿ÑĢÐ¾ÑģÑĤÐ¾Ðµ": 7686,
      "ÑĭÐ¼Ð¸": 7687,
      "Difference": 7688,
      "ĠÐ²ÑĭÐ·Ð¾Ð²Ð°": 7689,
      "enabled": 7690,
      "ÐµÑģÐºÐ¾Ð½ÐµÑĩ": 7691,
      "istreambuf": 7692,
      "ĠÐ²ÑĭÑĢÐ°Ð¶ÐµÐ½Ð¸Ðµ": 7693,
      "Ð¸Ð½Ð°Ð»ÑĮÐ½Ð¾Ðµ": 7694,
      "ĠÐ¿ÑĥÑĤÐ¸": 7695,
      "Ð¾Ð³ÑĢÐµÑĪÐ½Ð¾ÑģÑĤÑĮ": 7696,
      "nnamespace": 7697,
      "mportant": 7698,
      "&&)": 7699,
      "='": 7700,
      ">,\\": 7701,
      "But": 7702,
      "Deg": 7703,
      "LBuffer": 7704,
      "Large": 7705,
      "MS": 7706,
      "NAME": 7707,
      "PR": 7708,
      "QU": 7709,
      "SALARY": 7710,
      "Taylor": 7711,
      "VA": 7712,
      "Weekday": 7713,
      "XX": 7714,
      "ding": 7715,
      "fra": 7716,
      "global": 7717,
      "matic": 7718,
      "sing": 7719,
      "sent": 7720,
      "tag": 7721,
      "tree": 7722,
      "tail": 7723,
      "uge": 7724,
      "volatile": 7725,
      "Ġrollback": 7726,
      "storage": 7727,
      "Ġ\\\"\\\");\\": 7728,
      "rerror": 7729,
      "recurring": 7730,
      "rekar": 7731,
      "env": 7732,
      "()->": 7733,
      "ors": 7734,
      "deque": 7735,
      "Ġreceive": 7736,
      "Ġresidual": 7737,
      "ÑĢÐµÐ±": 7738,
      "seg": 7739,
      "ctet": 7740,
      "Ġflyweight": 7741,
      "Ġnaive": 7742,
      "Ġvariable": 7743,
      "Ð»Ð°Ñģ": 7744,
      "Ġpay": 7745,
      "Ġcallable": 7746,
      "Ġcube": 7747,
      "three": 7748,
      "Ġbrightness": 7749,
      "Ġbottom": 7750,
      "Ġsample": 7751,
      "ÑĥÐ·": 7752,
      "ÑıÐµÑĤ": 7753,
      "streamsize": 7754,
      "ader": 7755,
      "edy": 7756,
      "irth": 7757,
      "ĠCAP": 7758,
      "ĠCircular": 7759,
      "ĠSum": 7760,
      "ĠSIG": 7761,
      "ĠSocket": 7762,
      "ĠSERIAL": 7763,
      "ĠSFINAE": 7764,
      "ĠTensor": 7765,
      "ĠTreapNode": 7766,
      "Ð¼Ð¸Ð½": 7767,
      "002": 7768,
      "Ġholder": 7769,
      "ĠÐ²Ð½ÑĥÑĤÑĢÐ¸": 7770,
      "ÐµÐ½Ð¸Ñİ": 7771,
      "Core": 7772,
      "Counted": 7773,
      "Ġ'_": 7774,
      "ĠPassword": 7775,
      "tyEntities": 7776,
      "Ġ59": 7777,
      ">('": 7778,
      "ÑħÑĢÐ¾Ð½": 7779,
      "ĠMultiplier": 7780,
      "ĠMAP": 7781,
      "uniform": 7782,
      "Ġ>>=": 7783,
      "ĠAd": 7784,
      "Ġthen": 7785,
      "Ð·Ð°Ðº": 7786,
      "Ġconfirm": 7787,
      "ĠĠĠĠĠĠĠĠĠĠĠĠĠĠĠĠĠĠĠĠĠĠĠĠĠĠĠĠĠ": 7788,
      "ÑĢÐ¾Ð²ÐµÐ½ÑĮ": 7789,
      "agram": 7790,
      "aprekar": 7791,
      "ÐµÐºÐ°": 7792,
      "ÑİÐ±": 7793,
      "best": 7794,
      "Ġ101": 7795,
      "ĠcountIn": 7796,
      "Ð¸Ð½ÑħÑĢÐ¾Ð½": 7797,
      "ĠROW": 7798,
      "ĠLock": 7799,
      "ĠCore": 7800,
      "ĠNo": 7801,
      "Ð¸ÑĩÐ½Ð¾Ð¹": 7802,
      "ÐĶÑĢÐ¾Ð±ÑĮ": 7803,
      "ÑĢÑĥÐ¿": 7804,
      "Ð¢ÑĢÐµ": 7805,
      "ÐºÐ¸Ñħ": 7806,
      "ĠÐ²ÑĭÑħÐ¾Ð´": 7807,
      "Ġ75": 7808,
      "Ð¸Ð·Ñĥ": 7809,
      "IZABLE": 7810,
      "ĠhasDigit": 7811,
      "Ð»ÑĮÑĤÐµÑĢÐ½Ð°ÑĤ": 7812,
      "Ð¸ÑĨÑĭ": 7813,
      "subtract": 7814,
      "REUSE": 7815,
      "Ġdiag": 7816,
      "ĠÐ¼Ð°ÑģÑģÐ¸Ð²Ð¾Ð²": 7817,
      "ByType": 7818,
      "Ġstructure": 7819,
      "allocations": 7820,
      "Indexed": 7821,
      "Ð¾ÑĢÑĤÐ¸ÑĢÑĥÐµÐ¼": 7822,
      "ignore": 7823,
      "ORD": 7824,
      "Subsequence": 7825,
      "Ġvalidator": 7826,
      "sumer": 7827,
      "ucer": 7828,
      "','.','.','": 7829,
      "ĠTypeChecker": 7830,
      "Ġclassname": 7831,
      "ĠÐ£ÐºÐ°Ð·Ð°ÑĤÐµÐ»ÑĮ": 7832,
      "ĠÐ£Ð¿ÑĢÐ¾Ñī": 7833,
      "ÐĳÐµÐ·Ð¾Ð¿Ð°Ñģ": 7834,
      "eratosthenes": 7835,
      "ĠComposite": 7836,
      "ĠUDP": 7837,
      "DEBUG": 7838,
      "Ġdetach": 7839,
      "ĠDecorator": 7840,
      "RUN": 7841,
      "ĠÐĲÐ»ÑĮÑĤÐµÑĢÐ½Ð°ÑĤ": 7842,
      "expired": 7843,
      "ĠTaskScheduler": 7844,
      "azine": 7845,
      "Ġtransfer": 7846,
      "cerrno": 7847,
      "directory": 7848,
      "OUT": 7849,
      "Ġrecipient": 7850,
      "ĠÑıÐ²Ð»ÑıÑİÑĤÑģÑı": 7851,
      "Percentage": 7852,
      "ĠÐŁÐµÑĢÐµÐ´Ð°ÑĩÐ°": 7853,
      "Control": 7854,
      "Ġconstructed": 7855,
      "ĠArrayView": 7856,
      "hosts": 7857,
      "param": 7858,
      "ĠÑģÐ¿ÐµÑĨÐ¸": 7859,
      "ĠÑģÐ¿Ð¾ÑģÐ¾Ð±": 7860,
      "ĠMyString": 7861,
      "blocks": 7862,
      "Ġlocaltime": 7863,
      "ĠcardNumber": 7864,
      "ometric": 7865,
      "ĠThreadSafeFile": 7866,
      "Months": 7867,
      "Ġepoll": 7868,
      "ÐľÐ°ÐºÑģÐ¸Ð¼Ð°Ð»ÑĮÐ½Ð¾Ðµ": 7869,
      "Ġquicksort": 7870,
      "USD": 7871,
      "ĠServiceLocator": 7872,
      "ĠÑģÐ¾ÑģÑĤÐ¾ÑıÐ½Ð¸Ðµ": 7873,
      "Ġtrim": 7874,
      "UniquePtr": 7875,
      "ĠÐ¿ÑĢÐ¸ÑģÐ²Ð¾": 7876,
      "ĠundoStack": 7877,
      "ĠÑģÑĥÐ¼Ð¼Ñĭ": 7878,
      "andidates": 7879,
      "ĠbestPath": 7880,
      "Ġrecommendation": 7881,
      "Ð»Ð¾Ð¶ÐµÐ½Ð¸Ðµ": 7882,
      "Ð¾Ð¶Ð´ÐµÐ½Ð¸Ðµ": 7883,
      "ĠÐ´ÐµÑĢÐµÐ²Ð¾": 7884,
      "ĠÐºÑįÑĪÐ°": 7885,
      "Local": 7886,
      "iteral": 7887,
      "ĠApp": 7888,
      "Closed": 7889,
      "interest": 7890,
      "ĠÑĩÑĤÐµÐ½Ð¸Ñı": 7891,
      "ĠConstantType": 7892,
      "ĠÐ°ÑĢÐ³ÑĥÐ¼ÐµÐ½ÑĤÐ¾Ð²": 7893,
      "LibraryItem": 7894,
      "ÐľÐ¸Ð½Ð¸Ð¼Ð°Ð»ÑĮÐ½ÑĭÐ¹": 7895,
      "Optimized": 7896,
      "ULT": 7897,
      "Ð¸Ð¼ÑĥÐ»ÑıÑĨÐ¸Ñı": 7898,
      "SmartPointer": 7899,
      "ĠÐŀÑĩÐ¸ÑģÑĤÐºÐ°": 7900,
      "CAPACITY": 7901,
      "Ġ273": 7902,
      "ÑĢÐ°Ð±Ð°ÑĤ": 7903,
      "ĠTypeErasedContainer": 7904,
      "Ð²Ð°ÑĢÐ¸ÑĤÐµÐ»ÑĮ": 7905,
      "Ġcommitted": 7906,
      "ISSET": 7907,
      "ĠAsyncTask": 7908,
      "Ð°Ð»ÑıÑĢÐ½Ð¾Ðµ": 7909,
      "Ġpredi": 7910,
      "Ġcents": 7911,
      "ĠTRANSITION": 7912,
      "ĠÑĥÐ½Ð¸ÐºÐ°Ð»ÑĮ": 7913,
      "ĠPermissionSet": 7914,
      "ĠÑģÑĥÑĦÑĦÐ¸ÐºÑģ": 7915,
      "Ð¾Ð·Ð¸ÑĨÐ¸Ñı": 7916,
      "ĠÐ¿Ð¾Ð²ÐµÑĢÑħÐ½Ð¾ÑģÑĤÐ¸": 7917,
      "ĠCopy": 7918,
      "ButCloneable": 7919,
      "ĠROWS": 7920,
      "REUSEADDR": 7921,
      "!\\": 7922,
      "'},": 7923,
      "03": 7924,
      "48": 7925,
      "As": 7926,
      "EW": 7927,
      "FAI": 7928,
      "Gre": 7929,
      "IDatabase": 7930,
      "Mag": 7931,
      "NS": 7932,
      "Other": 7933,
      "Sorter": 7934,
      "VEL": 7935,
      "csignal": 7936,
      "dynamic": 7937,
      "fg": 7938,
      "fit": 7939,
      "good": 7940,
      "mission": 7941,
      "oe": 7942,
      "scores": 7943,
      "uper": 7944,
      "ĠÏ": 7945,
      "ĠExpected": 7946,
      "ĠĠĠĠĠĠ": 7947,
      "inner": 7948,
      "inUse": 7949,
      "record": 7950,
      "replace": 7951,
      "ints": 7952,
      "()];\\": 7953,
      "debug": 7954,
      "Ð¸Ð»Ð¸": 7955,
      "Ġrevenue": 7956,
      "alty": 7957,
      "select": 7958,
      "Ġmonitor": 7959,
      "Ġvertex": 7960,
      "Ġpeek": 7961,
      "theta": 7962,
      "Ġbonus": 7963,
      "round": 7964,
      "isOpen": 7965,
      "ĠÐ¿Ð°ÑĤ": 7966,
      "exchange": 7967,
      "++()": 7968,
      "ĠÑģÐ²": 7969,
      "Ġdep": 7970,
      "Ġ};": 7971,
      "Ġhr": 7972,
      "Ġheuristic": 7973,
      "ĠÐ²Ð²ÐµÐ»": 7974,
      "setValue": 7975,
      "asure": 7976,
      "strncpy": 7977,
      "ĠÐ´ÐµÐ½ÑĮ": 7978,
      "Ġnumeric": 7979,
      "Ġincrease": 7980,
      "ĠgetCounter": 7981,
      "ĠgetIs": 7982,
      "ĠPA": 7983,
      "ĠPart": 7984,
      "ĠDist": 7985,
      "ĠÐºÑĢÐ°ÑĤ": 7986,
      "Ġtruck": 7987,
      "omorphic": 7988,
      "ĠAL": 7989,
      "Ġconcaten": 7990,
      "ĠisEqual": 7991,
      "Ð¾Ð±Ñĭ": 7992,
      "ecure": 7993,
      "Ð¾ÐºÐ¸Ð¹": 7994,
      "ĠÐ·Ð°Ð½": 7995,
      "Ġtoggle": 7996,
      "ÐŀÐľ": 7997,
      "Ð±ÐµÑĢ": 7998,
      "Ð¸Ð½Ñĥ": 7999
    },
    "merges": [
      [
        "Ġ",
        "Ġ"
      ],
      [
        "ĠĠ",
        "ĠĠ"
      ],
      [
        "ĠĠ",
        "Ġ"
      ],
      [
        ";",
        "\\"
      ],
      [
        "Ġ",
        "<"
      ],
      [
        "s",
        "t"
      ],
      [
        "i",
        "n"
      ],
      [
        "\\",
        "\""
      ],
      [
        "Ġ<",
        "<"
      ],
      [
        "ĠĠĠĠ",
        "ĠĠĠ"
      ],
      [
        "Ġ",
        "\\\""
      ],
      [
        "c",
        "o"
      ],
      [
        "Ġ",
        "st"
      ],
      [
        "r",
        "e"
      ],
      [
        ":",
        ":"
      ],
      [
        "Ġ",
        "{"
      ],
      [
        "e",
        "n"
      ],
      [
        "Ġst",
        "d"
      ],
      [
        "Ð",
        "µ"
      ],
      [
        "Ġ",
        "="
      ],
      [
        "Ġ{",
        "\\"
      ],
      [
        "u",
        "t"
      ],
      [
        "e",
        "r"
      ],
      [
        "Ð",
        "¾"
      ],
      [
        "in",
        "t"
      ],
      [
        "(",
        ")"
      ],
      [
        "Ð",
        "°"
      ],
      [
        "o",
        "r"
      ],
      [
        "Ġ",
        "Ð"
      ],
      [
        "d",
        "e"
      ],
      [
        "Ġ",
        "\\"
      ],
      [
        "}",
        "\\"
      ],
      [
        "a",
        "t"
      ],
      [
        "co",
        "ut"
      ],
      [
        "Ð",
        "¸"
      ],
      [
        "en",
        "d"
      ],
      [
        "Ġ",
        "}\\"
      ],
      [
        "Ð",
        "½"
      ],
      [
        "Ġ",
        "i"
      ],
      [
        "l",
        "e"
      ],
      [
        "Ġ",
        "re"
      ],
      [
        "end",
        "l"
      ],
      [
        "Ñ",
        "Ĥ"
      ],
      [
        "a",
        "l"
      ],
      [
        "ĠĠĠĠ",
        "ĠĠĠĠĠĠĠ"
      ],
      [
        "c",
        "l"
      ],
      [
        ")",
        ";\\"
      ],
      [
        "u",
        "r"
      ],
      [
        "Ñ",
        "Ģ"
      ],
      [
        "Ñ",
        "ģ"
      ],
      [
        "Ð¾",
        "Ð"
      ],
      [
        "in",
        "g"
      ],
      [
        "a",
        "m"
      ],
      [
        "o",
        "n"
      ],
      [
        "Ġ",
        "("
      ],
      [
        "co",
        "n"
      ],
      [
        "Ġ",
        "0"
      ],
      [
        "a",
        "r"
      ],
      [
        ">",
        "\\"
      ],
      [
        "s",
        "e"
      ],
      [
        "t",
        "ur"
      ],
      [
        "tur",
        "n"
      ],
      [
        "Ġre",
        "turn"
      ],
      [
        "c",
        "t"
      ],
      [
        "u",
        "de"
      ],
      [
        "Ġ",
        "m"
      ],
      [
        "cl",
        "ude"
      ],
      [
        "in",
        "clude"
      ],
      [
        "Ġ",
        "f"
      ],
      [
        "Ġ",
        "n"
      ],
      [
        "Ġ",
        "v"
      ],
      [
        "Ġ",
        "cout"
      ],
      [
        "Ġ",
        "t"
      ],
      [
        "Ġ",
        "d"
      ],
      [
        "s",
        "i"
      ],
      [
        "Ð",
        "»"
      ],
      [
        "u",
        "b"
      ],
      [
        "Ġ",
        "p"
      ],
      [
        "con",
        "st"
      ],
      [
        "c",
        "e"
      ],
      [
        "r",
        "ing"
      ],
      [
        "Ġ",
        "c"
      ],
      [
        "Ġ",
        "int"
      ],
      [
        "Ġ",
        "endl"
      ],
      [
        "u",
        "n"
      ],
      [
        "u",
        "e"
      ],
      [
        "t",
        "h"
      ],
      [
        "i",
        "d"
      ],
      [
        "Ġ",
        "a"
      ],
      [
        "Ðµ",
        "Ð"
      ],
      [
        "Ġ",
        "b"
      ],
      [
        "Ġi",
        "f"
      ],
      [
        "a",
        "n"
      ],
      [
        "g",
        "e"
      ],
      [
        "am",
        "e"
      ],
      [
        "i",
        "c"
      ],
      [
        "z",
        "e"
      ],
      [
        "Ġ",
        "s"
      ],
      [
        "e",
        "ct"
      ],
      [
        "Ġ",
        "o"
      ],
      [
        "Ġ",
        "1"
      ],
      [
        "Ġm",
        "a"
      ],
      [
        "ĠĠĠĠ",
        "ĠĠĠĠ"
      ],
      [
        "Ð°",
        "Ð"
      ],
      [
        "Ñ",
        "ĥ"
      ],
      [
        "Ñ",
        "ı"
      ],
      [
        "r",
        "o"
      ],
      [
        "st",
        "ring"
      ],
      [
        "r",
        "i"
      ],
      [
        "s",
        "s"
      ],
      [
        "Ñ",
        "ĭ"
      ],
      [
        "si",
        "ze"
      ],
      [
        "u",
        "s"
      ],
      [
        "i",
        "on"
      ],
      [
        "c",
        "k"
      ],
      [
        "re",
        "am"
      ],
      [
        "Ġ",
        "/"
      ],
      [
        "Ðµ",
        "Ð½"
      ],
      [
        "t",
        "e"
      ],
      [
        "st",
        "ream"
      ],
      [
        "m",
        "p"
      ],
      [
        "Ġ",
        "+"
      ],
      [
        "Ġ",
        ":"
      ],
      [
        "u",
        "m"
      ],
      [
        "at",
        "e"
      ],
      [
        "Ġ",
        "const"
      ],
      [
        "ub",
        "le"
      ],
      [
        "o",
        "uble"
      ],
      [
        "i",
        "o"
      ],
      [
        "Ð¸",
        "Ð"
      ],
      [
        "}",
        ";\\"
      ],
      [
        "t",
        "r"
      ],
      [
        "u",
        "l"
      ],
      [
        "()",
        ";\\"
      ],
      [
        "i",
        "t"
      ],
      [
        "n",
        "int"
      ],
      [
        "Ġ",
        "e"
      ],
      [
        "=",
        "="
      ],
      [
        "o",
        "id"
      ],
      [
        "Ġf",
        "or"
      ],
      [
        "en",
        "t"
      ],
      [
        "Ġ",
        "#"
      ],
      [
        "ect",
        "or"
      ],
      [
        "a",
        "d"
      ],
      [
        "Ġma",
        "in"
      ],
      [
        "io",
        "stream"
      ],
      [
        "\\",
        "\\"
      ],
      [
        "Ġ/",
        "/"
      ],
      [
        "p",
        "e"
      ],
      [
        "l",
        "o"
      ],
      [
        "un",
        "t"
      ],
      [
        "c",
        "h"
      ],
      [
        "Ð",
        "º"
      ],
      [
        "Ñ",
        "ĩ"
      ],
      [
        "ge",
        "t"
      ],
      [
        "Ñģ",
        "ÑĤ"
      ],
      [
        "Ñ",
        "Į"
      ],
      [
        "at",
        "a"
      ],
      [
        "o",
        "l"
      ],
      [
        "al",
        "ue"
      ],
      [
        "Ġv",
        "oid"
      ],
      [
        "e",
        "d"
      ],
      [
        "ĠĠĠĠ",
        "ĠĠĠĠĠĠĠĠĠĠĠ"
      ],
      [
        "l",
        "ic"
      ],
      [
        "Ġ",
        "*"
      ],
      [
        "Ġ",
        "-"
      ],
      [
        "Ð¾Ð",
        "²"
      ],
      [
        "Ġd",
        "ouble"
      ],
      [
        "i",
        "s"
      ],
      [
        "Ġn",
        "ame"
      ],
      [
        "p",
        "a"
      ],
      [
        "ub",
        "lic"
      ],
      [
        "Ðµ",
        "ÑĢ"
      ],
      [
        ":",
        "\\"
      ],
      [
        "Ð",
        "²"
      ],
      [
        "ĠÐ",
        "¿"
      ],
      [
        "e",
        "x"
      ],
      [
        "n",
        "p"
      ],
      [
        "ul",
        "t"
      ],
      [
        "i",
        "r"
      ],
      [
        "Ġ",
        "2"
      ],
      [
        "a",
        "ss"
      ],
      [
        "y",
        "pe"
      ],
      [
        "-",
        ">"
      ],
      [
        "Ġ",
        ">"
      ],
      [
        "+",
        "+"
      ],
      [
        "Ġ=",
        "="
      ],
      [
        "m",
        "e"
      ],
      [
        "st",
        "d"
      ],
      [
        "i",
        "le"
      ],
      [
        "r",
        "a"
      ],
      [
        "Ġ",
        "w"
      ],
      [
        "v",
        "er"
      ],
      [
        "v",
        "ector"
      ],
      [
        "i",
        "g"
      ],
      [
        "Ġ",
        "Ñģ"
      ],
      [
        "(",
        "\\\""
      ],
      [
        "cl",
        "ass"
      ],
      [
        "Ġ",
        "C"
      ],
      [
        "at",
        "or"
      ],
      [
        "Ġ",
        "co"
      ],
      [
        "Ġ",
        "S"
      ],
      [
        "o",
        "t"
      ],
      [
        "Ġ",
        "l"
      ],
      [
        "n",
        "class"
      ],
      [
        "Ġ\\\"",
        "\\\\"
      ],
      [
        "Ġ",
        "T"
      ],
      [
        "Ġst",
        "ring"
      ],
      [
        "ut",
        "o"
      ],
      [
        "m",
        "a"
      ],
      [
        "a",
        "se"
      ],
      [
        "Ð",
        "¼"
      ],
      [
        "Ġ",
        "size"
      ],
      [
        "us",
        "ing"
      ],
      [
        "np",
        "ublic"
      ],
      [
        "0",
        "0"
      ],
      [
        "ÐµÐ",
        "¼"
      ],
      [
        "s",
        "ult"
      ],
      [
        "Ġ",
        "de"
      ],
      [
        "th",
        "er"
      ],
      [
        "Ġ\\\"",
        ";\\"
      ],
      [
        "v",
        "e"
      ],
      [
        "i",
        "l"
      ],
      [
        "Ġ",
        "}"
      ],
      [
        "o",
        "de"
      ],
      [
        "\\\"",
        ";\\"
      ],
      [
        "pa",
        "ce"
      ],
      [
        "R",
        "e"
      ],
      [
        "Ġ",
        "h"
      ],
      [
        "o",
        "ol"
      ],
      [
        "Ð°",
        "Ð½"
      ],
      [
        "s",
        "pace"
      ],
      [
        "p",
        "tr"
      ],
      [
        "n",
        "using"
      ],
      [
        "Ġ",
        "3"
      ],
      [
        "Ð¾Ð",
        "»"
      ],
      [
        "Ġname",
        "space"
      ],
      [
        "a",
        "ck"
      ],
      [
        "ĠÐ",
        "²"
      ],
      [
        "Ñ",
        "Ĩ"
      ],
      [
        "Ð",
        "´"
      ],
      [
        "se",
        "t"
      ],
      [
        "ar",
        "r"
      ],
      [
        "ÐµÐ½",
        "Ð¸"
      ],
      [
        "p",
        "er"
      ],
      [
        "Ġ",
        "x"
      ],
      [
        "a",
        "s"
      ],
      [
        "\\\"",
        ","
      ],
      [
        "ĠÐ",
        "½"
      ],
      [
        "Ð½",
        "Ñĭ"
      ],
      [
        "st",
        "r"
      ],
      [
        "ĠÐ",
        "´"
      ],
      [
        "Ġ",
        "&"
      ],
      [
        "n",
        "t"
      ],
      [
        "Ġa",
        "uto"
      ],
      [
        "h",
        "t"
      ],
      [
        "q",
        "ue"
      ],
      [
        ")",
        ","
      ],
      [
        "Ð°",
        "ÑĤ"
      ],
      [
        "++",
        ")"
      ],
      [
        "r",
        "int"
      ],
      [
        "k",
        "e"
      ],
      [
        "at",
        "ion"
      ],
      [
        "f",
        "f"
      ],
      [
        "Ġd",
        "ata"
      ],
      [
        "Ġc",
        "h"
      ],
      [
        "\\\"",
        ");\\"
      ],
      [
        "Ð¾",
        "ÑĢ"
      ],
      [
        "Ġn",
        "um"
      ],
      [
        "Ġre",
        "sult"
      ],
      [
        "Ðµ",
        "ÑĤ"
      ],
      [
        "Ġ",
        "in"
      ],
      [
        "e",
        "mp"
      ],
      [
        "e",
        "w"
      ],
      [
        "i",
        "me"
      ],
      [
        "C",
        "o"
      ],
      [
        "a",
        "y"
      ],
      [
        "Ġo",
        "ther"
      ],
      [
        "Ġe",
        "l"
      ],
      [
        "s",
        "er"
      ],
      [
        "Ðµ",
        "Ð»"
      ],
      [
        "Ġel",
        "se"
      ],
      [
        "Ġ",
        "'"
      ],
      [
        "Ġ",
        "r"
      ],
      [
        "i",
        "st"
      ],
      [
        "ÐµÐ",
        "´"
      ],
      [
        "Ð¸",
        "ÑĤ"
      ],
      [
        "]",
        ";\\"
      ],
      [
        "Ġ",
        "get"
      ],
      [
        "Ġ",
        "P"
      ],
      [
        "e",
        "t"
      ],
      [
        "u",
        "ct"
      ],
      [
        "t",
        "y"
      ],
      [
        "a",
        "re"
      ],
      [
        "p",
        "t"
      ],
      [
        "Ġ",
        "5"
      ],
      [
        "a",
        "b"
      ],
      [
        "in",
        "d"
      ],
      [
        "S",
        "t"
      ],
      [
        "Ġ",
        "y"
      ],
      [
        "Ġ",
        "D"
      ],
      [
        ">",
        "("
      ],
      [
        "Ġv",
        "alue"
      ],
      [
        "Ð",
        "¿"
      ],
      [
        "Ġ",
        "B"
      ],
      [
        "Ġ",
        "!"
      ],
      [
        "Ġ",
        "j"
      ],
      [
        "Ð¾Ð",
        "´"
      ],
      [
        "g",
        "in"
      ],
      [
        "Ġst",
        "r"
      ],
      [
        "()",
        ")"
      ],
      [
        "Ð½",
        "Ð°"
      ],
      [
        "Ġ",
        "g"
      ],
      [
        "Ġ",
        "arr"
      ],
      [
        "]",
        "["
      ],
      [
        "ÑĢ",
        "Ð°Ð"
      ],
      [
        "ĠÐ",
        "º"
      ],
      [
        "Ñ",
        "ħ"
      ],
      [
        "d",
        "ouble"
      ],
      [
        "Ġ",
        "4"
      ],
      [
        "an",
        "d"
      ],
      [
        "con",
        "d"
      ],
      [
        "Ñ",
        "Ī"
      ],
      [
        "f",
        "t"
      ],
      [
        "re",
        "ad"
      ],
      [
        "b",
        "er"
      ],
      [
        "ar",
        "t"
      ],
      [
        "Ġ",
        "M"
      ],
      [
        "co",
        "unt"
      ],
      [
        "Ġb",
        "ool"
      ],
      [
        "o",
        "w"
      ],
      [
        "Ñģ",
        "Ð»"
      ],
      [
        "en",
        "ame"
      ],
      [
        "o",
        "p"
      ],
      [
        "ÑĨ",
        "Ð¸"
      ],
      [
        "Ð°",
        "Ð»"
      ],
      [
        "a",
        "ge"
      ],
      [
        "en",
        "g"
      ],
      [
        "us",
        "h"
      ],
      [
        "ad",
        "d"
      ],
      [
        "Ð",
        "Ł"
      ],
      [
        "ct",
        "ion"
      ],
      [
        "ex",
        "t"
      ],
      [
        "Ġt",
        "r"
      ],
      [
        "ĠÐ",
        "¸"
      ],
      [
        "eng",
        "th"
      ],
      [
        "Ð½",
        "Ð¾"
      ],
      [
        ":",
        "\\\""
      ],
      [
        ")",
        ");\\"
      ],
      [
        "b",
        "ack"
      ],
      [
        "un",
        "i"
      ],
      [
        "I",
        "n"
      ],
      [
        "Ġn",
        "ew"
      ],
      [
        "Ġ!",
        "="
      ],
      [
        "()",
        ","
      ],
      [
        "re",
        "nt"
      ],
      [
        "Ġ>",
        ">"
      ],
      [
        "Ð",
        "Ĵ"
      ],
      [
        "Ðº",
        "Ð°"
      ],
      [
        "p",
        "ush"
      ],
      [
        "Ð¸Ð",
        "¼"
      ],
      [
        "o",
        "m"
      ],
      [
        ".",
        "."
      ],
      [
        "o",
        "ur"
      ],
      [
        "at",
        "ic"
      ],
      [
        "t",
        "u"
      ],
      [
        "Ġ{",
        "}\\"
      ],
      [
        "Ð",
        "¹"
      ],
      [
        "lo",
        "ck"
      ],
      [
        "it",
        "y"
      ],
      [
        "Ġ",
        "A"
      ],
      [
        "i",
        "v"
      ],
      [
        "Ġt",
        "h"
      ],
      [
        "Ġo",
        "ver"
      ],
      [
        "Ð",
        "·"
      ],
      [
        "Ġ",
        "con"
      ],
      [
        "ÐµÐ½Ð¸",
        "Ðµ"
      ],
      [
        "-",
        "-"
      ],
      [
        "or",
        "d"
      ],
      [
        "or",
        "y"
      ],
      [
        "N",
        "ode"
      ],
      [
        "Ġo",
        "per"
      ],
      [
        "t",
        "er"
      ],
      [
        "v",
        "alue"
      ],
      [
        "i",
        "th"
      ],
      [
        "Ġv",
        "ector"
      ],
      [
        "\\\"",
        ")"
      ],
      [
        "v",
        "al"
      ],
      [
        "ro",
        "w"
      ],
      [
        "Ġi",
        "s"
      ],
      [
        "se",
        "cond"
      ],
      [
        "ĠÐ",
        "¼"
      ],
      [
        "si",
        "t"
      ],
      [
        "an",
        "ce"
      ],
      [
        "Ġch",
        "ar"
      ],
      [
        "ĠĠĠĠĠĠĠĠ",
        "ĠĠĠĠĠĠĠĠ"
      ],
      [
        "Ð¾",
        "ÑĤ"
      ],
      [
        "a",
        "st"
      ],
      [
        "Ð¾Ð",
        "±"
      ],
      [
        "Ð»",
        "Ñı"
      ],
      [
        "p",
        "l"
      ],
      [
        "q",
        "u"
      ],
      [
        "ĠÐ",
        "Ł"
      ],
      [
        "ri",
        "de"
      ],
      [
        "Ġover",
        "ride"
      ],
      [
        "ÑĢ",
        "Ð¾Ð²"
      ],
      [
        "al",
        "se"
      ],
      [
        "Ġ&",
        "&"
      ],
      [
        "[",
        "]"
      ],
      [
        "uni",
        "que"
      ],
      [
        "n",
        "um"
      ],
      [
        "m",
        "o"
      ],
      [
        "ur",
        "rent"
      ],
      [
        "Ġst",
        "atic"
      ],
      [
        "de",
        "x"
      ],
      [
        "Ñ",
        "Ħ"
      ],
      [
        "er",
        "r"
      ],
      [
        "e",
        "c"
      ],
      [
        "o",
        "ck"
      ],
      [
        ")",
        ")"
      ],
      [
        "==",
        "=="
      ],
      [
        "le",
        "te"
      ],
      [
        "Ð¾Ð",
        "º"
      ],
      [
        "u",
        "ff"
      ],
      [
        "ab",
        "le"
      ],
      [
        "Ġoper",
        "ator"
      ],
      [
        "t",
        "ype"
      ],
      [
        "a",
        "g"
      ],
      [
        "ce",
        "ss"
      ],
      [
        "Ġ",
        "Ñĩ"
      ],
      [
        "o",
        "f"
      ],
      [
        "ig",
        "ht"
      ],
      [
        "Ġ",
        "|"
      ],
      [
        "v",
        "oid"
      ],
      [
        "a",
        "p"
      ],
      [
        "m",
        "ent"
      ],
      [
        "ir",
        "tu"
      ],
      [
        "irtu",
        "al"
      ],
      [
        "ÐµÐ",
        "º"
      ],
      [
        "Ñ",
        "İ"
      ],
      [
        "e",
        "s"
      ],
      [
        "Ġp",
        "ro"
      ],
      [
        "d",
        "ata"
      ],
      [
        "le",
        "ft"
      ],
      [
        "si",
        "on"
      ],
      [
        "i",
        "al"
      ],
      [
        "re",
        "s"
      ],
      [
        "T",
        "ype"
      ],
      [
        "as",
        "k"
      ],
      [
        "b",
        "e"
      ],
      [
        "o",
        "int"
      ],
      [
        "Ġ",
        "?"
      ],
      [
        "re",
        "a"
      ],
      [
        "Ġa",
        "d"
      ],
      [
        "Ġ+",
        "="
      ],
      [
        "V",
        "alue"
      ],
      [
        "our",
        "ce"
      ],
      [
        "Ġf",
        "alse"
      ],
      [
        "p",
        "h"
      ],
      [
        "ke",
        "y"
      ],
      [
        "Ġ1",
        "0"
      ],
      [
        "e",
        "l"
      ],
      [
        "ri",
        "g"
      ],
      [
        "r",
        "on"
      ],
      [
        ">",
        ">"
      ],
      [
        "Ġma",
        "x"
      ],
      [
        "n",
        "ame"
      ],
      [
        "Ġv",
        "irtual"
      ],
      [
        "e",
        "st"
      ],
      [
        "Ð",
        "¡"
      ],
      [
        "or",
        "t"
      ],
      [
        "Ñ",
        "ī"
      ],
      [
        "I",
        "N"
      ],
      [
        "ce",
        "pt"
      ],
      [
        "Ġ<",
        "="
      ],
      [
        "Ġco",
        "unt"
      ],
      [
        "rig",
        "ht"
      ],
      [
        "ĠÐ",
        "·"
      ],
      [
        "Ġe",
        "x"
      ],
      [
        "Co",
[...]
