#version: 0.2
 
 
\ n
\n 
s t
 <
i n
\ "
; \n
< 
< <
c o
r e
) 
: :
st d
= 
e n
std ::
\n 
Ð µ
u t
, 
e r
Ð ¾
t 
Ð °
o r
) {
Ð ¸
d e
a t
 =
co ut<<
Ð ½
\" <<
en d
 Ð
; \n
l e
cout<< \"
end l
Ñ 
a l
c l
in t
u r
: 
Ñ 
Ñ 
in g
a m
o n
){ \n
Ð¾ Ð
re t
st r
n 
} \n
a r
) ;\n
s e
ret ur
> \n
retur n
u de
cl ude
# in
#in clude
#include <
endl ;\n
 (
c t
s i
Ð »
m a
u b
; 
c e
t h
std:: cout<<\"
con st
str ing
u n
i f
i d
u e
v e
in t
 
& 
t e
Ðµ Ð
t r
g e
> 
am e
>\n #include<
;\n }
z e
i c
a n
c h
d o
: \"<<
}\n \n
Ñ 
Ñ 
in (
Ð° Ð
){ \n
Ñ 
si ze
s s
;\n \n
c k
r o
ct or
std:: endl;\n
m p
a d
stre am
u m
 {
i o
f or
/ /
ub le
v o
t y
do uble
<< \"
u l
= =
* 
vo id
Ð¸ Ð
t (
if (
int ma
0 ;\n}
i s
p e
io stream
return 0;\n}
intma in(
return0;\n} </w>
v al
n ame
#include< iostream
l o
ve ctor
void 
// Ð
( )
Ð º
Ñ 
m e
Ñ Ñ
Ñ 
i g
p a
double 
at a
n e
 +
p r
; i
l ic
o l
Ð¾Ð ²
p ub
string 
pub lic
ge t
Ðµ Ñ
Ð ²
cout<<\" Ð
s .
\" ;\n
= 0
f i
} \n
- >
s h
Ð ¿
+ +
t i
p tr
vector <
a ss
 :
: \n
\ \n
d ata
t o
[ i
re s
+ 
;\n \n
for (
cl ass
( const
val ue
class 
1 0
 Ñ
C o
e l
n um
#include<iostream >\n#include<
R e
[i ]
a y
ce 
a se
i r
} ;\n\n
sing 
b o
ar r
a uto
u sing
th er
Ð ¼
public :\n
o ther
}\n };\n\n
ig h
( \"
name s
co un
a ck
p o
names pa
namespa ce
using namespace
if (
 ==
usingnamespace std
>\n usingnamespacestd
Ñ 
Ð ´
res ul
>\n \n
- 
o de
>\nusingnamespacestd ;\n\n
ch ar
a p
ad d
q ue
Ð½ Ñ
( int
Ð° Ñ
e x
\" ,
} 
d 
k e
i t
. 0
bo ol
> >
ty pe
\"<< std::endl;\n
_ t
 *
) ,
Ð¸ Ñ
\"<< endl;\n
1 ,
std:: cout<<
a s
el se
Ð¾ Ñ
i le
Ð¸ Ñ
se t
I n
a b
;\n }\n\n
std:: string
;i <
i =0
const{ \n
i l
ne w
m o
Ðµ Ñ
string &
Ð ¿
> (
std:: vector<
;i ++
 \"<<
S t
i=0 ;i<
t .
bool 
} else
o f
al 
auto 
Ñ 
re ad
a ge
 return
s (
d _
;\n}\n \n
0 0
Ñ 
b er
b ack
te mp
s o
Ñ Ð»
p u
other .
o per
 -
g th
V al
size _t
pu sh
\n public:\n
! =
p l
c ur
n o
<<\" 
- -
b e
o ver
ti me
Ð ¹
& &
1 ]
w or
Ðº Ð°
st atic
igh t
}\n};\n\n intmain(){\n
s [
N ode
int >
ch e
ÐµÐ½ Ð¸Ðµ
con d
h e
2 ,
ro w
lo ck
\ \
u f
T y
Ty pe
i que
oper ator
t _
len gth
t u
0 ]
s 
{ \n
r ide
over ride
Ñ Ð¾Ð²
cout<<\" \\n
al se
f a
_ back
un ique
. .
1 .
Ñ 
ma x
Ð½ Ð°
w h
== ==
cur ren
{ \n
a c
ab le
0 ,
){\n 
Ð» Ñ
resul t
} ;\n
2 .
m in
an d
ir tu
[ ]
g r
Ñ 
, int
Co un
le f
coun t
 c
str u
is _
P o
tr ue
std:: endl
as k
_back (
e mp
Val ue
mo ve
? 
 Ñ
o t
ke y
v irtu
d (
i ve
Ñ 
I N
ce p
f er
 Ñ
\", \"
be g
virtu al
[ 0]
Ð¾ ÑÑ
ul l
auto &
Ð½Ñ Ð¹
; }\n
st ar
Ð°Ð ·
i x
add r
i ze
t a
Ð ±
] =
Ð ·
push _back(
E x
dele te
| |
#include<iostream >\nusingnamespacestd;\n\n
B ase
: \";\n
uf fer
/ 
ma ke
;\n}\n\n intmain(){\n
[ j
d is
ÐµÐ» Ñ
lon g
== =
o b
;i++ ){\n
ptr <
wh ile
#include<iostream >\n\n
 Ñ
q u
num ber
ve c
Ð° Ñ
Ð¾Ð» Ñ
//Ð 
make _
templ ate
ur ce
= \"
typename 
n ull
of (
emp ty
ar y
ser ver
f o
new 
public 
5 ,
r i
3 ,
std:: string&
a k
#include<iostream>\n#include< string
lo c
size of(
A r
 Ñ
for (int
vector >\n#include<
Ð² ÐµÐ´
null ptr
stru ct
Ð¿ Ñ
c ast
ÐµÐ½ Ñ
d .
template <
b uffer
Ð¾ Ñ
for(int i=0;i<
ÐµÐ½ Ð¸Ñ
Ðµ Ñ
M e
}\n};\n\n class
s um
cast <
N ame
Ð¸Ñ Ðµ
pl ay
sh are
( std::
th read
}\n }\n\n
D e
y e
s ub
Ð¸ Ñ
}\n \n
in >>
 Ð²ÐµÐ´
long 
F ile
i en
Ð²ÐµÐ´ Ð¸ÑÐµ
d u
){ }\n
; j
Ð¾Ð ³
Ñ Ð¸Ñ
Ð´ Ð»Ñ
;\n int
 &&
> =
? \"
L o
P ro
\" :
V e
l ine
mor y
a g
er ror
Ð¸ ÑÐ»
N um
f d
pro ce
Ð¾Ð ¶
< =
dis play
\": \"
\n 
std:: string
P tr
ro ot
> &
. size
Ñ 
f un
\" );\n
|| 
S e
g le
 >
ss age
Ñ Ñ
% 
D ata
re ak
template< typename
_ cast<
d ay
beg in(),
unique _
3 .
s y
< T
ap h
Ð¸ ÑÐ¾Ð²
g orith
gorith m
and ler
tex t
A l
ch rono
static 
th row
b reak
move (
\" )<<
Ð¸ Ñ
{ \npublic:\n
se cond
in dex
j e
4 ,
ase 
an s
throw 
al gorithm
e ven
re e
= 1
so urce
Ð¾ ÑÐ»
lef t
o k
Num ber
& other
ir cle
m s
s c
Ar r
;\n }\n
2 0
pa ir
men t
u p
ad i
- 1
for (
lo g
\\ \"
Ð ³
()const{ return
) ;
w (
ta iner
o p
re f
Ð° Ñ
u g
intmain(){\n int
th is
Ð ¶
 !=
Ð¸ Ñ
S h
y (
){\n if(
amo un
te st
d <
ul t
while (
m utex
+ =
int *
adi u
Ð½ Ð¾
[j ]
Ñ Ð¾Ñ
Ð½Ð° Ñ
e d
wor d
data .
ar g
gr aph
f e
T r
}else 
intmain(){ \n
q .
== 0
std::cout<<\"Ð 
 ===
v ate
2 ]
r un
b in
y _
make_ unique
Ð°Ñ Ñ
u ser
Ð°Ð½ Ð¸Ðµ
h o
[ 1]
Ð» ÐµÐ¼
S I
Ve ctor
pri vate
Ð¾ÑÐ» Ðµ
Ð»ÐµÐ¼ ÐµÐ½Ñ
tr y
S ize
T o
B o
: \"
.. .
T i
 >=
i p
#include<iostream>\n#include< vector>\n#include<
O b
chrono ::
template<typename T
fin d(
r adiu
b y
< int
Ð½Ñ Ðµ
star t
std::cout<<\"\\n Ð
Co mplex
a ,
al c
Lo g
: public
 Ñ
in ser
ro m
Ð½Ð° Ñ
Ñ Ñ
s ::
( double
E T
 ||
s ;\n
= std::
que ue
w e
d p
Ðº Ð¸
S T
\"<< endl
//Ð ¡
unique_ ptr<
s _
make_unique <
Ñ Ð°
: \"<<std::endl;\n
std::endl;\n std::cout<<\"
E n
Ð 
ye ar
\"<< std::endl
al loc
Re source
so ck
\n private
D ate
unor dered_
s ,
E ven
for(int i=0;i<
Ð¿ ÐµÑ
t x
Ð¾Ð»Ñ Ð·
D o
file .
Ð² Ñ
ms g
stex pr
#include<iostream>\n#include< c
1 2
time _
;\n \n
\nprivate :\n
(const std::string&
arr [i]
Ti me
ter n
to _
 Ñ
Z E
Ñ Ð¸ÑÐ»
Ñ Ñ
i mag
e f
f l
>\n\n class
cep tion
fun ction
(const string&
) ;\n
me mory
virtual void
al an
s ){\n
Node *
Ð½ Ðµ
std:: c
#include<iostream>\n#include<string >\n#include<
R E
f rom
Ñ Ñ
, \"
> ::
bool is
} ,
Ð°ÑÑ Ð¸Ð²
Ñ Ð¾Ð´
if( !
2 =
M atrix
override {\n
 /
at ch
ste m
me ssage
override {
v ice
. get
i m
P l
an ge
e p
ing 
A c
s w
fin d
stream 
C h
Sh ape
C ircle
H el
map <
SI ZE
Ñ Ð¼
ÐµÑÑ Ð²
 Ñ
d ate
mon th
Ð½Ñ Ñ
for(const auto&
Ñ Ð»ÐµÐ¼ÐµÐ½Ñ
s a
r a
( x
== '
e c
h >\n#include<
& operator
. length
by te
T h
>\nusingnamespacestd;\n\n class
-- --
ien t_
Ñ Ð½
1 5
Ð¾Ð· Ð´
ÑÑ Ð»
Ñ Ð¸Ð±
w ith
Ñ Ð»
H andler
Coun t
Ñ ÐµÐ´
ÑÐ¾Ð² ÐµÑ
Ð 
M A
) );\n
alc ul
+ 1
al l
defa ult
std::c in>>
Ð¾Ð½ ÑÑ
u ar
E R
1, 2,
Ñ Ð¸Ð¸
}else if(
se (
d ig
y 
string >\n#include<
ob j
T _
Con tainer
Ð°Ñ ÐµÐ»Ñ
9 9
N e
){ 
W or
delete []
type id(
pat tern
//Ð 
//Ð 
_ v
 >>
0 );\n
s. push_back(
( c
L E
even t
T ask
Ð¾ Ñ
;\n }\n
;\n }\n
}\n \n
re ate
Log ger
i e
u int
){\n std::cout<<\"
pro du
are a
Hel lo
ex ec
U ser
P er
[ 2]
size_t i=0;i<
set w(
do w
In fo
 '
t ->
Ð¿ Ð¾Ð»ÑÐ·
std::cout<<\"Ð Ð²ÐµÐ´Ð¸ÑÐµ
Ñ Ð¹
re g
server _
id th
delete[] 
Pro du
2 5
0 x
Ð 
1 =
>\n\n intmain(){\n
( n
T 
s q
, double
il l
fir st
Ð· Ð½Ð°Ñ
retur n
ar ch
Ð¾ Ñ
he ight
Pl ug
stan ce
Bo ok
 Ñ
an gle
}c atch
O N
J son
>\nusingnamespacestd;\n\n intmain(){\n
Ð¸Ð¼ ÐµÑ
run time_
, std::
& e
â 
runtime_ error
ÑÐ¸Ð± ÐºÐ°
;\n}\n\n void
Ð¸ÑÐ¾Ð² Ð°Ð½
;++ i
vec .
Ñ Ñ
Ð 
Co m
 %
: \"<<endl;\n
ÑÐ½ Ðº
<< std::endl
C K
}, \n{
, \n
r y
for(int i
w idth
amoun t
Ð 
A B
un sig
Ð¼ Ð°ÑÑÐ¸Ð²
p h
sq r
Al l
static _cast<
min ator
] .
e .
;j ++
S or
l ist
;\n \n
V isitor
b alan
ac c
fl ag
it s
B y
S ub
if( !
shared_ ptr<
0 '
E N
<< endl
;\n double
= new
â 
Ð¿ Ð¾
d y
j =0
) ?\"
Ñ Ð°Ñ
Re s
 C
T e
A n
string (
Ð¸ Ñ
Ñ ÑÑÐ»
Ð° Ñ
type _
stexpr 
MA X
â â
Ñ Ð¸Ð¿
Ðµ Ñ
: \\n
void *
b lock
re que
template<typenameT >\n
inser t(
while (
L e
;i <=
push (
 1
[ 3
deno minator
Ð ¡
h andler
2 );\n
* >(
mutex >
w rite
2 (
){ \n
ÑÑ Ñ
int &
max _
Ð¸Ñ ÐµÑ
addr .
lock (
Ð¼ Ð°
I d
bo ok
* ptr
i b
sy stem
s le
sle ep
}\n }\n
re al
Me ssage
A d
i v
a il
clock ::
virtual ~
) .
ry p
Ñ Ð¸Ñ
a, b
{ \nprivate:\n
e. wh
F un
in d
io s::
3. 1
 2
long long
m ill
ite m
Ð½Ð¾Ð³ Ð¾
ÑÑ Ñ
Ð¾Ð» Ð½
mill isecond
o ut
j=0 ;j
In dex
:\"<< e.wh
thread ::
exec ute
L O
orig in
Ð½Ñ Ð¼
\" 
Ð 
this_ thread::
M an
-> get
 Ð°Ð·
rap per
= &
A L
proce ss
< 0
wor k
b ase
u se
Ð¼ ÐµÐ½
1 (
}\n }\n\n
#include<iostream>\n#include<c math
runtime_error (\"
il d
Ð¾Ð» Ð¸ÑÐµÑÑÐ²
sleep _
" "
Ð¼ ÐµÑ
u sto
sw ap
Ð± ÑÑÑ
){}\n void
int get
h as
[i] [j]
ÐµÑ ÐµÐ·
) \n
throw std::
un d
d if
, '
po ol
O r
ÑÐ°Ð² Ð½
Even t
delete 
ter 
++ ;\n
;\n \npublic:\n
Ð¾Ñ Ñ
ÑÐ» Ñ
fd ,
Po ol
x =
ho ur
this_thread:: sleep_
g uar
lock _
}catch (const
x ,
;\n }\n
3, 4,
n am
ad j
E r
Er ror
: \"
and le
ÑÐ¸ÑÐ» Ð¾
else 
in put
nam ic
sin _
r c
iti al
mutex> lock(
 m
//Ð 
Ð¾Ð»Ð¸ÑÐµÑÑÐ² Ð¾
R A
f ron
Ñ Ñ
Ñ Ñ
string get
v ail
arr [
fun c
I te
po int
O R
_ t
pair .
Pro ce
c rete
F _
;\n std::
; break
3.1 4
ÐµÑ Ð¾Ð´
ÐµÐ· ÑÐ»Ñ
ÐµÐ·ÑÐ»Ñ ÑÐ°Ñ
, int
Ar g
#include<iostream>\n#include<vector>\n#include< algorithm
of 
po s
se arch
s /
in itial
< double
ef f
d ra
5 0
Ð» Ñ
3 2
re ver
addr. sin_
 Ð¾ÑÐ»Ðµ
Ñ Ð²
sh ape
E _
e k
Ñ Ñ
ÐµÐº Ñ
){\n if(
no w
Ñ ÐµÑÐµÐ·
= \"<<
r <<\"
Ð 
:\";\n for(int
to 
ien t
studen t
; }\n};\n\nintmain(){\n
Ð ¢
millisecond s(
) :\"<<
sy s/
Ob server
ex ception
Ex pression
ÑÐ½Ðº ÑÐ¸Ñ
, sizeof(
nex t
v isited
. add
ex pr
sub str
t work
O f
size_t size
E le
Ñ Ð¿
T I
>\n#include< vector>\n#include<
ate (
Ð°Ð¹ Ñ
Re g
bool operator
j o
re q
lock_ guar
lock_guar d<
+ b
for(const auto&
2 D
Ex ception
tit le
Len gth
or der
Ð¾Ð± Ð°Ð²
] [
Val id
= (const
seri al
Ð² Ð¾Ð»
sa fe
Q ue
l d
3 0
Man ager
ob server
Y e
}\n}\n\n void
s :\"<<
S ingle
Ð¸Ð¼ Ð²Ð¾Ð»
Ð° \n
v .
in _
Ð¾Ð» Ð¶
Ð 
al _
>\n#include< c
Ñ Ðµ
_ clock::
Node (
h igh
ele ment
I D
4 .
* other.
& )=
S O
Plug in
Ð¾Ð³ Ð¾
] 
ph a
)return false
in fo
m i
4 2
m _
with 
b .
U n
Ñ ÐºÐ°Ð·
override{ return
Ð¿Ð¾Ð»ÑÐ· Ð¾Ð²
4 5
Ð°Ð¹ Ð»
vail able
 Ñ
* p
int [
substr (
M o
;\n int*
cep t
M a
intmain(){\n double
Th read
; }\n};\n\nclass
f ree
Or der
Ñ 
tx t
Ch ar
7 ,
f stream
A R
K e
b u
&)= delete
Ñ ÐµÑ
ÐµÑ Ñ
u c
R o
string >
Ð° ÑÐ¸Ñ
&other )const{\nreturn
h andle
bin ary
Ad d
1,2, 3,4,
function <
sock addr
sor t(
protected :\n
ate g
std::cout<<\"\\n ===
in val
){\n int
Ð¸ Ñ
) \n
Ð»Ñ Ñ
\\ t
{\n double
num :
auto it=
igh bor
//ÐÑÐ¾Ð²ÐµÑ ÐºÐ°
Ð·Ð½Ð°Ñ ÐµÐ½Ð¸Ðµ
n c
A F_
unsig ned
;\n }\n};\n\nintmain(){\n
0 .0
MAX _
uc ce
{\n int
>\n#include< string
 ?\"
w ar
){\n if(
to_ string(
ye e
Ð¾Ð¼ Ð¿
Ser vice
#include<iostream>\n#include< fstream
a =
Ñ Ñ
empl ace
H e
Ite m
sig n
ed ge
s. end()
IN ET
we ight
c :
_ str
double get
for( auto&
\n protected:\n
AF_ INET
N o
D E
an k
//Ð ¤
C ar
node ->
---- ----
int )
Ñ ÐµÐ¼
sc rip
y no
yno mi
M P
S a
[ v
size =
ind rome
M y
){\n if(
>= 0
C l
12 3
Ð° Ñ
) override{\n
decl type
Ñ Ð³
Ð¸Ð¼Ð°Ð» Ñ
M utex
Ð 
} );\n
C ache
, double
) ){\n
Res ult
S imple
Ð½Ð¾ÑÑ Ñ
dy namic
f uture
Ñ Ñ
' ,'
Ð¸Ñ Ñ
2 4
>:: value
Ð½Ð°Ð¹ Ð´
* )
' ,'
, &
v isit(
s. begin(),
in stance
do c
;\n std::cout<<\"ÐÐ²ÐµÐ´Ð¸ÑÐµ
ÑÐ³ Ð¾Ð»Ñ
){\n int
unordered_ map<
Ð° \":\"
W rapper
Single ton
sqr t(
 3
Ð 
( str
e mail
std:: setw(
Q u
g ative
Ð´ Ð°Ð»
data _
) std::cout<<
ÑÐ¼ Ð¼Ð°
Ð½Ð¾ÑÑ Ð¸
Ð 
alcul ate
In t
apac ity
o m
Ñ Ð²
1 ,
Ðº Ñ
S S
Arg s
 operator
p .
w a
( &
i +1
no ex
a +b
stdex cept
exception &e
s 1
P acke
Type ::
6 0
] ;\n
ÐµÑ ÑÑ
= false
for 
ÑÑ Ð²
()const override{return
T E
ÐµÐ½ Ð¸Ð¹
6 ,
Po int
#include<iostream>\n#include< memory
an t
data (
* this
 b
l ib
()= default
log ger
P a
Ñ Ñ
void print
for(inti =1
in .
ÑÐ°Ð± Ð¾Ñ
std:: unique_ptr<
Ð´ Ð¾Ð»Ð¶
ÑÐ¸ÑÐ» Ð°
p q.
Ñ Ðµ
3 D
W ith
Ñ Ðµ
Re que
x, y
Ñ Ð¸Ð¼Ð²Ð¾Ð»
Ð°Ð½ Ñ
ision (
Value (
val u
get line
Vector 2D
S y
 v
uf fix
ioman ip
R ation
d iv
v _
alcul ator
 
0 ,
Ð¾ Ñ
W e
);\n if(
Ð¾Ð½ÑÑ Ð°Ð½Ñ
le vel
set prec
setprec ision(
R U
1 6
Ma x
ex p
//Ð¡ Ð¾Ð·Ð´
cle ar
it ch
Wor ld
S um
function al
Ð» ÐµÐ½
w indow
Se t
B lock
le ag
leag ue
CK _
s 2
>\n#include< algorithm
\n \n
fix ed<<
a z
//Ð £
6 4
\" ,\n
\",\n \"
:\";\nc in>>
of f
fab s(
f req
M E
if con
Ð¸Ð· Ð¼ÐµÐ½
# define
ari able
s ucce
run n
> 0
inval id_
Ð½ Ð¸Ð¹
Ñ Ð°Ð¹Ð»
( a
P rime
E mplo
| 
 a
== \"
e valu
Ne twork
L _
&other )const{\n
for war
//ÐÑ Ð¸Ð¼ÐµÑ
): name
S quare
A D
Ð¾ Ñ
num <<\"
fo und
invalid_ arg
Ð¾Ð± Ñ
Ð°Ð½ Ð¸Ñ
R O
Pol ynomi
I mpl
ââ ââ
Ð½ Ð¸Ðº
sw itch
Ð 
res pon
Studen t
ÐµÐº Ñ
Ñ Ð´
inc re
perror (\"
S E
Ñ Ð¸ÑÐµÐ»
al pha
) ;\n}\n\n
for(int j=0;j
serial ize
Ð°Ñ Ñ
U L
IN G
Ex pr
unordered_ map
Ð½ÑÐ¹ Ð¼Ð°ÑÑÐ¸Ð²
s rc
m .
A N
Ð¸ ÑÑ
Emplo yee
1 1
Ð¿Ð¾Ð»ÑÐ· Ñ
#include<iostream>\n#include< vector
m tx
Sy stem
reg ister
\\\" \"<<
file. clo
1,2,3,4, 5
Ð¾ÑÑ ÑÐ¿
B ig
h icle
). name
string name
:\"<< *
M in
Ð± Ñ
si u
&operator =(const
o stream
Ð´ Ð¾
A f
) \n:
<<\" '
F I
F F
5 .
l ast
is_ same
ÐµÐ¼ Ð¾Ð½ÑÑ
= true
:\"<< name
S o
uint 8
paren t
Ele ment
B uffer
second s
ne ighbor
H ash
x 2
ab c
mar t
Ðº Ð¾Ð¼Ð¿
Ñ Ñ
ager .
s pan
pl ug
;\n if(
O p
Do c
Ð½ ÑÑ
(int n
Ðº Ð¾Ð½
al (
B in
\" ;break
Ð¾Ð¶ Ð¸ÑÐµÐ»Ñ
row s
s. emplace
ÐµÑ Ð²
//Ð¤ ÑÐ½ÐºÑÐ¸Ñ
},\n{ \"
<<\" )
In stance
G uar
:\"<< std::
Ñ Ñ
B ank
:: get
reque st
Ñ Ð¼
throw runtime_error(\"
W id
!= 0
5 );\n
for( size_ti=0;i<
O n
unordered_ set
o w
8 ,
Ð¿Ð¾Ð»ÑÐ·Ð¾Ð² Ð°Ð½Ð¸Ðµ
scrip tion
Proce ssor
Sa fe
t. h>\n#include<
, SO
0 .
Le vel
Ð°Ð± Ð»
Ac count
Te st
ios:: binary
E d
;\n}\n \n
ÑÐµÐ¼ Ñ
]. push_back(
){\n std::cout<<
Con fig
IN T_
ÑÑ Ðº
d a
Vector 3D
L ist
Ð· Ð°Ð¿
Ñ Ð¾
Ð´ Ð°Ð½
throwstd:: runtime_error(\"
Ð¸Ð· Ð°ÑÐ¸Ñ
un istd.
for(int i
F l
Ð² ÑÐµ
Are a
make_ shared<
B u
G raph
Pa ir
Ye ar
Ð´ Ð²
Pal indrome
op t
Ñ 
Type 
Hello 
Ð¼ Ð¾Ð¶
Ñ Ð¾Ð·Ð´
s pe
< n
Exception (\"
i ator
en try
) noex
origin al
> >&
#define 
||c =='
P I
;\n std::cout<<\"
' ||c=='
[ &
pool .
par se
ild ren
S mart
radiu s
this_thread::sleep_ for(std::chrono::
flo at
data [
ra w
Ð¿ Ð¾Ð»Ð½
std:: mutex>lock(
Ðº Ðµ
graph [
):name (n
o d
type_ index
safe _
A C
ÑÐ² Ð»Ñ
:\" ;\n
Ðµ Ñ
. set
ser vice
high _
resol ution
A vailable
mo un
s p
Ð» Ð¸Ð½Ð°
(int x
d f
F in
file (\"
for(char c:
x +
Ñ Ð´
( p
L ine
Ob ject
Ðº Ð»ÑÑ
A moun
\";\n string
[ c
()constoverride{return \"
' \"<<
nor mal
while( !
respon se
Ð¸Ð°Ð¿ Ð°Ð·
tin ue
A p
Ðµ Ñ
re move
Ð¿Ð¾Ð» Ð¾Ð¶Ð¸ÑÐµÐ»Ñ
high_ resolution
§ Ð¸ÑÐ»
Ð° :\"<<
Ð¸ÑÑ ÐµÐ¼
:return \"
( filename
Ð¼ ÐµÑÐ¾Ð´
In val
Con nection
Do or
invalid_arg ument(\"
for(inti=0;i< size
+ 1
high_resolution _clock::
:: n
 5
std:: lock_guard<
ÑÐ¸Ñ Ð°ÑÐµÐ»Ñ
D _
Ð½ÑÐ¼ Ð¸
. c
Ðµ Ñ
Ed ge
( v
\" )
Ð¾Ð¸Ñ Ðº
\\ 0'
Ð² ÐµÑ
dif f
= nullptr
Ñ Ð¸Ð¼Ð°Ð»Ñ
Ð² Ð¾Ð·
l arge
Ð¸Ð½ Ð´
static _
;\n int
f riend
enc ryp
* b
for m
H o
Ke y
Date 
( 0
succe ss
//Ð 
*) &
he ap
me tic
util ity
}catch(const std::
Ñ Ðº
IN F
de stro
P riority
C T
s )
i z
I P
 4
Ð¾ÑÑ Ñ
W indow
8 0
F raction
Bin ary
;\n }else{\n
is_same _v
stack .
ten t
* a
Bu ilder
size _
6 7
std::vector< std::
x <<\",\"<<
=new int[
ÑÑ Ñ
<<std::endl ;\nreturn0;\n}</w>
Seri al
Bo x
std::cer r<<\"
ie w
Ð¿Ð¾Ð»ÑÐ·Ñ ÐµÐ¼
( m
1 );\n
d le
Per son
Que ue.
ne gative
ÑÐ°Ð²Ð½ ÐµÐ½Ð¸Ðµ
pair <int
re inter
dynamic _cast<
Sor t
Ð°Ð´ Ð°Ñ
str len
Ð¾Ð»Ñ Ñ
Ñ Ñ
ho st
uint 32
Me mory
G rade
Ñ ÐµÑ
R C
std:: this_thread::sleep_for(std::chrono::
A '
;\n }\n}\n\n
this_thread::sleep_ for(chrono::
&&other )noex
B alance
Ð¼Ð°Ñ ÑÐ¸Ñ
t 1
Ð½ Ð¸Ðµ
A ge
Ñ Ð¾ÑÑ
ar d
m l
#include<iostream>\n#include<string >\n\nclass
2 ,
ÑÐ²Ð»Ñ ÐµÑÑÑ
}\n }\n};\n\nintmain(){\n
<<endl ;\nreturn0;\n}</w>
lo ad
//Ð Ð¾Ð±Ð°Ð²
new _
//Ð¡Ð¾Ð·Ð´ Ð°ÐµÐ¼
&)=delete ;\n
< char
h>\n#include< sys/
R I
O U
:\" ;\n
<T >
in ,
ÑÑÑÐ» ÐºÑ
\\ r
>\n\n struct
acc i
static_ asser
>\n#include< vector
Se arch
( '
I I
template<typenameT ,
 d
Ð¸ÑÐµÑ Ðº
ÑÐ° Ñ
){\n perror(\"
sockaddr _
D ig
j =
s By
write (
str 2
of _
; k
Ñ Ñ
g c
ateg ory
up date
F or
i <<\"
( i
Ñ Ñ
sockaddr *)&
Ð° Ñ
>\nusingnamespacestd;\n\n struct
9 0
m d
Ð¸Ð½Ð´ Ñ
M ,
^ 2
in k
he ader
//Ð Ð±
Ð°Ð¹ Ð´
m utation
plug in
ur se
Ð½ Ð¸Ñ
ÑÐ³Ð¾Ð»Ñ Ð½Ð¸Ðº
Ñ Ñ
E L
Ð¾Ñ ÑÐµÐºÑ
server_ fd
std:: size_t
use _
V irtu
ow ner
15 9
;}\n intget
un k
:\"<< get
R ate
Ð¼Ð¾Ð¶ ÐµÑ
pair :
 size
>\n\nintmain(){\n std::
Ð½Ð°Ñ ÐµÐ½Ð¸Ðµ
O L
w rapper
Ve hicle
* c
D iv
#include<iostream>\n#include<string >\nusingnamespacestd;\n\nclass
set ting
Ð¸Ð¼ ÑÐ¼
re ma
str =\"
}\n }\n
)<<\"Ð± Ð°Ð¹Ñ
 is
ari ant
Ð» Ð°ÑÑ
x <<\"
Ñ ÑÐ½Ðº
ÑÐºÐ°Ð· Ð°ÑÐµÐ»Ñ
Â °
Ñ Ðº
g ine
c p
Ðº Ð¾Ð»Ð¸ÑÐµÑÑÐ²Ð¾
override{ 
#include< sys/
Do uble
Ð½ÑÐ¹ 
_ l
sc ale
B U
[ u
}\n };\n\n
up per
Ð· Ð¾Ð²
RE A
er r
loc al
te si
effic ient
ÐµÑ Ð¶
Ð½Ð°Ð¹Ð´ ÐµÐ½
C an
ÐµÐ³ Ð¾
por t
Lo ck
Thread Safe
( size_t
Ð± .
Ð±ÑÑÑ Ð¿Ð¾Ð»Ð¾Ð¶Ð¸ÑÐµÐ»Ñ
>\nusingnamespacestd ;\n
C ur
] ){\n
 Ð»ÐµÐ¼ÐµÐ½Ñ
is_ open
success f
Que ue
std::cout<<\" [
Ro om
tesi an
v ation
Ð´Ð»Ñ 
Ð°Ð» Ñ
pre v
Ð°Ñ ÐµÐ»
to String
S pec
Ð» Ð¾Ñ
Ð»Ð¾Ñ Ð°Ð´
( b
G _
t l
Ð ÐµÑ
Ð½ ÐµÑ
Ð¸Ñ Ð¾Ðº
: $
Ð¸Ð» Ñ
str .length
UL L
Ð² Ð°Ð´
M _
Ñ \n
Ð Ð°\":\"
ÐÐ°\":\" ÐÐµÑ
-- -
#include<iostream>\n\n intmain(){\n
this!= &
this!=& other
Ð¾Ð¶ Ð´
) return
. print
' ){\n
ÑÐµÐ´ Ð½
Ð°Ð» Ð¸Ð½Ð´Ñ
,SO CK_
ÑÐ¾ÑÑ Ð¸ÑÐ¾Ð²Ð°Ð½
) ?
typename... 
p i
Set ting
Sh ared
G ame
Ð¸ \n
arith metic
3 ,
sum +=
p 2
//ÐÑÐ¾Ð²ÐµÑ ÑÐµÐ¼
Inte ger
Ð´ Ð»
h ton
std:: make_unique<
sub sc
+ i
result ;\n
long long
ch ildren
t 2
az y
B LO
\" },\n{\"
P RO
stringget Name
reg istry
ta in
( Ð¿
;\n std::cout<<\"
Ð¾Ð¾ Ð±Ñ
Ð·Ð½Ð°Ñ ÐµÐ½Ð¸Ñ
for(int j=0;j
M IN
>\nusingnamespacestd;\n\nintmain(){\n string
public :
y 2
ÑÐ² Ð¾Ð´
_ size
s. find(
t ,
& &
sc al
Ð´ Ð°\":\"
Ð´Ð°\":\" Ð½ÐµÑ
out_ of_
out_of_ range
) )
se quence
Tri angle
Ne w
map< std::string
alpha <<
s \":\"
6 5
ÑÑÑ Ð¾ÐºÑ
//Ð ÑÐ²Ð¾Ð´
AD D
 Ð½Ð°ÑÐµÐ½Ð¸Ðµ
#include<iostream>\nusingnamespacestd;\n\n intmain(){\n
x=\"<< x
s uffix
std::cout<< std::
Cur ren
sor ted
E mp
we ak
Ð² ÑÐ°Ñ
se( server_fd
L ib
t State
Error :\"<<e.wh
Ð´ Ð¸Ð°Ð¿Ð°Ð·
Ð°Ð½ Ð¸Ñ
}\n}\n\n intmain(){\n
se g
ÐºÐ¾Ð¼Ð¿ Ð¸Ð»Ñ
socke t(
result ;\n}\n\n
Ð² ÑÐµÐ¼Ñ
sum =0
- 9
ÐºÐ° Ð½Ð°
Ð½ Ð¸Ð³
:\\n \";\n
Ðº Ð¾Ð¿
std::this_thread::sleep_for(std::chrono:: milliseconds(
type_tra its
Ðº Ñ
T able
Ð°Ð»Ð¸Ð½Ð´Ñ Ð¾Ð¼
Ð½Ð¾Ðµ Ð·Ð½Ð°ÑÐµÐ½Ð¸Ðµ
ient_ fd
entry .
ptr =&
Ð½ Ðµ
Ð± ÐµÐ·
, i
* =
this_thread::sleep_for(chrono:: milliseconds(
( other.
Cop y
fixed<< setprecision(
mar k
sh if
ro om
T Y
Ð¸ Ñ
ÑÐ°Ð±Ð¾Ñ ÐºÐ°
socket( AF_INET
socket(AF_INET ,SOCK_
N ULL
Ð¿ ÑÐµÐ´
per son
from 
Ðº Ð¾
Ye s\":\"
Yes\":\" No
\\r \\n
<= 0
3 =
INT_ MAX
Ð´ Ñ
D ay
; }\n};\n\n
3 (
;\n}\n\nintmain(){\n std::string
str .
out put
ap ple
buffer [
AB C
//Ð 
Virtu al
P A
Packe t
uf f
Mon th
queue <
gro up
Serial iz
;\n}\n\nintmain(){\n string
L A
Ð¾Ð¿ Ð°Ñ
( size
//Ð ÑÐ¸Ð±ÐºÐ°
Ð»Ð¾ÑÐ°Ð´ Ñ
Ð¸ Ñ
ÑÐ¾Ð´ Ð½ÑÐ¹Ð¼Ð°ÑÑÐ¸Ð²
;\n};\n\n intmain(){\n
l _
Enc ryp
3 );\n
;\n \n
1 ==
Ð½Ð¾Ðµ ÑÐ¸ÑÐ»Ð¾
[ \"<<
famil y=
 0
ÑÐ¸Ð¿ Ð¾Ð²
 Ñ
Ð¾Ð¿Ð¾Ð»Ð½ Ð¸ÑÐµÐ»Ñ
;\n\n int
Orig in
Ð «
an a
= 0
S uffix
Alloc ator
ar tesian
u da
Ð°Ð» Ð¸Ð´
Ð¾ Ñ
<T ,
normal ize
 /
E S
t. jo
Ð £
Ð 
Statu s::
runn ing
D y
O ver
qu ire
Reg istry
_ _
M ultipl
>\n#include< thread
[ n
Ð¿ ÑÑÑ
t /
En d
j son
e qu
l c
& o
p 1
family= AF_INET
hton s(
;\n string
t w
Tex t
lib rary
}\n }
temp =
< decltype
2 2
file. is_open
1 9
f c
;\nc ase
typename... Args
V ar
We ek
Ð¼Ð¾Ð¶ÐµÑ Ð±ÑÑÑ
:\";\n std::cin>>
< std::string
hel lo
ig n
Ð¾Ð´ Ð¸Ñ
O _
read_ fd
â 
type_index 
std:: setprecision(
O P
00 00
Ð· Ñ
ition _v
std lib
[ \"
Col league
 A
ST REA
Ð 
E mail
;j++ ){\n
stin ation
scal ar
Ho ur
# #
Le ap
Resource Wrapper
file (filename
Ð°Ð±Ð» Ð¾Ð½
123 45
< <
De mo
},\n{ '
Ð°Ðº ÑÐ¸Ð¼Ð°Ð»Ñ
;\n\n if(
Com mand
imen sion
al .
ADD R
fixed<< std::setprecision(
h istory
P rice
Ð²Ð°Ð´ ÑÐ°Ñ
P E
 int
is_ arithmetic
\";\n}\n std::cout<<std::endl;\n\nreturn0;\n}</w>
Med iator
v g
string ,
_ if
function< void()
State ::
ter m
option al
flag s.
>\n#include< iomanip
>\n#include< functional
x *
:\";\nc in>>
g o
duration _cast<
},{ '
ne twork
M O
Ð¾Ñ ÐºÐ°
uff man
ÐµÐ½ Ñ
t m
str ){\n
 type
Recur sive
s. pop
8 8
1 ->
par t
socke t.h>\n#include<
Â ²
ul ar
re ar
Stack .
Ð¸Ð¾Ñ Ð¸ÑÐµÑ
error :\"<<e.wh
result ;\n
unique_lock <
str 1
over flow
s l
:public Shape
Ð¾Ð±Ñ ÐµÐºÑ
Ð¾ÑÐ¾Ðº \"<<
Dy namic
ÑÑ Ñ
\\ \\
s k
h ren
hren he
sa ve
Fl ag
Ð°Ð¼ ÑÑ
}, {
fc n
y ->
[ key
& )
subsc ribe
T *
ÑÑ Ð°Ð²
Node* node
 B
< bool
Ð¼ ÐµÑ
Expression >
[ pos
ââââ ââââ
[ k
ostream &o
ix ed
Ð¸Ñ ÑÐ¾Ð²
;\n}\n\n void
ition_v ariable
Ñ Ð¿
ÑÐº Ð²
Ð´Ð°Ð½ Ð½ÑÑ
ER ROR
Ñ Ð¸Ñ
U p
Json Value
L RU
. is
Ð² ÑÐ¾Ñ
Ð¸Ð½ Ð¸Ð¼Ð°Ð»Ñ
Ð· Ð°Ð²ÐµÑÑ
Ð¸ ÑÑ
Af ter
Ð Ð
fcn tl
 -
type s.
Ver sion
F ir
. display
Ñ Ð¾Ñ
user name
My Cl
Shared Ptr
al th
* other.
67 8
x 1
(double r
):value (v
Ð¿Ð¾Ñ ÑÐ´
s.emplace _back(
>\n#include< stdexcept
>\n#include< mutex
Ð¸Ðº Ñ
longe st
Ð¾ ÑÐ¸Ð±
Ð· Ð°Ð´Ð°Ñ
ÑÐ´ ÐµÐ½Ñ
std::cout<<\"Ð ÑÐ¸Ð±ÐºÐ°
, height
ÑÐ¾ÑÑ Ð¸ÑÐ¾Ð²
notif y_
f 1
anan a
ne tine
netine t/
ar pa
arpa /
arpa/ ine
S pan
* >
ÐµÐ½ Ð½Ð°Ñ
Ñ Ñ
pl y
he ad
Ð´Ð¾Ð»Ð¶ Ð½Ð¾
 r
6, 7,
D F
std:: shared_ptr<
p =&
it-> second
socket(AF_INET,SOCK_ STREA
Ð¸Ð² Ð°ÐµÐ¼
C alculator
7 7
i a
Inter face
y 1
Ex ample
M_ PI
Ð² ÑÐµÐ¼ÐµÐ½
Ð± Ð»
>\n#include< memory
im um
Â° C
ÑÑ ÐºÐ°ÐµÐ¼
g ap
all able
P U
D if
R T
Ð²ÑÐµ Ñ
Ð½ Ñ
Ð¾Ð½ÑÑÑÑÐº ÑÐ¾Ñ
s. top
qu ick
V AL
( file
;i<= n
port= htons(
Ser ver
[& ]
o ss<<\"
De scription
Ñ Ð¾Ð¾Ð±Ñ
ar m
x 3
Visitor &v
se ssion
Ð¾Ð± ÑÑ
RA II
+ (const
ÑÐ» Ð¾Ð²
ÐµÐ¹ ÑÑÐ²
§Ð¸ÑÐ» Ð¾
::get Instance
n ing
:: c
Ð° (
l ink
artesian .
[] (intx
Hello World
s ;\npublic:\n
thread >
name <<\"
){\n std::cout<<\"
netinet/ in.
netinet/in. h>\n#include<
 ÑÐ²Ð»ÑÐµÑÑÑ
()const override{\nreturn
re ator
Spec ific
Wid get
time stamp
\n template<typenameT>\n
or d
T &value
1 ','
>>b >>c
Resource Holder
Ð´ Ð²
SI G
Ð²ÐµÑ Ñ
Ð°ÑÐµÐ» ÐµÐ¹
g lob
pattern .length
{ \"
;++ j
ÐµÐ¼ Ð¿
packe t.
G enerator
F rom
LRU Cache
P _
',' .
Ñ Ð°ÑÑ
Ð°ÑÑÐ¸Ñ Ð°
Ð½Ðµ Ð¼Ð¾Ð¶ÐµÑÐ±ÑÑÑ
ÑÑ Ñ
Ð¸Ñ Ð²
#include<iostream>\n#include<string>\n#include<c ctype
ostream&operator <<
( f
> >
Can not
override{\n std::cout<<\"
#include<sys/ types.
socket.h>\n#include< netinet/in.h>\n#include<
BLO CK
err no
){\n std::cerr<<\"
Ð´ ÑÐµÑ
Ð¶ Ðµ
C C
Ref =
uint32 _t
Ð¾Ð´ ÐµÑÐ¶
8, 9
Ð½Ð° Ð¿Ð¾Ð·
] ++
- '
F o
Ð Ðµ
( r
dow n
ÑÐµÑ Ñ
tainer .
&e ){\nstd::cout<<\"
Ð´ Ð°
Ð´Ð» Ð¸Ð½
n itude
ÐµÐ¿ ÐµÑ
ÐµÐ¿ÐµÑ Ñ
Ð´ Ð¸Ð½Ð°Ñ
 x
;i --
<= n
Ñ Ð¸Ñ
I s
e -9
sy m
epol l_
Ð¸Ð°Ð» Ð¸Ð·Ð°ÑÐ¸Ñ
Ne gative
Sub set
( y
ÑÐ¼ Ð¾
&other )const{
Ñ Ð¼
ÑÐ¼ Ð¼
 Ñ
R ange
string ::n
#include<sys/types. h>\n#include<sys/
Ð¿ ÐµÑ
T T
S U
for(inti =1
Ac ce
time (nullptr
Ð¾Ñ Ð°
int find
type info
sy nc
Ð ¯
Ð± Ð¾Ñ
\"<<std::endl;\n }else{\n
_ code
->get Name
_ id
(int id
-> parent->
ware ho
decl val
I mage
Stre am
ue st
FI EL
Token Type::
Ð°Ð½ Ñ
}catch(const exception&e
ifcon stexpr(std::
R adiu
Ñ Ð¸Ð¹
_ flag
sockaddr*)& addr
 file
So cke
Do g
en able
a '
<<\" %
Pay ment
l p
U se
F ibon
Fibon acci
u sage
3 5
std::cout<<\" ===
N O
Ð¸Ñ ÑÑ
for(char c:
Ð §
f 2
S A
99 9
string stream
E qu
number s={
Ð¿ÐµÑÐµÐ¼ ÐµÑ
Lib rary
log (\"
r u
, n
Ð¾Ñ Ð¼Ð°Ñ
Ñ ÑÑ
ÑÑÑ Ð¸Ñ
=newint[ size
>\n struct
Se g
throwstd:: invalid_argument(\"
q. fron
{ \nprotected:\n
Ð¾Ñ Ð¸Ñ
Copy able
sen sor
bo x
has_size_ me
throw invalid_argument(\"
Ñ Ð¾Ð²
Ð¾Ð¸Ð· Ð²ÐµÐ´
we ek
Ð¼ ÐµÐ¶
Ð¼ÐµÐ¶ Ð´Ñ
ÑÐ» Ð¸
, false
T H
ÑÑ ÐµÑÑÐ²
socket.h>\n#include<netinet/in.h>\n#include< arpa/ine
sockaddr*)&addr ,sizeof(addr
time out
y .
Non Copyable
Un ique
C S
Ñ ÐµÐ³
Ñ Ð¾Ð±
Ð°Ð» Ð°Ð½Ñ
<col s
Ð¸Ð· Ð°
Ration al
s. beg
Ð± ÑÐºÐ²
8 .
 |
Ð³ Ð¾ÑÐ¸Ñ
V iew
an up
sal ary
t ter
pal indrome
per mutation
out_of_range (\"
Ñ Ð¸ÑÑ
_ error
end- start
Ð° ÑÑ
( t
socket.h>\n#include<netinet/in.h>\n#include<arpa/ine t.h>\n#include<
with _
ST RU
;\n }\n};\n\n
ÑÑÑÐ¸Ñ Ð¸ÐµÐ½Ñ
Ñ Ðµ
;++i ){\n
perime ter
sockaddr_ inaddr
F D_
* i
j=1 ;j
f .
Ð±ÑÑÑÐ¿Ð¾Ð»Ð¾Ð¶Ð¸ÑÐµÐ»Ñ Ð½ÑÐ¼
ÐµÐ· Ð¾Ð¿Ð°Ñ
\n public:
Visitor&v isitor
T ag
T 2
&e ){\ncout<<\"
un ion
! (
Ð¾Ð± ÑÐ°Ñ
for(inti =
sign al_
t v_
#include<iostream>\n#include<string >\n\n
= (
dep th
Over due
Fl y
m cp
_type {
P hone
greg ate
template 
Ð¿ Ð°Ð¼ÑÑ
v ariant
{\n std::
Ð¿ Ð°Ð»Ð¸Ð½Ð´ÑÐ¾Ð¼
family=AF_INET ;\naddr.sin_
Ð¾Ñ Ñ
Ð² ÐµÐ»
¨ Ð°Ð³
a a
Ð¾Ñ Ð¼
l ue
F il
M id
2 )<<
se ek
! \"<<std::endl
Derived ::
width ,height
[] (size_t
F ixed
Ð½ÑÑ ÑÐ¸ÑÐµÐ»
P rinter
):x (x
Serializ able
successf ull
k now
u s
= new
A verage
\"+ std::
F actory
]=' \\0'
J SON
\n std::
#include<iostream>\n#include<cmath >\nusingnamespacestd;\n\n
ÑÐ¸Ñ Ñ
c ase
+ \"
2 3
en queue
G B
n .
trol ler
H E
M ultiton
Ð°Ð¼ Ð¸
<0 ||
< 0
Ð¾Ð» ÑÑ
IN T
( w
#include<sys/types.h>\n#include<sys/ socket.h>\n#include<netinet/in.h>\n#include<arpa/inet.h>\n#include<
unistd. h>\n#include<iostream>\n#include<c
 with
n ):name(n
\n<< std::setw(
ID :\"<<
Ð¾Ð¿ ÐµÑÐ°
Ñ Ð¾Ð±ÑÑ
R atio
Ð¼Ð°ÑÑÐ¸Ñ Ñ
Ð¾Ð¸Ð·Ð²ÐµÐ´ ÐµÐ½Ð¸Ðµ
 l
>>& graph
;i++){\n for(intj=0;j
:\" ;
ÑÐµÑÑ Ð¸Ðº
i +1
se( sock
To Ptr
¨ Ð°Ð±Ð»Ð¾Ð½
Ð¸Ð» Ð¸
! \"<<endl
0 1
 p
 h
ÐºÐ¾Ð¼Ð¿Ð¸Ð»Ñ ÑÐ¸Ð¸
10 24
ÐºÐ¾Ð¾Ñ Ð´Ð¸Ð½Ð°Ñ
Mone y
Ð¸Ð¼ Ð¾ÑÑ
F ree
#include<iostream>\n#include< type_traits
>\n\nintmain(){\nstd::vector<int>vec ={
>( end-start
q. pop
ÑÐ¸Ð¼Ð²Ð¾Ð» Ð¾Ð²
Ð² ÐµÑÑ
g ac
s_ addr
Ð°Ð¹Ð´ ÐµÐ½Ð¾
#include<iostream>\n#include< map
off set
T uple
#include<iostream>\n#include<string >\nusingnamespacestd;\n\n
v able
a in
RE D
 #
ator .
_ c
H andle
Doc ument
Specific ation
in Prime
Wor k
#include<iostream>\n#include<c string
Ñ ÑÐ¼Ð¼
L ight
Ð 
( d
>\nusingnamespacestd;\n\nintmain(){\nvector<int>vec ={
* d
()const{return name
A t
Ð² ÐµÑ
ÐµÐ¼Ð¿ ÐµÑÐ°Ñ
S H
A b
D A
find( key
U til
S Q
Date Time
ÑÑÑ Ð°Ð½Ð¾Ð²
ÑÐ° Ñ
Sen sor
ÑÐ¸ÑÑ ÐµÐ¼
#include<iostream>\n#include<string>\n#include< unordered_map
Ð´Ð² Ð¸Ð³
;i >=0
Ð³Ð¾ÑÐ¸Ñ Ð¼
ss. str
&operator =(
Ñ Ð¸Ð¼ÑÐ¼
( -
Ð¾Ðµ ÑÐ¸ÑÐ»Ð¾
sol ute
ac quire
\n<< setw(
, \n
C A
}catch (const
ÑÑÑ Ð¾ÐºÐ¸
ap p
++1 7
\"<<std::endl;\n}\n ~
ÑÑ Ð¾ÐºÐ°
Ex ec
_ ex
b anana
addr. s_addr
l ie
Ð¼ Ñ
enable _if
Ð´Ð°Ð½ Ð½ÑÐµ
a e
Type Info
std:: swap
s v
Ð´ ÐµÑÐµÐ²
\n \n
Min ute
F A
Lo c
);\n if(!
Ð¾Ð¿ ÑÑ
H uffman
ER _
 swap
Ð¿Ñ Ð¸ÑÐ²
ro seconds
Ð¾Ñ ÐºÑ
L azy
tra ver
Ð± ÑÐ°Ð±Ð¾ÑÐºÐ°
Ð½ ÑÐ»
[ this
ÐµÑÐ² ÑÐ¹
Ð²Ð¾Ð· ÑÐ°ÑÑ
Ð ¦
Ð¾Ð² Ð°ÑÐµÐ»Ñ
ug h
socket(AF_INET,SOCK_STREA M,0);\n
+ j
; \n
En gine
; \\\n
ÑÐ»ÐµÐ¼ÐµÐ½Ñ Ñ
1 *
static std::
Ñ ÑÐ¾ÑÑÐ¸ÑÐ¾Ð²Ð°Ð½
Ð¾Ð¿ ÑÑÐºÐ°ÐµÐ¼
s mall
emplo yee
U E
Proto col
TI ON
k ->parent->
fo o
En titie
F ield
* mat
STRU CT_
ÑÐ¸Ð¿ Ð°
t s.
3 7
inser ter
for(inti=0;i<size ;i++
s){\n t.jo
( 1
ÑÐ¾Ð´ Ð½Ð°Ñ
- other.
2 ->
E X
),height( h
S core
* *
id x
#include<iostream>\n#include<cmath >\n\n
Ð¿ ÑÐ°Ð²
\n };\n\n
\" ]=
glob al
Ð¾Ð¿ÑÑ ÐºÐ°
se q
: %
5 5
\"<<endl;\n}\n ~
_ inserter
ÐµÐ¹ÑÑÐ² Ð¸ÑÐµÐ»Ñ
_ per
( l
Un know
( 2
:\"<< str
Ð² Ð»
tur n
Ð¿ÐµÑ Ð½Ð¾
D P
To String
L arge
== other.
( 4
>\n#include<c ctype
qu antity
O ther
Ð¸Ð½ Ð¸Ð¼ÑÐ¼
std int
>:: type
Ð¿Ñ Ð¸Ð¾ÑÐ¸ÑÐµÑ
O ut
=0 ;\n
File 
ostream&o s,const
;\nint*arr =newint[size
Lon ge
};\nintsize=sizeof(arr )/sizeof(arr[0]
= other.
addr.s_addr =
Ð¿Ñ Ð¸
trans form
Ð¸Ñ Ñ
Ð² Ð¾Ð´
Po sition
s[i] ->
Mid dle
T A
v ing
Ð¸Ñ Ð¼ÐµÑ
FF ER_
< 1
Co ord
, z
explic it
\"<< std::
o s<<\"
( sock
getline (c
en gine
Ð´Ð¾Ð»Ð¶Ð½Ð¾ Ð±ÑÑÑÐ¿Ð¾Ð»Ð¾Ð¶Ð¸ÑÐµÐ»ÑÐ½ÑÐ¼
Strateg y
P rint
FIEL D
' ,\"
Com mon
Ð¸Ðº Ð»
G e
for(auto& t:
But ton
Ð± Ñ
 6
Ð¡ Ð¢
)return true
ÑÐ°Ñ Ð¸ÑÑ
3 3
 7
I C
<<\", y=\"<<
Ð²Ñ Ð·Ð¾Ð²
inser t
and idate
f s::
Ð¼ÐµÑ 
Ð¿Ð¾ÑÑÐ´ ÐºÐµ
. name
<<\" .
duration_cast< std::chrono::
>\n#include< map
Par ser
Ð°Ð» Ð¾
se(server_fd );\nreturn1
Ñ ÐµÐºÑÑ
ÑÐ» ÑÑ
sh ut
C O
TI ME
O K
D I
File (\"
sym bol
uint8 _t
>\n#include< atomic
y cle
Builder ::
D raw
F a
Virtual Base
Encryp tion
P impl
ÑÐ¾Ð² Ð¿
;k ++
#include<iostream>\n#include<string>\n#include< sstream
){ }\n};\n\n
c ircle
number s
_error (\"
go od
Ñ Ð²
Ñ Ð¸Ñ
width (w
IN ADDR
INADDR _
in ver
\n }\n\n
_ ptr
template< typename...Args
... arg
socke t
ÑÐµÑÐµÐ· ÑÑÑÐ»ÐºÑ
v ie
R GB
sk ip
_v <
gram ming
std:: me
 ^
5 ,
ÑÐ¾ÑÑÐ¸ÑÐ¾Ð² ÐºÐ¸
159 2
1592 65
Ð¼ Ð¾Ð¶
Ð Ð
is dig
( Ð´
10,20,30,4 0,50
signal_ handler
gac y
ine t_
;\nint*arr=newint[size ]{
C V
Dow n
if(c =='
Time 
& get
= []
Thread Pool
uint16 _t
MAX_ SIZE
ategory ::
Pimpl Example
* (const
fibon acci
static_asser t(
R un
){\nint n=
)con tinue
 of
¤ Ð°Ð¹Ð»
Ñ ÐµÑ
- (const
Ð² Ð¾Ð±
width(w ),height(h
Ñ ÐµÐ»
 std::
initial ize
Derived 2
{ }
b le
l y
 N
i =1
Mo ve
ÑÑ Ð¸ÑÐ»ÐµÐ½Ð¸Ðµ
Ð² Ð°Ð½
< 3
0, 0,
v 1
G PU
A g
C RC
Ð½Ð°Ñ ÑÑÐ½ÐºÑÐ¸Ñ
ÑÑÑ Ð¾Ðº
sel l
to upper
Ð» ÐµÐºÑ
Ðº Ð½Ð¸Ð³
sock =
Ñ Ð°Ð¼
Ñ ÐµÐ½Ð¸Ðµ
ÑÐ² Ð°ÐµÐ¼
Ð Ð
thread> thread
ÐºÐ¾Ð¿ Ð¸ÑÐ¾Ð²Ð°Ð½Ð¸Ñ
ÑÐµÑ ÑÑÑ
>\n#include< sstream
task s.
Args >(arg
u d
U R
.add Edge
Ðº ÑÑ
W rite
ref Count
f (x
Smart Pointer
apab il
INT_ MIN
Ð¸Ð¼ ÐµÐµÑ
am b
un iform_
iterator 
Ñ ÐµÐ¹
S ucce
wor ld
addr.s_addr= INADDR_
addr.s_addr=INADDR_ AN
addr.s_addr=INADDR_AN Y
{ 
Args>(arg s)...
Ð¾Ð± ÑÐ°Ð±Ð¾Ñ
A A
G ro
ex tra
in Use
Fa hrenhe
fl ush
//Ð ¨Ð°Ð±Ð»Ð¾Ð½
_ b
min ute
>> graph
>\n#include< unordered_map
pret_cast<char *>(&
Ð± Ñ
t=curren t->
' },\n{'
ÑÐ°Ð¼ Ð¼
159265 35
Ð´ ÑÑÐ³
&con tainer
Ð¾Ð· ÑÐ°ÑÑ
V E
w ,doubleh
Ð» Ð¸ÐµÐ½Ñ
U SE
Ð Ð
), y(y
Tracker ::
-> set
Ð¸Ð½Ð´ ÐµÐºÑ
a f
Task 
S cope
ud io
Suffix Tree
D uplic
Duplic ate
order _
n ap
Ð¿Ñ Ð¾Ñ
acenc y_list
Con stant
S pe
I MP
T RAN
Type Erased
throw Json
throwJson Exception(\"
0 9
}\n} ;\n
Matrix m
ÑÐµÐºÑÐ½ Ð´
mic roseconds
true \":\"
true\":\" false
graph[ 4
Ð¿ Ð°Ñ
. first
Ð°Ð¹Ð´ ÐµÐ½
 error:\"<<e.wh
ÑÐ°Ð±Ð¾Ñ Ñ
Ð²Ñ Ñ
for(charc: text
Matrix2 x2
Ð½Ð°Ñ ÑÑÑÐ»
Ñ Ðµ
in ner
[ N
>c reate
Ð¾Ð» ÐµÐµ
family=AF_INET;\naddr.sin_ port=htons(
( 5
;i>=0 ;i--
â 
is Prime
en trie
Ð´Ð² Ð°
I G
for(auto&t: thread
&& ...arg
_ mutex
< /
_ rate
Re ader
<<std::endl ;\nstd::cout<<\"
st. top
k opeck
Gro up
a ve
Ñ Ð¶
Ð½Ð°Ð¿Ð¾Ð· Ð¸ÑÐ¸Ð¸
Ð° Ñ
( key
i ==0
Ðº Ð»Ð°ÑÑ
an notbe
C ustom
Ð Ð
Pro x
[ 5
SO CK
errno ==
errno== E
25 6
,const string&
Ñ Ð¸Ð¹
FFER_ SIZE
Sub string
Priority ::
>\n#include< utility
Of f
this ->
Coffe e
TY PE
Ð Ð²Ð°Ð½
free (ptr
w o
ity_ network
spe ed
P LA
PLA Y
t Temp
SS L_
Vec 4
){\ncout<<\"Ð ÑÐ¸Ð±ÐºÐ°
tern ative
* it
Z ero
,Ñ ÑÐ¾
+ other.
L I
ÑÑ Ð·
shape ->
INF O
ÑÑ Ð¿ÐµÑÐ½Ð¾
Ð¿ÐµÑÐ² Ð¾Ð³Ð¾
): id(i
Star t
. 99
Ð²ÑÐ°Ñ Ð°ÐµÐ¼
str ncp
!= nullptr
:\"<< sum
ÑÑÐ» ÐºÐ°Ð½Ð°
Derived 1
ÑÐ¾Ð¾Ð±Ñ ÐµÐ½Ð¸Ðµ
sqr t
sc ape
sor t
Ð¾Ñ 1
Ð¾Ñ1 Ð´Ð¾
ache Map.
Qu antity
Ð¾Ð± Ð¼ÐµÐ½Ð°
= temp
non -
ex ample
ac ation
in ate
ÑÐ¼ Ð¾Ð»
ÑÐ¼Ð¾Ð» Ñ
ÑÐ¼Ð¾Ð»Ñ Ð°Ð½Ð¸Ñ
traver sal
Ð¾ Ñ
#include<iostream>\n#include<vector>\n#include< queue
> get
Plugin Manager
<<\" i
while( !
Ð¿ÑÐµÐ´ ÐµÐ»ÐµÐ½Ð¸Ðµ
 user
*other. denominator
 ÑÐ¾
Ð» Ð¸Ñ
total Second
LO W
8 4
V ol
H TT
HTT P
Ð· Ð¼ÐµÐ½ÐµÐ½Ð¸Ðµ
_ fron
s g
st Builder::
stBuilder:: make_
ad Char
F ull
queue Mutex
C allable
ener g
Week day
','. ','.
Ð´Ð¾Ð»Ð¶ Ð½Ð°
),left(nullptr ),right(nullptr
Ð¸Ð·Ð° ÑÐ¸Ð¸
time_t now
/ 2
Ð°ÑÑÑÐ¾Ñ Ð½Ð¸Ðµ
al ternative
m 1
Ð Ð
c 1
-> data
:: operator
Ð° Ð²
Ð 
hash _code
od d
ÐºÐ»ÑÑ ÐµÐ½
t s
( T
* side
;\n else
;\n\n void
_l imits
equ al
He ader
ven tory
G IN
seek g
ÑÑ ÑÑ
&other ){\nif(this!=&other
k =0
k=0 ;k
Ð¿Ð¾ ÑÐ¼Ð¾Ð»ÑÐ°Ð½Ð¸Ñ
ÑÑ Ð¸
)return \"
Per mutation
);\n }\n
end ing
Ñ ÑÑÐµÑÑÐ²
Ð· Ð²Ð»
U N
V A
eff s.size
ÑÑ Ð°Ð½Ð°Ð²Ð»
Ð¿Ð¾Ð´ ÑÑÑ
Count [
B E
alpha<< is
P OL
( e
b itset
ch ange
sim ul
Ñ Ð¾ÑÑÐ¾Ñ
Ñ Ð¸Ð³
;i++ )\n
ÐµÐ» Ð¸ÑÐµÐ»Ñ
Element A
Door State::
Add r
irc u
C el
y l
ae sar
IMP LE
IMPLE MEN
stop pable
\" },{'
tw inPrime
%2 ==0
{ 1,
s_ alternative
( []
 name
4 ,
frequenc y
idate _
D istance
wa it(lock
wait(lock ,
Ð¸Ñ Ð°ÑÐ¸Ñ
#include<iostream>\n#include<c stdlib
S ign
;\n}\nreturn false
Ptr =&
;\n}\n\n //Ð¤ÑÐ½ÐºÑÐ¸Ñ
()=default ;\n};\n\nclass
N ING
sto i
U S
fig .
End ing
Ending Here
;}\n stringget
Mach ine
\"<<endl;\nreturn false
Ñ ÑÐ´ÐµÐ½Ñ
f s
Ð°Ñ Ð²
8 9
(const T
)> ep
(x ,
B O
Ð¾ÑÑÐ°ÑÐ¾Ñ Ð½Ð¾
!\"<<endl ;\nreturn1
!\"<<std::endl ;\nreturn1
Ð¾Ð¿Ð¾Ð»Ð½Ð¸ÑÐµÐ»Ñ Ð½ÑÐµ
Ð» Ð¸
C re
stack <int>
Ð´ ÐµÐ¹ÑÑÐ²Ð¸ÑÐµÐ»Ñ
, \n
\":\" ÐÐµ
ÑÐ°Ð´ Ð¸ÑÑ
< string
v. notify_
* get
Div isionby
Divisionby zero
imag <<\"i
== nullptr
fcntl .
Id x
;\n }\n
Simple Span
ÑÑÐ½Ðº ÑÐ¸Ð¸
Ð°Ð² Ð¸Ñ
in line
MP LETE
task :
Ð¿Ñ ÑÐ¼Ð¾
Vol ume
Ð¾Ñ Ð¾Ð±
;i++){\n for(intj=0;j
Ð°Ð» Ð»
Ð°Ð·Ð¾Ð² ÑÐ¹
D ue
P RI
Pool ::
g pa
Dependenc ie
sub ject.
- value
ite space
MO DE_
Library Item
d ir
Transaction Type::
IMPLEMEN T_
Reser vation
= static_cast<
Ð¾Ð² ÑÐ¹
year (y
Ð½ÐµÐ¼Ð¾Ð¶ÐµÑÐ±ÑÑÑ Ð¾ÑÑÐ¸ÑÐ°ÑÐµÐ»Ñ
time (&
;\n }else
exponen t
[i -1][j
>\n#include<cond ition_variable
invalid_arg ument
for(inti=0;i< SIZE
R ating
Ð¿ ÑÑ
Ð ¤
ÑÑÑÐ» ÐºÐµ
top Index
ver ter
L \"
(int i
>\n#include< queue
; });\n
-> tm_
ÐµÑÐµÐ´ Ñ
ÑÑÐ¾ÑÑÐ¸ÑÐ¾Ð²Ð°Ð½ Ð½ÑÐ¹Ð¼Ð°ÑÑÐ¸Ð²
Ñ Ð¾Ñ
Ð³ ÑÐ°Ð½Ð¸Ñ
[ m
C P
J o
Jo h
P O
Element B
ÐµÑÑ Ð¸ÑÐ¾Ð²Ð°Ð½Ð¸Ðµ
shif t
ÐµÑ Ñ
DE C
right ne
Ð°Ð± Ð¾ÑÐ°
\"<< i<<\"
*this== other
tel l
Cannot openfile
 to
ÑÑÑÐ» ÐºÐ¸
a x
SOCK ET
ÐµÐ² Ð¾Ð¹
Ð ¨
â 
\\n \"
Re move
En try
ÐµÐ»ÐµÐ½Ð¸Ðµ Ð½Ð°
in it
)<1 e-9
b b
Me m
< other.
inte gral
a unch
< std::
Ð± Ð¸Ñ
ser vable
Ð¸Ð¼ ÑÐ»Ñ
k m
div ide
)?\" Ð´Ð°\":\"Ð½ÐµÑ
State 
= T
de alloc
ated Block
epo ch
) \\\n
ache List.
String Wrapper
- %
C ity
strc mp
graph .size
World !
; </w>
+ '
Ð Ð
shor t
:\"<< total
ÑÐ¼ Ð½Ð¾Ð¶ÐµÐ½Ð¸Ñ
s=rec v
Server 
Ð¸ Ð²
;\n }\n}\n
C ++
Ð½Ðµ Ð½Ð°Ð¹Ð´ÐµÐ½
G E
for(int j=1;j
shut down
_ iterator
>\n#include<c math
T &operator
Ð¾Ð´Ð¸Ñ Ð¸ÐºÐ°ÑÐ¸Ñ
ÑÑÑÐ» Ð¾Ðº
:\"<< &
&& !
B e
Nex t
ar .
C H
 number
e scape
ad_ alloc
S im
Cl ass
ph ic
B ST
acenc y
Setting s
G U
Json Node
SQ L
= '
/ \"<<
Ð´Ð¸Ð°Ð¿Ð°Ð· Ð¾Ð½Ð°
ostream&operator<< (std::
push( {
ÑÐ¾Ð± Ñ
[ a
:: value
t199 37
Ð´ ÐµÐ»
microseconds >(end-start
p n
ÐµÐ½ ÐºÐ°
Ð ¬
/ =10
- i
jo in();\n
SOCKET ,SO_
F L
ÑÑÐ°Ð½Ð°Ð²Ð» Ð¸Ð²Ð°ÐµÐ¼
W AR
Ð°Ñ Ð³
aunch ::
Ð¿ Ð»
uint8 _t
Ob servable
Ð¸ Ñ
n ;\n
_ number
g .addEdge
n ,int
un iver
Ñ ÑÐµÑ
*2,' '
F ive
(std:: declval
Event ::
C ase
Ð¿ÑÐ¾Ð± ÐµÐ»
Co urse
G S
Th row
sp _
trol ->
\" \"
ââââââââ ââââââââ
09 6
tice s
ÑÑ Ð¸ÑÐ»ÑÐµÐ¼
A E
start, end
for(constauto& item
6 .
Ð¸Ð½ Ñ
ver sion
sockaddr_inaddr ;\naddr.sin_
G A
\\\" :
=1 ;\n
Ð Ð
G L
o stringstream
Ð¾Ð´Ð¸Ñ Ð¸ÐºÐ°
( 3,4
8,1, 9
Char lie
Ð³ Ð»
()?\" ÐÐ°\":\"ÐÐµÑ
topolog ic
c c
Pl ay
){\nstd::cout<< num<<\"
}catch(conststd:: exception&e
con structor
all back
Ð¿Ñ Ð¾Ð³
to g
a ugh
Qu atern
S c
Sub ject
Per mission
(doubler ):radius(r
> :\"<<
Ð°Ñ Ð°
Ñ Ð¾Ð´ÐµÑÐ¶
(x )
DF S
Longe st
Y _
* '
. '
q ;\n
, j
for k
st Path
To Con
Ð¼ ÐµÑÑ
Ñ Ð·
 new
) throwruntime_error(\"
< 2
abc def
inline 
Ex pen
?\" 0
?\"0 \":\"
a v
Ð¾Ðµ Ð·Ð½Ð°ÑÐµÐ½Ð¸Ðµ
:x=\"<<x <<\",y=\"<<
Qu ote
total Amoun
Ð¾ÑÐ¼ ÑÐ»
alc .
=0 ;i
( *
W N
atomic <bool
Ð´Ð¸Ð°Ð¿Ð°Ð· Ð¾Ð½Ðµ
M sg
task: task
Ð°Ð±Ð» Ð¸Ñ
a uthor
ole an
Ð°ÐºÑ ÑÑ
mon strate
Componen t
u _
src _
ild ->
kel v
IMPLEMENT_ STRUCT_
elements. a
Singleton Logger
 string
Ð¸ÑÐ¾Ð²Ð°Ð½ Ð½Ð°Ñ
_ name
/ '
Ð½ÑÐ¹Ð² ÐµÐºÑÐ¾Ñ
Ð½ÑÐµ ÑÐ¸ÑÐ»Ð°
D B
read(reinter pret_cast<char*>(&
#include<iostream>\n#include<vector >\n\n
Ð± Ð¾Ð»ÑÑÐµ
wait(lock, [this
distribution <
#include<iostream>\n#include<vector>\n#include<algorithm >\n#include<
 for
-> execute
Ð´Ñ Ð±Ð»
Ð» Ñ
Ð¸Ð½ Ð³
;}\nvoid set
true ;\n}\nreturnfalse
unique_ptr< Shape
server_fd,(struct sockaddr*)&addr,sizeof(addr
byte s
addr.sin_ addr
ÑÐºÐ°Ð· Ð°ÑÐµÐ»ÐµÐ¹
[3 ][3
Database Connection
1. 1
friend ostream&operator<<
friendostream&operator<< (
Ð½ ÑÑ
set fill
:$ \"<<
;\n }\n
Fil ter
not found
an g
Sal ary
isitor .
LE D
N E
_ file
l back
9 .0
L Y
State Machine
sec ret
t Length
Ð Ð
) score
ÐµÑÑ Ñ
Al igned
Temperature 
I Logger
- time
< (const
hold s_alternative
,std:: ios::binary
>\n#include<algorithm >\n\n
(file ,line
Hello ,
sign al
}\n} ;</w>
Ð¸ Ð¼
(double w,doubleh
server_fd= socket(AF_INET,SOCK_STREAM,0);\n
Ð¸ 
Ð± Ð°Ð¹Ñ
U DP
ÐºÐ°Ð· Ð°ÑÐµÐ»Ñ
 };\n\n
Ð´Ð²Ð° ÑÐ¸ÑÐ»Ð°
template<typename U
<<\",b =\"<<b
ÑÑ Ð°Ñ
Ñ Ð¿
&&other)noex cept
forward< Args>(args)...
- ÐºÐ¾Ð´
ÑÑ ÑÐ¸ÑÐµÐ»
RGB Color
P ipeline
//Ð Ð¾Ð½
t ch
Shop ping
s z
wareho use
successf ul
:\";\n for(inti=0;i<size;i++
Ð¿Ð¾Ð»ÑÐ·Ð¾Ð² Ð°ÑÐµÐ»Ñ
Ð¸Ð½ ÑÐµÐ³
l ar
\n #define
O S
DE BU
Ð¿ÐµÑÐµÐ¼ÐµÑ ÐµÐ½Ð¸Ñ
W a
Dif f
f uel
accept(& v
accept(&v isitor
ÑÐ°Ð· Ð½ÑÑ
<<\" x
friendstd:: ostream&operator<<(std::
-> is
( Ñ
Ð½Ð¾Ð¼ Ð¿Ð¾ÑÑÐ´ÐºÐµ
. second
#include<iostream>\n#include< typeinfo
ÐºÐ¾ ÑÑÑÐ¸ÑÐ¸ÐµÐ½Ñ
uniform_ int_
::value _type
annotbe 
c =
Ð» Ð¾Ð²
Ð¿Ð¾ ÑÑÑÐ»ÐºÐµ
. incre
): width(w),height(h
title (t
bytes ]='\\0'
Ð´Ð² Ñ
( AF_INET
};\nint*p =arr
ÑÐµÐ¶ Ð´
ÑÐºÐ°Ð·Ð°ÑÐµÐ»Ñ Ð½Ð°
Ñ Ð°
Ð² 
3 )
over due
setfill ('
Ð¿ÐµÑÐµÐ¼ÐµÐ½ Ð½ÑÑ
st Ref
wa it
uint 64
Ð¿ÑÐµÐ´ ÐµÐ»Ð¸ÑÐµÐ»Ñ
um ul
Ñ ÐºÐ¸Ð¹
j= i
A uthor
2 \",\"
Ð°Ñ Ð¸ÑÐ¼ÐµÑ
throwstd:: out_of_range(\"
Ver tex
An d
dec ryp
serializer .
g uest
, year
Ð¿ ÐµÑ
Computation s::
0 2
8,9 ,10
( graph
\"<< i
tell g
-> right
;\n}\n }\nreturn
Ð¼ Ð¸ÑÐ°ÑÐ¸Ñ
_ stack.
mendation s.push_back(\"
\":\" Ð½Ðµ
#include<iostream>\n#include<vector>\n#include< numeric
= i
j ug
Ð·Ð²Ð» ÐµÑ
RO W
: shape
sa _
st F
stF requen
Ð¸Ð·Ð¼ÐµÐ½ Ð¸ÑÑ
Ð¼Ð¾Ð¶ Ð½Ð¾
/ =
Ð¾Ð¸Ð· Ð²Ð¾Ð´
Ð¸ÑÐ¸Ñ Ñ
Ñ Ð¸ÐºÑ
()const override{\ncout<<\"
sole Logger
 \"
w ill
sub span
Ð¾Ð´Ð¸ÑÐ¸ÐºÐ° ÑÐ¸Ð¸
Ñ Ð±
_ index
: \\\"\"<<
Dig it
temp /=10
MPLETE D
i um
Flo at
E POL
[ 4
Ð¸Ð°Ð» Ð¸Ð·
E m
in Quote
_ addr
{ \npublic:
Ñ Ð±
\\\" '
VAL UE
I T
error _
[ start
s In
sIn Month
FA I
al f
> ,
S K
, true
T wo
ÑÐ¾Ð±ÑÑ Ð¸Ð¹
Binary Op
window Size
fil ter
it Set
itSet 64
;//ÐÑ Ð¾Ð¿ÑÑÐºÐ°ÐµÐ¼
DEC LARE_
Encryption System
\"\" _
throw out_of_range(\"
Matrix operator
:\"<< s
) ;\n};\n\n
( 3.14
r beg
Ð· Ð°
ÐºÐ¾Ñ Ð½Ñ
t19937 
>\n#include<string >\n\nclass
unordered_set <char
Ð¸ÑÐ¾Ð² ÐºÐ°
b ra
*other. imag
tv_ sec
Ð²Ñ Ð¿Ð¾Ð»Ð½ÐµÐ½Ð¸Ñ
;\nbreak ;\n}\n
incre ment
Ñ ÑÑ
( 7
5,2, 8,1,9
Name =\"
Ð½Ð¸Ð³ Ð°
ÑÐ¾Ð»Ñ ÐºÐ¾
queue _mutex
W h
j =0
j=0 ;j
t2 _
fail ure
\\t \\t
* m
_ wrapper
Fin al
ÑÐ² Ð°ÐµÑ
(double factor
>\n#include<string >\nusingnamespacestd;\n\nclass
at tach
Al gorithm
(x, y
fect forward
Data .
Po st
Ð·Ð½Ð°Ñ ÐµÐ½Ð¸Ð¹
8 7
Ð°Ð´Ð° ÑÑ
! =(const
):real(r ),imag
):real(r),imag (i
\":\" NO
obj .
Ñ Ð¸Ð²
Ð»ÐµÐ¼ÐµÐ½Ñ Ñ
) throwstd::runtime_error(\"
Ð¾Ð¶ Ð½Ð¾
(std::c in,
Ð Ð¬
Al ge
Alge bra
Algebra ic
width *height
C ++
; }\n
Str =\"
[i +j
Ð² Ð¸ÑÐ¾ÐºÐ¾Ñ
P S
tree [node
spe ak
Derivedd ;\nBase
*b =&
destro yed
Â µ
!= other.
setfill(' 0'
aunch:: async
;i++){\n thread
8 5
an nel
Ð½Ð¸Ñ Ð¸Ð°Ð»Ð¸Ð·Ð°ÑÐ¸Ñ
trans fer
sie ve
overflow _error(\"
_ num
3. 
v ance
In ser
A x
2. 
Ð¾ÑÐ¸Ð± Ð¾Ðº
Type ()constoverride{return\"
top Node
Fibonacci Generator
Sub system
D ir
state s[
p ].
L imited
inter pret(con
interpret(con text
rid ge
stop _
M L
Weekday ::
Ð·Ð°Ð¿ ÑÐ¾Ñ
T RAC
File Handler
F e
or _
yl ind
ylind ric
He alth
_ op
ne uron
7 1
ÑÑÐ°Ð· Ð½ÑÐ¼Ð¸
Matrix &other)const{\n
>\nusingnamespacestd;\n intmain(){\n
tolower (c
Coord inate
Ð¾Ð»ÑÑ ÐµÐ½Ð¸Ðµ
Ð½Ð¸Ð¹ ÑÐ»ÐµÐ¼ÐµÐ½Ñ
amb da
Y ES
YES \":\"NO
de vicer
devicer d
Singleton *
ÑÐ¸Ð¼Ð²Ð¾Ð» Ñ
[ SIZE
ÐÐ ÐÐ
#include<iostream>\n#include<cl imits
shape :shape
 the
\";\n else
mutex 
o ss.str
Ð°Ñ Ð¸Ð°Ð½Ñ
Ñ Ð¾ÐµÐ´
spec ific
sum =
de vice
 ?
-> clone
Count ++
<0 )?-
Comple ted
s \",\"
Ð½ÐµÑ ÐºÐ¾Ð»Ñ
;\n }else{
Ñ Ð¾
D O
K E
( unique_ptr<
//ÐÐ¾Ð½ ÐºÑÐµÑ
g .
US D
s up
;\nint year
;\nreturn true
( shared_ptr<
in able
and l
T get
s To
fa hrenhe
Sim ul
Pa used
Message &msg
G PA
Ð°Ñ ÑÐµÑ
Ð°Ðº ÑÐ¸Ð¼ÑÐ¼
I O
P ub
reser ve
\"<<endl;\n}\n\n ~
[](size_t index
o s<<
x+ y
vector<int >>&graph
){\nintn= graph.size
Ð³ ÑÐ°Ñ
Ð¼ Ð¾Ð³
Inval id
Ð°Ñ Ñ
throw Expression
throwExpression Exception(\"
gen re
Ñ Ðº
Ð Ð«
Proce ssing
; }
Ð±Ñ ÐµÐ¼
 f
text Hash
De bug
>\n#include< typeinfo
-> c
,c ,d
Min imum
].push_back( {
mset(& addr
mset(&addr ,0,sizeof(addr
Mo use
ÑÐºÐ°Ð· Ð°ÑÐµÐ»Ñ
Ð¼ Ð¾Ð´Ð¸ÑÐ¸ÐºÐ°ÑÐ¸Ð¸
Ð Ð½
ÐÐ½ Ð½Ð°
S l
Ñ ÐµÑÐµÐ´Ñ
side A
side B
> task
Ð´Ð»ÑÐ´ ÐµÐ¼Ð¾Ð½ÑÑÑÐ°
(Ð¿ Ð¾
LO G
Qu ick
q. enqueue
l imits
Max imum
header .
 g
Request &request
Ex tended
Ð¾Ð±ÑÐ°Ð±Ð¾Ñ ÐºÐ¸
topologic al
Ð¼ Ñ
ter X
ter Y
insert( {\"
PRI ME
â 
>\nusingnamespacestd;\n\n boolis
Play ing
[ l
:1 ;\n
AR GS
System Config
ABCAB AB
Data Processor
X ML
PRO T_
nor m
Roman Number
Ab solute
Fin anc
mo val
Room Type::
u Item
;\n}\n \npublic:\n
ÑÐ¾Ð²Ð¿ Ð°Ð´Ð°ÑÑ
bin \",ios::binary
Ð½ Ð¸Ñ
[v ]=true
);\n }\n}\n
>>graph (n
Ð¾Ð± ÑÐ¾Ð´
Hash Table
A -
Ñ ÑÐ°Ð²Ð½ÐµÐ½Ð¸Ðµ
s. erase(it
- 5
Rectangle (doublew,doubleh
apple \",\"
NON BLOCK
system_clock:: time_
Ð Ð¢
>\n#include<c stdlib
] --
* e
ostringstream o
_iterator <char
static_cast< const
ÐµÑÐ² ÑÐµ
_ array
\" },{
ÑÐ¾Ð² Ð°ÑÐ°
Comple te
F ron
So Far
ÑÐ¸ÑÐ»Ð¾ :\";\nstd::cin>>
ÑÑÑÐ»ÐºÑ Ð½Ð°
Ð¸Ð½ Ñ
8 2
Ð²ÐµÑ Ñ
\"<<endl ;}\n};\n\nclass
right ]
#include<iostream>\n#include<fstream >\n#include<string
Ð¿ÐµÑÐµÐ¼ÐµÐ½ Ð½Ð¾Ð¹
suffix e
T O
Trans form
\",\" D
simul ate
Ð·Ð°Ð´Ð°Ñ Ð¸
Ð¾Ð²Ð°ÑÐµÐ»Ñ Ð½Ð¾ÑÑÑ
d imension
:\"<<std:: bool
Ð¼Ð°ÑÑÐ¸Ð² Ð°
R ight
Ð¾Ð´ Ð¸Ð½
DEBU G
ache Map
delete (void*ptr
++ ;//ÐÑÐ¾Ð¿ÑÑÐºÐ°ÐµÐ¼
L CS
static_cast< unsignedchar
owner .
safe_ divide
sel f
serializer. serialize
Post gre
Postgre SQL
S C
,int y
Ð½ÐµÐ¼Ð¾Ð¶ÐµÑÐ±ÑÑÑÐ¾ÑÑÐ¸ÑÐ°ÑÐµÐ»Ñ Ð½ÑÐ¼
< 8
ÑÐ°Ð· Ð´
==0 &&
Add ition
back _inserter
ay_t <decltype
>visited(n ,false
push( start
i j
1',' 0','
Ð°Ð½ Ð½ÑÐµ
4 32
Ñ Ð½Ð¾Ð²
;\npublic:\n explicit
Ð¸ÑÐ¾Ð² Ð°ÑÑ
mag nitude
Ð°Ðº ÑÐ¾Ñ
sock len
,sizeof(buffer )
Ñ Ñ
ÑÐµÑ Ð½Ð°ÑÐ¸Ð²
start,int end
Ð³ Ð¾Ð´
WAR NING
Con text
mset(&addr,0,sizeof(addr ));\naddr.sin_
t v.
Id()const{return id
ÐµÑ ÐµÐ½Ð¸Ðµ
unistd. h>\n#include<iostream
Expen sive
Ð» Ð°Ð´
. Ð¢
Ð°Ð· Ð²Ð°Ð½Ð¸Ðµ
 str
floating _
side C
MO D
Ñ Ð·
+ k
De veloper
[ size
File Reader
Ð½ÑÑÑ Ð¸
:\";\nfor(intx :arr
\";break ;\ncase
in v
=std:: make_shared<
P ending
numa _
mit ted
Origin al
Node *
Line Seg
[ from
Ð½Ð¾Ðµ Ð¿ÑÐ¾Ð¸Ð·Ð²ÐµÐ´ÐµÐ½Ð¸Ðµ
j --
I t->
Percen tage
D iscount
Expr Node
e ^
So urce
y Callable
sub ject
y clic
iction ary
Of Five
staticvoidoperator delete(void*ptr
P TRAC
PTRAC E_
duration_cast< chrono::
C ipher
path .
Memory Tracker::
Math Error
Log g
Game State::
Ag gregate
t Node.
TypeErased Container
We ak
Ñ ÑÐµÐ´
m ustbe
ÑÐ»Ð¾Ð² Ð¾
Ð½Ð¸Ñ Ð°
;\n}\n\nintmain(){\nstd::string text=\"
) \"<<std::endl;\nstd::cout<<\"
ÑÐ°Ð´ÑÑ Ð¾Ð²
ÑÐ¸ÑÐ»Ð¾ :\";\ncin>>
>\n#include<mutex >\n#include<condition_variable
t19937gen (r
while( getline
execute ()
\"<<std::endl ;}\n};\n\nclass
inval id
Ð´ÑÐ±Ð» Ð¸ÐºÐ°ÑÐ¾Ð²
Ð¦ Ð
while(! q.
 server
Ð°ÑÐµÐ» Ð¸
\"<<std::endl;\n}\n\n ~
Ð± ÑÐ°Ñ
Ñ ÑÑ
\" \n
Ð±ÑÐºÐ² Ñ
#include<iostream>\n\nintmain(){\nint num
Ð· Ð½Ð°Ñ
. value
N A
, []
:: register
Con troller
Visitor :public
Leap Year
Ð¾Ð´ ÑÑÐµÑ
static JsonValue
"" \\n
Ð¼ÐµÑÐ¾Ð´ Ð¾Ð²
>:: max
O VER
< U
st. pop
E cho
Ter m
j >=0
tog gle
enable_if <
Args &&...arg
t Path
C augh
\" ,
Ð° 
Ð¼ÐµÑ Ñ
ircum ference
{\ndouble width,height
0, 1,
) >
ij k
inorder Traver
-> left
-> value
\";\n }elseif(
ition_variable c
ition_variablec v
Ð°ÐºÑÐ¸Ð¼Ð°Ð»Ñ Ð½Ð°Ñ
Ñ Ð´Ð²Ð¸Ð³
< Container
M B
txt \",\"
Invalidarg ument
Invalidargument :\"<<e.wh
ax ed
1 '
>\nusingnamespacestd;\n\nintmain(){\nstring text=\"
Re al
ios:: ate
ÐºÐ¾Ð¾ÑÐ´Ð¸Ð½Ð°Ñ Ñ
G RA
se(sock );\nreturn0;\n}</w>
int Value
Ð Ð
My Resource
(intn ){\nreturn
bin \",\"
Ðº Ð»
G o
t v
_ fd
Ð´Ð°Ñ Ñ
;\n};\n\n struct
_t <
&&other)noexcept{\n if(this!=&other
Ñ 
ME DI
MEDI U
Unknow n
Ð¾Ð² Ð°Ñ
\");\nclo se(server_fd);\nreturn1
k =
ye s
ROW S
1. 
[](size_t i
,int n
en rol
ne g
Base ::
:a=\"<<a <<\",b=\"<<b
State A
Ð²ÑÐ°Ñ Ð°ÐµÑ
F S
u ow
usage Order
Ð¸Ð¼Ð¾ÑÑ Ð¸
Stop ped
Observer 
De vice
:: field
s day
W RITE
Resource Pool::
SS L
SSL_ CT
SSL_CT X
to Fahrenhe
dig its.size
SERI ALI
ml [pos
Loc ator
spheric al.
Financ ial
on line
Ð½ Ð´
sho uldbe
 error
an y
s.size ()-1
ÑÑÑÐµÑÑÐ² ÑÐµÑ
Ð·Ð°Ð¿ Ð¸Ñ
),age (a
ele m
Fraction &other)const{\nreturn
Ð¾Ñ Ñ
Rectangle(doublew,doubleh ):width(w),height(h
::c reate
Stack 
>:: iterator
server_fd,(structsockaddr*)&addr,sizeof(addr ))<0
time val
<<endl ;\ncout<<\"
(vec. begin(),vec.
Ð Ð
n a
%4 00
T S
*b=& d
)?\" ÐÐ°\":\"ÐÐµÑ
ÐµÑ ÑÑÑ
>\n\n boolis
#include<iostream>\nusingnamespacestd;\n\nintmain(){\nint num
H IG
HIG H
ÑÐ¸ÑÐ»Ð¾:\";\nstd::cin>> num
ÐºÐ°Ð¶ Ð´
- 7
@ example.com
HTTP /
Derived *>(this)
{ '
\n #
Ð¿ÑÐµÐ´ ÑÑÐ°Ð²Ð»ÐµÐ½Ð¸Ðµ
rele ase
Ð¾ Ð²ÑÐµÐ¼Ñ
Statistic s
Ñ Ð¸Ð³
) ;\n\n
Ð± Ð°Ð»Ð»
Ð²ÑÐµÐ¼ÐµÐ½ Ð¸
b n
H as
c ar
T CP
7 3.15
P ix
Pix el
ÑÑÑ Ð¸Ð¼
Pub lic
In ner
BE GIN
D V
PAC ITY
//Ð¨Ð°Ð±Ð»Ð¾Ð½ Ð½Ð°ÑÑÑÐ½ÐºÑÐ¸Ñ
;\nNode*left ;\nNode*right
\n template<
update _
3 }
hello 
P e
i ++
Ð°Ñ Ð¸ÑÐµÐ»Ñ
( Ð²
>>dp (m
- z
#include<iostream>\n#include< numbers
>\n#include< random
uniform_int_ distribution<
Polic y
Ñ Ñ
Ð» Ð¾
 outofrange
#include<iostream>\n#include<string>\n#include< unordered_set
rel axed
ÑÐ°Ð½ Ð¸Ñ
alculate _
b l
E D
banana \",\"
unistd. h>\n#include<
FD_ SET
buffer[ 1024
:b =\"<<b
\n if(
^ \"<<
:\"<< w
Ð¸Ð· Ñ
5, 6
8 ,
Alloc ation
, e
Ñ Ð¾Ð»ÑÑ
#include<iostream>\n#include< stack
Ð´ Ð¸Ð°Ð¿Ð°Ð·
Derivedd;\nBase *b=&d
ÑÐ¸ÑÑÐµÐ¼ Ñ
* (p
side s[2]
total Size
tm ->tm_
ÐºÐ¾Ð½ÑÑÐ°Ð½Ñ Ð½ÑÑ
){\n throwstd::invalid_argument(\"
Fly weight
mp _
C '
Ð¿ Ð¸ÑÐ¾Ðº
ang u
angu age
M ST
v isit
SALAR Y
Visitor 
<<\" ]
Multiplic ation
( Ñ
;\n}\n\nintmain(){\nstring text=\"
order Level
Tre ap
( DoorState::
Power Of
Amoun t
T aylor
En tity
. register
text [
Bo olean
Ð¼ Ð½Ð¾Ð¶ÐµÑÑÐ²
Packet Handler
an Handle
A sync
G C
## name
\":\"Ð½Ðµ ÑÐ²Ð»ÑÐµÑÑÑ
G RE
GRE EN
alcul ation
ircu it
Â° F
TE MP
v iron
Point 3D
mer genc
< Resource
To Id.
Serializ ation
For m
s nap
R ule
Rule OfFive
Service Locator
Whe el
az ine
Inser tion
_c apabil
window _size
(per m_name
(perm_name ,\"
ST Node
 S
):data(val ),left(nullptr),right(nullptr
1 7
std io
u =
other <
* x+y
*x+y *
ÑÐ¶ Ð½Ð¾
#include<iostream>\n#include<vector>\n#include< stack
ÑÐ¸ÑÐ»Ð¾:\";\ncin>> num
A- Z
z <<\")
Ð´ ÐµÐ¼
Ð¾Ñ Ñ
ÑÐ°Ð²Ð½ Ð¸Ð²Ð°Ð½Ð¸Ðµ
X '
Error:\"<<e.wh at()<<std::endl;\n}\nreturn0;\n}</w>
Ð 
do g
{\ndoublereal ,imag
sa .
F_ SET
F_SET FL
O_ NONBLOCK
ÐµÐºÑÑ Ð¸Ð¹
Ñ Ñ
Fir st
Ð°Ð± Ñ
[c ]++
[i][j]=dp [i-1][j
Manager manager
\" }
switch (type
_ C
<0)?- num:
<0)?-num: num
CO MPLETED
de gree
Ð² ÐµÐºÑÐ¾Ñ
Ð¼ Ð¸Ð½Ð¸Ð¼ÑÐ¼
7 9
<<\" Â°C
Ð¾Ð¾Ð±Ñ ÐµÐ½Ð¸Ðµ
. un
bin \",std::ios::binary
Ð²ÑÑ Ð¸ÑÐ»ÐµÐ½Ð¸Ñ
jo inable
ator. alloc
f time
a i
DOU B
Iden tifier
IC MP
Ð¿ ÐµÑÐ°ÑÐ¾Ñ
scale (doublefactor
subject. attach
num Str
METH O
Equ al
EN D
Fixed Vector
Event Handler
Men uItem
Acce ss
read(buffer .
ÑÑÐµÐ´ ÑÑÐ²
s_ in_
- 01
Ð¿Ð°Ð¼ÑÑ Ð¸
>\nusingnamespacestd;\n\n intfind
[ x
Ð»ÐµÐ¼ÐµÐ½Ñ \"<<
m y
ÑÑÐ¼Ð¼ Ñ
Ð¼Ð¾Ð³ ÑÑ
){\nint index=hash
_val ),y(y_val
Checker ::
Ñ ÑÐ°Ð²Ð½Ð¸Ð²Ð°Ð½Ð¸Ðµ
num <<\"
encryp ted
ÑÐ½Ð¾Ð² Ð½Ð¾Ð¹
Ð± Ð¾Ð»ÑÑ
Ð½ÑÐµ Ð·Ð½Ð°ÑÐµÐ½Ð¸Ñ
;\n }\n}\n
word s={\"
Ð°ÐºÑÐ¾Ñ Ð¸Ð°Ð»
operator /
W OUL
WOUL DBLOCK
A GA
AGA IN
ge _
p ton
pton (AF_INET
12 7
\\\": \\\"
Ð¿Ð¾Ð² ÑÐ¾Ñ
Ð´Ð»ÑÐ¿ÑÐ¾Ð²ÐµÑ ÐºÐ¸
Ð Ð¢
Vector2D v
%100 !=0
ÑÐµÐ¶Ð´ ÐµÐ½Ð¸Ðµ
4 4
. beg
file 1.
c alc
Ð ¤
ÐºÐ¾Ð½ Ñ
Ptr ->
ro ad
He ight
Ð¼ Ð½Ð¾Ð³Ð¾
Âµ s
s Mutex
M S
Mem ber
Ð±Ñ Ð°Ñ
twe en
C ritic
visited [neighbor
turn On
thread t
ar ning
 email
h tml
' &&
ÑÐ¸ÑÑ Ñ
Ñ Ð±
ÐµÑ Ñ
KE Y
Ñ ÑÐ°Ð²Ð½ÐµÐ½Ð¸Ñ
Ð¿Ð¾Ð²ÐµÑ Ñ
worker (intid
Th is
b it
c ircle
E MP
Down load
CC ESS
n g
title <<\"
Ð¾Ð» ÑÑÐ¾Ð¹
Database Record
-> handle
_ flow
. execute
n to
X X
?\" Yes\":\"No
time Of
Double Checked
DoubleChecked Lock
\"<<std:: hex
ÐµÐºÑÑÑ Ð¸Ð²
Ð½Ð¾Ð² Ð¾Ð³Ð¾
Ð¿Ð¾Ð´ Ð¼Ð½Ð¾Ð¶ÐµÑÑÐ²
so und
Has Size
Node >(\"
Check sum
Task Scheduler
task Queue.
throwConfig Exception(\"
aesar Cipher
Em ul
v iction
DV D
Reven ue
* \"<<matrix
:a =\"<<a
ÑÐ°ÑÑ Ð¸
Ð± Ð°Ð»Ð°Ð½Ñ
,int j
Ð ÑÐ¸Ð±ÐºÐ°:\"<<e.wh
>\n\nintmain(){\nstd::string text=\"
}\n }\n}\n
distance To
2, 3,
ÑÐ¼ Ð¸
recur sive
write(reinter pret_cast<
write(reinterpret_cast< constchar
ÑÑÐ¸ ÑÐ¸ÑÐ»Ð°
;\n if(
),price (p
Ð¹ ÑÐµ
Error:\"<<e.wh at()<<endl;\n}\nreturn0;\n}</w>
Ð²Ð¾Ð± Ð¾Ð¶Ð´
Ñ Ñ
\"<<std::endl ;break
total Area
){\n throwstd::runtime_error(\"
): title(t
Ð± Ð¾Ð»ÐµÐµ
sockaddr_inaddr;\naddr.sin_ family=AF_INET;\naddr.sin_port=htons(
Ð Ð¡
ÐµÐ·ÑÐ»ÑÑÐ°Ñ Ñ
>\n#include<thread >\n#include<chrono
[j -1]){\ndp
Ñ Ð¸ÑÑ
ÑÐ°ÑÑ Ñ
. Ð
other. ptr
ÐµÑ ÐºÐ¾Ð½ÐµÑ
Ð¾Ð¿Ð¾Ð»Ð½Ð¸ÑÐµÐ»Ñ Ð½Ð°Ñ
Me tric
nection s
ÐÐµÐ¸Ð· Ð²ÐµÑÑ
server_fd,NULL ,NULL
Traf fic
HTTP/ 1.1
q. dequeue
ÐµÐ·Ð¾Ð¿Ð°Ñ Ð½Ð¾Ðµ
) :\"
Ñ Ð¾ÑÐ¼ÑÐ»
isalpha (c
M il
Mil k
node =
Matrix dimension
( g
Visitor&visitor )
){\n throwruntime_error(\"
j=i+1 ;j
Ð´ ÐµÑÐ¶
Message >msg
\",\" Ð
r .
001 \",\"
\";\nstring test2=\"
Vector2D 
) \"<<endl;\ncout<<\"
Ð½Ð¾Ðµ ÐºÐ¾Ð»Ð¸ÑÐµÑÑÐ²Ð¾
ÑÐµÑ Ð½Ð¾ÑÑÑ
AB AB
Observer *
Div ide
\"<<endl ;break
Trans fer
C all
\", \"
Clone able
back up
Co st
B '
Ð¾ 
ÑÐ²Ð»Ñ ÑÑÑÑ
Account Number
Math Computations::
:: template
ÑÐ¼Ð¾ ÑÐ³Ð¾Ð»ÑÐ½Ð¸Ðº
): numerator
ter s
;\n \n
;\nvector< vector<int
Sub sequence
De gree
Ð¼ÐµÐ½Ñ ÑÐµ
ÐºÐ¾ÑÑÑÐ¸ÑÐ¸ÐµÐ½Ñ Ñ
 obj
Ð¸Ð½ Ñ
Ð¸Ð½Ñ ÑÐ¾Ð½
W OR
Hello, World!
):name(n ),age(a
trig ger
O FF
tinue ;\n}\n
if(c =='
con st
ÐµÑÐ²ÑÐ¹ ÑÐ»ÐµÐ¼ÐµÐ½Ñ
;\nstd::cout<<\"ÐÐ²ÐµÐ´Ð¸ÑÐµ ÑÑÑÐ¾ÐºÑ
x ][n
x][n y
real ,imag
()const override{\nstd::cout<<\"
t1. join();\n
t1.join();\n t2.
Le gacy
setsock opt(
setsockopt( server_fd,SOL_
setsockopt(server_fd,SOL_ SOCKET,SO_
RE USE
REUSE ADDR
REUSEADDR ,&
REUSEADDR,& opt,sizeof(
REUSEADDR,&opt,sizeof( opt
 started
FD_ I
FD_I SSET
inet_ pton(AF_INET
127 .0.0.
127.0.0. 1
Ð»Ñ ÑÐµÑÐ½Ð°ÑÐ¸Ð²
ÐÑ Ð¸Ð²ÐµÑ
w cout<<
wcout<< L\"
ÐµÐºÑÑ ÐµÐµ
Ð Ð±
Ð¾Ð· Ð¸ÑÐ¸Ñ
>\n#include< type_traits
sol ve
ÑÐµÐ°Ð» Ð¸Ð·Ð°ÑÐ¸Ñ
\ncout<<\"\\n ÐÑ
),name (n
Time Inter
) /
hold s_type
Ð¸Ð¼ Ð¾Ðµ
Ð Ð°Ñ
2 )
;\nint id
_ day
H igh
2 '
ÐºÐ¾Ð½ÑÑÐ°Ð½ÑÐ½ÑÑ ÑÑÑÐ»ÐºÑ
Ð²Ð°Ð´ÑÐ°Ñ Ñ
Ð¼Ð° ÑÑ
;\ncout<<\"ÐÐ²ÐµÐ´Ð¸ÑÐµ ÑÑÑÐ¾ÐºÑ
He ap
;}\n ~
Con trol
Ð¿ ÑÐ¾Ñ
whe el
Ñ Ð·
Mo vie
* [
ar k
NA ME
Ð¸Ð¼ÑÐ»Ñ ÑÐ¸Ñ
//Ð Ð°Ð·Ð¾Ð²ÑÐ¹
will 
en ter
)?a :b
order_ relaxed
ÑÐ°Ð¼Ð¼ Ñ
GL Buffer
; w
s ]
P urchase
Re ading
Y E
Json Object
[ ""
ÑÐ°Ð± Ð°Ñ
F ur
Ð½Ð¾ÑÑÐ¾ÑÐ¾Ð½ Ð½Ð¸Ð¹
ab ab
void *
b ad_alloc
ÑÑÐµ ÑÐ³Ð¾Ð»ÑÐ½Ð¸Ðº
++ ]=
s m.
Logger ::getInstance
DoubleCheckedLock ing
Clo sed
Door Event::
ome tric
ty Entitie
ity_network .add_
Window s
Con st->get
Lef t
o cte
Handle Wrapper
w .
__ VA
__VA _
__VA_ ARGS
__VA_ARGS __
Ð¾ÑÑÑÐ¿ Ðº
ir th
Ð²Ð¾Ð± Ð¾Ð´
Unique Ptr
qu antifier
MA P_
TRAN S
^2 /
d x
_if _
_if_ noex
aprek ar
User By
Ð½Ð¾Ñ Ð¸ÑÐµÐ»Ñ
Payment Request&request
s B
But Cloneable
an Form
undo Stack.
Z AB
ZAB LE_
ylindric al.
uffman Code
acency Matrix
udio Sample
U sage
st [
t_token. type
sor 3
sor3 x3
Inval id
,month ,year
Ð½Ð´ ÐµÐºÑ
* M_PI
< N
;\n }
ÑÐ¾Ð´ÐµÑÐ¶ Ð¸Ñ
el ap
#include<iostream>\n#include< variant
//Ð Ð»Ð°ÑÑ
ÑÐ¸Ð¿ Ñ
X OR
ÑÑÐ¿ Ð¿
s):size (
sum+= i
:\"<< num
11 11
Container &container
annotbe empty
ÐµÑÐ² Ð¾Ðµ
isdig it(c
Ð Ð
Ð Ð
;\n}\nreturn true
0 },{
>=0 &&
Ð·Ð²Ð»ÐµÑ ÐµÐ½
sum+= num
)==-1 ){\nperror(\"
tv_ usec
= [&]
*msg =\"
ÑÐ² Ð²ÐµÐ»
ÑÐ²Ð²ÐµÐ» Ð¸
text.length ();\nintm
text.length();\nintm =pattern.length
Ñ ÐµÑ
Ñ Ð¾Ð¶Ð´
( start
file 2.
w d
2 <<endl;\ncout<<\"
\";\nstd::string test2=\"
g h
temp=(num <0)?-num:num
&operator ++
Ðµ Ñ
() (const
Ð ¥
CS V
temp ts
s Of
){\nif(! node
;//ÐÐ¾Ð½ÑÑÑÑÐºÑÐ¾Ñ ÐºÐ¾Ð¿Ð¸ÑÐ¾Ð²Ð°Ð½Ð¸Ñ
;\nb ->
s ;j++
push _fron
Ð°Ð¿ Ð¸ÑÑ
n,int i
print Info
:: accept(
Json Array
Ð°ÑÐ°Ð»Ð» ÐµÐ»Ñ
ution ::
Ð½Ð¾Ðµ Ð²ÑÐµÐ¼Ñ
ÑÑÑÐµÑ Ð°ÐµÑÑÑ
] ->
% H
:% M
:%M :%
:%M:% S
ÑÑÐ² ÐµÐ½
 Y
;\n unique_ptr<
state Name
th ree
Ð» Ð°Ð³
ache. put(\"
Handler :public
PO OL_
quick Sort(arr
( {
ÑÐ² Ð°ÑÑ
owner Name
Quatern ion
G ree
s A
Sh if
;\n else
GU I
\\ d
User (
type_index ti
th reshold
SC II
s_in_ month
Ð½Ñ Ð±ÑÑÑÐ¿Ð¾Ð»Ð¾Ð¶Ð¸ÑÐµÐ»ÑÐ½ÑÐ¼Ð¸
Matrix result(rows,col
B reak
Ð¾ ÑÑÑÐ¸ÑÐ¸ÐµÐ½Ñ
(std::vector<int >&
< i
7 ,
;\n}\n }\n
table [index
Ð Ð°Ð¹Ð´ÐµÐ½
[a -z
or 
):x(x _val),y(y_val
Ð½ÑÑ ÐºÐ¾ÑÐ½Ñ
v.notify_ all
ment seg
istream &operator
2 <<std::endl;\nstd::cout<<\"
>\n voidprint
With draw
Ð¸Ð¼ Ð¾ÑÑ
setsockopt(server_fd,SOL_SOCKET,SO_ REUSEADDR,&opt,sizeof(opt
sockaddr*)& client_addr
i --
ÐÐµ ÑÐ´Ð°Ð»Ð¾ÑÑ
u al
ar p
Ð¸Ð·Ñ Ð°Ð»
alloc ation
Le ak
&)=delete ;\n};\n\nintmain(){\n
Qu adratic
CV V
45 6
1 3
F requenc
;\n }\n}\n\n
Ð¾Ð· Ð²ÑÐ°ÑÐ°ÐµÐ¼
ÐºÐ¾Ð¿ Ð¸ÑÐ¾Ð²Ð°Ð½Ð¸Ðµ
k <<\"
 n
ME MOR
IN _
Ð°ÑÐ¾Ð´ Ð¸Ð¼
Ñ .
an _
,visited ,
U P
ur genc
- Ñ
Ð´ ÐµÐ»
ÑÐµÑÐµÐ´Ñ Ð¿ÑÑÑÐ°
80 80
#include<iostream>\n#include<c stdint
ÐµÐ¶ Ð¸Ð¼
time_tnow =
h 1
PIN -ÐºÐ¾Ð´
PA GE_
PAGE_ SIZE
Ð¿Ð°Ð¼ÑÑ Ñ
_ edge
,(struct sockaddr*)&addr,sizeof(addr
//ÐÐ¾Ð½ÐºÑÐµÑ Ð½ÑÐµ
sh te
Ð¿Ð¾Ð²ÐµÑÑ Ð½Ð¾ÑÑÐ¸
>\n\n std::
ÑÐ¾ÑÑÐ¾Ñ Ð½Ð¸Ðµ
Search Tree
Recursive (
} \\\n
v.notify_ one
smis match
c ache
Op s[\"
 un
PRO C
topological Sort
topologicalSort Util
sum Of
A SE
t_ state
Task task
PowerOf Two
ÑÐ¾Ð´Ð½ÑÐ¹Ð¼Ð°ÑÑÐ¸Ð² :\";\nfor(inti=0;i<size
( Args...arg
Ñ Ð½Ð¾ÐµÐ¿ÑÐ¾Ð¸Ð·Ð²ÐµÐ´ÐµÐ½Ð¸Ðµ
u x
Ð½Ð¾Ðµ ÑÐ¾Ð¾Ð±ÑÐµÐ½Ð¸Ðµ
Flag s
:type Str=\"
not_ of(\"
-> add
Pool [
a N
t Char
H OST
system (\"
Ð¾Ð¿ ÑÑÑÐ¸Ð¼
) os<<\"
X ml
MEN T
( PTRACE_
(x,y )
Vec4 f
>( student1
CV .
ob stacle
:: list
de serialize
skip Wh
skipWh itespace
MAX_ PLAYER
MAX_PLAYER S
p Impl
MA SK
TRANSITION (
On Write
EX PEN
EXPEN SE
mergenc y_
Weak Ptr
DECLARE_ STRUCT_
Insertion s
uda Succe
*2,'' )<<\"
Logg able
un ro
skip _
skip_ wh
skip_wh itespace
sor3x3 x3
File RAII
(char c
1,typename T2
Ñ ÐµÐ¼
5 f
//Ð¡ Ð¿ÐµÑ
ÑÐ¾Ð´ Ð½ÑÐ¹Ð²ÐµÐºÑÐ¾Ñ
, Value
visited [v
write(reinterpret_cast<constchar *>(&
\"<<std::endl ;\n
){}\nvoid set
;\n }\npublic:\n
% i==0
Ð»ÑÐ¼ Ð±
Ð¾ÑÐºÑ ÑÑÑ
=a %b
initializer _list
tr l
:\"<< expr
- Ð¿
q.fron t();\n
q.front();\n q.pop
repl ace
s.begin(), word
Rectangle :publicShape
signal( SIGINT
opt=1;\n setsockopt(server_fd,SOL_SOCKET,SO_REUSEADDR,&opt,sizeof(opt
Ð¸Ñ ÑÐ¾Ð´
Ð¾Ð¿ Ð¸ÑÐ¾Ð²Ð°Ð½Ð¸Ðµ
inet_pton(AF_INET ,\"
{ \\\"
In put
>\n#include< iterator
,int start,intend
Ð°Ð´ ÐµÐ½Ð¸Ðµ
>\n#include< type
>\n#include<type index
Curren t
Ð°ÑÑÐ¸Ð² Ð¿Ð¾ÑÐ»Ðµ
ÑÑÐµÐ¿ ÐµÐ½
[j-1]){\ndp [i][j]=dp[i-1][j
Ð¿ÑÐ¸ÑÐ² Ð°Ð¸Ð²Ð°Ð½Ð¸Ñ
( (
) ]
#include<iostream>\n#include< tuple
ÐÐ°Ñ Ð¸Ñ
ÑÐ»ÑÑ Ð°Ð¹
while(temp !=0
) ||
Re ad
Ð¾Ð² Ð°Ñ
time(& now
P refix
test 3=\"
x 
>\n#include< future
buffer[ 256
\"<<endl ;\n
fir m
ÐµÑ Ð¸ÑÐµ
s1 [i
setting s
c reated
Joh n
y Tree
E UR
This will
3, 4
 *
FAI LED
Ð³ Ð¾Ð»
malle st
I S
N Ð´Ð¾Ð»Ð¶Ð½Ð¾Ð±ÑÑÑÐ¿Ð¾Ð»Ð¾Ð¶Ð¸ÑÐµÐ»ÑÐ½ÑÐ¼
ver se
Ð²Ñ ÑÐ°Ð¶ÐµÐ½Ð¸Ðµ
re ation
>( \n\"
:: handle
throwstd:: bad_alloc
%H :%M:%S
Ñ Ð°Ñ
Ð°Ð¿ Ð¸Ñ
&get Instance
Ð² ÑÐ¾Ð¼Ð°Ñ
Ñ Ð¼
) ;\n
find_ first_
=newchar [
& key
<<(is Valid
\":\"-Ð½ÐµÐ² Ð°Ð»Ð¸Ð´
is On
t cp
POOL_ SIZE
Th an
T RI
Ñ Ð´
x y
\" ;\ncase
Observer* observer
//Ð Ð»Ñ
fectforward ing
ro ss
in_ use
microseconds>(end-start ).count()
Type Name
bu ild
FIELD (
. /
suffix .length
9 .
ÑÐ´Ð°ÑÑ ÑÑ
ap _
mustbe be
{\ndoubleradius;\npublic:\nCircle (doubler):radius(r
istringstream iss(text
while(iss>> word
{\nintdata ;\nNode*left;\nNode*right
{\nintdata;\nNode*left;\nNode*right ;\nNode(intval
Node*root ){\nif(root==nullptr
Ñ Ð¸ÐºÐ»
Ð²ÐµÑÑ Ð¸Ð½Ñ
>\nusingnamespacestd;\n usingnamespacechrono
Ð¾Ð»ÑÑ Ð°ÐµÐ¼
):numerator (num
):numerator(num ),denominator
V acation
/1 80.0
sqrt(x *x+y*
(\"<<x<<\",\"<< y<<\")
,int start
=std:: max
ÑÐµÐº Ð¿ÑÑÑ
e m
Ð¼Ð¾Ð³ÑÑ Ð±ÑÑÑ
1',' 1','
[a-z A-Z
Ñ Ð·Ð¾Ð²ÐµÑ
Ð´ Ð¸Ð½
t '
Ð¸Ñ ÑÐ¾Ð¶ÐµÐ½
ÐºÐ¾Ð½ ÑÐµÐ¹
invalid_argument &e){\nstd::cout<<\"
trl +
value =\"<<value
se en.
Ð Ð
;\nstd::cout<<\"ÐÐ²ÐµÐ´Ð¸ÑÐµÑÑÑÐ¾ÐºÑ :\";\nstd::getline
>( sum
;\nint*p=& a
();\n if(pid==0
Adap ter
){}\n ~
#include<sys/types.h>\n#include<sys/socket.h>\n#include<netinet/in.h>\n#include<arpa/inet.h>\n#include< unistd.h>\n#include<
|| errno==E
milliseconds >(end-start
send to
ut f
find( search
Ð» Ð³Ð¾ÑÐ¸ÑÐ¼
ÑÐ°Ð· ÐµÑ
ide o
File Logger
Object Tracker::
LA SS
:\"<< ti
= start
Ð°Ñ Ð¾Ð²
ÐµÑÑ Ñ
v v
Ñ Ð¸ÐµÐ¹
),value (v
% =60
e t
+ y
Ð» Ð¸
Mo st
;\n using
Name (name
<10 ?\"0\":\"
;\n\n if(
-> size
){\nperror(\" socket
isal num
(arg s...
ÑÑÐ» ÐºÐ¸
uthen tic
ÑÐ°Ð±Ð¾Ñ Ñ
- 4
Ð°ÑÐ°Ðº ÑÐµÑ
_ function
DA TA
ultiplic ation
[ w
2 ;\n
EMP LO
EMPLO YE
LACK ;\n
inorder Helper
( u
;\npublic:\n Resource
Ð°Ð¿ ÑÑÐºÐ°ÐµÐ¼
_ ref
Derivedd;\nBase*b=&d ;\nb->
} )
"" <<
< R
{ true
Message >(\"
Ð¾Ð¹ Ð½Ð°Ð¸Ð¼
Ð¾Ð¹Ð½Ð°Ð¸Ð¼ Ð¸Ñ
#include<iostream>\n#include< set
ÑÐµ ÑÐ³Ð¾Ð»ÑÐ½Ð¸Ðº
(- x
< float
ÑÐ¾Ñ ÐºÐ¸
Up per
width <<\"x
Ð°Ñ Ð¸Ð»
% Y
<<\" *
Ð¾Ð² Ð¼ÐµÑÑ
en tity
_l abel
y+ z
ipro c
H R
Re verse
Reverse Compare
reate _
& item
ÑÐ¼ Ð±
Ð¾Ð¿ÐµÑÐ° ÑÐ¸Ð¸
Ð½ÐµÑ Ð³
Out put
was_ quantifier
student Id
mail .com
inte ger
In ventory
Ð Ð
May Throw
ul a
For Palindrome
)%2 6
ucl ide
L U
Event System
Game Settings
DE FA
DEFA UL
DEFAUL T_
++;//ÐÑÐ¾Ð¿ÑÑÐºÐ°ÐµÐ¼ '
recur ring
TransactionType:: EXPENSE
[l ][
[ root
G pu
S unro
\";break;\ncase TokenType::
erato sthene
tree Type
By te
),month (m
Pro gramming
{\ndoublewidth,height ;\npublic:\n
ÑÐ°Ð· ÑÑÑÐµÐ½
ios:: app
[i][j -1]
Ð³ ÑÐ°Ð´ÑÑÐ¾Ð²
R \"
] +
try{\nval idate_
,int id
ÐµÑÑÑ Ð¸Ñ
Ñ ÐºÐ¾Ð¼
to o
is nan
8 1
-> next
arr )
ÐµÑÐµÐ³ ÑÑÐ·
open (filename
apacity(c ap
2.begin(),vec 2.
signal(SIGINT ,
signal(SIGINT, signal_handler
if(listen (
FD_ ZERO
FD_ZERO (&
!= E
stop ped
vol ume
Ð·Ñ Ð¸Ð·Ð¼ÐµÐ½Ð¸ÑÑ
b =\"<<b
Ð¾Ñ ÑÐ´
In itial
Ð¿ÐµÑÐµÐ¼ÐµÐ½ Ð½ÑÑ
):ptr (p
x ^2
ostringstreamo ss;\n
ÑÑÐ½Ðº ÑÐ¸Ñ
Th ree
Ñ Ð»ÐµÐ¼ÐµÐ½Ñ
&other)const{\nreturn !(*this==other
h ),minute
ÑÐ´ ÐµÑ
Data data
:\\\"\"<< test<<\"
;\n\nint temp=(num<0)?-num:num
#include<iostream>\n#include<vector >\nusingnamespacestd;\n\n
task _id
:\"<< task
<int >&
=3.14 159
 order
test 3
7 8
;\ncout<<\"ÐÐ²ÐµÐ´Ð¸ÑÐµÑÑÑÐ¾ÐºÑ :\";\ngetline(c
#include<iostream>\n#include< array
Data (
d 1
Ð²ÐµÑ ÑÐ¸Ñ
),col s(c
[m ][n
'&& top
[ '
#include<iostream>\n#include<thread >\n#include<mutex
R _
I L
Ñ Ð²ÐµÐ»Ð¸Ñ
Ð¾ÑÐ¸Ð± ÐºÐ¸
ÐµÑ ÐµÑÑÐ²ÐµÐ½
stack<int> st
Ð¿Ð¾Ð»ÑÐ·Ð¾Ð² Ð°ÑÐµÐ»ÐµÐ¹
( ...
C ycle
T&operator *
8 6
\",\" Ð
=0;i <3
j=0;j <3
e -10
\\n '
State B
word: word
malloc (size
Sto ck
D rink
 time
,std:: strlen
TAB LE
F RO
FRO M
q. push(start
q. push(neighbor
#include<iostream>\n#include< list
4. 
Queue. pop
< V
2 *
IS B
ISB N
Id ++
DOUB LE
}catch(conststd:: exception&e
>&con text
//Ð ÐµÑÐ¾Ð´
Ob j
)< ep
C yclic
i ke
(\" user
F '
pid ,nullptr
Kel v
Ð¿ÑÐ¾Ð³ ÑÐµÑÑ
<T>::value ;\n\n
ex it
M ixed
D D
k g
Book (\"
y al
C apacity
File System
: oss<<\"
S wap
<<\",b =\"<<b
rows||col s!=other.col
exception&e ){\ncerr<<\"
{\nintdata;\nNode*left;\nNode*right;\nNode(intval ):data(val),left(nullptr),right(nullptr
is_arithmetic _type
Run time
\");\n static_assert(
Ð¾Ð½ÐµÐ½Ñ Ñ
Ð´ ÐµÐ½Ñ
):numerator(num),denominator (den
pair <double
&operator +
Number Of
variant <int,double
;\nm utable
Ð²Ð¾Ð±ÑÐ°Ñ Ð½Ð¾Ð¼Ð¿Ð¾ÑÑÐ´ÐºÐµ
(\" data.
(int key
Ñ Ð·Ð¾Ð²
Ð¿ÑÐµÐ¾Ð± ÑÐ°Ð·Ð¾Ð²Ð°Ð½Ð¸Ðµ
?\" YES\":\"NO
87 65
8765 432
thread> worker
weak _ptr<
load Plugin(\"
ÐµÑÑÑÑÐº ÑÐ¾Ñ
;i<= end
Ð°Ñ Ð¸ÑÑÐ¾Ð²Ð°Ð½
w rit
trl+ C
r pn
\n }catch(const
Fraction&other)const{\nreturn Fraction
D imension
shape:shape s){\n
\n 
vol atile
if( FD_ISSET
Ð½Ð¾Ð¼ Ñ
und s
Cho ice
ver t
old Char
K arp
Ñ Ð¿Ð¾Ð»Ð½ÑÐµÐ¼
app. log
{1, 2,
Fo und
*b *b
LI EN
_ resource.
Ð°Ð¼ÑÑ Ñ
ÐµÑÐµÐ¼ ÐµÑÐµÐ½Ð¸Ðµ
Ñ ÐºÐ¸Ð¼
;\n}\n\nintmain(){\nstd::string test1=\"
abc abc
test: test_case
f _
Ð°Ð´ Ð¸ÑÑ
){\nperror(\"socket \");\nreturn1
async (std::
async(std:: l
ÑÐ³Ð¾Ð»Ñ Ð½ÑÐ¹
am ma
Triangle 
Rational &other)const{\nreturn
Data 
Emp ty
ition. notify_
Con tent
>\n#include<vector >\nusingnamespacestd;\n\n
Ð° ÑÑ
Ð± ÐµÐ¶
empty()|| !
Ð½Ð¾Ðµ Ð´ÐµÑÐµÐ²
den );\n}\n
(doublex,double y
Ð¸Ð½Ð°Ð»Ñ Ð½Ð¾ÐµÐ·Ð½Ð°ÑÐµÐ½Ð¸Ðµ
->get Description
Thiswill throw
Matrixdimension smismatch
k .
Ð°ÑÐ°ÐºÑÐµÑ Ð¸ÑÑ
ÑÐ¾Ð¶Ð´ ÐµÐ½Ð½Ð°Ñ
()const{returnname ;}\nintget
PA USED
ifconstexpr(std:: is_
88 88
>running {true
as ure
DatabaseRecord ::
= t
>\n#include<c string
[u ][v
typename T
SELE CT*
SELECT* FROM
All User
v 4
Password Manager
Logger ::
ÑÐµÐ´Ð½ÐµÐµ Ð°ÑÐ¸ÑÐ¼ÐµÑ
ÑÐµÐ´Ð½ÐµÐµÐ°ÑÐ¸ÑÐ¼ÐµÑ Ð¸ÑÐµÑÐºÐ¾Ðµ
j=1;j <=n
(sock ,buffer
Ð¿Ð°Ð»Ð¸Ð½Ð´ÑÐ¾Ð¼ Ð¾Ð¼
[] (std::size_t
Ð¾Ñ ÑÐ°Ð½ÑÐµÐ¼
ÐµÑ Ðµ
Ð¾Ð¾Ñ Ð²ÐµÑ
Ð¾Ð¾ÑÐ²ÐµÑ ÑÑÐ²
states[ p].
type_ info
-> display
Constant Node
Ñ Ð¸Ð¼
evalu ate(v
evaluate(v ar
BinaryOp Node
op =='
B B
Item 
:: B
Object Pool
t )
Exec ute
L amp
ep silon
Ap plic
Rectangle ::
Ne ighbor
' 
8. 8.
subscribe (
Notific ation
pair <char
GU AR
GUAR D_
GUARD_ SIZE
state ==\"
@ mail.com
system(\" ip
sub tract
- j
2024 -01
ÐÐ Ð
At tribute
ick ne
fig ure
is bn
ThreadSafe Logger
Par tition
UN I
aprekar Number
Ð¼ ÑÐ»Ñ
\":\"Ð½ÐµÐ»Ñ Ð·Ñ
TO TAL_
Index ].
ker nel
Ñ ÐµÐ¿
s[n x][ny
in f
Ï 
old Value
:: RED
F uel
ia 
s[ ti
Singleton <
other. dig
Ð¿ÑÐ¾Ñ ÐµÑÑ
)\\\n TRANSITION(
Mag azine
trol-> strong
IMPLEMENT_STRUCT_ FIELD_
Function Call
G ap
stop_flag _
mission (\"
Token (TokenType::
A STNode
igen value
vation Id
Ch anged
RE PE
REPE A
REPEA T_
able <
File (conststring&filename
){\n throwinvalid_argument(\"
Ð°Ð¹ Ñ
1.1,2. 2,3.
S ide
con tainer
Ð´Ð¾Ð»Ð¶ÐµÐ½ Ð±ÑÑÑ
:\";\ncin>>a >>b>>c
( ...
( Ð±
, word
Con tain
 op
operator s.top
s uffic
Ð Ð
Ð ÐÐ
,c ;\ncout<<\"ÐÐ²ÐµÐ´Ð¸ÑÐµ
Balance ()const{returnbalance
. imag
ÑÐµÑ Ñ
ÑÐµÑÑ ÐµÐ¹
INT R
sockaddr_ inclient_addr
Ð¿ÑÑ Ñ
Ð¾Ð¼ Ñ
s rand(std::
sock= socket(AF_INET,SOCK_
D GRA
=' A'
(\" Alice
f g
Ñ ÑÐ½ÐºÑÐ¸Ñ
 [
ÑÑÐµÐ¿ÐµÐ½ Ð¸
-1];\n }else{\ndp
Ð¦Ð Ð¯
;\n}\n\nvoid set_
Count --
We b
;\nint quantity
){\ncout<<\"Ð ÑÐ¸Ð±ÐºÐ°
&0x3 F
Ð½ÑÑ Ð¿ÐµÑÐµÐ¼ÐµÐ½Ð½ÑÑ
IP ,
,& len
|| !
e e
o s;\n}\n};\n\nintmain(){\n
l ','
Ð¾Ñ Ð²Ð¾Ð±Ð¾Ð¶Ð´
ÑÐ± ÐµÑÐ¸ÑÐµ
\",\" C
2 1
s){\nintn= s.length
[ row
7, 8,9
while(! q.
_str (),
pi i
[v ]=
Graph g
te am
Ð¢ ÐµÑÑ
, \n
P i
Ð°Ñ Ð¿Ð»
S mallest
json<< ""
;\n }\n};\n\n
Fail ure
State >
Ð´Ð²Ñ Ñ
ator. dealloc
Id()== id
ÑÑ Ðº
Ð³ ÐµÐ¹
Exception (conststd::string&msg
Af ter
;\n}\n\nintmain(){\nstring test1=\"
_limits <int
ÑÐ¸Ð³ Ð¾Ñ
U T
key( k
Fac ade
Ð¼ Ð½Ð¾Ð¶ÐµÐ½Ð¸Ðµ
Ð¸Ð½ÑÐµÐ³ Ñ
89 79
_limits <double
W IN
Time String
Ð°Ð¹Ñ Ð¸
It-> second
Ð½ÑÑ ÑÐ»ÐµÐ¼ÐµÐ½ÑÐ¾Ð²
(Ð´ Ð»Ñ
Key &key
Ð¶ Ð°Ñ
() (intx
mutex>lock( queueMutex
I RC
IRC LE
RE CTAN
RECTAN GLE
Tree Node
(std:: forward<Args>(args)...
Check box
Context &con
Dependenc y
Ñ Ð»ÐµÐ½
Ñ Ð¸Ð·
:\"<<( has
THRESH OL
THRESHOL D
cel len
iz ation
ÑÐµÑÐ² Ð°Ð»
stol l
DE FINE_
Ð¼ÑÐ»Ñ ÑÐ¸Ñ
() (
pair <
to Json
>:\"<<std:: is_
g b
Widget ::
, target_
Par tial
Partial Order
=4 096
:a=\"<<a <<\",b=\"<<b
,double initial
componen ts.
Ð² Ð¾Ð¹
Lazy Value
>\n#include<algorithm >\nusingnamespacestd;\n\n
ÐµÑ Ñ
stack. pop
Ð°ÑÐ¸ÑÐµÐ»Ñ Ð½Ð¾Ðµ
[] (intindex
[i-1][j] ,dp
[i-1][j],dp [i][j-1]
Ð´ ÑÐ¾Ð±Ñ
:\";\nstd::cin>>a >>b>>c
ÐÐ°Ð¹Ð´ÐµÐ½ \":\"ÐÐµ
ÐÐ°Ð¹Ð´ÐµÐ½\":\"ÐÐµ Ð½Ð°Ð¹Ð´ÐµÐ½
0 -9.
- ]+
Ð½Ð¾Ðµ Ð¿ÑÐµÐ¾Ð±ÑÐ°Ð·Ð¾Ð²Ð°Ð½Ð¸Ðµ
_val ,double
),z (
),z( z
Type Checker::
,const T&value
P ressC
PressC trl+C
Expression Parser
stack <char
se s
In suffic
;break ;\ncase'
R P
++;\nright --
Ð¿ Ð¾ÑÐ»ÐµÐ´
Exec uting
Ð¸Ñ ÑÑ
Ð¸ÑÑÑ Ð°Ð»Ñ
fcntl. h>\n#include<
O_ R
Factory ::create
ÐµÑÐµÑÐµÑ ÐµÐ½Ð¸Ðµ
>\n#include<c signal
if(bind( server_fd,(structsockaddr*)&addr,sizeof(addr))<0
;\n}\n\n if(listen(
( server_fd,&
(server_fd,& read_fd
Ð¼Ð°ÑÑÐ¸Ð² Ð¾Ð²
#include<iostream>\n#include<cstdlib >\n#include<ctime
sock=socket(AF_INET,SOCK_ DGRA
w char
= w
(intn ){\nif(n<=1
Search (text,pattern
s Per
(\" B
r 1
^ 3
*c *c
unk Size
c ar
] (const
const T
{\nint id
Ð°ÐºÑÐ¸Ð¼Ð°Ð»Ñ Ð½ÑÐ¹ÑÐ»ÐµÐ¼ÐµÐ½Ñ
Ð½ÑÐµ Ð´Ð°Ð½Ð½ÑÐµ
;\n}\n\n ~
Ð¿Ð¾Ð²ÑÐ¾Ñ ÑÑÑ
 k
side s[1]
= sum
+l tm->tm_
IN_ PRO
IN_PRO GRESS
 }
 task
Date ::
Ch ange
Matrix &m
event. data.
ssize_tbytes=recv (client_fd,buffer
async(std::l aunch::async
Ð¿Ð¾Ð»Ð½Ñ ÐµÑÑÑ
Ð½Ð¾Ðµ ÑÑÐ°Ð²Ð½ÐµÐ½Ð¸Ðµ
Ð´ Ð¸Ð°Ð³
]==\" yes
b 1
4 9
2 9
[ 6
A PI
observer s.push_back(
[ r
Derived*>(this) ->
sieve Of
(intv ):value(v
Mech an
Mechan ic
v ar
(l aunch::async
q.front();\n q.pop
invalid_argument &e){\ncout<<\"
Reg istrar
UN K
Rational&other)const{\nreturn Rational(num
=0;i <
;\n\n intmain(){\n
total We
t Year
Prototype (\"
Po sitive
Ð°Ð¿ ÑÐ¾Ñ
P ur
P residen
sym metric
\ncout<<\"\\n \\n
LO ADING
X Ax
,std:: ref
_ worker
Employee 
ÑÑÑÑÐº ÑÑÑ
\\\"\"<< title<<\"
Ð Ð¾Ð¹Ð½Ð°Ð¸Ð¼Ð¸Ñ
PRO D
PROD U
PRODU CT
Fur ther
j=0;j<3 ;j++
<double >
O ccurrence
++;\n else
Ñ Ñ
_ A
=0 ;v
;v ++
Ñ Ð°Ð±Ð»Ð¾Ð½
-1 -i
Temp File
Go od
stack Size
ai _
started onport
= year
\n if(
se ason==\"
sqrt(dx *dx+dy
%Y -%
%Y-% m
%Y-%m -%
Do e
\nprivate :
ad lock
t_ node
_ key
example Graph
ÐµÑÐ² Ð°Ñ
By Type
Mo vable
Ð Ð
t tl
ic mp
Task >(\"
;i++ )
Expr &expr
GENERA TE_
_ sequence
*ptr To
exp Taylor
not_of(\" \\t
was_quantifier =false
Phone Number
Ð½Ð¾Ð³Ð¾Ñ Ð»ÐµÐ½
file system
q 1
Ð² ÐµÐ½ÑÐ°Ñ
sell Code
&)> on
L PS
ph i
Calculator Plugin
Log Level
Ð´Ð»ÑÐ¿Ð¾Ð»ÑÑ ÐµÐ½Ð¸Ñ
Block Header
Vec4 i
=std::chrono:: ste
BLOCK S
::getInstance (\"
uclide an
 |
Le af
+ z
Type Tracker
Pointer Selector
nection _
O ld
PLAY ING
at tribute
Pro v
G uest
Y Ax
mo use_
Someth ing
C amel
Int Expr
ay out
3 -a
3-a 3
â 
FIG_ MODE_
TE (
set Absolute
TransactionType:: IN
Financial Account
:c ategory_name
:category_name =\"
idate Vertex
_capabil ity(
t Equal
Shel f
ResourceWrapper <Resource
throwJsonException(\" Value
n s_
â 
arning _rate
Ð´Ð¾Ð»Ð¶ Ð½ÑÐ±ÑÑÑÐ¿Ð¾Ð»Ð¾Ð¶Ð¸ÑÐµÐ»ÑÐ½ÑÐ¼Ð¸
= y
ÑÑÑÐ°Ð½Ð¾Ð² ÐºÐ¸
6 ,
while(! pq.
j ==0
Line ar
( R\"
#include<iostream>\n#include<thread >\n#include<vector>\n#include<chrono
Ð³ Ð¾ÑÐ¾Ð²
Ð´ÐµÐ¼ Ð·Ð°Ð²ÐµÑÑÐµÐ½Ð¸Ñ
Ð½Ð¾Ð¹ ÑÐ¸ÑÑÐµÐ¼
Ð½Ð¾Ð¹ÑÐ¸ÑÑÐµÐ¼ Ðµ
Ð¸Ð²ÑÑ Ð¾ÑÑ
Ð°ÑÑ Ð¸ÑÑÐ¾Ð²Ð°Ð½
Ð¾ÑÐºÑÑÑÑ ÑÐ°Ð¹Ð»
*1024 *1024
,c ;\nstd::cout<<\"ÐÐ²ÐµÐ´Ð¸ÑÐµ
:\";\nstd::cin>>a >>b>>c
Light On
operator s.
7 .
){returna *b
=new Node
:\";\ncin>>a >>b>>c
ro ugh
ÑÐµÑÑÐµÐ¹ Ñ
FD_ZERO(& read_fd
\\\", \\\"
if(i >0
Ð Ð
ÐÐ Ð
ÐÐ Ð
;\nbreak ;\n}\n}\n
%400 ==0
[3][3 ]={
(inti ):id(i
local host
Pro gram
Dog :publicAn
=nullptr ):ptr(p
ÑÐ°Ð· Ð»Ð¸Ñ
>\n#include< set
Ñ ÑÐµ
F_SETFL ,flag
*a+b *b
s,minute s,
enum 
Data )<<\"Ð±Ð°Ð¹Ñ
Ð¾Ð´Ð¸ÑÐ¸ÐºÐ°ÑÐ¸Ñ ÑÐµÑÐµÐ·
3 ->
\",\n\" a
\nstd::cout<<\"\\n \\n
_ map
Per formance
File ,ios::binary
Metric s::
;++i){\n thread
- \"+
NO T_
t Size
s.size ()<<\")
[index ]
do Work
s ;++i){\n
Ð´Ð»ÑÐ´ÐµÐ¼Ð¾Ð½ÑÑÑÐ° ÑÐ¸Ð¸
The 
Ð¾ÑÑ Ð¸ÑÑÐµÐ¼
):rows(r ),cols(c
. find('
Ð¿ ÐµÑÐ°ÑÐ¸Ñ
Med ia
>\n#include< limits
ÐµÐ·Ð¾Ð¿Ð°ÑÐ½Ð¾Ðµ ÑÑÐ°Ð²Ð½ÐµÐ½Ð¸Ðµ
safe_compare ::c
s1[i -1]==
s1[i-1]== s2
Ð¾Ð»Ð¶ Ð½Ð¾Ð±ÑÑÑ
Ð¾Ñ ÑÑ
ofstream out(
Te am
()const override{\n
ÑÐ¿ Ð¾ÑÐ¾Ð±
H y
_ with_
};\n\ncout<<\"ÐÑ ÑÐ¾Ð´Ð½ÑÐ¹Ð¼Ð°ÑÑÐ¸Ð²
L L
"" ]=
> ;\n
empty()||! running
Ð ÐµÐ·ÑÐ»ÑÑÐ°Ñ
19 84
ÐºÐ¾Ð½ ÑÐ¸Ð³
( 6
ss>> word
apple\",\" banana\",\"
Ð¾Ñ ÑÑÐ°Ð½Ð°Ð²Ð»Ð¸Ð²Ð°ÐµÐ¼
ÐµÐ² Ð°Ñ
Ð» ÐµÐ´ÑÑÑ
w rong
Ð½Ð¾Ðµ Ð¿ÑÐµÐ´ÑÑÐ°Ð²Ð»ÐµÐ½Ð¸Ðµ
Ð² Ð¸Ð´
Number (num
,int to
ÐºÐ°Ð»Ñ ÑÐ½Ð¾ÐµÐ¿ÑÐ¾Ð¸Ð·Ð²ÐµÐ´ÐµÐ½Ð¸Ðµ
Vector3D operator
Ð² ÑÑÐ°Ð²
output. txt
Exception &e){\nstd::cout<<\"
\":\" â
R SA
event Type
ind ice
):c apacity(cap
Templ ate
Echo 
ÑÑÐ½Ðº ÑÐ¸Ð¹
\"<<endl ;\n}\n\nintmain(){\n
Ð¾Ð³ ÑÐµÑÐ½Ð¾ÑÑÑ
Ð¿Ð¾ÑÐ»ÐµÐ´ Ð¾Ð²Ð°ÑÐµÐ»Ñ
= !
de bug
Ñ Ð¸ÑÐ¼ÐµÑ
?\" true\":\"false
Ð½ÐµÑÐ³ Ð¸Ñ
ÐµÑ Ð¸Ð¼ÐµÑÑ
PROT_ READ
N S
( static_cast<unsignedchar
P DF
Ð¿ÑÐ¾Ð³ÑÐµÑÑ Ð¸Ð¸
_ m
0 },\n{
:\"<<strerror (errno
Widget w
hello world
< E
yal ty
Prov ider
R a
Ra w
t :\"<<e.wh
h alf
ircuit Breaker
Con sump
00,0x 00,0x
Ð¸ÑÐµÑÐ°Ð» Ñ
sl ab
(' A'
temp=a ;\na=b
temp=a;\na=b ;\nb
Date(intd ,intm
Ð² Ð½Ðµ
Le ave
template<intN >\n
 shouldbe
 %
 &
&other ){\nif(this!=&other
end(),std:: back_inserter
>\n#include<string >\n\n
\n struct
ijk stra
[u ]
 tree
;\npublic:\nComplex (doubler
;\ncond ition_variablecv
;c ++
invalid_argument&e){\nstd::cout<<\" Invalidargument:\"<<e.wh
(int sig
;\npublic:\nvoid set
^ '
RP N
pro gramming
i+1 <<\".
/ 10
q;\n q.
Rece ived
[N ]
):num (n
):num(n ),den
):num(n),den (d
Ð½Ð¾Ðµ Ð¿Ð¾Ð²ÐµÐ´
Ð½Ð¾ÐµÐ¿Ð¾Ð²ÐµÐ´ ÐµÐ½Ð¸Ðµ
=0,double i=0
=0,doublei=0 ):real(r),imag(i
RT MIN
_ point.
ÑÐ°Ð¹Ð» Ð°
,strlen (msg
int Ptr
Int Ptr
utf 8
,Ð¼ Ð¸Ñ
Ð Ð¢
Ð Ð£
year %100!=0
4, 5,6
& ti
An imal
Hello Plugin
Ð½ Ð¸Ð¼
e ach
md ->execute
sockaddr_inaddr ;\nmemset(&addr,0,sizeof(addr));\naddr.sin_
ap top
Ñ Ñ
search _
 id
Dep th
BU FFER_SIZE
An y
I g
Ð± ÐµÑÐºÐ¾Ð½ÐµÑ
ÑÐµÑ Ð¿
,std:: size_t
is ual
)+\" -\"+
end_ date
MEDIU M
, \n
we b
this_thread::sleep_for(chrono:: seconds(1
st Ptr
;\n}else if(c=='
buffer[4 096
future <int
6 6
d 2
). hash_code
_ share
share _
turn Off
Ch annel
join();\n t
( F
#include<iostream>\n#include<fstream >\nusingnamespacestd;\n\nintmain(){\n
:\";\nprint Array(numbers,size
Ð°Ñ Ð°Ð»Ñ
_ ratio
Reg ular
> <
<COL S
ÑÐµÐ² Ð´
ÑÐµÐ²Ð´ Ð¾Ð½Ð¸Ð¼
Ñ Ð¸Ð¸
in. ignore
_ node
d b.
>\n#include< numeric
( s1,
\",\" Bob
*3.14 15926535
} \",\n\"
;i++){\nthread s.emplace_back(worker
() override{cout<<\"
t= q.front();\nq.pop
q. push(curren
throwstd:: overflow_error(\"
e bit
switch (
outofbo unds
rows||cols!=other.col s)\n
i =0;i<
j=0;j <
Ðº Ð²Ð°Ð´ÑÐ°Ñ
>\n#include< list
st k.
i++;\n j
Ð½Ñ Ñ
Shape ()=default
, salary
rute Force
Download State::
;\n using
PROC ESSING
reg ular
S nake
->get Type
this_thread::sleep_ for(milliseconds(100
ÐµÐºÑÑ Ð°Ñ
Ð² ÑÐ¾Ñ
()const{return title
EMPLOYE E
ÑÑÐµ Ñ
(double scalar
reference _wrapper
Inter val
(c )?'
A':' a'
( sz
ÑÐµÐ´Ð½Ð¸Ð¹ Ð±Ð°Ð»Ð»
S up
total Value
C ategory
(buffer ,sizeof(buffer),\"
ToString (
. h
sockaddr_inaddr ;\nstd::memset(&addr,0,sizeof(addr));\naddr.sin_
, to
F ru
Int Type
Type ->
sto ck
ÑÐºÐ¾Ð¿ Ð¸ÑÐ¾Ð²Ð°Ð½
), width(w),height(h
ÑÐ¿ Ð¸Ñ
Name s[
%Y-%m-% d%H:%M:%S
John Doe
Ð½ Ð¸Ð¶
Modif y
Ð·Ð°ÑÐ² Ð°ÑÐ¸Ð»
ifdef 
9 78
\n<<\",Ð Ð°Ð·Ð²Ð°Ð½Ð¸Ðµ
text[ s+j
if 
Ð Ð¾Ð¸ÑÐº
Ð Ð°ÐºÐ°Ð·
Ð²ÐµÑÑ Ð¸Ð½Ñ
, w
queue _length
, other.
ircular Buffer
ly Rate
->display Info
template<typenameU =T
I f
Ð Ð
Ð½Ð°Ñ ÑÐºÐ¸Ð´
Name ==\"
ÐµÐ» ÐµÑ
Ñ Ð¾Ð±
- z
Protocol Name
Network Packet
Ch ain
reate IP
on Complete
< void
throw overflow_error(\"
B FS
Message Handler
anHandle (const
Ð¿ Ð¾ÑÐ¾Ð±
Applic ation
Draw ing
( Shape
//Ð Ð¾Ð¼Ð¿
Pal ind
Palind romic
show Message
Repe ated
y Observer
ob s
next [c
xy z
Div ision
stop_ server
Exception &e
ÑÑÐµÑÑÐ² ÑÑÑ
My String
ifconstexpr(T ::field
Wed ne
(new_ real
F O
Tag (\"
-> log(\"
VirtualBase 2
Ð¾ÑÑÑÐ¿ Ð½Ð¾
Game Character
j=lp s[j
_ al
RAII File
);\nif(! file.is_open
u_ x
-Ð ÐµÑÐ¾Ð´
File Lock
Ð¾Ð´ÐµÑÐ¶ Ð¸Ð¼Ð¾Ðµ
L ast
P LU
PluginManager ::
floating_ point
=(b -a
Ð½ ÑÐµÐ³
Reg ion
Priority Handler
Fly ing
Al titude
write _fd
:: MAX_PLAYERS
LOG_ LE
i i
subject.attach (&
\n mat
top ();pq.pop
step (\"
Caugh t:\"<<e.wh
Isomor phic
BEGIN (
BO OK
ACC 001\",\"
(Transaction (
,\n Category::
;\n}\n\nc uda
;\n}\n\ncuda Error_tc
;\n}\n\ncudaError_tc uda
anForm Palindrome
_capability( CA
Permissionden ied
>,std:: ratio
test \");\nasser
//Ð Ð¸ÑÐµÑÐ°Ð»Ñ
Field Accessor
Visitor *v
ict T
st[ p].
w ick
skip_whitespace (str
./ data
t_token.type ==
t_token.type== TokenType::
Ten sor3x3x3
+x ^
rowed Book
ayer _
top Ptr
seek p
y =\"<<
=2. 71
Date(intd,intm ,inty
0 4
: edge
Ñ Ð°Ð¹Ñ
0, 1
:\"<< to
dec ay_t<decltype
Ð½ÑÐµ ÑÐ¸Ð¿Ñ
):filename (name
,vector<int >(n
Exception (conststring&msg
#include<iostream>\n#include<numbers >\n\n
Ð¸Ð» ÑÐ°Ð±Ð¾ÑÑ
( C++17
while(getline (file,line
} }
while(b !=0
 y
4 (\"
Ð Ð
il ity
sq l
ad min
\"<<std::endl ;\n}\n\nintmain(){\n
{\ndoublewidth,height;\npublic:\n Rectangle(doublew,doubleh):width(w),height(h
shape:shapes){\n shape->
};\n\nstd::cout<<\"ÐÑ ÑÐ¾Ð´Ð½ÑÐ¹Ð¼Ð°ÑÑÐ¸Ð²
server_fd,10 )<0
random_ devicerd
ABC D
&& j
Ñ Ñ
Ð¸Ð» ÑÑ
Fraction (intnum
;\ncout<<\"\\n Ð
#include<iostream>\n\n voidprint
Ho use
ÑÑÐ¼Ð¼ Ñ
;i *i
Ð¢ ÐÐ¢
Ð¾ÐºÐ°Ð· ÑÐ²Ð°ÐµÐ¼
>\n#include<typeinfo >\n#include<typeindex
_ search
() override{std::cout<<\"
ÑÐµÑÑÐ¾Ð² ÑÐµ
Ð¸Ð²ÐµÑ Ñ
Ð¸Ð²ÐµÑÑ Ð°Ð»Ñ
F_ GET
F_GET FL
F_SETFL,flag s|
F_SETFL,flags| O_NONBLOCK
,& tv
test. txt
- Ð¹
s( h),minute
s(h),minute s(m
[ 256
E VEN
Ð· Ð¼ÐµÐ½ÑÐµÐ¼
unistd.h>\n#include<iostream >\n
;\n tv.
staticvoid set
t t
ÐÐµÐ¸Ð·Ð²ÐµÑÑ Ð½Ð¾
switch (
(str [i]
Ð°ÑÐ³ ÑÐ¼ÐµÐ½ÑÐ¾Ð²
ÑÐµÑÐµÐ· ÐºÐ¾Ð½ÑÑÐ°Ð½ÑÐ½ÑÑÑÑÑÐ»ÐºÑ
#include<iostream>\n#include<string>\nusingnamespacestd;\n\n intmain(){\nstring
ÑÑ Ñ
c b
std:: strlen
Ð¿ÑÐ¾Ñ ÐµÐ½Ð½Ð°Ñ
Type :
;\na=b ;\nb
Ð½ÐµÐ¼ ÑÐµÐ³
Ð½ÐµÐ¼ÑÐµÐ³ Ð¸ÑÑÑÐµ
;\nchar char
[n ]
Quick Sort
,g ,b
test Comparison
ÐµÐ·Ð¾Ð¿Ð°ÑÐ½Ð¾ÐµÑÑÐ°Ð²Ð½ÐµÐ½Ð¸Ðµ c
s2){\nintm =
s2){\nintm= s1.length
, INF
Ð°Ð¼ Ð¾Ðµ
Ð¸Ð½Ñ Ð¾ÑÐ¼Ð°
b )
[row ][col
#include<iostream>\n#include<string>\n#include<cctype >\nusingnamespacestd;\n\n
 E
setfill('0' )<<
Derivedd ;\nd.
5,2. 5,3.
other. data=nullptr
Ð²ÑÐ°Ð´ Ð¸Ð°Ð½Ð°Ñ
;}\n\nvoid set
Name (\"
Ñ Ð¸Ñ
ÑÐ¸Ñ Ð°ÐµÐ¼
#include<iostream>\n#include<string>\n#include< stack
L anguage
: employee
Type <
( Ð½Ðµ
Ð² Ð¾Ð²ÑÐµÐ¼Ñ
ord inate
session Id
_ '
()const override{
-> toString
Title ()const{returntitle
[ V
;i++)\nfor(int j=0;j<3;j++
Ñ Ðµ
Ð¾Ð¿ÐµÑÐ° ÑÐ¸Ð¹
host name
Exception(conststd::string&msg ):std::
Exception(conststd::string&msg):std:: runtime_error
Exception(conststd::string&msg):std::runtime_error (msg
original B
 s
ÑÑ ÑÐ¸Ð¿Ð¾Ð²
Ð· ÐµÐ¼Ð¿Ð»Ñ
Ð½Ð°Ñ ÐµÐ½Ð¸Ñ
<<std:: dec
ÑÐ¾Ð±ÑÑ Ð¸Ñ
=std:: malloc(size
) throwstd::bad_alloc
Ð¸Ð½ÑÐµÐ³Ñ Ð¸ÑÐ¾Ð²Ð°Ð½Ð¸Ñ
Queue. fron
[](std::size_t index
(intfrom ,intto
Vector3D &other)const{\nreturn
Vector3D&other)const{\nreturn Vector3D
x,y+other. y
ÑÐ°Ð¼ ÑÐ¹
Ð½Ð¸ÐºÐ°Ð»Ñ Ð½ÑÐµ
ÑÐ» ÑÐ¶
ÐµÑÐµÐ´ Ð¸
\",\" abc
,typename Value
(std:: move(n
al Counter
\";\n\ncout<< test1
File (conststd::string&filename
,arr +size
GC D
, ...
Ð¾ÑÑÑÐ¿ ÑÐµÑÐµÐ·
ÑÐ°Ð· Ð¼ÐµÑ
z '
Ñ Ðµ
UT F
Type s
Failedtoc reate
path ().
C++ 20
ap ):capacity(cap
ÑÐ¸Ð· Ð±ÐµÐ¶Ð°ÑÑ
_ free
)<0.00 01
database \",\"
Ñ ÐµÑ
d r
<<\" \\t
 Ð¼ÑÐ»ÑÑÐ¸Ñ
Me yer
ÑÐ¾Ð² ÐµÐ½Ñ
B rightne
Ð¾Ð²Ð» ÐµÑ
Ð¾Ð²Ð»ÐµÑ Ð²
MEN U
ÐµÐ³ Ð¸ÑÑÑÐ°ÑÐ¸Ñ
â \":\"â
Col l
Quantity <double
Total Order
Shape (\"
temp=a;\na=b;\nb =temp
A SCII
<=0 ||c
<=0||c <=0
Ð½Ðµ ÑÐ¾Ð²Ð¿Ð°Ð´Ð°ÑÑ
{\nintdata;\nNode*left;\nNode*right;\nNode(intval):data(val),left(nullptr),right(nullptr ){}\n};\n\n
template<typenameT,typename U
Ð´ Ð½ÐµÐ¹
?\" Ð´Ð°\":\"Ð½ÐµÑ
Index ed
is Open
Value Func
;\nvector<vector<int >>graph(n
9 ,
ÐµÑÑ Ð½Ð¸Ð¹ÑÐ»ÐµÐ¼ÐµÐ½Ñ
a \",\"
t. search
[a-zA-Z 0-9.
\\ .
{ 2,
;\ndouble imag
a *b
;\nstd::cout<<\"ÐÐ²ÐµÐ´Ð¸ÑÐµ ÑÐ°Ð´Ð¸ÑÑ
true _type
Number &bn
//Ð ÐµÐ°Ð»Ð¸Ð·Ð°ÑÐ¸Ñ
Ð¿Ð¾Ð´ Ð¼Ð°ÑÑÐ¸Ð²
ÑÐµÐ¹ Ð½ÐµÑ
Ap ple
Ð» Ð°Ð²
evalu ate
 expr
Ð¿ÐµÑÐ² ÑÑ
) \");\nrecom
)\");\nrecom mendations.push_back(\"
Ð Ð
hello \",\"
(real+other. real,imag
(real+other.real,imag +other.imag
rece ive
L imit
file. txt
VA ILAB
VAILAB LE
>\n intmain(){\nstd::
[5 ]
: word
if( server_fd<0
r d
rd buf
while(i <n
time (0
ÑÐµÑ Ð²ÐµÑÑ
\",& addr.sin_addr
( src
ÑÐºÐ°Ð· ÑÐ²
ã 
old Hash
Ñ Ð°Ð²
Ð¾Ð² Ð¿
:\"<<name 
:public Logger
De allocation
( [
*d *d
(auto &&arg
Ptr )
ather ==\"
Ð Ñ
span. subspan
&other )const
Ð°Ð¿ ÑÐµÑ
Ð°Ð¿ÑÐµÑ Ð°ÐµÐ¼
Ð°Ð¿ÑÐµÑÐ°ÐµÐ¼ ÐºÐ¾Ð¿Ð¸ÑÐ¾Ð²Ð°Ð½Ð¸Ðµ
de v
WOR K
( Resource
In side
\";\n\nstd::cout<< test1
Ð¸Ð± Ð¾Ð½Ð°Ñ
Ð¸Ð±Ð¾Ð½Ð°Ñ Ñ
( N
2 -a
Ð ÐµÑÐ¾Ð´
Ð¼ÐµÑÐ¾Ð´ Ñ
ÑÐ°Ð² ÐµÐ½
Ñ Ñ
);\n if(!
.Ð¢ ÐµÐ¿ÐµÑÑ
(de sc
ie s
B ack
Common Prefix
] ){\nif(!
; u
Ð² ÑÐ·
){\nperror(\" bind
pol l
AGAIN ||errno==E
AGAIN||errno==E WOULDBLOCK
_ square
ÐºÐ¾Ð½ ÑÐ°Ðº
iag no
5 6
y Down
Ñ Ð¸Ð¾Ð½Ð°Ð»Ñ
s[left ]
(f (args...
< return
<return _type
->get_ future
){\nintclient_fd=accept( server_fd,NULL,NULL
 OK
Content -
se(server_fd );\nreturn0;\n}</w>
Ð¡ ÑÑÐ»ÐºÐ¸
Ð¸Ð½Ð¸Ñ Ð¸Ð°Ð»Ð¸Ð·
ex change
:\"<<str <<endl;\nreturn0;\n}</w>
Ð´ ÐµÑÑ
Ð¿ Ð°Ñ
 >>=1
)% MOD
i -1
\" ;}\n};\n\nclass
nect(sock ,(structsockaddr*)&addr,sizeof(addr
Pipeline Stage
 u
ÑÐ°Ð²Ð½ Ð¸Ð²Ð°ÐµÐ¼
Ð¶ Ð¸Ð´Ð°ÐµÐ¼
O d
Ð» Ð°Ñ
Ð¸Ð¼ÑÐ»Ñ ÑÐ¸Ð¸
To y
while(std::getline (file,line
q _
_ status::
MAX_ VALUE
invalid_argument&e){\ncout<<\" Invalidargument:\"<<e.wh
 D
 empty
Ñ Ðº
Pur pose()
$ \"<<request.get
\") ,\n
Proce ssing
;i++){\nfor(intj=0;j <3
input File
l ack
sive _computation
{ 0
Rele ase
Ð ÐµÑÑÐ¾Ð²
ÑÐ¿ Ð¾Ð¼
ÑÐ¿Ð¾Ð¼ Ð¾Ð³
ÑÐ¿Ð¾Ð¼Ð¾Ð³ Ð°ÑÐµÐ»Ñ
new line
Concrete ElementA
Concrete ElementB
S Y
worker :
worker: worker
[ partition
trin sic
ÐµÐ´ ÑÐµÐ½
==0 )
add ition
test Value
OVER D
OVERD UE
TA SK
transition To
Ð» Ðµ
:\"<<* value
new Value
#include<iostream>\n#include<string>\n\n intmain(){\nstd::string
O_R DON
O_RDON LY
file 3.
Ð½ Ð²ÐµÑÑ
Ð¸ÑÐ¾Ð²Ð°Ð½ Ð½ÑÐ¹Ð¼Ð°ÑÑÐ¸Ð²
:\"<<str <<std::endl;\nreturn0;\n}</w>
Idle Time
Ð°ÑÐµÐ½ Ð³ÐµÐ¹
Operation ::
ID LE
Ð°Ð¼ ÑÐ¹
//ÐÐ°Ð·Ð¾Ð²ÑÐ¹ ÐºÐ»Ð°ÑÑ
ST R
STR LEN
A T
Ð¾Ð¿ Ð¸ÑÑÐµÐ¼
(DoorState:: Closed
ThreadSafe Buffer
Ð¡ Ð¾Ð¾Ð±ÑÐµÐ½Ð¸Ðµ
e uro
Ð» Ð»Ð¸Ð¿
Ñ ÑÑÑÐ¸ÐºÑ
:\";\nstd::cin>>a >>b
out_of_range &e){\nstd::cout<<\"
Ñ ÑÑ
de adlock
(std:: move(other.
978 -
acency_list[from ].
in ux
{\ndoublex,y ,z
time_ since
time_since _
time_since_ epoch
\n}catch(conststd::exception&e ){\nstd::cerr<<\"
acation Day
;\n}\n\n //Ð
Rate =0.
Con st&&right
\":\" empty
w ind
* e
Money &m
ÐµÐ»ÐµÑ Ð¾Ð½
=0 ):value(v
Ð²ÐµÑ Ñ
mor phic
Type Traits
Ð¾ÑÐ¼Ð°Ñ Ð¸ÑÐ¾Ð²Ð°Ð½Ð¸Ðµ
:: is
G reater
AN GLE
, T
bitset <8
Circle sIntersecting
Ð¿ Ð°ÑÑÐµÑ
Base 1
: observer
_value ==\"
Ap pend
,ÑÐ°Ðº ÐºÐ°Ðº
Ð 
Val ),y(y
Val),y(y Val
Wedne sday
Ð´ Ð¾ÑÐ¾Ð²
tPath .
GPU Buffer
L inked
Thread Loc
Ð¢ Ð¾Ð»ÑÑÐ¾Ð¹
LONE_ NE
[ HOST
sius+2 73.15
]-' 0'
entry. path().
MIN_ TEMP
MAX_ TEMP
mo stat.set
string to
ResourcePool:: acquire
ResourcePool::acquire (\"
)os<<\" +
>> z
th ickne
#include<iostream>\n#include<fstream >\n\nintmain(){\nstd::
bor row
Window Function
ÑÐµÐ´Ð½ÐµÐµ Ð·Ð½Ð°ÑÐµÐ½Ð¸Ðµ
Palindrome Partition
VE CTORI
VECTORI ZE_
G H
rol l
B .
MEMOR Y
MAX_ BLOCKS
Ð¸Ð² Ð°ÐµÑÑÑ
):cel sius(c
AR D
Ñ ID
p Config
Div isor
Ñ ÑÐ¾Ð´
( BSTNode*node
alibration _
Payment Handler
L ayer
,count ]:freq
Bank Account
â 
By Zero
pected<double ,
pected<double, MathError
: "
Processor :
Ð¾Ð´ Ð´ÐµÑÐ¶
Math Constants::
# #
Selector <T,Size
urse Id
Ð¸Ð½ -ÐºÐ¾Ð´
Moder n
E viction
Config Observer
Recursive Lock
and sh
andsh ake
With Duplicate
ub ic
if(std:: strcmp
h sl
)\nSERIALI ZABLE_
x Â²
test N
Re active
Reactive Pipeline
mouse_ event.
do Something
ex cept
except Move
Expr *>(expr
,target_ pid,nullptr
s.size ();++i){\n
â 
Ð° ÑÑ
He av
Heav y
RAII Mutex
ash l
v d
\";break ;\ncaseCategory::
OR D
)\n IMPLEMENT_STRUCT_FIELD_
Validation Result
ValidationResult ::
Insertions ForPalindrome
Ï (n
Total Area
TRACT_ METHO
TRACT_METHO D_
, Other
Graph Node
Re ar
()<< ""
MAX_ BOOK
MAX_BOOK S
Fen wick
if(inden t>0
throwJsonException(\" Ex
I 2
IO Flags
IOFlags Saver
Paren the
Data ->
eratosthene s
duplic ate
ââââââââââââââââ ââââââââââââââââ
Mouse Event
ar _
in()+ train_size
azy [node
Common Type
Ð´ ÑÐ¾Ð±
(initial Balance
:2 8
== 9
#include<iostream>\n#include<fstream >\nusingnamespacestd;\nintmain(){\n
#include<iostream>\n#include<vector>\n#include<queue >\n#include<climits
top ().second
Ð¸Ð½Ð¸Ð¼Ð°Ð»Ñ Ð½ÑÐ¹ÑÐ»ÐµÐ¼ÐµÐ½Ñ
Ð´Ð¾Ð»Ñ Ñ
Ð½Ðµ Ð¼Ð¾Ð³ÑÑÐ±ÑÑÑ
;i++){\nfor(intj=0;j <n
[i-1][j -1]
out_of_range &e){\ncout<<\"
123 4
;\nstd::cout<<\"Ð Ð»Ð¾ÑÐ°Ð´Ñ
;\ncout<<\"ÐÐ²ÐµÐ´Ð¸ÑÐµ ÑÑÑÐ¾ÐºÑ
L atch
:\";\ncin>>a >>b
;\ncout<<\"Ð Ð»Ð¾ÑÐ°Ð´Ñ
;c <='
ab s(a
m 2
io us
;\ncout<<\"ÐÐ²ÐµÐ´Ð¸ÑÐµ Ð´Ð»Ð¸Ð½Ñ
c at
Ñ Ñ
Ð²ÑÐ°Ñ Ð°ÑÑ
real-imag *other.imag
+imag *other.
+imag*other. real
#include<iostream>\n#include<fstream >\nintmain(){\nstd::
( server_fd,
;\n}\n\nreturn true
while( j
im bue
ÐÑÐ¸Ð²ÐµÑ ,Ð¼Ð¸Ñ
Ð¾ÑÑÐ´ Ð¾Ñ
Ð¡ Ð¡
]!=pattern [j]){\nmatch
]!=pattern[j]){\nmatch =false
ÐÐ£ ÐÐ¬
ÐÐ£ÐÐ¬ Ð¢ÐÐ¢
Ð ÐÐÐÐ
Ð Ð
Ð²Ð¸ÑÐ¾ÐºÐ¾Ñ Ð½ÑÐ¹Ð³Ð¾Ð´
Ap p
7, 8,
7,8, 9
type_index,size_t >
ment Tree
*2 +1,mid+1,end
Ñ Ð°Ð±Ñ
F_GETFL ,0);\nfcntl
( 9
Ð´ ÐµÐ¹ÑÑÐ²
 ip
con fig.
2. 16
2.16 8.
ÑÐ°ÑÐ¸ÑÑ Ð¸ÐºÐ°
Ð¾Ð·ÑÐ°ÑÑ :\"<<age
Ð¸Ð¼ÐµÑ Ñ
s. empty())return\"
ijk l
ijkl m
#include<iostream>\n#include<fstream >\n#include<vector
>buffer (
TIME O
ady_clock:: time_
+\" .
h tt
\";\ndefault :return\"
Priority:: HIGH
C RITICAL
;i++){\nif(! visited
Ð½ÐµÑÐºÐ¾Ð»Ñ ÐºÐ¸Ñ
t 3
Guard &operator=(const
K B
â 
:\"<<value <<std::endl
ÑÑÐ³ Ð¾Ð¹
observers.push_back( observer
Ð¶ Ð¸Ð´Ð°Ð½Ð¸Ðµ
#include<iostream>\n#include<fstream>\n#include<string >\nusingnamespacestd;\n\nintmain(){\n
Ð Ð
100 0
. \"<<endl;\nreturn1
Ð° .
Bubble Sort
Ð½Ð¸Ñ Ð¸Ð°Ð»Ð¸Ð·
Ð½Ð¸ÑÐ¸Ð°Ð»Ð¸Ð· Ð¸ÑÑÐµÐ¼
;i<=l imit
ÑÐ°ÑÑÑÐ¾Ñ Ð½Ð¸Ð¹
#include<iostream>\n#include<numbers >\nusingnamespacestd;\n\n
'||c==' ]
'&&top !='
s ;\n}\n\n
,den*other. den);\n}\n
<= i
Parser parser
ebit da
[](size_ti )const{returndata[i]
=0 ;k
test_ data.
[v ]
Ð² ÐµÑ
ÑÐ»ÐµÐ¼ÐµÐ½ÑÑ Ð¼Ð°ÑÑÐ¸ÑÑ
de structor
ofstreamout( output
Visitor&visitor) override
Visitor&visitor){visitor. visit
ÑÐ½Ð¾Ð²Ð½Ð¾Ð¹ Ð¿Ð¾ÑÐ¾Ðº
term =1.0
order_ acquire
order_ release
incre ase
Ð¾Ð»ÑÐ·Ð¾Ð²Ð°ÑÐµÐ»Ñ ÑÐºÐ¸Ð¹
title ;\nstd::stringauthor
ÐºÐ¾Ð½ÑÐ¸Ð³ ÑÑÐ°
put( static_cast<char
Ð²Ð¼Ð°ÑÑÐ¸Ð² Ðµ
Ð¾Ñ ÐµÐ½
void_t<decltype (std::declval
doc ument.
Ð°ÐºÑÐ¸Ð¼Ð°Ð»Ñ Ð½Ð¾ÐµÐ·Ð½Ð°ÑÐµÐ½Ð¸Ðµ
<int >::value
U sing
inet_ ntop
:\"<<nto h
_limits<int >::max
is Leap
[start ]=true
IN VALID
ÐµÐºÐ°Ñ ÑÐ¾Ð²
typenameContainer ::value_type
Pe ak
Handler {\npublic:\nvoidhandle
Stack. pop
;\n std::
;\n \npublic:
if( j
){\n out.
Ñ Ð»Ð°Ð³
=(double )
Ð¾Ñ Ð½Ð¾ÑÑÑ
G lob
Ð¸ÑÐ¾Ð²Ð°Ð½ Ð¸Ð¸
If Available
Ð ÐÐÐÐ
H andl
Ð½Ð°Ð´ Ñ
Ð½Ð°Ð´Ñ Ð°ÑÐµÑ
Ð½Ð°Ð´ÑÐ°ÑÐµÑ Ð¸Ñ
tro id
ÐÐ²Ð°Ð½ ÐÐ²Ð°Ð½Ð¾Ð²
str []
Por t
( 8
n _
Ð°Ð¼ Ð¿
Ð½ Ñ
Ð½Ñ Ñ
;i++){\nfor(intj=0;j <3
typenamestd:: enable_if<
Ð·Ð¼ÐµÐ½ÐµÐ½Ð¸Ðµ ÑÐµÑÐµÐ·
i=1 ;i<
ABAB DAB
ABABDAB AC
ABABDABAC DABABCABAB
(conststd::string& text,conststd::string&pattern
Ð¾Ð¾ÑÐ²ÐµÑÑÑÐ² ÑÐµÑ
- 8
Mon day
:\"<<he alth
ÐºÑÐ°Ñ Ð½ÑÐ¹
float Value
observer ->
sius* 9.0
+' 0'
viron ment
J ane
\n //Ð
ÐÐ ÐÐÐ
METHO D
Ð´ Ðµ
Ð²ÑÑÐ°Ð² ÐºÐ¸
Ð¿ÑÐµÐ´ÐµÐ»Ð¸ÑÐµÐ»Ñ Ð¼Ð°ÑÑÐ¸ÑÑ
File (filename
;\n}\n\n //ÐÐµÑÐ¾Ð´
SU CCESS
ti .name
:public Vehicle
Builder &add
Ñ Ñ
observer Mutex
;\nelse if(std::strcmp
Ob stacle
Length Q
Free Block
Product <
Coll ision
Collision With
):day(d ),month(m
Matrix&other)const{\n if(rows!=other.
Ð Ð½Ð´ÐµÐºÑ
ÐÐ½Ð´ÐµÐºÑ Ð²Ð½Ðµ
ÐÐ½Ð´ÐµÐºÑÐ²Ð½Ðµ Ð´Ð¸Ð°Ð¿Ð°Ð·Ð¾Ð½Ð°
factorial_ impl
_ of_two
( N
ÑÐ°ÑÑÑÐ¾Ñ Ð½Ð¸Ñ
l ap
] ,dp
pair<double ,int
Ð°ÑÑÑÐ¾ÑÐ½Ð¸Ðµ Ð¼ÐµÐ¶Ð´Ñ
&other)const{return !(*this==other
 w
even Number
();\nvector<bool >visited(n,false
Ð°ÑÐ¸ÑÐµÐ»ÑÐ½Ð¾Ðµ Ð¾Ð±Ñ
Ð°ÑÐ¸ÑÐµÐ»ÑÐ½Ð¾ÐµÐ¾Ð±Ñ ÑÐ²Ð»ÐµÐ½Ð¸Ðµ
Ð¾ÑÑÐ¸ÑÐ°ÑÐµÐ»Ñ Ð½ÑÐ¼Ð¸
,c ;\nstd::cout<<\"ÐÐ²ÐµÐ´Ð¸ÑÐµ
){\nintindex=hash (key
Vector3D v
TypeChecker:: type_name
to K
:: instance=nullptr
;\nstd::cout<<\"ÐÐ²ÐµÐ´Ð¸ÑÐµ ÑÐ¸ÑÐ»Ð¾
Z '
Vector Storage
tainer.begin(),container. end(),value
Policy <T>::
,doublep ):name(n
) '
was_ dec
;\n}\n else
:\"+ token
ÑÑÑÐ¾ÐºÑ :\";\nstd::getline
Ñ Ð¸Ð»Ñ
Ð¸Ñ ÑÐ¸Ñ
Ð 
Ñ Ð¸Ð½Ð³
>> imag
&other)const{\nreturnComplex (real+other.real,imag+other.imag
I mag
(num *other.
;\nreturn true;\n}\nreturnfalse
= other.
os<<c .
(doublea,doubleb ,doublec
(0,std:: ios::
Legacy Circle
gacy Circle
volatile sig
volatilesig _
volatilesig_ atomic
PressCtrl+C tostop
s);\n FD_SET
read_fd s,NULL
read_fds,NULL ,NULL
&&errno !=E
;\nstd::cond ition_variablecv
unk _size
ge_ step
pl ace
if(str1.length ()!=str2.length
 ÑÐ²Ð»ÑÑÑÑÑ
srand(std:: time(0
ToCon st=&
//Ð Ð»ÑÑÐµÑÐ½Ð°ÑÐ¸Ð²
ÑÐ¾Ð´Ð½Ð°Ñ :\"<<
ÑÐ°Ð· Ð½ÑÐµ
Ð°Ð»Ð¸Ð´ Ð½Ð¾
Ð° \n
s;\nintn=text.length();\nintm=pattern.length ();\n\nif(m
s;\nintn=text.length();\nintm=pattern.length();\n\nif(m ==0
: ~
%4 ==0&&year%100!=0
Initial iz
Con soleLogger
Idx .name
-> speak
ÐºÐ¾Ñ Ð½ÐµÐ¹
\";\nreturn oss.str
File (file
Command >c
Command>c md
type_index (typeid(
Ð°ÐºÑ ÑÐ²Ð°ÐµÐ¼
is Valid
Ð» ÑÑ
Ð»ÑÑ Ð°Ð¹
< constint
*>(& other
_ I
):hour s(h),minutes(m
other.ptr =nullptr
ÑÐ¸Ð¿ Ð¾Ð¼
<0 >(person
a,b ,c
\":\"-Ð½Ðµ Ð¿Ð°Ð»Ð¸Ð½Ð´ÑÐ¾Ð¼
test2 <<(is
#include<iostream>\n#include<memory >\nusingnamespacestd;\n\nclass
Ð¸Ð±Ð¾Ð½Ð°ÑÑ Ð¸
Ð¸Ñ ÐºÑ
Ð¸ÑÐºÑ Ð¸Ð¼
>\n#include< unordered_set
Unique Substring
Ð¾Ð¹ Ð´Ð»Ð¸Ð½
Ð¾Ð¹Ð´Ð»Ð¸Ð½ Ð½Ð¾Ð¹
aa abb
Ð¾Ð¼ Ð±
Ð°Ð² Ð½Ð¾Ð±
;\ndoubleprice ;\nintquantity
Ð Ð¾
ÐÐ¾ ÑÑ
ÐÐ¾ÑÑ Ð±
ÐÐ¾ÑÑÐ± ÑÐº
sc ,
!=' \\0'
Ð± ÑÐ´ÐµÑ
8 ;\nint*arr=newint[size]{
, IP
){\nperror(\"bind \");\nclose(server_fd);\nreturn1
){\nperror(\" listen
){\nperror(\"listen \");\nclose(server_fd);\nreturn1
iagno sis=\"
f f
#include<iostream>\n#include<memory >\n\nclass
Ð² ÐºÐ»ÑÑÐµÐ½
Ð²Ñ ÐºÐ»ÑÑÐµÐ½
Ð¼ÐµÑun ion
mutex>lock( queue_mutex
(arr +i
j Ptr
>\n#include<c stdint
\\\\ \\\"
MAX_SIZE -1
Ð¼ Ð¸Ð½Ð¸Ð¼Ð°Ð»Ñ
[ p
){\nfron t=rear
Ð¾ÑÐºÑ ÑÑ
String (\"
Func >(func
t, U
t,U u
D '
Ð¿Ð»Ð¾ÑÐ°Ð´ Ð¸
{ [
Un it
( ÑÐ¾Ð»Ñ
=- num
back ()=='
Ð¿ Ð¸Ñ
De v
)returntrue ;\n
Ð¸Ð½Ð°Ñ Ð½Ð¾ÐµÐ´ÐµÑÐµÐ²
enter prise
enterprise _value
prag ma
pragma pack
Ð¿ Ð°ÐºÐµÑ
K th
:\"<<safe_vector_ acce
RE G
s);\nfor(size_t i=0;i<
s);\nfor(size_ti=0;i< rows
s);\nfor(size_ti=0;i<rows ;i++)\nfor(size_t
s);\nfor(size_ti=0;i<rows;i++)\nfor(size_t j=0;j<
nap sack
;w <=c
;w<=c apacity
;w<=capacity ;w
;w<=capacity;w ++
[curren t
 traversal
)>1 e-9
User Model
User Info
Ð½Ð¾Ð² ÑÐµ
\"]=[] (doublea
formance Multiplier
sOf Ex
Visitor ()=default
-> parent
Ð¾ÑÑÐ¾Ñ Ð½Ð¸Ðµ
 X
Pool pool
'||ch =='
Ð Ð»ÐµÐºÑÐµÐ¹
) throwout_of_range(\"
;}\n\n ~
"" ,
:\"<< q.fron
Message :public
Message:public Message
ution:: par
ÑÐ± Ð±
ÑÐ±Ð± Ð¾ÑÐ°
Ð¾Ñ ÐºÑÐµÑÐµÐ½ÑÐµ
Ð ÐµÐ²
<< "
addition (
Time (inth
gen t
(c)?' A':'a'
Value af
_ un
heap Ptr
Ñ Ð¸Ð¼ÐµÑ
Ñ Ð¸Ð°Ð»Ñ
Ð°Ð¿ ÑÑÐº
:std:: false
Ð¿ÑÐ¾Ð²ÐµÑ ÐºÐ¸
Ñ Ð¸
>\n#include<chrono >\n#include<thread
its. it_value.
tv_ n
tv_n sec
its. it_
its.it_ inter
its.it_inter val.
Ð¸Ð½ÑÐ¾ÑÐ¼Ð° ÑÐ¸Ð¸
Ð¸Ð°Ð¿Ð°Ð· Ð¾Ð½
sted Transaction
( A
ÐºÐ»ÑÑ Ð°ÐµÐ¼
RUN NING
P resen
Ð¾Ð¿ Ð¸Ñ
Ð´ÐµÐ» Ð°ÑÑ
equal s(constType
text. declare
text.declare (\"
-> name
Ðº Ð²Ð°Ð´
user s
},{ 3,
istoric al
;\nstd::vector<std::vector<int >>graph(n
Ð¼ Ð¸Ð½ÑÑÑ
* instance
v 2
V ote
id ing
Un lock
#include<iostream>\n#include< bitset
str ftime
&& i
;i++){\nfor(int j=1;j<=n
Ð½Ð¾ ÑÐµÐ½Ð¸Ðµ
:public Handler{\npublic:\nvoidhandle
Handler ::handle
Ð¾Ð± Ð°Ð¼ÑÑÑÐµÐºÑ
if(adj acency_list.
P h
yer Mo
yerMo ore
sec utive
Vector3D {\ndoublex,y,z
equal_ range
;\ncout<<\"ÐÐ²ÐµÐ´Ð¸ÑÐµ ÑÐ°Ð´Ð¸ÑÑ
* real+imag
*real+imag *
*real+imag* imag
find(key );\nif(it!=cache.
Generic Cache
Or Compute
exampleGraph .addEdge
x<<\",\"<<p. y<<\")
t Power
Key ,Value
\n else
t.add Item
:: apply
Const&&right Const->get
BinaryOpNode >('
R LE
e ->
ÐµÐ½ Ð¸Ñ
IP v4
ÐÑÐµÑÑÑÐ¿Ð»ÐµÐ½Ð¸Ðµ Ð¸Ð½Ð°ÐºÐ°Ð·
ÐÑÐµÑÑÑÐ¿Ð»ÐµÐ½Ð¸ÐµÐ¸Ð½Ð°ÐºÐ°Ð· Ð°Ð½Ð¸Ðµ
ÑÑÑÐ» ÐºÐ¾Ð¹
 z
;i++)\nfor(size_t j=0;j
PacketHandler &handler
Se q
:\"<<r w
bool alpha<<is
Pair (T
,intlow ,inthigh
:\"<<s r.
Over flow
Ð·Ð°Ð²Ð¸Ñ Ð¸Ð¼Ð¾ÑÑÐµÐ¹
Type ()==\"
d imension
( __VA_ARGS__
Palindromic Substring
Ð½Ð°Ð±Ð»Ñ Ð´Ð°ÑÐµÐ»ÐµÐ¹
INET_ADDR STRLEN
\";\n}elseif( score
Con stReference
n. inUse
b ','
):x(x Val),y(yVal
Ð°Ð½ Ð³
shte in
shtein Distance
N aN
RE FLE
Ñ Ñ
,0x FF
un map
Number c
_ radians
he alth
\\d {
SA V
TRANS F
->get AccountNumber
ResourcePool:: print
( Logger
To Cache
ÑÑÐ°Ñ ÑÐ¹
Ð¼ ÐµÑÑÑ
+ \":\"
+\":\" -
[ sellCode
P re
t Tag
ur face
Ð¼ Ð¸Ð½
Ð±ÑÐºÐ² Ñ
ign ment
',' 2'
','2' },{'
O D
Ð¿ÐµÑÐµÐ¼ÐµÐ½ Ð½ÑÐ¼Ð¸
Ð¸Ð¿ ÐµÑ
Ð¸Ð¿ÐµÑ Ð±
:\"<<value <<endl
ThreadSafe File
s \"<<std::endl;\nstd::cout<<\"
:publicShape {\ndoubleradius;\npublic:\nCircle(doubler):radius(r
(sock ,
).name ()<<std::endl;\nstd::cout<<\"
re ase
<=n ;j++
O_ W
O_W RON
O_WRON LY
scrip tor
Ð Ð°Ð¿
Fo oter
VE CTOR_
Colleague A
Colleague B
,[] {
JsonNode >>
List He
Ð Ð¾Ñ
ÐÐ¾Ñ Ð¸Ñ
isting User
Manager.add User(
Hy b
F T
UNI Q
UNIQ UE_
UNIQUE_ VAR
;\nstd::cout<<\"ÐÐ²ÐµÐ´Ð¸ÑÐµ Ð´Ð»Ð¸Ð½Ñ
Ð´ ÑÑÐ¶ÐµÑÑÐ²ÐµÐ½
isual ize
reate <
X ()const{returnx
Y ()const{returny
pret( Context&con
Variable >(\"
Char (\"
Handler Name
pay ment
P P_
_ 1
thread s_mutex
Temperature (doublec
Temperature(doublec ):celsius(c
ÑÐµÐ½Ð¸Ðµ Ð¸Ð·
Matrix3 x3
Run ning
ÑÐ¸Ð³ ÑÑ
S nap
height Map
b ar
F UEL_CA
FUEL_CA PACITY
+b *
C alc
TABLE (
HE AL
HEAL TH
e viction
ÑÐµÑÐ² Ð¸Ñ
s Manager
 LCS
( Observer*observer
K opeck
z o
Ð± Ð¸ÐµÐ½Ð¸Ð¹
BO ARD
de scription
throwDateTime Exception(\"
ml .size
PLU GIN
Expr >(
< >
With C
WithC ircuitBreaker
ENAB LED
,\ndecltype (std::declval
;\\\n})\n \\\nSTATE(
queue CV.
CO ME
transaction: transaction
\"));\nmanager.add_transaction (Transaction(
V igenere
Validator Chain
jection Re
U DA
total Revenue
Math ::
E C
_capability(CA P_
Permissiondenied :no
pair<char ,int
id \n<<\",ÐÐ°Ð·Ð²Ð°Ð½Ð¸Ðµ
Config.set Setting
Config.setSetting (\"
| =(flags.
push({\" ORD
Test Case
public Interface
idate With
idateWith RTTI
- \"},{'
- .
solute. kelv
:ad vance
:advance ();return
:advance();return Token(TokenType::
Per N
Concrete Decorator
ant Tree
trans mitted
borrow Book(\"
if(strcmp (perm_name,\"
Both To
> *>(
PimplExample ::
Ð¿ÑÐ¾Ð¼ ÐµÐ¶
):day(d),month(m ),year(y
<1 ||month
Matrix (intr
Matrix(intr ,intc
<0|| i
j <0||
j<0|| j
\n}catch(const exception&e){\ncerr<<\"
Typemis match
: 00
)<<\"Ð±Ð°Ð¹Ñ \"<<std::endl;\n\nreturn0;\n}</w>
Ð¸ÑÐ¾ÐºÐ¾Ñ Ð½ÑÐ¹
Ð¾Ñ Ðº
Ð¿ ÐµÑÐ°
a .
Exception(conststring&msg ):runtime_error
Exception(conststring&msg):runtime_error (msg
L ambda
:Ð½ÐµÐ»Ñ Ð·Ñ
);\nc v.
ÑÑÐ°ÐµÐ¼ ÑÑ
too large
;\ndoubleprice ;\npublic:\n
:\";\ncin>>a >>b
>>(std::istream &
Ð¿ÑÐ°Ð² Ð¸Ð»Ñ
app y
Ð¾Ð³ ÑÐ°Ð½Ð¸Ñ
Ð½ Ð¸Ñ
,i ,j
){\nNode*new Node
ÑÐ°Ð¿ Ðµ
>\n#include<vector >\n\n
,Ð²Ð¾Ð· Ð²ÑÐ°ÑÐ°ÑÑ
real*other. real+other.imag
real*other.real+other.imag *other.imag
*other. real-real*other.imag
>clone ()constoverride{\nreturnmake_unique<
s.push_back(Shape Factory::create
//Ð Ð½
Ï 
FD_ZERO(&read_fd s);\nFD_SET
size=file. tellg
1 &&j
\",\" Ð¡
inet_pton(AF_INET,\" 127.0.0.1
istream&operator >>(istream
istream&operator>>(istream &
ÐÑÐ¸Ð²ÐµÑ,Ð¼Ð¸Ñ !
(conststring& text,conststring&pattern
Ð Ð
ÐÐ ÐÐ
ÐÐÐÐ ÐÐ¢
if(text[i+j ]!=pattern[j]){\nmatch=false
(intn){\nif(n<=1 )returnfalse
Ð°Ð»Ð³Ð¾ÑÐ¸ÑÐ¼ Ð¾Ð¼
Open GL
#include<iostream>\n#include<map >\n#include<memory
1== ti
f ul
to Remove
-4 *a
seekg (0,ios::
Ð½ Ð¸Ð²ÐµÑÑÐ°Ð»Ñ
>=1 8
-> undo
(intn ){returnn%2==0
L aptop
Array ;\nreturn0;\n}</w>
:Ð¡ Ð¾Ð·Ð´Ð°Ð½Ð¸Ðµ
Ð³Ð» ÑÐ±
Resource Manager
19 2.168.
&other ):ptr
&other):ptr (other.ptr
a 3
Ð± Ð°Ð·
){\nintdig it=temp
){\nintdigit=temp %10
;\n temp/=10
TIMEO ,&tv
TIMEO,&tv ,sizeof(tv
(\" ÐÐµÐ¸Ð·Ð²ÐµÑÑÐ½Ð¾
quantity( q
>\n#include<ctime >\n#include<iomanip
=std:: local
!=other. year
!=other. month
Med ium
Datestart,Date end
# '
y ment
Ð² ÑÐ°Ñ
;\n\n if(bind(server_fd,(structsockaddr*)&addr,sizeof(addr))<0
ard ware
(\" Hello
8 3
[i -
;\ncout<<\"ÐÐ²ÐµÐ´Ð¸ÑÐµÑÑÑÐ¾ÐºÑ:\";\ngetline(c in,
Ð²Ñ Ð¿Ð¾Ð»Ð½ÐµÐ½
Remote Control
)<<\"Ð±Ð°Ð¹Ñ \"<<endl;\n\nreturn0;\n}</w>
e ','
ÐµÐºÑÑÐµÐµ Ð·Ð½Ð°ÑÐµÐ½Ð¸Ðµ
b row
brow nfo
j ump
0 3
Ð» Ð°Ð¶
 P
.find(' @
.find('@ '
4 1
h1 >
5,6,7, 8
Ð°Ð·Ð¾Ð² Ð¾Ðµ
\";break ;\ndefault
\" '
Strategy <
 H
title ;\nstringauthor
Ð²Ñ ÑÐ°Ð¶ÐµÐ½Ð¸Ñ
( ÑÐ°Ð·
once _flag
= INT_MAX
Ð°Ð¼Ð¾Ðµ Ð´Ð»Ð¸Ð½
Ð°Ð¼Ð¾ÐµÐ´Ð»Ð¸Ð½ Ð½Ð¾Ðµ
=false ;\nbreak
ÑÐ¾Ð´ Ð½Ð¾Ðµ
!(*this< other
Ð²Ð°Ð´ÑÐ°Ñ Ð½ÑÐ¹ÐºÐ¾ÑÐµÐ½Ñ
)const{\n if(!
Inorder Ð¾Ð±ÑÐ¾Ð´
4 0
Ð ÐµÐ¼Ð¾Ð½ÑÑÑÐ°ÑÐ¸Ñ
[](size_ti ){returndata[i]
â 
h attan
in MST
ÑÑÑÐ°Ðº Ñ
3 x3
Un iver
if( k
Ð½ÑÐµ Ð±ÑÐºÐ²Ñ
ÐµÑ Ð¸Ð°Ð»Ð¸Ð·Ð°ÑÐ¸Ñ
Se ssion
;\nc v.notify_all
box .
);\nc v.
Ð¾ÑÐ¸Ð± ÐºÑ
ÑÐ± ÑÐ¾Ñ
/ 4
j=i ;j
==b &&b
==b&&b ==c
= 8
= 3)
;\nstd::cout<<\"ÐÐ²ÐµÐ´Ð¸ÑÐµÑÑÑÐ¾ÐºÑ:\";\nstd::getline (std::cin,
apple\",\"banana\",\" cherry
(c ustom
Ð¸Ð³ Ð½Ð°Ð»
>\n#include<c stdio
02 d
;\n} ;\n
Ð¼Ð°ÑÑÐ¸Ñ Ñ
Ð¿ÐµÑÐµÑÑÐ°Ð½Ð¾Ð² ÐºÐ¸
);//Ð½Ðµ Ð¸Ð·Ð¼ÐµÐ½
bool alpha
ÑÐº Ð·ÐµÐ¼Ð¿Ð»Ñ
:: instance
Ðµ ÑÑ
){\nstd::cout<<\" NÐ´Ð¾Ð»Ð¶Ð½Ð¾Ð±ÑÑÑÐ¿Ð¾Ð»Ð¾Ð¶Ð¸ÑÐµÐ»ÑÐ½ÑÐ¼
Derived &
_val,doubley_val ):x(x_val),y(y_val
:\";\nstd::cin>>a >>b
,std::vector<int >(n
sh ip
system_clock:: to_time_t(now
E K
Rol l
Roll ingback
Ð½Ð°Ñ Ð°Ð»
Y or
Yor k
FF FF
* z
;\n}\n}\n\nreturn true
push_back( sum
d d
Key ,typenameValue
,B ,C
ÑÐ¸Ð¼ Ð¸Ð·
o ccurrence
Ð¿ÐµÑÐµÐ· Ð°Ð¿Ð¸Ñ
,intsize ){\nfor(inti=0;i<size
2.display Info
led g
ledg ment
resource s
Fail ing
Ð ÐÐ
high ]
Ð¿ÑÐ¸ÑÐ² Ð°Ð¸Ð²Ð°Ð½Ð¸Ðµ
qu atern
ABCDE F
ÑÑÐ¼ ÑÑ
ÑÐ´ ÑÐ°
Width ()const{returnwidth
Width()const{returnwidth ;}\ndoubleget
Width()const{returnwidth;}\ndoubleget Height()const{returnheight
(Ð¿Ð¾ÑÐ± ÑÐ²Ð°Ð½Ð¸Ñ
Observer *>
Observer*> observer
observer s.begin(),
observers.begin(), observer
8. 8
[ INET_ADDRSTRLEN
(AF_INET ,&
() override{
Ð°Ñ Ñ
g ing
Ñ Ð²Ð¾Ð±Ð¾Ð´
Info ()constoverride{\ncout<<\"
//Ð¤ÑÐ½ÐºÑÐ¸Ñ Ð´Ð»ÑÐ²ÑÑÐ¸ÑÐ»ÐµÐ½Ð¸Ñ
=\" A
\",' A'
O w
Ow ner
! !
Ð Ð
#include<iostream>\n#include< optional
,size =\"<<size
ÐÐµÑÐ´Ð°Ð»Ð¾ÑÑ Ð¾ÑÐºÑÑÑÑÑÐ°Ð¹Ð»
(x,y ,
+= i
duration_cast<std::chrono:: microseconds>(end-start).count()
uristic Func
Up date
Ð½ÑÐ¹Ñ Ð¾ÑÐ¼Ð°Ñ
(client_fd,& read_fd
/ 5.0
) :\"<<std::endl;\nstd::cout<<\"
tain s
Satis fied(item
y sic
FT P
(bo ard
X Y
ijklm nop
cellen t
raw _
( Service
resolve <
ad_ any_cast
),freq (f
-> freq
ution:: seq
Function (key
Ð± ÑÑ
me asure
inc idence
S L_
//ÐÐ¾Ð¼Ð¿ Ð°ÑÐ°ÑÐ¾Ñ
+y Â²
Consump tion
l ide
;\nelseif(std::strcmp (perm_name,\"
Type Singleton<
Ñ Ð¿Ð¾Ð»Ð½ÑÐµÑÑÑ
;\nelse if(strcmp(perm_name,\"
Iden tifiable<
reate Shape(\"
ing API
se Pl
T X
,ÐºÐ¾ÑÐ¾Ñ ÑÐ¹
Ñ ÑÐ°Ð½
Value s(x,y
ÑÐ°Ð· ÑÐµÐ¼
,doubleinitial Balance
Error:\"<<e.wh at()<<endl;\n}\n\nreturn0;\n}</w>
Matrixoperator +(const
ÐµÐ½ Ñ
Ð´Ð¾Ð»Ð¶Ð½Ð°Ð±ÑÑÑÐ¿Ð¾Ð»Ð¾Ð¶Ð¸ÑÐµÐ»Ñ Ð½Ð¾Ð¹
Computation s
>:\"<<Computation ::template
is_ even
is_same _type
 even
print f
h u
Ð°Ð½ Ðº
&other)const{return other<*this
Ð¿ÐµÑÐ° ÑÐ¸Ð¸
, INT_MAX
ifstreamfile(filename ,std::ios::binary
d b
quick _
Ð¸Ð¿ 
(Ð² Ð´Ð¾Ð»ÑÑ
1','1',' 1'},\n{'
resize (size
:\"<<( h
:\"<<(h t.search
i=0.0 ):real(r),imag(i
- Ð·
I t'
] ,str
],str [i]
Ð°Ð± Ð¾Ñ
Ð°Ð±Ð¾Ñ Ð½Ð¸Ðº
ending _
ending_ here
:\"<<( seg
#include<iostream>\n#include<iomanip >\n\n
L D
unordered_map<char ,char
Container&container ,constT&value
Thisisa 
log _
\"<<std:: flush
:\"<<static_cast<int >(
was_ dig
output. push_back(
output.push_back( operators.top
M is
*2. 5
ÐºÐ¾Ð¼ ÐµÐ´
ÐµÐ»Ð¾Ð² ÐµÐº
ÐÐ ÐÐ
Ð Ð
x,n y
0',' 0','
&other)const{\nreturnComplex (real-other.
&other)const{\nreturnComplex(real-other. real,imag
&other)const{\nreturnComplex(real-other.real,imag -other.imag
,- imag
c1 +c
( Mediator
(Mediator *m
iator ->
<=0 ||b
<=0||b <=0||c<=0
ÑÐµÐ´Ð½ÐµÐµ Ð³
Ð¿Ð¾Ð´ Ð¿Ð¾ÑÐ»ÐµÐ´
>\n#include< variant
;\npublic:\nComplex(doubler =0,doublei=0):real(r),imag(i
+(constComplex &other)const{\nreturnComplex(real+other.real,imag+other.imag
.imag >=0
c1 *c
( side
;\nsize_tc apacity
seekg (0,std::ios::
queue. pop
arr) [5]
\"<<endl;\nclo se(server_fd);\nreturn1
F_SETFL ,
F_SETFL, O_NONBLOCK
,& client_len
Thread B
ThreadB arrier
_ and_
_ func
;\nstd:: m
if(str1.length()!=str2.length ())returnfalse
ÑÐ°Ð¹Ð» Ñ
};\nintarr 2
- Ð
Ð°Ñ Ð²ÑÐ±Ð¾Ñ
(2. 5
I V
Ð± Ð¾Ð¹
Ð½Ð°Ð¼ÐµÐ½Ð°ÑÐµÐ»Ñ Ð½ÐµÐ¼Ð¾Ð¶ÐµÑÐ±ÑÑÑ
[i +
Ø §
L '
ÑÐºÐ°Ð· Ð°ÑÐµÐ»Ð¸
alculate Hash
,char 
||n<m )returnposition
ÐÐÐ ÐÐÐÐÐ
%4==0&&year%100!=0 )||(year
>\n#include< new
,l ,r
time_tnow=std:: time(nullptr
All ();\n\nreturn0;\n}</w>
Ð´ÐµÐ¹ÑÑÐ²Ð¸ÑÐµÐ»Ñ Ð½ÑÑ
*a *a
*e *e
\",\" Alice
ostringstreamoss;\n oss<<\"
ifconstexpr(std::is_same_v<T,std::string >
GRA M_
GRAM_ SIZE
thread s.emplace_back(worker
Ð½Ð¾Ðµ Ð¾Ñ
Ð½Ð¾ÐµÐ¾Ñ ÐºÐ»Ð¾Ð½ÐµÐ½Ð¸Ðµ
Ð½Ð¾Ðµ ÑÐµÑÐµÐ½Ð¸Ðµ
Quadratic Equ
b /(2
b/(2 *a
subscribe <
< constT
s+=minute s/60
600 +minute
t_ depth
a 2
#include<iostream>\n#include<string>\n#include<algorithm >\n#include<cctype
Palindrome Ig
PalindromeIg nore
ptr 2
Ð½Ð°Ñ ÑÐµÐ°Ð»Ð¸Ð·Ð°ÑÐ¸Ñ
ÑÑ Ð°ÐµÑ
Int View
Con st
out. write(buffer.
a uge
Ð½Ð¸Ð³ Ð¸
\";\ndefault:return\" Unknown
)<< i
;\ncout<<\"ÐÐ²ÐµÐ´Ð¸ÑÐµ ÑÐ¸ÑÐ»Ð¾
>\n#include<sstream >\n#include<iomanip
Ð¾Ð´ Ð¼Ð°ÑÑÐ¸Ð²
ÑÐ¸ÑÐ»Ð¾:\";\nstd::cin>>num ;\n\ninttemp=(num<0)?-num:num
watch .
<cols ;++j
ÐµÐ·Ð¾Ð¿Ð°Ñ Ð½Ð¾
ad Ref
if( has
rec v
Ð¡Ð¢ Ð
\"){\nd iagnosis=\"
c 0
7 4
c 2
y Up
( heap
Triangle triangle
\"<<std::endl ;}\n~
Data Interface
>clone ()constoverride{\nreturnstd::make_unique<
>\n#include< array
t1.join();\nt2. join();\nt3.
this-> tasks.
() {
Ð² Ð¾Ð¸Ñ
){\n observers.push_back(observer
area :\"<<area
ÑÐ¾Ð´Ð½Ð°Ñ Ð¼Ð°ÑÑÐ¸ÑÐ°
Content- Type:
Content-Type: text/
p >
arr Ref
Ð±Ð¾Ð»ÑÑ Ð¸Ñ
ÑÐ¾Ð¼ Ð¾Ð±
inQuote s=false
index=binary Search
Ð¾Ð¿ÐµÑÐ° ÑÐ¸Ñ
;\nint*p=& x
s Num
Erato sthene
_ suffixe
):r (red
):r(red ),g
):r(red),g (green
):r(red),g(green ),b
):r(red),g(green),b (blue
Registry Key
template<typenameT,typenameU >\nboolc
<n ;k++
('||c==' ['||c=='
)'||c=='] '||c=='
)'||c==']'||c==' }
( Car
Ðµ Ñ
Toy ota
Mechanic ::
Fraction &f
ab solute
Ð¼ ÑÑ
Ð¼ÑÑ Ð¾Ñ
>>matrix={\n{1,2,3},\n{ 4,5,6
* j
Coffee >c
Milk Decorator
Ð°Ð´Ð°Ñ Ð¸
_status:: ready
Ð¾Ðµ Ð¿ÑÐµÐ´ÑÑÐ°Ð²Ð»ÐµÐ½Ð¸Ðµ
Index outofbounds
REG ISTER_
## Registrar
TYPE (
return !
#include<iostream>\n#include<thread >\n#include<atomic
Matrix&other)const{\nif(rows!=other. rows||cols!=other.cols)\n
Matrixdimensionsmismatch \");\n
Ð±ÐµÑÐºÐ¾Ð½ÐµÑ Ð½Ð¾Ð¼Ð½Ð¾Ð³Ð¾ÑÐµÑÐµÐ½Ð¸Ð¹
Ð½Ðµ Ð¸Ð¼ÐµÐµÑ
:\";\nfor(intnum:d q
ÑÐº Ð·
( V
Ð¾Ð±ÑÐ°Ð±Ð¾Ñ Ñ
P PRO
PPRO VAL_
PPROVAL_ LI
PPROVAL_LI M
!= j
- Ñ
\",4 },{\"
evaluate In
evaluateIn fix
:employee s){\n
Ð°Ñ Ð¸Ð½ÑÑÐ¾Ð½
Ð¾Ð±ÑÐ°Ñ Ð½Ð¾
T&operator* ()const{return*ptr
T*operator ->()const{returnptr
MAX_ SALARY
;\n if(
Ð°ÑÑ ÑÑ
Ð²Ñ Ð·
JsonValue >
\\\\ '
Ð¾Ð±ÑÐµÐºÑ \n
tag s
"", ""
*element) override{
FOUN D
 e
empty()||!running ;\n});\n\n
v isor
\",\" Ð
Ð¾Ð½ÐµÐ´ÐµÐ»Ñ Ð½Ð¸Ðº
Ð Ñ
t Sum
;}\nintgetYear ()const{returnyear
ÐÐ¾Ð¹Ð½Ð°Ð¸Ð¼Ð¸Ñ \",\"
ÐÐµÐ² Ð¢Ð¾Ð»ÑÑÐ¾Ð¹
\",1 86
Sorted Array
N :\";\ncin>>n;\n\nif(n<=0
N:\";\ncin>>n;\n\nif(n<=0 ){\ncout<<\"
N:\";\ncin>>n;\n\nif(n<=0){\ncout<<\" NÐ´Ð¾Ð»Ð¶Ð½Ð¾Ð±ÑÑÑÐ¿Ð¾Ð»Ð¾Ð¶Ð¸ÑÐµÐ»ÑÐ½ÑÐ¼
Ð¾ÑÑÑÐ´ Ð½Ð¸Ðº
: ID
Ð¾Ð»Ð¾Ð³ Ð¸ÑÐµÑÐºÐ°Ñ
Car t
Ð°Ð² Ð½Ð¾ÑÑÐ¾ÑÐ¾Ð½Ð½Ð¸Ð¹
Ð°Ð²Ð½Ð¾Ð± ÐµÐ´ÑÐµÐ½
ultiplication (
stBuilder::make_ addition(
ÐµÑ Ð°ÑÐ°ÐµÐ¼
Ð²Ñ ÑÐ°Ð¶ÐµÐ½Ð¸Ð¹
Int Ref
From Mid
FromMid n
Overdue Task
Concrete StateA
;\ncout<<\"\\n ÐÐ¾ÑÐ»Ðµ
U MA
;\n# endif
 implementation
Error:\"<<e.wh at()<<std::endl;\n}\n\nreturn0;\n}</w>
Ð½Ðµ Ð¼ÐµÐ½ÑÑÐµ
Ñ Ñ
q. push(v
=t ;v
=t;v !=s
=t;v!=s ;v
=t;v!=s;v =parent
=t;v!=s;v=parent [v]){\nintu=parent
s. rbeg
) :\"<<endl;\ncout<<\"
:\"<<b ig
Container Info
\"<<std::endl ;\n}\n\n
v. sige
<< i
Exception:publicstd:: runtime_error{\npublic:\n
Z ip
document. txt
(\" C
;++ k
[i][k ]
original A
mark Presen
Function Type
Ð¸Ð» Ñ
Ð²Ð¾Ð· Ð²ÑÐ°ÑÐ°ÐµÑ
\";\nstring test3=\"
istorical Note
Ð¾Ð¿Ð¾Ð»Ð½Ð¸ÑÐµÐ»ÑÐ½Ð°Ñ Ð¸Ð½ÑÐ¾ÑÐ¼Ð°ÑÐ¸Ñ
(Ñ Ð°ÑÑ
(ÑÐ°ÑÑ Ð¼Ð¸Ð½ÑÑÑ
n )
tmp =instance.
FLO AT
_ year
:\";\nstd::cin>>n;\n\nif(n<=0 ){\nstd::cout<<\"NÐ´Ð¾Ð»Ð¶Ð½Ð¾Ð±ÑÑÑÐ¿Ð¾Ð»Ð¾Ð¶Ð¸ÑÐµÐ»ÑÐ½ÑÐ¼
Strong Pass123
):length (l
CurrentState Name
process( DoorEvent::
Ge ometric
mon Ratio
boolc an
Ð¿Ð¾Ð»ÑÑ Ð¸ÑÑ
(std:: initializer_list
Log Entry
UNK NO
UNKNO WN
De stination
) throwstd::out_of_range(\"
template< typenameT
Ð¾Ð±Ð°Ð¼ÑÑÑÐµÐºÑ Ð°
\"});\nlibrary. insert({\"
{ \nprivate:
Con secutive
Message Pack
(x+other. x,y+other.y
):size (
Ð¾Ð· Ð²ÑÐ°ÑÐ°ÐµÑ
Or Get(\"
Cache.get OrCompute
Cache.getOrCompute (\"
Stack. top
ÑÐ¸ÑÑÐµÐ¼ Ñ
INTE GER
ving _
ÑÐºÐ°Ð· ÑÐ²Ð°ÐµÑ
ÑÐºÐ°Ð·ÑÐ² Ð°ÑÑ
ÑÐ¼Ð¼Ð°ÑÐ»ÐµÐ¼ÐµÐ½ÑÐ¾Ð² :\"<<sum
Emplo yment
tract Month
sPer Week
nothrow _move
nothrow_move _constructible
,ÐµÑÑÑ Ð»Ð¸
\nelse if(
Ð¸Ð¼Ð¾ÑÑÐ¸ Ð¾Ñ
\n if(right
\nif(right Const&&rightConst->get
Variable Node>(\"
){\nfile. open(filename
En ter
For ward
:\n if(event
:\nif(event Data
:\nif(eventData ){\nauto
:\nif(eventData){\nauto *e
Event *>(event
Event*>(event Data
)%c apacity
size :\"<<pool.size
acquire ();\ncon
acquire();\ncon n
Ð± ÑÐ¾Ñ
d q
s);\nfor(size_ti=0;i<rows ;i++)\nfor(size_tj=0;j
y Checksum
reate_ resource
ÑÐµÑÑÑÑ Ð¾Ð²
>\n#include<mutex>\n#include<condition_variable >\n#include<atomic
Task (task
ÑÐ°Ð±Ð»Ð¸Ñ Ñ
Ð·ÑÑ Ñ
Ð Ð
(from );\nval
:\"<<sr. flags.
Ð½Ð¾Ð¶ÐµÑÑÐ² Ð¾
std:: max_
c allable
E F
MAC RO
>::value ,\"
MPILE_ TIME_
C E
## Impl
:(\"<<p. x<<\",\"<<p.y<<\")
-- ;\nright
Ð°Ðº Ð¶Ðµ
\"<<a <<\"Ð´Ð¾\"<<b
ÑÐµÐ± ÑÐ°Ð¿ÑÐ°Ð²Ð¸Ð»Ñ
Instance ().
Ð Ð°Ð±Ð»Ñ
itSet64 operator
:: tolower
\"||str _value==\"
fig uration
ictionary [w
inet_ntop (AF_INET,&
move(c md
Ð¾Ñ Ð´ÐµÐ»Ñ
Ener g
ÑÐ¾ ÑÐµÐ½
template<typename...Args >
ter _
Allocator ::
n. last
Pending Task
typename... Types
a',' b','
a','b',' c
::template Field
> ){\nauto&field=obj.
>){\nauto&field=obj. templateget
& >(field
(T*p =nullptr):ptr(p
ÑÐ¾Ñ Ð½Ð¾ÑÑÑ
Par t
Part ner
\";\ncase Weekday::
:\"<<week day
day s
Output Redirector
|PROT_ WRITE
map (nullptr
Button >create
Button>create Button
U I
-> on
Ð· ÐµÐ»ÐµÐ½ÑÐ¹
from (sock,buffer
overflow _error
>::get Name
Expr&expr )
-> print
Ther mo
tTemp <<\"Â°C
;\n}\n\n if(!
:publicLogger {\npublic:\nvoidlog
ÑÐ°Ð¼ÑÐ¹ ÑÑÐ°ÑÑÐ¹
addable _v<
splice (c
,ÑÑÐ¾Ð± ÑÐ¸Ð·Ð±ÐµÐ¶Ð°ÑÑ
- \":\"
:\n if(c=='
im. position.
ol ing
oling Mode
l i
ÑÑÐ»Ð¾Ð² Ð¸Ñ
Min Heap
[ smallest
[smallest ]
Stream Element
A vg
_ n
Ñ Ð¾ÑÐ¼
(x,y, u
h av
Ð»Ð¸Ð½Ð°ÑÐ°Ð¼ Ð¾Ð¹Ð´Ð»Ð¸Ð½Ð½Ð¾Ð¹
owner. file.is_open
Observer 2
Ð°Ð±Ñ Ð¸Ñ
L iteral
t. emplace
Ptr =dynamic_cast<
ÑÐ¸Ð³ ÑÑÐ°ÑÐ¸Ñ
To Remove
 User
MS G_
3 1,
string _value
<<(c an
league A
league B
(type ,name
duration_cast<std::chrono:: seconds
-> insert({\"
a' ;c<='
<2 >(student1
File Cache
To Id
Library Book
s[nx][ny ]->
Trie Node*curren
Ð¾Ñ Ð½Ð¾ÑÐ¸ÑÐµÐ»Ñ
Helper (BSTNode*node
it Card
Name To
NameTo Type
Memory Mapped
*other. z
Vector3D c
or Encryp
dy /
â «
y By
Ð½ÑÐµÐ³ ÑÐ°Ð»
Ð¾Ñ Ð½Ð¾ÐµÐ·Ð½Ð°ÑÐµÐ½Ð¸Ðµ
MathError ::
and_then ([]
and_then([] (doublevalue
( other
//Ð¨Ð°Ð±Ð»Ð¾Ð½ Ð½ÑÐ¹ÐºÐ»Ð°ÑÑ
){\n if(!
qu adruple
In version
iss ue
G OLDEN
GOLDEN _
GOLDEN_ RATIO
Value Ref
m usic
Number operator
Type ()constoverride{returntypeid(
Int Message
Ð³ Ð½Ð¾Ñ
U M_
TOTAL_ PA
TOTAL_PA GES
t Version
F req
<T>::is_ s
&item )const
* (mat
[1][1] *mat
[1][2] *mat
[1][0] *mat
Ð¼ Ð¸ÐºÑ
P H
Ð°ÑÑÐµÑ Ð½
ad char
nection_ active
64 _char
ilograms<<\"Ðº Ð³
[ (i-1
ir sch
irsch ber
irschber g
_ B
Data [
GameState:: PLAYING
Q '
f '
text_ hash
ST DIN_
STDIN_ FILENO
] *mat
<<bits. flag
R tti
hsl .hue
duration_cast<chrono:: microseconds>(end-start).count()
duration_cast<chrono::microseconds>(end-start).count() \n<<\"
){\nintindex=hash Function(key
STRU CT
Struct Type
Directed Edge
False Type
bo ard_
KEY BOARD
MAX_ VERTICES
> \\n<
span=make_ span
M ul
ÑÐ¾Ð¼ ÐºÐ¾ÑÑÑ
standard_l ayout
gregate Id
â 
tNode. path
be stPath
To Fron
Ð¸Ð· ÐºÐ¸Ð¹
Value Type
O THER
MASK _A
G ad
Vector &other)const{\n
[ state
Ð Ð»Ð¸ÐµÐ½Ñ
st. empty()||st.top
imal To
\n<< transaction.get_
Pass Filter
trol-> weak
Timed Decorator
d_ y
Original :\"<<
[l][ h
ÑÐµÐº )
jectionRe ason=\"
{\\\" type
scale (factor
Ed it
Ð½Ð¾Ð¼ ÑÐµÐ´Ð°Ðº
Ð½Ð¾Ð¼ÑÐµÐ´Ð°Ðº ÑÐ¸ÑÐ¾Ð²Ð°Ð½Ð¸Ð¸
Order s.
[root X
[root Y
Palindrome After
Total Vehicle
sating Transaction
\\n \\tsub
\\n \\t\\t
EC UTE
O WN
ap_ sy
ge Sort(arr
value Name
Quantity ::
Raw File
RawFile De
,Ð¾ÑÑÐ¾ÑÑÐ¸ÑÐ¾Ð²Ð°Ð½ Ð½Ð¾Ðµ
FileSystem Node>(\"
All Key
backup _
_per m
test\");\nasser tEqual
Circle *c
hash <double>
hash<double> {}
""<< t->get
1. accept(&visitor
\")\n .set
)\n .set
Fenwick Tree
Validation Error
test Data.
testData. emplace
ResourceWrapper<Resource >wrapper
>(data );\n
>(data);\n throwJsonException(\"Value
:\"<< json_person.get(\"
Ð½ÑÐ¹ IP
vert_ from_
./data /
X E
Room Type
RoomType:: STAN
RoomType::STAN DARD
->is Checked
vation ->get
\";break ;\ncase
\";break;\ncase RoomType::
.add Room
del ta
Decorator (decorator
Decorator Chain();\nmanager.execute
<<\" /\"<<max
anup Func
MAX_ KEY
MAX_KEY S
pl antTree
is_arithmetic _op
Full Fe
FullFe atured
Key Event
CollisionWith (
mo id
adChar Shif
resize (
\ntemplate<typenameT 1,typenameT2
Number (acc
Number(acc Num
<cols ;k++
- 2
test ;\n
ÑÐ°Ñ ÑÐ¾Ð´ÐµÑÐ¶Ð¸Ñ
Ð¾Ñ Ð²ÐµÑÑÐ¸Ð½Ñ
toupper (c
){\n if(!
:Ð·Ð½Ð°ÑÐµÐ½Ð¸Ñ Ð½ÐµÐ¼Ð¾Ð³ÑÑÐ±ÑÑÑ
Ð¾Ñ Ð´
Ð½Ð°Ñ Ð´ÑÐ¾Ð±Ñ
){\nreturn true
)?\" ÐÐ°Ð¹Ð´ÐµÐ½\":\"ÐÐµÐ½Ð°Ð¹Ð´ÐµÐ½
(R\" (
error:\"<<e.wh at()<<endl;\n}\n\nreturn0;\n}</w>
),z(z _val
Ð°Ðº ÑÐ¸Ð²
Thread Latch
Ð²ÐµÐ´ Ð¾Ð¼
Ð´ÐµÐ¼Ð·Ð°Ð²ÐµÑÑÐµÐ½Ð¸Ñ Ð²ÑÐµÑ
ic _error(\"
o '
o u
Ð¾Ð´Ð¸Ñ Ð¸Ñ
= 99
Ð ÐÐÐÐ
dog \",\"
ÑÐ°Ð¿Ðµ ÐºÐ¾Ð¼Ð¿Ð¸Ð»ÑÑÐ¸Ð¸
arr) [N]
overdraf t
Ð¸Ð¿ Ñ
,ÐºÐ¾ÑÐ¾Ñ ÑÐµ
holds_alternative <int
Th rough
,0 644
*(constComplex &other)const{\nreturnComplex
ostream&os,constComplex &c
Rectangle:publicShape {\ndoublewidth,height;\npublic:\nRectangle(doublew,doubleh):width(w),height(h
ifstreamfile(filename ,ios::binary
(intsig ,sig
(intsig,sig info
(intsig,siginfo _t
//ÐÐ½ ÑÐµÑÑÐµÐ¹Ñ
#include<sys/types.h>\n#include<sys/socket.h>\n#include<netinet/in.h>\n#include<arpa/inet.h>\n#include<unistd.h>\n#include< fcntl.h>\n#include<sys/
setread_fd s;\n
setread_fds;\n FD_ZERO(&read_fds);\nFD_SET
random_devicerd ;\nstd::m
2 [0]
c ity
a=\"<<a <<endl;\ncout<<\"
=true ;\nfor(intj=0;j
;\n}\n}\nreturn true
in>>cho ice
Ð½ÑÐ¼ Ð°Ð»Ð³Ð¾ÑÐ¸ÑÐ¼Ð¾Ð¼
ÐÐÐÐÐÐÐÐ Ð¡
if(text[i+j]!=pattern[j]){\nmatch=false ;\nbreak;\n}\n}\n
if(text[i+j]!=pattern[j]){\nmatch=false;\nbreak;\n}\n}\n if(match
(x-other. x,y-other.
(x-other.x,y-other. y
mp 4
#include<iostream>\n#include<cstring >\nusingnamespacestd;\n\nintmain(){\nchar
(f name
Message (\"
:\"<<(ti 1==ti
Ð½ Ð¸
abc de
Thread s
Ð°Ð± ÑÐ¾Ð»ÑÑ
unique_ptr< Command
: it->second
\");\nreturn1 ;\n}\nstd::cout<<\"
-Ð¹ Ð½Ð°Ð¸Ð¼ÐµÐ½Ñ
-Ð¹Ð½Ð°Ð¸Ð¼ÐµÐ½Ñ ÑÐ¸Ð¹
-Ð¹Ð½Ð°Ð¸Ð¼ÐµÐ½ÑÑÐ¸Ð¹ ÑÐ»ÐµÐ¼ÐµÐ½Ñ
Resource (Resource
[3 1]='\\0'
192.168. 1.1
H P
 L
Ñ Ð¸ÐµÑÑ
ÑÐ»ÑÑ Ð°Ðµ
ÑÐµÑÐµÐ½Ð¸Ñ :\"<<endl;\ncout<<\"
\"<<endl;\ncout<<\"\\n ÐÐµÑÐ¾Ð´
Ð¸Ñ ÑÑ
:\"<< test.length
if(! test.
;\n\ncout<<\"ÐÐ²ÐµÐ´Ð¸ÑÐµ ÑÐ¸ÑÐ»Ð¾:\";\ncin>>num
123 
tv ;\ntv.
,month ,day
!=other.year )returnyear
!=other.year)returnyear <other.
!=other.year)returnyear<other. year
!=other.month )returnmonth
!=other.month)returnmonth <other.
!=other.month)returnmonth<other. month
day ;\n}\n\nbooloperator
year &&month
Status:: COMPLETED
in_ degree
empty()){\nstd::cout<<\" No
Mo ck
t 4
t 5
(i ,graph
0 F
ae iou
aeiou AE
aeiouAE IOU
Order order
Ð½Ð¾Ðµ Ð¸ÑÐ¿Ð¾Ð»ÑÐ·Ð¾Ð²Ð°Ð½Ð¸Ðµ
e '||c=='
ÑÑÐ¸ ÑÑÐ¾ÑÐ¾Ð½Ñ
7 6
0 7
Ð´Ð¾ÑÐ¾Ð´ Ð½Ð¾ÑÑÑ
//Ð¡Ð¿ÐµÑ Ð¸Ð°Ð»Ð¸Ð·Ð°ÑÐ¸Ñ
template< class
template<class F
F >(f
ition.notify_ one
64,3 4,25,12,22,11,
64,34,25,12,22,11, 90
The quick
Thequick brownfo
Thequickbrownfo x
Thequickbrownfox jump
Thequickbrownfoxjump s
Thequickbrownfoxjumps over
Thequickbrownfoxjumpsover the
Thequickbrownfoxjumpsoverthe l
Thequickbrownfoxjumpsoverthel azydog
 T
Matrix(intr,intc ):rows(r),cols(c
Ð¼Ð°ÑÑÐ¸Ð² :\";\nfor(inti=0;i<size
ifstream in
file1. txt
ÐºÐ°Ð² ÑÑ
;\ncout<<\"ÐÐ²ÐµÐ´Ð¸ÑÐµÑÑÑÐ¾ÐºÑ :\";\ngetline(c
;\ncout<<\"ÐÐ²ÐµÐ´Ð¸ÑÐµÑÑÑÐ¾ÐºÑ:\";\ngetline(c in,str
Ð° ÑÐ·
] (intx
(data[i] ,data[j]
h _addr
(double ,double
Ð· Ð½Ð°Ðº
small ,large
[j-1]){\ndp[i][j]=dp[i-1][j-1];\n}else{\ndp [i][j]=1
k itten
};\nstd::cout<<\"ÐÑ ÑÐ¾Ð´Ð½ÑÐ¹Ð¼Ð°ÑÑÐ¸Ð²
aa aa
;i++){\nthreads.emplace_back(worker ,i+1);\n}\n\nfor(auto&t:thread
1 a,T2
[ 16
):model (m
num *den
dig it
Matrix (size_tr
Matrix(size_tr ,size_tc
 8
),size (other.size
ÑÐ³Ð¾Ð» Ð²ÑÐ°Ð´Ð¸Ð°Ð½Ð°Ñ
Ð± ÑÑÑÐ°ÐºÑ
[ ERROR
->c alculate
Ð· Ð¼ÐµÐ½ÐµÐ½
80.0 /
80.0/ M_PI
Array &other){\nif(this!=&other
:\";\nfor(intv :vec
""]= ""
D isplay
Ð¡ Ð
Ð Ð
Ð Ð¾ÑÐº
ÐÐ¾ÑÐº Ð²
ÐÐ¾ÑÐºÐ² Ð°
;\nint*ptr=& value
[3][3 ]
result;\nfor(inti=0;i<3 ;i++)\nfor(intj=0;j<3;j++
=0;k <3
=0;k<3 ;k++
Cache h
;\nmo stFrequen
s.find(ptr );\n
write(data. data(),data.size
;-- i
();\nstd::vector<bool >visited(n,false
)returnfalse ;\n
Re order
Low Stock
(Tv ):value(v
,ref (
Ðº ÑÐ¿
s% =24
(\" Generic
#include<iostream>\n#include<cstring >\n\nintmain(){\nchar
ÐµÑÐµÐ½Ð¸Ðµ ÑÐ¸ÑÑÐµÐ¼Ñ
Ð¼ÐµÑÐ¾Ð´ Ð¾Ð¼
Ð½ÑÑ Ð¼Ð°ÑÑÐ¸ÑÑ
= 2
ÑÐ¸Ð³ Ð¸Ð½Ð°Ð»
>::value <<std::endl
Ñ Ð²
):type (
Checker checker
N :\";\nstd::cin>>n;\n\nif(n<=0){\nstd::cout<<\"NÐ´Ð¾Ð»Ð¶Ð½Ð¾Ð±ÑÑÑÐ¿Ð¾Ð»Ð¾Ð¶Ð¸ÑÐµÐ»ÑÐ½ÑÐ¼
Ren tal
ÑÐ¾ÑÑÐ¾Ñ Ð½Ð¸Ñ
Ð´Ð²Ð¾Ð¹ ÐºÐ¸
ptr )throwstd::bad_alloc
Grade (
x ;\nresult.
y ;\nreturnresult;\n}\n};\n\nintmain(){\n
* x
& c
_ area
;i<=m ;i++){\nfor(intj=1;j<=n;j++){\n
c de
Time stamp
Index ]
Ð³ ÐµÑ
Ð¾Ð´Ð¸Ð½Ð°ÐºÐ¾Ð² ÑÐµ
Ñ Ñ
ÐºÐ¾Ð» Ð»ÐµÐº
=std:: move(other.
if(str. empty())return\"
();\n\n if(m
] ]
y+z *z
order Id++
Ð¸Ð»Ñ ÑÑÐ°ÑÐ¸Ñ
ÑÐ¼ ÐµÐ¶
Ð¾ÑÑÐ¸ÑÐ°ÑÐµÐ»Ñ Ð½ÑÑ
=newchar[ std::strlen
q ].
numerator<<\" /\"<<f.
rec iproc
\n}catch(conststd::exception&e){\nstd::cerr<<\" ÐÑÐ¸Ð±ÐºÐ°:\"<<e.wh
move(l )),right(std::
move(l)),right(std:: move(r
_fron t(key
Ð¾Ð´ ÑÑÑÐ¾ÐºÐ°Ð½ÐµÐ½Ð°Ð¹Ð´ÐµÐ½Ð°
Ð½Ðµ ÑÑÑÐµÑÑÐ²ÑÐµÑ
;\n}\n\nvoiddisplay Info
atomic<bool >running{true
Ð¾ÑÑÐ¾ÐµÐ² ÑÐºÐ¸Ð¹
SELECT*FROM users
{1,2,3},{ 4,5,6
mis match
deriv ative
We ight
Outofrange :\"<<e.wh
 temp
. \"<<std::endl;\nreturn1
;\nstd::cout<<\"ÐÐ²ÐµÐ´Ð¸ÑÐµ ÑÐ¸ÑÐ»Ð¾:\";\nstd::cin>>num
B ridge
){\ninttemp=b ;\nb
){\ninttemp=b;\nb =a%b
){\ninttemp=b;\nb=a%b ;\na=temp
Ð¿ÐµÑÐ°ÑÐ¾Ñ Ð¿ÑÐ¸ÑÐ²Ð°Ð¸Ð²Ð°Ð½Ð¸Ñ
>::type \n
,true ,false
< '
);\nif(! file.is_open
)?\"ÑÐ²Ð»ÑÐµÑÑÑ \":\"Ð½ÐµÑÐ²Ð»ÑÐµÑÑÑ
ip _str
ip_str [INET_ADDRSTRLEN
Un do
Ð¿ÑÐµÐ´ÑÐ¿ ÑÐµÐ¶Ð´ÐµÐ½Ð¸Ñ
[0][j]= j
(Ñ ÐµÑÐµÐ·
5. 
>>dp (n
} '
VALID \":\"
VALID\":\" INVALID
Ð²ÐµÑÐ¾ Ñ
=3.14 f
observer-> update(
observer->update( state
>max Length
ÐµÐ»Ñ ÑÐ¸Ñ
4,5. 5
( Ð½Ð°Ð¿
Name 
. Ð
En vironment
SAV INGS
a -b
//ÐÐ»Ñ C++17
//ÐÐ»ÑC++17 Ð¸ÑÐ¿Ð¾Ð»ÑÐ·ÑÐµÐ¼
S FINAE
ÐµÐ¿ ÑÐ¾Ð²
<<\" ===ÐÑÐ¾Ð²ÐµÑ
ÐÐÐ ÐÐ
8979 3
=0 ;col
;col ++
P rivate
!=0 ){\n
).name ()<<endl;\ncout<<\"
Ð³ ÑÐ°Ð½Ð¸Ñ
( L
Ð²Ð¾Ð¹ ÑÑÐ²
And Print
,std::strlen (msg
B irth
(\" Ð
value _reference
Ñper fectforwarding
Ð² Ñ
Use count
log ging
ÑÐµ Ð¿Ð¾ÑÐ¾ÐºÐ¸
Ð°Ð³ Ð¾Ð²
ÐµÐ»Ð¾Ñ Ð¸ÑÐ»ÐµÐ½
&other)const{\nsize_tmax Size
Ñ Ð¸Ð¾ÑÐ¸ÑÐµÑ
 JSON
Ñ Ð¸Ð²Ð°ÐµÑÑÑ
Ð·Ð°Ð¿Ð¸Ñ Ð¸
\",\" B
;\nintc apacity
gressB ar
>\n#include< fstream
htt p
Number s[]={
S L
()m utable
;y ++
;x ++
ss Than
if(bytes<=0 )break
at()<<endl;\nreturn1 ;\n}\n\nreturn0;\n}</w>
Builder &set
abcdefgh ijklmnop
q r
qr stu
qrstu v
qrstuv w
qrstuvw xyz
GA ME_
b '
Ð±ÐµÐ· Ð´ÑÐ±Ð»Ð¸ÐºÐ°ÑÐ¾Ð²
RAN GE
(constT &container
ution::seq ,data.begin(),data.
ution::par ,data.begin(),data.
Ð« Ð§
Ð Ð²
Ð°ÐµÐ¼ Ð¾Ðµ
stl_con tainer
is_ printable
Ð·Ð°Ð¿ÑÐ¾Ñ Ð¾Ð²
â 
V O
s. back
:\"<<compute _
\"<<curren t.
MAX_ EN
MAX_EN TRI
MAX_ENTRI ES
Engine (\"
Wheel s(4
:oss<<\" \\\\
With Allocator
array <T,N
Custom Event
Shape ::
lide With
H A
HA SH
col ate
FFER_CA PACITY
Swap Differen
(month ,year
Matrixoperator *(const
Ð± Ñ
C ircumference
B it
02 u
2 h
2h hu
ÑÐ°Ð· Ð½Ð¸Ñ
#include<iostream>\n\nclass Rectangle
[i] ,i
&other)const{return!(*this==other );}\nbooloperator
Arith metic
\n using
Ð¸Ð½Ð¸Ð¼Ð°Ð»Ñ Ð½Ð°Ñ
#include<iostream>\n#include<vector>\n#include<algorithm>\n\n intfind
(max Length
dp [i-1][j],dp[i][j-1],dp
dp[i-1][j],dp[i][j-1],dp [i-1][j-1]
1','0',' 0'},\n{'
ofstream out_file(\"
s*M_PI /180.0
;\ncout<<\"ÐÐ²ÐµÐ´Ð¸ÑÐµ ÑÐ¸ÑÐ»Ð¾:\";\ncin>>num
t. insert(
_ %
_% +
_%+ -]+
_%+-]+ @
] {2,
<1 8
=0.0,double i=0.0):real(r),imag(i
s(imag )<<\"i
=\" ;c
Ð½Ðµ ÑÐ²
Ð² Ð½Ð¾ÐµÐ¿ÑÐµÐ¾Ð±ÑÐ°Ð·Ð¾Ð²Ð°Ð½Ð¸Ðµ
Vector3D (doublex
*b -4
*b-4 *a
*b-4*a *c
has_ serialize
Ð¼ÐµÐ½Ñ Ñ
//Ð ÑÐ½Ð¾Ð²Ð½Ð¾Ð¹
Ð±Ð¾Ð»ÑÑ Ð¾Ð¹
error:\"<<e.wh at()<<std::endl;\n}\n\nreturn0;\n}</w>
c ustom
[SIZE ]={
was_dec imal=false
s.top ();value
s.top();value s.pop
 overflow
3 +4
;//1 -5
Ð Ð»Ñ
ÐºÐ¾Ð¼ÐµÐ´ Ð¸Ñ
Ð¡ Ð¾Ð²
ÐÐ« Ð
Ð ÐÐ
u itab
ÑÐ°ÑÑÐ¸ )
1 +
Isl and
(real ,-imag
Colleague *sender
Ð½Ð°Ñ ÑÐ°Ð¿ÐµÐºÐ¾Ð¼Ð¿Ð¸Ð»ÑÑÐ¸Ð¸
Fraction&other)const{\nreturnFraction (num*other.
D b
:\"<<val 1
-(constComplex &other)const{\nreturnComplex(real-other.real,imag-other.imag
=(constComplex &other
>>shape s;\nshape
Pop ped
queue. fron
>::iterator it=vec.beg
>\n#include<chrono >\n#include<random
ÑÐµÐ¼Ñ Ð²ÑÐ¿Ð¾Ð»Ð½ÐµÐ½Ð¸Ñ
)/2.0 ;\n}else{\nmed
[j ++
.begin(),src .
ÐºÐ°Ð· Ð°ÑÐµÐ»Ð¸
Fraction{\nintnumerator ,denominator
to Double
Lon don
a=\"<<a<<endl;\ncout<<\" b=\"<<b
[i+ j
() -1
To W
Ð Ð¾Ð½
Me ssenger
)?\" Ð²
-Ð Ð°Ñ
s;\nintn=text.length();\nintm=pattern.length();\n\nif(m==0 ||n<m)returnposition
){\nposition s.push_back(i
ÐÐÐÐÐÐ¢ Ð
-Ð´Ð° ,0
-Ð´Ð°,0 -Ð½ÐµÑ
-Ð´Ð°,0-Ð½ÐµÑ )
j p
jp g
Renderer :public
Renderer:public Renderer
V ul
Vul k
\\ 033
ObjectTracker:: print
ÐºÐµ [
Ð¾Ð± Ð½Ð¾Ð²Ð»ÐµÐ½Ð¸Ñ
W o
Wo of
] )
Ð¸ÑÑÑ Ð¸ÑÑÐµÐ¼
ÑÐ°Ð·Ð»Ð¸Ñ Ð½ÑÑ
<<\" \\\"
ÑÑÐ¸ÑÐ¸ÑÐ»Ð° :\";\ncin>>a>>b>>c
\";\nad vice=\"
\";\n}elseif(we ather==\"
Ð½ ÑÐ¶ÐµÐ½
Manager (
 M
)\\\ndo {
F E_A
ST L
;\nstd::cout<<\"ÐÐ²ÐµÐ´Ð¸ÑÐµ ÑÑÑÐ¾ÐºÑ:\";\nstd::getline
;\nstd::cout<<\"ÐÐ²ÐµÐ´Ð¸ÑÐµÑÑÑÐ¾ÐºÑ:\";\nstd::getline (std::cin,str
#include<iostream>\n#include<cctype >\n\nintmain(){\nchar
strncp y(data.
? other.ptr
?other.ptr ->clone
?other.ptr->clone ():nullptr
ÑÐ¿Ð¾Ð»ÑÐ·Ð¾Ð²Ð°ÑÐµÐ»Ñ ÑÐºÐ¸Ð¼
re ve
S pace
[i]=i *10
Ð½ÑÑ ÑÑÐ°Ð²Ð½ÐµÐ½Ð¸Ð¹
ice ){\ncase1
Ð½ÑÐµ Ð¼ÐµÑÐ¾Ð´Ñ
Ð´Ð²Ð¸Ð³ Ð°ÐµÐ¼
Ð½ÑÑ ÑÐ¸Ð¼Ð²Ð¾Ð»Ð¾Ð²
seekg(0,ios:: beg
 to
duration_cast<std::chrono:: milliseconds
All ();\n\nstd::cout<<\"\\n
Ð¿Ð¾ÑÐ¼Ð¾Ð»ÑÐ°Ð½Ð¸Ñ ÑÐ¾Ð·Ð´Ð°Ð½
,int q
tm *l
tm*l tm
,1 +ltm->tm_mon
;\n if(month
);\n if(!
D uration
\" \n<<std::setw(10
\"\n<<std::setw(10 )<<\"
,vector<bool >&visited
V owel
of... (arg
Ð²ÑÐ°Ñ ÑÑÑÐ»ÐºÐ¸
Float Number
\";\nstd::string test3=\"
;\n}\n \n
s[3 ]={
Ð¿ÑÑÐ¼Ð¾ ÑÐ³Ð¾Ð»ÑÐ½ÑÐ¹
?\";\nc in>>answer
ÐµÐ´ Ð»ÐµÐ½
]==\"yes \"){\ndiagnosis=\"
f ,0x
d c
text ;\ncout<<\"ÐÐ²ÐµÐ´Ð¸ÑÐµÑÑÑÐ¾ÐºÑ:\";\ngetline(cin,
Ð°Ðº ÑÐ¸Ð¸
s*3 600+minute
s*3600+minute s*60
Ð±ÑÐºÐ² Ð°
);\nstop =true
< Circle
HTTP/1.1 200
){\nif(top >=MAX_SIZE-1
COL S
ÐÐ« Ð¥
;\na=b;\nb =temp
Ð ®
ÑÐ¾Ð¼Ð¾Ð± Ð¸Ð»Ñ
Name ,
:: toupper
To Char
(1 -
Ð±Ñ Ð»
;i>=0;i-- ){\n
- i-1
*message =\"
fron t
(doubler ,double
i ):real(r),imag(i
Sol ution
Ð´Ð° -
(( ())
ÑÐºÐ¾Ð± Ð¾Ðº
[ b
ON \":\"
ON\":\" OFF
#include<iostream>\n\n intget
Break down
num*den ,den*other.den);\n}\n
;\nstd::cout<<\"ÐÐ²ÐµÐ´Ð¸ÑÐµÑÐ¸ÑÐ»Ð¾ :\";\nstd::cin>>num
},\n{ 7,8,9
] '
\"<<endl ;}\n~
Description ()constoverride{\nreturncoffee->getDescription
):Coffee Decorator
if n
ifn def
if(value <node->data
ÑÐ· ÐµÐ»
Node s
st. inorder
ÐµÐ·Ð¾Ð¿Ð°Ñ Ð½ÑÐ¹Ð´Ð¾ÑÑÑÐ¿
obj 1
wait(lock,[this] (){
#include<iostream>\n#include<thread>\n#include<atomic >\n#include<vector>\n#include<chrono
fetch _
Matrixresult(rows,col s);\nfor(size_ti=0;i<rows;i++)\nfor(size_tj=0;j<
Matrixresult(rows,cols);\nfor(size_ti=0;i<rows;i++)\nfor(size_tj=0;j< col
Matrixresult(rows,cols);\nfor(size_ti=0;i<rows;i++)\nfor(size_tj=0;j<col s;j++
Matrixresult(rows,cols);\nfor(size_ti=0;i<rows;i++)\nfor(size_tj=0;j<cols;j++ )\nresult
s!=other. rows)\n
form ultiplication
Int Range
Ð² ÐµÑÐµÑÑÐ²ÐµÐ½
Ð½ÑÐ¹ )
(1. 5,2.5,3.
data ),size(other.size
data ;\nsize=other.size
#include<iostream>\n#include< deque
K napsack
;\n}\n ~
Ð½Ð¾Ð³Ð¾Ð¾ÑÑÐ¾Ð² Ð½Ð¾Ð³Ð¾Ð´ÐµÑÐµÐ²
ifstreamfile(\" text.
Frequenc y
#include<iostream>\nusingnamespacestd;\n\n intget
S mall
Concrete Prototype
//Ð Ð±ÑÑÑÐ°ÐºÑ
w _
Ð¸Ð¼ Ð¼ÐµÑÑ
Ð¸Ñ ÑÑ
Age ()const{returnage
Ð· Ð°Ð¸Ð¼
UserInfo (model
troller. update
evaluateInfix (\"
John son
={ {
;\n}\n\nvoid test_
ÑÐµÑÐµÐ· ÑÐºÐ°Ð·Ð°ÑÐµÐ»Ñ
y poten
Release Pool
 i
Exception :\"<<e.wh
Mo scow
Json Builder::
FILE_ NOT_
FILE_NOT_ FOUND
queue<int> q;\nq.
>\n#include<mutex >\n#include<queue
(shared_ptr< Message>msg
original Msg
Thread. joinable
);\ncv. wait(lock,[this]{
);\ncv.wait(lock,[this]{ \nreturn!
Actor Ref
ÑÐ¾Ñ Ð½Ð¸Ðº
ÐµÑ Ð²ÐµÑ
ÐµÑÐ²ÐµÑ Ð³
ÑÑ Ð½Ð¸ÑÐ°
):title(t),author (a
fig [\"
( DatabaseRecord::
Ð¾Ð¿ Ð¾Ð»Ð¾Ð³Ð¸ÑÐµÑÐºÐ°Ñ
Ð¾Ð¿Ð¾Ð»Ð¾Ð³Ð¸ÑÐµÑÐºÐ°Ñ ÑÐ¾ÑÑÐ¸ÑÐ¾Ð²ÐºÐ°
\",\" Ex
To Zero
a=\"<<a <<std::endl;\nstd::cout<<\"
Rectangle {\ndoublewidth,height
};\n Rectangle
stBuilder::make_m ultiplication(
,\nA stBuilder::make_number
String Ref
Double Ref
,Ð¿ÑÐ¸Ð½Ð¸Ð¼Ð°ÑÑ Ð°Ñ
due Date
UR GEN
Task >(\n\"
text. request();\ncon
* 1024
*1024 )<<\"MB
),size (sz
) throwbad_alloc
;i >=1
ÑÑ ÑÑ
=0;v <n
=0;v<n ;v++
text ;\nstd::cout<<\"ÐÐ²ÐµÐ´Ð¸ÑÐµÑÑÑÐ¾ÐºÑ:\";\nstd::getline(std::cin,
Price ()const{returnprice
)<<\" Category
;\n\ncout<<\"\\n ÐÐ¾ÑÐ»Ðµ
do e
log in
Time out
\"<<i+1 <<\"
UL TIP
ULTIP LY
#include<iostream>\nusingnamespacestd;\n\nintmain(){\nconstintSIZE =5
- F
Float Type
>());\ncon text.declare(\"
Ð¸ Y
ÐºÐ²Ð°Ð´ ÑÐ°Ð½Ñ
LOG :\"<<message
test1 <<\"'
test2 <<\"'
ints. ai_
o gle.com
p ->
:\"<<ntoh s(client_addr.sin_
;\n}\n\nintmain(){\nvector< vector<int
ave s.
Ð³ Ð¾Ð´
ÑÐ¸Ð³Ð¾Ñ Ð¸Ð°Ð½Ñ
c Hour
c Minute
,i );\n}\n\nfor(auto&t:thread
;\npublic:\nBox (doublel
,doublew,doubleh ):length(l
,doublew,doubleh):length(l ),width(w),height(h
#include<iostream>\n#include<thread>\n#include<mutex >\n#include<chrono
foo ()const
()non- const
do or
Analy zer
tuple <string,int,double
Com bination
N:\";\ncin>>n;\n\nif(n<=0){\ncout<<\"NÐ´Ð¾Ð»Ð¶Ð½Ð¾Ð±ÑÑÑÐ¿Ð¾Ð»Ð¾Ð¶Ð¸ÑÐµÐ»ÑÐ½ÑÐ¼ !\"<<endl;\nreturn1
Handler A
ÑÐ²Ð»ÑÐµÑÑÑ Ð¿Ð°Ð»Ð¸Ð½Ð´ÑÐ¾Ð¼Ð¾Ð¼
> ;\n\n
term ;\n}\n\nreturnresult
Permutation s
(doublescalar )const{\nreturn
ÐºÐ¾Ð¿ Ð¸ÑÐ¾Ð²Ð°Ð½Ð½ÑÐ¹Ð¼Ð°ÑÑÐ¸Ð²
(Args...arg s){\nreturn(arg
Ð¿ÑÐ°Ð² Ð°Ñ
U o
Uo W
By Id(id
{ false
Ð¾ÑÐ¾Ðº 1
Ð¾ÑÐ¾Ðº 2
Ð·Ð°ÑÐ²Ð°ÑÐ¸Ð» Ð¾Ð±Ð°Ð¼ÑÑÑÐµÐºÑÐ°
acency_list[ to
B adChar
BadChar Table
Ð¾Ð´ ÑÑÑÐ¾ÐºÐ°Ð½Ð°Ð¹Ð´ÐµÐ½Ð°Ð½Ð°Ð¿Ð¾Ð·Ð¸ÑÐ¸ÑÑ
Ð¸Ð½Ñ (
Ñ Ð¸Ð¼ÑÐ»ÑÑÐ¸Ð¸
2. schedule
read(reinter pret_cast<char
b ab
#include<iostream>\n#include<cctype >\nusingnamespacestd;\n\nintmain(){\nchar
;\npublic:\n Variable
//Ð ÐµÐºÑÑÑÐ¸Ð²
ÐÐ¢ ÐÐ
Ð³ ÐµÐ½ÐµÑ
In Group
Ð ©
>:: iterator
Max Size
){\nautoit=cacheMap. find(key
r.add Employee
>::value =\"
Rate *100
( o
Const&&left Const->get
Ð¿ÐµÑÐµÐ·Ð°Ð¿Ð¸Ñ Ð¸
notempty \":\"empty
RE WIN
REWIN D
Re wind
t Name==\"
(std::shared_ptr< Message>msg
< Person
Ð°Ð¸Ð± Ð¾Ð»ÑÑÐ°Ñ
S _
};\ncout<<\"ÐÑ ÑÐ¾Ð´Ð½ÑÐ¹Ð¼Ð°ÑÑÐ¸Ð²
Ð°ÑÐ°ÑÐµ Ñ
ÑÐ¾Ð´Ð½Ð°Ñ ÑÑÑÐ¾ÐºÐ°:\"<<str
ÑÐ¾Ð± ÐµÐ½
2(imag ,real
Ð¼ /
Ð¼/ Ñ
Poly morphic
>:: info
<cols;j++ )\nresult
ledgment Number
n Flag
) override
reateIP (19
reateIP(19 2,16
Pool::get Connection
release Connection
releaseConnection (con
\n ResourceWrapper
ResourceWrapper r
(unique_ptr<Expression>l ,unique_ptr<Expression>r
Add Expression
(\"<<a <<\",\"<<b
Print Task>(\"
Ð¿ÑÐµÐ´ Ð¼ÐµÑÐ¾Ð²
Ð ÐÐÐ
ÐÐÐÐ Ð¦
=0 ;w<=capacity;w++
:\"<<max Value
;i >0
:\"<<p. distanceTo
:\"<<rect. area
=1 8
9 8
Ð´ÑÑÐ³ Ð¸Ðµ
\"),\nstd:: make_shared<
Log Message>(\"
ÑÐµÐ´Ð½ÐµÐµÐ°ÑÐ¸ÑÐ¼ÐµÑÐ¸ÑÐµÑÐºÐ¾Ðµ :\"<<average
C LOSED
Greater Than
Ñ Ð¸Ð¾Ð½
Factorial s
ÐµÐ´ Ð¸Ð°Ð½Ð°:\"<<med
;center ++
s[0] *
s[0]* side
s[0]*side s[0]+sides[1]
s[0]*sides[0]+sides[1] *
\":\"Ð½Ðµ Ñ
*ptrTo Member
*side *side
:: set
B ASE
Base 2
ÐÐ°Ð±Ð»Ñ Ð´Ð°ÑÐµÐ»Ñ
ÐµÐºÑÑ :\"<<
ÑÐ´Ð²Ð¸Ð³ Ð¾Ð¼
sen t<0
forkey' \"+key+\"'
forkey'\"+key+\"' :\"+str
forkey'\"+key+\"':\"+str _value
2 <<(is
,sizeof(ip _str
on Click.
Command >(ed
Command>(ed itor
ÑÐ± ÑÐ¾ÑÐµÐ½
\";\nrecom mendation=\"
Passwordm ustcon
Passwordmustcon tainatle
Passwordmustcontainatle ast
Passwordmustcontainatleast one
a','b','c ','
(\" /
Field Info
sTo Palindrome
Weekday:: Monday
S unday
was_ escape
was_quantifier=false ;\n}elseif(c=='
Ð¾Ð´ÐµÑÐ¶ Ð¸Ñ
Ð¾Ð»Ñ Ð½ÑÐ¹
(new_ imag
hello\",\" world
take D
takeD amage
Ð´Ð¾ÑÐ¾Ð² ÑÐµ
mac OS
-> render
!=0 ){\n
Char =curren
Char=curren tChar
data_ queue.
D ispatcher
> /
[NET NS
Failedtocreate socket
from(sock,buffer ,sizeof(buffer)
|C LONE_NE
Fahrenhe it
:\"<<con vert_temperature
<=0 ){\nstd::cout<<\"ÐÑÐ¸Ð±ÐºÐ°
Ð²ÐµÐ´ÑÑ Ð¸Ðµ
filesystem_error &e
(doublev ):value(v
_shared_ from_this
_shared_from_this <
T argetTemperature
Ð½Ð°ÑÐµ \"<<room
transaction s.emplace_back(\"
0,' -'
To All
\",\" 55
\",\"55 5
= ResourcePool::acquire(\"
#include<iostream>\n#include<type_traits >\nusingnamespacestd;\n\n
;//ÐÑÐ¿Ð¾Ð»ÑÐ·ÑÐµÐ¼ Ð¿Ð°ÑÐ°Ð¼ÐµÑÑ
;//ÐÑÐ¿Ð¾Ð»ÑÐ·ÑÐµÐ¼Ð¿Ð°ÑÐ°Ð¼ÐµÑÑ ,ÑÑÐ¾Ð±ÑÐ¸Ð·Ð±ÐµÐ¶Ð°ÑÑ
;//ÐÑÐ¿Ð¾Ð»ÑÐ·ÑÐµÐ¼Ð¿Ð°ÑÐ°Ð¼ÐµÑÑ,ÑÑÐ¾Ð±ÑÐ¸Ð·Ð±ÐµÐ¶Ð°ÑÑ Ð¿ÑÐµÐ´ÑÐ¿ÑÐµÐ¶Ð´ÐµÐ½Ð¸Ñ
?\" +\":\"-
quantity<<\"Ñ Ñ.
[sellCode ].
:\"<<(tree. search
;\n}\nbreak ;\n
Ð¢ Ð«
titan ium
ÐÐ Ð¯
Ð»Ð¸Ñ Ð½Ð¸Ðº
s '
sal Ref
:\";\ncheck Type
Ð¾Ð½ -Ð¿
Derived Aligned
t \",\"
(std:: make_shared<
Ñ Ð°ÑÐ°ÐºÑÐµÑÐ¸ÑÑÐ¸Ðº
/ L
/ r
:\"<< __
1 \",\"
hav ior
c ;\nc
thread Id
Ð¾Ð»Ð¸ÑÐµÑÑÐ²Ð¾ÑÐµÑ Ð½ÑÑÑÐ¸ÑÐµÐ»
ÐµÑ Ñ
8 _t
\",\" /
Map. find(key
ÐºÐ»ÑÑ ÐµÐ¹
Ð½ ÑÐµÑÐ²Ð°Ð»
=chrono:: ste
VECTORIZE_ OPERATION
;++i ){
,\" A
vert To
#include<iostream>\nusingnamespacestd;\n\nintmain(){\nintarr[3 ]={
preter.add_com mand(c
com mon_t
ict)?\"Ð¼Ð¾Ð¶Ð½Ð¾ \":\"Ð½ÐµÐ»ÑÐ·Ñ
ict)?\"Ð¼Ð¾Ð¶Ð½Ð¾\":\"Ð½ÐµÐ»ÑÐ·Ñ \")<<\"ÑÐ°Ð·
ict)?\"Ð¼Ð¾Ð¶Ð½Ð¾\":\"Ð½ÐµÐ»ÑÐ·Ñ\")<<\"ÑÐ°Ð· Ð±
ict)?\"Ð¼Ð¾Ð¶Ð½Ð¾\":\"Ð½ÐµÐ»ÑÐ·Ñ\")<<\"ÑÐ°Ð·Ð± Ð¸ÑÑ
Ð± ÑÐ°ÑÑÐ²Ð°ÐµÐ¼
Pool[block Index].
Def rag
Con version
sius<<\" Â°C
st_ ip
;\npacket. ip.
um n
ÑÐ½Ð¸ÐºÐ°Ð»Ñ Ð½Ð¾ÑÑÑ
g a
Ð¿Ð¾ÑÐ»Ðµ ÑÐ´Ð°Ð»ÐµÐ½Ð¸Ñ
D istinct
Level ==\"
| '
Ð¿ÑÐ°Ð² Ð¾
M tx
notify_ one
riendly Pair
by she
byshe v
e uclidean
finder. find
finder.find Path
ÐÐ°Ð¹Ð´ÐµÐ½Ð¾ \":\"ÐÐµ
ÐÐ°Ð¹Ð´ÐµÐ½Ð¾\":\"ÐÐµ Ð½Ð°Ð¹Ð´ÐµÐ½Ð¾
;\nint*p=& num
Ð¾Ð±ÑÐµÐºÑ Ñdata
Ð¾Ð±ÑÐµÐºÑÑdata =\"<<data
ÑÐºÑÐ¿ Ð¾Ð½ÐµÐ½ÑÑ
Ð¿Ð¸ÑÐ¾Ðº ÑÑÑÐ´ÐµÐ½ÑÐ¾Ð²
Reading &reading
Handler ->
s[ top
Registry ::register
Y_ DEFINE
ÑÐ°Ð· ÑÐµÑÐµÐ½
ÐÐ½Ð½Ð° \",\"
Q (x)
\"<<std::endl;\nclo se(server_fd);\nreturn1
;\nsum+=f(x);\n}\n\nreturnsum *h
:Ð¦ ÐµÐ¿
)\n .
ion Size
ROWS ;i++){\nfor(intj=0;j
ROWS;i++){\nfor(intj=0;j <COLS
GPA :\"<<gpa
-> run
ÑÐµÐ¿ Ð¾Ñ
Request &req
Ð³Ð½Ð¾Ñ Ð¸ÑÑÐµÐ¼
X \",\"
reate Snap
Storage Selector<T,Size
PointerSelector <T>::is_s
To Outer
-base+shift)%26 +base
push({ heightMap
[new Row
[newRow ][new
[newRow][new Col
NOR MAL
UR BO
Mode s
Modes Compatible
try{\nvalidate_ password(\"
mand. find(\"
:a=\"<<a <<\",ref
:a=\"<<a<<\",ref =\"<<ref
ÑÑÐ°Ð´Ð¸ÑÑ Ð¾Ð¼
ÑÐµÐºÑÐ½Ð´ Ñ
GameSettings Old
GameSettings Modern
GameSettingsModern ::MAX_PLAYERS
ss Order.
double _point.
>>&bo ard
ii Code
Ð¸Ð½Ð³ Ð»
irschberg _lc
G G
<= j
64 _
64_ encode
Up grade
GameState:: MENU
s Copy
thread Ob
Ð¾Ð²Ð»ÐµÑÐ² Ð¾ÑÐ¸ÑÐµÐ»Ñ
Ð»ÑÐ¼Ð± Ð´Ñ
Iso gram
\n \"
bits. flag
)override{\ncout<<\" [
Connection Info
nection String
USER S
{\nchar ch
->freq >b
+\" 0
+\" 1
-> ifa
+i *h
(a )+f
Ð«Ð§ ÐÐ¡
Ð«Ð§ÐÐ¡ ÐÐÐÐÐ
Ð½Ð¸Ð¹ Ð¿ÑÐµÐ´ÐµÐ»
error (e
\ 0'
key board_
keyboard_ event.
error_ event.
( Event::
log_ event(e
File Content(\"
FF :
Xml Node
b 2
Ð§ :
Ð§: ÐÐ
< typenameContainer::value_type
:\";\nprint_ span
,target_pid,nullptr ,nullptr
Standard L
3 -b
3-b 3
Service <
Ð°Ð¼Ð¾ÐµÐ´Ð»Ð¸Ð½Ð½Ð¾Ðµ ÑÐ»Ð¾Ð²Ð¾
Refined Ab
:return\" ÐÐ°ÐºÐ°Ð·
\\n\" ;\ncout<<\"
Ð¾ÑÑÐµÐ± Ð¸ÑÐµÐ»Ñ
vert_to_ spheric
ylindrical. r
ylindrical.r ho
ylindrical. phi
>,Compare >p
Ð¥ Ð°ÑÑ
//ÐÑÐ¾Ð²ÐµÑÐºÐ°Ð½Ð°Ð½Ð°Ð»Ð¸Ñ Ð¸Ðµ
Vec .
r _
ten sible
Vector <double
O_WRONLY |
Ð¾ÐºÐ¸Ð¹ Ð¿ÑÐ¸Ð¾ÑÐ¸ÑÐµÑ
Test Queue.
tm_ date.
FO OD
TERTA IN
TERTAIN MENT
OP PING
date =transaction.get_
_num ,account
ly_ income
get( Category::
),TransactionType::EXPENSE ,\nCategory::
):con trol
trol )con
. async
d_y ield
Dec ryp
Decryp ted
igenere _
SE PARATOR
form Validation
Ñ ÐºÐ¾ÑÑÑ
pose ==\"
=\" black
transl ate(doubledx,doubledy
\\\" y
transl ate(dx,dy
orderId++ ,\"
\\n\";\n oss<<\"
C UDA
udaSucce ss;\n}\n\ncudaError_tcuda
=c uda
TRACT_METHOD_ VO
TRACT_METHOD_VO ID
hicle s:\"<<
hicles:\"<< Vehicle
hicles:\"<<Vehicle ::get
hicles:\"<<Vehicle::get TotalVehicle
duration_cast<std::chrono::microseconds>(end-start).count() \n<<\"
Longest Absolute
LongestAbsolute File
LongestAbsoluteFile Path
t_c ap
))c ap
reate Logger
RawFileDe scriptor
(window =3)
//ÐÐ¾Ð¼Ð¿Ð°ÑÐ°ÑÐ¾Ñ Ð´Ð»ÑÑÐ¾ÑÑÐ¸ÑÐ¾Ð²ÐºÐ¸
Ð½Ð¾Ð¶ÐµÑÑÐ²Ð¾ ,Ð¾ÑÑÐ¾ÑÑÐ¸ÑÐ¾Ð²Ð°Ð½Ð½Ð¾Ðµ
usage <<\"%
,den *other.
::get AllKey
amil ton
amilton ian
sv_file <<\"
Exception (msg
Exception(msg ,code
Ð¸Ðº ÑÐ¾Ñ
Ð¸ÐºÑÐ¾Ñ Ð¸Ñ
delete _perm
?\" â\":\"â
\n matrix
State C
Run ner
t True
_ km
s[i]. free
Class Name
sole Observer
sBy Year
:\"<<doc .
sBy Page
:: publicInterface
ports Car
Trans mission(\"
storage. error
File Error
Ð¾Ð¿ Ð¾Ñ
=(longlong )
',\" .
z ing
S ig
ofstream (\"
ofstream(\" ./data/
:op _str=\"
I 3
I2 >ep
a ^2
^2/ b
RESIDEN TI
RESIDENTI AL
For Date
DELU XE
Room Number
In ,check
_le ading
_leading _
_leading_ zero
(value s...
d ns_
[\" 2024-01
Component >c
twinPrime s.size
t Diff
Digit Count[
b ig
le af
old Size
REPEAT_ 4
Green \",\"
\");\nforest. plantTree
o sara
osara j
Sl ab
Ð²Ð± Ð¸Ð½Ð°Ñ
\");\ncard. borrowBook(\"
Access Level
ix in
My Product
s.push_back(registry.c reateShape(\"
. +
insert({ now
Generic Storage
Is Prime
Ð¿ÑÐ¾Ð¼ÐµÐ¶ ÑÑÐ¾Ñ
),balance (initialBalance
;\ncout<<*ptr <<endl;\nreturn0;\n}</w>
)?29 :28
Ñ ÑÑ
\n}catch(constexception&e){\ncerr<<\" ÐÑÐ¸Ð±ÐºÐ°:\"<<e.wh
600 )/60
< 5
n printf
ÑÐ°Ñ ÑÐ°Ð¹Ñ
ÑÐ°ÑÑÐ°Ð¹Ñ Ð¸Ðµ
ÑÐ°ÑÑÐ°Ð¹ÑÐ¸Ðµ ÑÐ°ÑÑÑÐ¾ÑÐ½Ð¸Ñ
ÑÐ°ÑÑÐ°Ð¹ÑÐ¸ÐµÑÐ°ÑÑÑÐ¾ÑÐ½Ð¸Ñ Ð¾ÑÐ²ÐµÑÑÐ¸Ð½Ñ
point <
>(end_time -start_time
Ñ Ð°Ñ
minute s
Rectangle r
Rational &r
Ð°Ð³Ð¾Ð»Ð¾Ð² Ð¾Ðº
;\ndata=new Data
&operator [](size_tindex
Hello \",s2=\"
Hello\",s2=\" World
};\n\nstd::cout<<\"ÐÑ ÑÐ¾Ð´Ð½ÑÐ¹Ð²ÐµÐºÑÐ¾Ñ
,ÑÐ²Ð»ÑÐµÑÑÑ Ð»Ð¸
;\npq. push({
rec ),sizeof(rec
ios:: in|std::
ios::in|std:: ios::
){\ndata. push_back(value
:\"<<stack. top
:Ð·Ð½Ð°ÑÐµÐ½Ð¸ÑÐ½ÐµÐ¼Ð¾Ð³ÑÑÐ±ÑÑÑ Ð¾ÑÑÐ¸ÑÐ°ÑÐµÐ»ÑÐ½ÑÐ¼Ð¸
,vector<int>(n ,0
ÑÑÐ¿Ð¿ Ñ
Radians=angle Degree
Radians=angleDegree s*M_PI/180.0
){\n throwout_of_range(\"
ÐºÐ¾ÑÑÑÐ¸ÑÐ¸ÐµÐ½ÑÑ a,b,c
(Ð± ÐµÐ·
Ð¼ÐµÐ½ÑÑ Ð°ÐµÐ¼
atch .
Ð·Ð°Ð²ÐµÑÑ Ð¸Ð»Ð¸
Ð·Ð°Ð²ÐµÑÑÐ¸Ð»Ð¸ ÑÐ°Ð±Ð¾ÑÑ
Ð°ÐºÑÐ¸Ð¼Ð°Ð»ÑÐ½Ð°Ñ ÑÑÐ¼Ð¼Ð°Ð¿Ð¾Ð´Ð¼Ð°ÑÑÐ¸Ð²
ÑÐ»Ð¸ ÑÐºÐ¾Ð¼
){\n throwstd::
Succe ss
ÑÑÐ¸ÑÐ¸ÑÐ»Ð° :\";\nstd::cin>>a>>b>>c
0 )
:Ð½ÐµÐºÐ¾ÑÑÐµÐºÑ Ð½ÑÐµÐ·Ð½Ð°ÑÐµÐ½Ð¸Ñ
b c
m1 :\\n\"<<m1
m1 +m2
#include<iostream>\n\nintmain(){\nconstintSIZE =5
(1-5 )
ÐÐÐÐÐ ÐÐ
ÐµÐ¹ ÑÐ¸Ð½Ð³
real 2
++;\nright-- ;\n}\nreturntrue
Ð¾Ð¿ ÑÑ
Ð¾Ð¿ÑÑ Ð¶ÐµÐ½
{\nintdata ;\nNode*next
Ð°Ñ Ð¼
(intn=0,intd=1 ):num(n),den(d
target<<\"Ð½Ð°Ð¹Ð´ÐµÐ½ Ð½Ð°Ð¿Ð¾Ð·Ð¸ÑÐ¸Ð¸
\n voidprocess
*(constComplex&other)const{\nreturnComplex (real*other.
*(constComplex&other)const{\nreturnComplex(real*other. real-imag*other.imag
((real*other. real+imag*other.imag
-> si
sa_flag s=SA
sa_flags=SA _
sa_flags=SA_ SIGINFO
){\nfd_ setread_fds;\nFD_ZERO(&read_fds);\nFD_SET
( source
Ð ÑÐ¸Ð±ÐºÐ°
**ptr ToPtr=&
<other.co effs.size
Ð¿ÑÐ¾Ð¸Ð·Ð²Ð¾Ð´ Ð¸ÑÐµÐ»Ñ
Ð¾Ð± ÑÐ°Ð·
=true;\nfor(intj=0;j <m
;i*i <=n
:'\"<< text<<\"'
ÐÐ¡Ð¢Ð ÐÐ
Ð¾Ð· Ð¼Ð¾Ð¶
. mp4
)const override{\ncout<<\"
track Allocation
asic 
\\n\" ;\nstd::cout<<\"
for_ each
ÑÐ»ÑÑ Ð°Ð¸
md->execute ();\nhistory.
;\nCommand Managermanager
W ill
Ðº ÑÐ¸Ð²
ÐÐ°Ð· Ð¼ÐµÑ
- style
*a+b*b +c
*a+b*b+c *c
(const Resource
se(fd );\nreturn0;\n}</w>
Ð¸Ð² Ð¾Ñ
Ð¸Ð²Ð¾Ñ Ð½Ð¾Ðµ
 tuple
:\"<<std::get <1
Mag nitude
1 >>b1
1>>b1 >>c1
BLOCK_ SIZE
tv;\ntv. tv_sec
SOCKET,SO_RCV TIMEO,&tv,sizeof(tv
ste ady_clock::time_
api /
,month,day ;\npublic:\nDate(inty=2024,intm
,month,day;\npublic:\nDate(inty=2024,intm =1,intd=1
,month,day;\npublic:\nDate(inty=2024,intm=1,intd=1 ):year(y
,month,day;\npublic:\nDate(inty=2024,intm=1,intd=1):year(y ),month(m
,month,day;\npublic:\nDate(inty=2024,intm=1,intd=1):year(y),month(m ),day(d
time(&now );\nreturnDate(1900
time(&now);\nreturnDate(1900 +ltm->tm_year
time(&now);\nreturnDate(1900+ltm->tm_year ,1+ltm->tm_mon
time(&now);\nreturnDate(1900+ltm->tm_year,1+ltm->tm_mon ,l
time(&now);\nreturnDate(1900+ltm->tm_year,1+ltm->tm_mon,l tm->tm_mday
!=other.month)returnmonth<other.month ;\nreturnday<other.
)+\"-\"+ \n(month
)+\"-\"+\n(month <10?\"0\":\"
)+\"-\"+ \n(day<10?\"0\":\"
Status:: IN_PROGRESS
ID \"
;\ncout<<\"ÐÐ²ÐµÐ´Ð¸ÑÐµÑÐ¸ÑÐ»Ð¾ :\";\ncin>>num
CommonPrefix (str
vector<int>>&graph ){\nintn=graph.size
ÐµÐ½ÐµÑ Ð¸ÑÑÐµÐ¼
=max EndingHere
5 '
acce ss
*b -4*a
*b-4*a *c
Ð´Ð¸Ð½ ÐºÐ¾ÑÐµÐ½Ñ
Clientdiscon nected
ÑÑÐ¸ÑÑÐ¾ÑÐ¾Ð½Ñ ÑÑÐµÑÐ³Ð¾Ð»ÑÐ½Ð¸ÐºÐ°
;\nchar c
Ñ ÐµÐ½Ñ
,sideB ,sideC
Rationaloperator *(const
â 
Data :\"<<data
(size_t thread
thread s;++i){\nworker
(F &&f
#include<iostream>\n#include<cstdint >\nusingnamespacestd;\n\n
( E
HTTP/1.1200 OK
body ></
file2. txt
Ð Ð
ÐÐ Ð
Ð½ÑÐµ ÑÑÑÐ»ÐºÐ¸
ÐºÐ°Ð´Ð¾Ð»Ð¶Ð½Ð°Ð±ÑÑÑ Ð¸Ð½Ð¸ÑÐ¸Ð°Ð»Ð¸Ð·
Ð² ÑÐ¾Ð¼Ð¾Ð±Ð¸Ð»Ñ
Ð²ÐµÑÑ Ð½ÐµÐ¼ÑÐµÐ³Ð¸ÑÑÑÐµ
,intsize ,int
Y '
Ð· Ð´ÐµÑÑ
[0]=isPrime [1]=false
;p ++
My App
M '
C M
all_ once
Ð»Ð¸Ð½Ð°ÑÑÑÐ¾ÐºÐ¸ :\"<<str.length
Ð»Ð°Ñ Ð½ÑÑ
thread>thread s;\n\nfor(inti=0;i<5
f1 <f2
Ñ Ð¼
Ð¼ÑÑÐ¾Ñ )
thread>thread s;\n\nfor(inti=0;i<3
y Con
\n}catch(conststd:: invalid_argument&e){\nstd::cout<<\"Invalidargument:\"<<e.wh
E B
Ð¾Ð± Ð¾ÑÐ¸Ð±
Ð¾Ð±Ð¾ÑÐ¸Ð± ÐºÐµ
3, 2,
a'||c==' e'||c=='
a'||c=='e'||c==' i
a'||c=='e'||c=='i '||c=='
a'||c=='e'||c=='i'||c==' o'||c=='
a'||c=='e'||c=='i'||c=='o'||c==' u
C++ isa
programmingl anguage
ÑÐ¿Ð¾Ð¼ Ð¾ÑÑÑ
## _
Base *
over lap
seekg(0,std::ios:: beg
ÑÐµÑÑÐ¾Ð²ÑÐ¹ ÑÐ°Ð¹Ð»
\n}catch(conststd::exception&e ){\nstd::cerr<<\"
priority_ queue<
ÐµÐ± ÑÐ°Ð¼Ð¸Ð½Ð¸Ð¼Ð°Ð»Ñ
ÐµÐ±ÑÐ°Ð¼Ð¸Ð½Ð¸Ð¼Ð°Ð»Ñ Ð½Ð¾Ð³Ð¾Ð¾ÑÑÐ¾Ð²Ð½Ð¾Ð³Ð¾Ð´ÐµÑÐµÐ²
c ustom
ÑÐµ ÑÐ»ÐµÐ¼ÐµÐ½ÑÑ
== j
Ð¸Ð°Ð³ Ð¾Ð½Ð°Ð»Ñ
#include<iostream>\n#include<climits >\nusingnamespacestd;\n\n
I v
Visitor()=default ;\nvirtualvoidvisit
Name ()
D iana
2 },{
z ip
)*1 80.0/M_PI
load(std::memory_ order_relaxed
Bo ol
ÑÐ°Ð² Ð¸ÑÐ°
<=' Z'
//Ð ÐµÑÐ°
//ÐÐµÑÐ° ÑÑÐ½ÐºÑÐ¸Ñ
Ð¾Ñ Ñ
&other ):size(other.size
#include<iostream>\n#include< forward_list
>\n#include<mutex>\n#include<queue >\n#include<condition_variable
(){\nrunning=false ;\ncv.notify_all
readyex ists
s. erase(
8 ]
a=\"<<a<<std::endl;\nstd::cout<<\" b=\"<<b
De stro
â 
â 
g g
Ð°Ð³ Ð»
Ð°Ð³Ð» ÑÑ
=malloc(size );\nif(!
Array(int Arr
Array(double Arr
\"\n<<setw(15 )<<\"
empty()){\ncout<<\" No
Electron ic
:\";\nfor(inti=0;i<size;i++)std::cout<<arr[i]<<\"\";\nstd::cout<<std::endl;\ndelete[]arr ;\nreturn0;\n}</w>
;\nse v.sige
time info
 thread
5 ÑÐµÐºÑÐ½Ð´
){\nTrie Node*node=root
( 3
,\" Ð
= 5
;}\nboolget Is
#include<iostream>\n#include<type_traits >\n\n
Ð¾Ð´ Ð½Ð¾Ð³Ð¾ÑÐ¸Ð¼Ð²Ð¾Ð»
Ð¿ÑÐ¸ÑÐ² Ð¾ÐµÐ½
(vector< vector<int
Ð½ÑÐ¼ .
visited[neighbor ]){\nvisited[neighbor
visited[neighbor]){\nvisited[neighbor ]=true
;\n q.push(neighbor
Ð¸Ð¼ ÐµÑÑ
5 *base*height
Vector2D (doublex
y<<\") \"<<std::endl;\nreturn0;\n}</w>
Ð ÐµÑÑ
Log (\"
GE EK
<n-m ){\n
text[i +m
Ñ Ð²ÐµÑÑ
Ð´Ð°Ð»ÑÐµÐ¼ Ð¸Ð·
Ð½ Ñ
>\n#include< stack
j=m -1
]){\n j--
ifdef _
ifdef_ WIN
ifdef_WIN 32
Vector3D{\ndoublex,y,z ;\npublic:\n
# \"<<order.
(\" ÐÐ²Ð°Ð½
( search
=0;v <V
=0;v<V ;v++
Ð¾Ñ ÐµÑÐµÐ´Ð¸
?\" ÐÐ°\":\"ÐÐµÑ
\n}catch(conststd::exception&e){\nstd::cerr<<\"ÐÑÐ¸Ð±ÐºÐ°:\"<<e.wh at()<<std::endl;\n}\n\nreturn0;\n}</w>
Ð¼ Ð¾Ñ
Ð Ð£
Ð Ð
\\t Ð
>:: print
Ð´Ð¾Ð»Ð¶Ð½Ð¾Ð±ÑÑÑ Ð½ÐµÐ¼ÐµÐ½ÑÑÐµ
)?\"-Ð² Ð°Ð»Ð¸Ð´
Ð½ÑÐ¹ \":\"-Ð½ÐµÐ²Ð°Ð»Ð¸Ð´
Ð½ÑÐ¹\":\"-Ð½ÐµÐ²Ð°Ð»Ð¸Ð´ Ð½ÑÐ¹
\ntemplate<typenameT,typename...Args >\n
C 0
Ð½Ð¾Ð¼ ÑÐ¾ÑÐ¼Ð°ÑÐµ
Un ion
Ñ Ð¸Ð»Ð¸Ð½Ð´Ñ
Ð½Ð¾Ð¹ ÑÑÑÐ»ÐºÐ¾Ð¹
Type ()const{returntype
ÐÐ Ð¨
ÐÐÐ Ð¯
Ð¸Ð·Ð¼ÐµÐ½ÐµÐ½Ð¸Ñ ÑÐµÑÐµÐ·
,low ,high
Respon se
Ð²ÐµÑÑ Ð½ÑÑ
Ð²ÐµÑÑÐ½ÑÑ Ð³ÑÐ°Ð½Ð¸Ñ
Ð²ÐµÑÑÐ½ÑÑÐ³ÑÐ°Ð½Ð¸Ñ Ñ
#include<iostream>\n#include<cstdint >\n\n
9 '
6 '
Ð¸Ð¼Ð¾ÑÑ ÑÐ¼
! Ð¢
Ð°ÑÐ¸Ð°Ð½Ñ 2
;\n}\n\nfor(inti=1 ;i<=n
*get Instance
Another message
()const{\nreturn2 *(width
ÑÑ Ñ
\ncout<<\"\\n Ð
counter ]
Ð¾Ð¿Ð¾Ð»Ð½Ð¸ÑÐµÐ»Ñ Ð½Ð¾
:ÐºÐ¾Ð½ÑÑÐ°Ð½Ñ Ð½Ð°ÑÑÑÑÐ»
c ache
Ð¾Ð´ Ñ
leet code
x+y*other. y
[ std::
b t
% )
Ð¡ ÑÐµÐ´Ð½Ð¸Ð¹
ÑÐ´Ð² Ð¾ÐµÐ½Ð¸Ñ
ÐºÐ¸Ð¼ Ð¸
(other. str
,other. str
, GREEN
( ÐºÐ¾Ð´
a Ð¿Ð¾ÑÐ»Ðµ
%10 ;\ntemp/=10
)dp [0][j]=j
j=i+1;j <n
strcp y(str
ue sday
F riday
log. txt
Ð¾Ð± ÑÑ
Ð¶ÐµÐ» ÑÑÐ¹
tLength >maxLength
Length =curren
Length=curren tLength
Ñ Ð¸Ð¹
K '
25 Â°C
Socketc reationfailed
1.1,2.2,3. 3,4.
1.1,2.2,3.3,4. 4,5.5
%10 +'0'
Ð¾Ð¿ÑÑÑÐ¸Ð¼ ÑÐ¹
float :\"<<data.
ÑÐ»ÐµÐ½ Ð¿ÑÐ¾Ð³ÑÐµÑÑÐ¸Ð¸
//ÐÐ»ÑC++17Ð¸ÑÐ¿Ð¾Ð»ÑÐ·ÑÐµÐ¼ SFINAE
//ÐÐ»ÑC++17Ð¸ÑÐ¿Ð¾Ð»ÑÐ·ÑÐµÐ¼SFINAE Ð²
//ÐÐ»ÑC++17Ð¸ÑÐ¿Ð¾Ð»ÑÐ·ÑÐµÐ¼SFINAEÐ² Ð¼ÐµÑÑÐ¾ÐºÐ¾Ð½Ñ
//ÐÐ»ÑC++17Ð¸ÑÐ¿Ð¾Ð»ÑÐ·ÑÐµÐ¼SFINAEÐ²Ð¼ÐµÑÑÐ¾ÐºÐ¾Ð½Ñ ÐµÐ¿ÑÐ¾Ð²
//ÐÐ»ÑC++17Ð¸ÑÐ¿Ð¾Ð»ÑÐ·ÑÐµÐ¼SFINAEÐ²Ð¼ÐµÑÑÐ¾ÐºÐ¾Ð½ÑÐµÐ¿ÑÐ¾Ð² \n//Ð
//ÐÐ»ÑC++17Ð¸ÑÐ¿Ð¾Ð»ÑÐ·ÑÐµÐ¼SFINAEÐ²Ð¼ÐµÑÑÐ¾ÐºÐ¾Ð½ÑÐµÐ¿ÑÐ¾Ð²\n//Ð C++20
//ÐÐ»ÑC++17Ð¸ÑÐ¿Ð¾Ð»ÑÐ·ÑÐµÐ¼SFINAEÐ²Ð¼ÐµÑÑÐ¾ÐºÐ¾Ð½ÑÐµÐ¿ÑÐ¾Ð²\n//ÐC++20 Ð±ÑÐ»Ð¾Ð±Ñ
//ÐÐ»ÑC++17Ð¸ÑÐ¿Ð¾Ð»ÑÐ·ÑÐµÐ¼SFINAEÐ²Ð¼ÐµÑÑÐ¾ÐºÐ¾Ð½ÑÐµÐ¿ÑÐ¾Ð²\n//ÐC++20Ð±ÑÐ»Ð¾Ð±Ñ :template<typenameT
type 
fin ish
-> has
#include<iostream>\n#include<fstream>\nusingnamespacestd;\n\nintmain(){\n ofstreamfile(\"
#include<iostream>\n#include<cstring >\n\n
[j]== text[i]){\ni++;\nj
<n&&pattern [j]!=
!=0){\n j=lps[j
l value
at()<<std::endl;\nreturn1 ;\n}\n\nreturn0;\n}</w>
Or wel
Orwel l
sh c
Encode (name
clo se
ÑÐµÑÐµÐ½Ð¸Ñ :\"<<std::endl;\nstd::cout<<\"
:\"<<get <1
ÐºÐ¾Ð¿ Ð¸Ñ
Ð°Ð±ÑÐ¸Ñ Ð½Ð°ÑÑÑÐ½ÐºÑÐ¸Ñ
\",\" World
Value(\" database\",\"
=2.71 82
;i>=0 ;--i
con fig
HelloWorld \";\nchar
O_C REAT|
Ð½ÑÐ¼ Ð·Ð½Ð°ÑÐµÐ½Ð¸ÐµÐ¼
:\"<<& ref
Ñ Ð¶Ð°ÑÐ¸Ñ
);\ndp [0]=true
y<<\") \"<<endl;\nreturn0;\n}</w>
#include<iostream>\n#include<fstream>\n\nintmain(){\nstd:: ofstreamfile(\"
s :\"<<std::endl;\nstd::cout<<\"
ÐµÐ»Ñ Ð²
C _
a /b
By Author
#include<iostream>\n#include<cmath>\n\n intmain(){\ndoubleside
D iagonal
1, 1,
()<<\"node s
(row Ptr
Ð¾Ñ Ð½Ð¾ÑÑÑ
Ñ Ð¸ÑÐ°ÐµÐ¼
Ð¼ Ð¾Ð¼ÐµÐ½Ñ
Ð¼Ð¾Ð¼ÐµÐ½Ñ Ð²ÑÐµÐ¼ÐµÐ½Ð¸
text.set Variable
text.setVariable (\"
Variable>(\" x
Ð Ð¡Ð¢
b. st_size
ly Fee
>\n#include<string >\nusingnamespacestd;\n\n
\\d +
;\nclass Rectangle
Shape *>shape
<<\" ===Ð
Ð¾ÑÑÑÐ¿Ðº ÑÐ»ÐµÐ¼ÐµÐ½ÑÐ°Ð¼
Negative Cycle
&other ):name
&other):name (other.name
;\nstd::cout<<" Ð
pro c
,v ,w
ÐÐÐÐÐ ÐÐ
//Ð ÑÑÐ¶ÐµÑÑÐ²ÐµÐ½Ð½Ð°ÑÑÑÐ½ÐºÑÐ¸Ñ
ÑÑÐ¾Ð¹ ÐºÐ¸
Ð½Ð°Ð¾ÑÐ½Ð¾Ð² Ðµ
Satis fied(constT
< Product
Cel sius()<<\"Â°C
PHABET_ SIZE
ÐµÑÑ Ð½Ð°Ð´ÑÐ°ÑÐµÑÐ¸Ñ
 table
high_resolution_clock::now();\nautoduration=chrono:: duration_cast<chrono::
<<\"b =\"<<b
s.end(), observer
XY Z
abcdefghijklmnop qrstuvwxyz
Ð½Ð¾Ð¼ Ð´Ð¸Ð°Ð¿Ð°Ð·Ð¾Ð½Ðµ
Q' )returnfalse
N Queen
: '
(Service Provider
(ServiceProvider &sp
,std::vector<bool >&visited
,intf ):ch
,intf):ch (c
,intf):ch(c ),freq(f
,intf):ch(c),freq(f ),left(nullptr),right(nullptr
\",\n\"a \",\n\"
ostringstreamoss;\n o
\"<<error Code
s1[i-1]==s2 [j
C ircuitState
CircuitState String
Ð°ÑÑÐ¸ÑÐ°Ð²Ñ ÑÐ¾Ð¶Ð´ÐµÐ½Ð½Ð°Ñ
greater <int
){}\n};\n\nstructCompare {\nbooloperator
.cp p
,{ \\\nstd::cout<<\"
:\"<<(isAvailable ?\"Yes\":\"No
RET UR
\"\n<<std::setw(15 )<<\"
ire _type
s Op
Ð¿Ð¾Ð´ÑÑÑÐ¾ÐºÐ¸ Ð´Ð»Ð¸Ð½Ñ
folio _
_free _rate
Ð¸Ð· Ð¼ÐµÑÐµÐ½Ð¸Ñ
= Quantity<double
,std:: ratio
<1 >,std::ratio
,{ \\\ncout<<\"
E stimate
Simple Product
Product >
col lisionh
collisionh andling
_ replace
sePl ate
s_base ::
s_base:: open
s_base::open mode
s_base::openmode mode
s ++
s(T &a,T
;\n}\n\n //Ð¨Ð°Ð±Ð»Ð¾Ð½Ð½Ð°ÑÑÑÐ½ÐºÑÐ¸Ñ
Ð¾safe swap
Invalid Date
&other ):data(other.
<0||i >=rows||
<0||i>=rows|| j<0||j
<0||i>=rows||j<0||j >=col
<0||i>=rows||j<0||j>=col s){\n
Ð½ÐµÐ¼Ð¾Ð¶ÐµÑÐ±ÑÑÑÐ¾ÑÑÐ¸ÑÐ°ÑÐµÐ»ÑÐ½ÑÐ¼ !\"<<std::endl;\nreturn1
<T, U
//Ð¡Ð¿ÐµÑ Ð¸Ð°Ð»Ð¸Ð·Ð°ÑÐ¸Ð¸
Computations:: factorial_impl
< 7
RT P
% 4
( Ð¸Ð·
: 5
Deleter (int*p
Ð°Ðº Ñ
de st
k time(&
_ hour
1 },{
Ge o
Geo Coordinate
+1];\nstd:: strcp
y(new Data,data
Data,other. data
^ 3
Window w
ÑÐ»Ð¸ Ð¾Ð±
Ñ Ð¾ÑÐµÐ´ÐµÐ¹
empty()){\nintu=pq. top().second
Ð¡ ÑÐµÐºÐ¿ÑÑÑ
;}\n};\n\nintmain(){\nCircle circle
>>&matrix ){\nif(matrix
>>&matrix){\nif(matrix .
();\nvector<vector<int >>dp(m
Ð½Ð°ÑÐ´ÑÐ¾Ð±Ñ \";\n}elseif(num
t.insert(10);\nh t.insert(22);\nh
t.insert(10);\nht.insert(22);\nh t.insert(
t.insert(10);\nht.insert(22);\nht.insert( 33);\nh
22 :\"<<(ht.search
22:\"<<(ht.search (22)?\"ÐÐ°Ð¹Ð´ÐµÐ½\":\"ÐÐµÐ½Ð°Ð¹Ð´ÐµÐ½
_%+-]+@ [a-zA-Z0-9.
_%+-]+@[a-zA-Z0-9. -]+
[a-zA-Z ]{2,
b =\"
:\"<<msg <<endl
Ð½ÐµÑÐ² Ð½Ð¾Ð³Ð¾Ð¿ÑÐµÐ¾Ð±
Ð½ÐµÑÐ²Ð½Ð¾Ð³Ð¾Ð¿ÑÐµÐ¾Ð± ÑÐ°Ð·Ð¾Ð²Ð°Ð½Ð¸Ñ
Ð¼ ÐµÑ
x<<\",\"<<v. y<<\",\"<<v.
x<<\",\"<<v.y<<\",\"<<v. z<<\")
ÑÐ°Ð´ÑÑ Ð°Ñ
< Serializable
Con d
#include<iostream >\n
Ð ÑÐµ
==\" A
Ð¿ÑÐ¸Ð² Ð°Ñ
so _
so_ far
seg 1
Container&container,constT&value ){\ncontainer.
Un sorted
y -
;}\nvoid off
Command( Command
;\nlast_ was_decimal=false
Mis matchedparenthe
Mismatchedparenthe ses
Result :\"<<expr
Ð´Ð² Ð¾ÐµÐ½
ÐµÐ· Ð´ÑÐ±Ð»Ð¸ÐºÐ°ÑÐ¾Ð²
hor ror
( h
Ñ Ð´ÑÑ
ÐºÐ¾Ð¼ÐµÐ´Ð¸Ñ :'
) \");\n}else{\nrecom
)\");\n}else{\nrecom mendations.push_back(\"
\");\n}\n}elseif(genre ==\"
Ð´ ÑÐ°Ð¼Ð°
Ð´ÑÐ°Ð¼Ð° :'
Ð°Ñ Ñ
Ð Ð°Ñ
Ð ÐÐ¬
ÑÐ¾Ð´ Ñ
ÐºÐ¾Ð¼Ð¿Ð»ÐµÐºÑ Ð½Ð¾ÐµÑÐ¸ÑÐ»Ð¾(Ð´ÐµÐ¹ÑÑÐ²Ð¸ÑÐµÐ»Ñ
ÐºÐ¾Ð¼Ð¿Ð»ÐµÐºÑÐ½Ð¾ÐµÑÐ¸ÑÐ»Ð¾(Ð´ÐµÐ¹ÑÑÐ²Ð¸ÑÐµÐ»Ñ Ð½Ð°Ñ
ÐºÐ¾Ð¼Ð¿Ð»ÐµÐºÑÐ½Ð¾ÐµÑÐ¸ÑÐ»Ð¾(Ð´ÐµÐ¹ÑÑÐ²Ð¸ÑÐµÐ»ÑÐ½Ð°Ñ Ð¸Ð¼
ÐºÐ¾Ð¼Ð¿Ð»ÐµÐºÑÐ½Ð¾ÐµÑÐ¸ÑÐ»Ð¾(Ð´ÐµÐ¹ÑÑÐ²Ð¸ÑÐµÐ»ÑÐ½Ð°ÑÐ¸Ð¼ Ð½Ð¸Ð¼Ð°Ñ
ÐºÐ¾Ð¼Ð¿Ð»ÐµÐºÑÐ½Ð¾ÐµÑÐ¸ÑÐ»Ð¾(Ð´ÐµÐ¹ÑÑÐ²Ð¸ÑÐµÐ»ÑÐ½Ð°ÑÐ¸Ð¼Ð½Ð¸Ð¼Ð°Ñ ÑÐ°ÑÑÐ¸)
racecar \",\"
#include<iostream>\n#include<climits >\n\n
1','1','0','0',' 0'},\n{'
Ð¾Ð¿ÑÑÐ¶ÐµÐ½ Ð½Ð¾Ðµ
y( Colleague*sender
(& med
(&med iator
;\nNode(intval ):data(val
armon ic
/ a
,den ;\npublic:\n
:\"<<length Of
Ñ Ð²Ð¾Ð±Ð¾Ð¶Ð´ÐµÐ½Ð¸Ðµ
*m ultiplier
;\npublic:\nComplex(doubler=0,doublei=0):real(r),imag(i ){}\nComplexoperator
&operator -
ROW ED
;\ncaseBook Status::
Popped :\"<<stack.pop
( SIG
(SIG RTMIN
,& sa,nullptr
(vec1.begin(),vec1. end(),vec2.begin(),vec2.
\",\" banana\",\"
read_fds,NULL,NULL ,&
,& read_fd
,buffer ,sizeof(buffer)
WOULDBLOCK ||errno==E
WOULDBLOCK||errno==E AGAIN
_point. arrive
_point.arrive _and_
\":\"Ð½Ðµ ÑÐ²Ð»ÑÑÑÑÑ
:Ð½Ðµ ÑÐ´Ð°Ð»Ð¾ÑÑ
:a=\"<<a <<std::endl;\n\nintb
Ð¿Ð¾Ð± ÐµÐ´
Ð¾Ð¼Ð¿ ÑÑÑÐµÑ
ÑÐµÑÐ²ÐµÑÑ Ñ
II I
:\"<<mo stFrequen
double Value
name \\\":\\\"
<co effs.size
v t_
imbue (std::
imbue(std:: locale
Ù 
Ø ¨
Ø¨ Ø§
Ù 
× 
× ×
ÑÐ°Ð¼Ð¼ Ð¸ÑÐ¾Ð²Ð°Ð½Ð¸Ðµ
Ð½Ðµ ÑÐ°Ð²Ð½Ñ
;\n}\n\n //Ð
;\n}\n\n//Ð Ð»Ð³Ð¾ÑÐ¸ÑÐ¼
Karp Search
,prime ,d
Ð¦ Ð
Hash ==
Hash== textHash
Ð°Ð´ÐµÐ½Ð¸Ðµ Ð½Ð°Ð¿Ð¾Ð·Ð¸ÑÐ¸Ð¸
ÑÐ½Ð°Ð¸Ð² Ð½ÑÐ¼Ð°Ð»Ð³Ð¾ÑÐ¸ÑÐ¼Ð¾Ð¼
ÐÐ« Ð
â ÐÐµÐ·ÑÐ»ÑÑÐ°ÑÑ
âÐÐµÐ·ÑÐ»ÑÑÐ°ÑÑ ÑÐ¾Ð²Ð¿Ð°Ð´Ð°ÑÑ
â ÐÐµÐ·ÑÐ»ÑÑÐ°ÑÑ
âÐÐµÐ·ÑÐ»ÑÑÐ°ÑÑ Ð½ÐµÑÐ¾Ð²Ð¿Ð°Ð´Ð°ÑÑ
Vector2D{\ndoublex,y ;\npublic:\n
Vector2D &other)const{\nreturn
Vector2D&other)const{\nreturn Vector2D
. jpg
v ideo
F rame
Name ):name
[3][3]={{1,2, 3},{
[3][3]={{1,2,3},{ 4,5,6
[3][3]={{1,2,3},{4,5,6 },{
[3][3]={{1,2,3},{4,5,6},{ 7,8,9
#include<iostream>\n#include<map>\n#include<memory >\n#include<typeinfo>\n#include<typeindex
type Idx
//Ð Ð¿ÑÐµÐ´ÐµÐ»ÐµÐ½Ð¸Ðµ
LASS (
ObjectTracker::print Current
Ð¿ÑÐµÐ´ÑÐ¿ ÑÐµÐ¶Ð´ÐµÐ½Ð¸Ðµ
ÐºÐµ[ 1,
[ d
Ð´ÐµÐ¹ÑÑÐ²Ð¸ÑÐµÐ»ÑÐ½ÑÑ ÐºÐ¾ÑÐ½ÐµÐ¹
Index Entry
+N GRAM_SIZE
Index [ngram
Engine engine
file2. bin
2 ;\nstd::cout<<\"ÐÐ²ÐµÐ´Ð¸ÑÐµ
Ð´ÐµÐ¹ÑÑÐ²Ð¸ÑÐµÐ»Ñ Ð½ÑÑ
Ð½Ð¸Ð¼ ÑÑ
Ð½Ð¸Ð¼ÑÑ ÑÐ°ÑÑÑ
+c )/3.0
==4 ||month
==6 ||month
;\nstd::cout<<\"ÐÐ²ÐµÐ´Ð¸ÑÐµ Ð´Ð²Ð°ÑÐ¸ÑÐ»Ð°
){value =v
riminant))/(2 *a
LIEN TS
=std:: stoi
Ð Ð°Ð»Ð°Ð½Ñ
Ð¢ Ð
F E_
>\n#include<c asser
>\n#include<casser t
t( !
t(! empty());returndata_
(constContainer &c
:Ð Ð¾Ð´Ð¸ÑÐ¸ÐºÐ°ÑÐ¸Ñ
:ÐÐ¾Ð´Ð¸ÑÐ¸ÐºÐ°ÑÐ¸Ñ Ð´Ð°Ð½Ð½ÑÑ
=data_ span.subspan
ÑÐµÑ Ð°ÐµÐ¼
ÑÐµÑÐ°ÐµÐ¼ Ð¿ÐµÑÐµÐ¼ÐµÑÐµÐ½Ð¸Ðµ
#include<iostream>\n#include<cctype>\n\nintmain(){\nchar c
Ð³Ð»ÑÐ± Ð¸Ð½Ð°:\"<<max
Ð³Ð»ÑÐ±Ð¸Ð½Ð°:\"<<max Depth
_ resource
FILE_ RES
WORK _
WORK_ RES
V ICE_
VICE_ RES
network _resource.
device _resource.
device_resource. device
res(Resource ::
config. in
config.in i
Ð¾Ð± ÑÑÐ²
a 1
< Point
ÑÐ¾Ð´ Ð½ÑÐµÐ´Ð°Ð½Ð½ÑÐµ
os<<c. real
)?\"-Ð¿Ð°Ð»Ð¸Ð½Ð´ÑÐ¾Ð¼ \":\"-Ð½ÐµÐ¿Ð°Ð»Ð¸Ð½Ð´ÑÐ¾Ð¼
Ð°ÑÑÐ¸Ð² :\";\nfor(inti=0;i<5
Ptr =ptr
Ð¸Ñ ÐºÐ»ÑÑÐµÐ½Ð¸Ñ
) \"<<endl;\ncout<<\"
Ð² ÑÐ¾Ð¶Ð´ÐµÐ½Ð¸Ðµ
push_back( s.
Substring With
%2 6
Time taken
y-p2. y
pair<double ,double
), quantity(q
quantity- =amount
.Ð ÑÑÐ°ÑÐ¾Ðº
<(constDate &other)const{\nif(year
<(constDate&other)const{\nif(year !=other.year)returnyear<other.year
<(constDate&other)const{\nif(year!=other.year)returnyear<other.year ;\nif(month
<(constDate&other)const{\nif(year!=other.year)returnyear<other.year;\nif(month !=other.month)returnmonth<other.month;\nreturnday<other.
str ()
_ order
,task ]:task
Name \"
flower \",\"
flower\",\" flow
flower\",\"flow \",\"
flower\",\"flow\",\" flight
(neighbor ,graph
;u <n
;u<n ;u
;u<n;u ++
ÐºÐ¾Ð¼Ð¿ Ð¾Ð½ÐµÐ½ÑÑ
ÐµÑÐµÐ² Ð¾ÑÐ°Ñ
ÐµÑÐµÐ²Ð¾ÑÐ°Ñ Ð¸Ð²Ð°ÐµÐ¼
ircumference ()const{\nreturn2
Ð»Ð¸Ð½Ð°Ð¾ÐºÑÑÐ¶Ð½Ð¾ÑÑÐ¸ :\"<<c
Ð»Ð¾ÑÐ°Ð´Ñ :\"<<area
,max EndingHere
=start ;i<=end
integral s
Ð Ð
Const Value
Ð¼ÐµÐ½ÑÑ Ñ
Base >clone
\":\"-Ð½Ðµ ÑÐ¸ÑÐ»Ð¾
(epoll_fd,EPOLL_CT L_ADD
R D
(epoll_fd,EPOLL_CT L_
(epoll_fd,EPOLL_CTL_ DEL
s[3]={ a,b,c
:x1=\"<<x1 <<\",x2=\"<<x2
s[ 7
ÐµÐº ÑÐ¸Ñ
9 2
c 6
e 6
)^ rotr
5 4
+i *
+i* 4
[ 7
ÑÐµÑÐµÐ´ÑÐ¿ÑÑÑÐ° \"<<std::endl;\nreturn-1
t2 :\"<<(t1
Ð° ÑÐ¸Ð¾Ð½Ð°Ð»Ñ
;\n Rationalr
=r 2
r 2
);\nif(result. ec
>\n#include<future >\n#include<functional
s;\n queue<
,class... Args
<decltype (f(args...
<decltype(f(args... ))>{\nusingreturn_type
<decltype(f(args...))>{\nusingreturn_type =decltype
<decltype(f(args...))>{\nusingreturn_type=decltype (f(args...
pack aged_task
packaged_task <return_type
packaged_task<return_type ()>>(
([ task
([task ]
task )
);\nstop=true ;\n}\ncond
);\nstop=true;\n}\ncond ition.notify_all
ÑÐ¾Ð´Ð½ÑÐ¹Ð¼Ð°ÑÑÐ¸Ð² :\";\nprintArray(numbers,size
L ink
:\"<<msg <<std::endl
. area
;\nbind(server_fd,(structsockaddr*)&addr,sizeof(addr ));\nlisten
html >
Ð°Ð·Ð¾Ð²Ð¾Ðµ Ð¸ÑÐ¿Ð¾Ð»ÑÐ·Ð¾Ð²Ð°Ð½Ð¸Ðµ
= original
Ð½ÐµÐ»Ñ Ð·Ñ
CSV Line
Name, Age
Name,Age ,
transform (str.begin(),str.
transform(str.begin(),str. end(),str.begin(),
intbinary Search
\"<<std::endl;\n}\ndelete[]arr ;\nreturn0;\n}</w>
! '
Ð¾Ð´ Ñ
Ð Ð
. Ð
#include<sys/ m
Sen sitive
V ideo
=2 ;p
;i<=limit ;i
:\";\nfor(intprime :prime
s --
;\npublic:\n Queue
){\nfront=rear =-1
net db.h>\n#include<
Func )
V o
Stage :publicPipelineStage
):factor (f
equal(T t,Uu
mp_ greater
U ,\n
U,\n \"
mp_ equal(
X C
sh all
ÐµÑÐ²ÑÐµ 5
)|| \n(c
)||\n(c =='
Repe ating
Ð°ÐµÑ ÑÐ°Ð±Ð¾ÑÑ
Ð½ÐµÐ¼Ð¾Ð¶ÐµÑÐ±ÑÑÑ Ð½ÑÐ»ÐµÐ²ÑÐ¼
(my Car
Ð¾Ð½ Ñ
Ð¾Ð¿Ð¾Ð»Ð½Ð¸ÑÐµÐ»Ñ Ð½ÑÐ¹Ð¿ÑÐ¸Ð¼ÐµÑ
ÑÑÐ³ Ð°Ñ
,den;\nvoidreduce (){\nintg
/=g ;den/=g
/=g;den/=g ;\nif(den<0){num
/=g;den/=g;\nif(den<0){num =-num
/=g;den/=g;\nif(den<0){num=-num ;den=-
/=g;den/=g;\nif(den<0){num=-num;den=- den
/=g;den/=g;\nif(den<0){num=-num;den=-den ;}\n}\npublic:\n
Ð½ÐµÐ¼Ð¾Ð¶ÐµÑÐ±ÑÑÑÐ¾ÑÑÐ¸ÑÐ°ÑÐµÐ»ÑÐ½ÑÐ¼ !\"<<endl;\nreturn1
>>matrix={\n{1,2,3},\n{4,5,6 },\n{7,8,9
=true ;\nbreak
Coffee>c ):CoffeeDecorator
Wh ip
Simple Coffee
()<<\"co sts
()<<\"costs $
#include<iostream>\n#include<future >\n#include<thread>\n#include<chrono
Ð¼ ÐµÐ´Ð»ÐµÐ½
\" \n#
;\ndeletenode ;\nreturntemp
)const{\nif(! node
IT DA
action ();\nreturn0;\n}</w>
Ð½Ð°Ð³ ÑÑÐ·
packet. type
ÐµÐºÑÐ¾Ñ :\";\nfor(intnum:vec
Ð¸Ñ ÐºÐ»ÑÑÐµÐ½Ð¸Ðµ
wait(lock,[this](){ return!
:: process
UNK _
UNK_ SIZE
):data(d ){\nrows=data.size
):data(d){\nrows=data.size ();\ncol
):data(d){\nrows=data.size();\ncol s=rows>0
):data(d){\nrows=data.size();\ncols=rows>0 ?data[0].size
):data(d){\nrows=data.size();\ncols=rows>0?data[0].size ():0
[i][j]=data[i][j]+ other
other [k
2 },{3,4
Ð±ÐµÑÐºÐ¾Ð½ÐµÑÐ½Ð¾Ð¼Ð½Ð¾Ð³Ð¾ÑÐµÑÐµÐ½Ð¸Ð¹ (
test_data. bin
man hattan
other.data=nullptr ;\n
Ð°ÐºÑÐ¸Ð¼Ð°Ð»ÑÐ½Ð°Ñ ÑÑÐ¾Ð¸Ð¼Ð¾ÑÑÑ
unordered_set <int>visited
(n){}\nvoidprocess Request(constPurchase
(n){}\nvoidprocessRequest(constPurchase Request&request)override{\nif(request.get
vedrequestfor\"<<request.get Purpose()
\n<<\"( $\"<<request.get
-> process
Requestfor\"<<request.get Purpose()
=true ;\nfor(inti=0;i<3
>1 e-9
Ch ild
Error (\"
troller.add Interest(\"
ÑÐ´ÑÑÐ³ Ð¸Ð¼
);};\nunary Ops[\"
co s
team Size
:: printInfo
sOfEx perience
(*this);}\n void
All Employee
JohnS mith
ÑÐ¾Ð±ÑÐ°Ð±Ð¾Ñ ÐºÐ¾Ð¹
* left,*
;\nif(u !=nullptr
;\nif(u!=nullptr &&u
LACK;\nk->parent->parent->color= RED
;\nk=k->parent->parent ;\n}else{\nif(k
->parent ;\nrotate
Tree tree
,1 =
,expen sive_computation
_exec ution
Ñ Ð¸Ð½ÑÑÐ¾Ð½
Ð´ÑÑÐ³ ÑÑ
status==std:: future
\";break ;\ncaseDownloadState::
Ð·Ð¼ÐµÐ½ÐµÐ½ Ð½Ð¾ÐµÐ·Ð½Ð°ÑÐµÐ½Ð¸Ðµ
s):stop (false
mit_task _with_
_ pi
Ð°ÐºÐ¾Ð¿ Ð¸ÑÐµÐ»Ñ
ÑÐµÐ» ÑÑÑÐ¸ÑÐµÐ»
)throwout_of_range(\" Indexoutofrange
IP PED
){return JsonValue(value
throw )
Object Structure
Ð¾Ð±Ñ ÑÐ²Ð»ÐµÐ½Ð¸Ñ
system Mutex
){\nlock_guard< mutex>lock(
(int&num ){\nnum
book 1(\"
ÐÐ¾Ð¹Ð½Ð°Ð¸Ð¼Ð¸Ñ\",\" ÐÐµÐ²Ð¢Ð¾Ð»ÑÑÐ¾Ð¹
book 2(\"
Median SortedArray
:nums1 [partition
:nums2 [partition
=' \"<<data.
Ð°ÑÐ¿Ð» Ð°ÑÐ°
;i++){\nif(!visited [i]){\ntopologicalSortUtil
d Val
3 -
||b ==c
||a ==c
= 1
[1][1] *m
[1][2] *m
[1][0] *m
0,0, 0,
(Ð¿ ÐµÑÐ²ÑÐµ
) ,\nA
\nA stBuilder::make_number
ab a
- Ð¼
*3 600
Task ()=default
Priority String
Status String
Due Date
Remaining Day
r gent
URGEN T
at Interval
atInterval Day
All Task
B Y
s){\nif(task ->get
:publicState{\npublic:\nvoidhandle ()override
- Ð±
Count<<\"ÑÐ°Ð· )
\n# ifndef
){ \n(void
){\n(void )
s[ptr ]=size
\");\nreturn1 ;\n}\ncout<<\"
doublecalculate Average
Sup plier
Fur n
Furn iture
stack Ptr
global Ptr
static Ptr
=3 1
//Ð ÐµÑÐµÐºÑÐ¾Ñ
\ntemplate<typenameT,typename=void >\nstructhas_
ÑÐ¼ÐµÑÐ¾Ð´Ð¾Ð¼ size
) c
Ð´Ð»ÑÐ¿ ÐµÑ
Ð´Ð»ÑÐ´Ð¾ÑÑÑÐ¿ Ð°Ðº
Ð¾Ð»ÑÑ ÐµÐ½
s :\"<<endl;\ncout<<\"
;\n}\n\nif(listen (server_fd,5
)const override{\nstd::cout<<\"
y(destination ,source
<=N ;++j
Matrix (A
, Operation::
<=i ;++j
Ð¿Ð¾ÑÐµÑ Ð°ÐµÐ¼
Ð²Ð°Ð´ÑÐ°ÑÑ ÑÐ¸ÑÐµÐ»
W i
Wi -F
Wi-F i
\" ;}\nboolequals(constType
\";}\nboolequals(constType &other)const
\";}\nboolequals(constType&other)const override{\nreturndynamic_cast<
*>(&other )!=nullptr
Ð¸ X
imal Rectangle
j ==m
:\"<<*ptr <<endl
go ogle.com
\");\ncon tinue
_ gen
;\nexpl anation=\"
;\nexplanation=\" Ð³Ð¾Ð´
Ð¸Ð¹ Ð²Ð¸ÑÐ¾ÐºÐ¾ÑÐ½ÑÐ¹Ð³Ð¾Ð´
Year =year
\";\nbreak ;\ncase2
\";\nbreak ;\ndefault
visited[neighbor]){\nvisited[neighbor]=true ;\nq.push(neighbor
Con nected
ÑÐµÐ· Ð¾Ð½
;\n}\n\n//Ð Ð°ÑÑÐµÑ
Ñ ÑÑÐ¾Ðº
ÐµÐ· Ð¾Ð½
ÑÑ ÐµÐºÑÐ¸Ð²
Checker {\npublic:\nboolis
withside \"<<side
-> operation
ÐµÐ½ Ð½ÑÐ¹Ð¼Ð°ÑÑÐ¸Ð²
Sort Impl
( Container&container
line ar
N:\";\nstd::cin>>n;\n\nif(n<=0){\nstd::cout<<\"NÐ´Ð¾Ð»Ð¶Ð½Ð¾Ð±ÑÑÑÐ¿Ð¾Ð»Ð¾Ð¶Ð¸ÑÐµÐ»ÑÐ½ÑÐ¼ !\"<<std::endl;\nreturn1
=false ,has
,width,height ;\npublic:\nBox(doublel
,width,height;\npublic:\nBox(doublel ,doublew,doubleh):length(l),width(w),height(h
Ð¾ÑÑÐ°Ð² ÑÐ¸ÐµÑÑ
Names[ event
Transition (
s.find(curren tState
Event( DoorEvent::
Clo se
, \n[]
,DoorState:: Closed
){\nvoid*ptr =std::malloc(size
Geometric Pro
Age :\"<<age
;mask <total
;mask ++
&(1 <<i
Ð¾ÑÑÐ¸Ð³ Ð½ÑÑ
doublef (doublex
&c :
_ f
Ð°Ð¼Ð°Ñ Ð´Ð»Ð¸Ð½
Ð°Ð¼Ð°ÑÐ´Ð»Ð¸Ð½ Ð½Ð°Ñ
p ).name
);\nchar buffer[
Ñ Ð°Ð¹Ð»
ise. minor_un
Ð°ÑÑÐµÐ¹ ÑÐ¾Ñ
Ð°ÑÑÐµÐ¹ÑÐ¾Ñ ÐºÐ¾Ð¹
:\"<<rect. perimeter
ÑÐ°Ð¹ Ð¼Ð°ÑÑ
Received :\"<<buffer
},\n {
value :\"<<*
;\n\nfor(inti=1 ;i<=
;\n\nfor(inti=1;i<= terms
;\n\nfor(inti=1;i<=terms ;i++){\n
;\n\nfor(inti=1;i<=terms;i++){\n term
one \",\"
one\",\" two
one\",\"two \",\"
one\",\"two\",\" three
,int>char Count
con tents
s+ ...
Ð½Ð°Ñ Ð¿ÑÐ°Ð²Ð°Ñ
Ð½Ð°ÑÐ¿ÑÐ°Ð²Ð°Ñ ÑÐ²ÐµÑÑ
(1.5,2.5,3. 5
By Id(intid
:\"<<pair.second ->get
UoW :
Rollingback 
.display All
Ð½Ð¾Ð² ÑÑ
Ð· Ð±
title 
!=word s.size()-1
acency_list. at(curren
find(curren t_node
[j]== text[s+j
[j]==text[s+j ]){\nj--
[ text[s+j
C D
ÑÑÑÑÐ¸ÐºÑ Ð¾Ð¼
);\n}\n Vector3Doperator
-other. z
*(const Vector3D
Ð½Ð¸ÐºÐ°Ð»ÑÐ½ÑÐµ ÑÐ»ÐµÐ¼ÐµÐ½ÑÑ
Ð¿Ð¾Ð· Ð¸ÑÐ¸Ñ
th Smallest
thSmallest Util
CachedValue(\" key1
Ð¸ÐµÐ½ÑÐ¸ÑÐ¾Ð²Ð°Ð½ Ð½Ð¾Ð³Ð¾Ð³ÑÐ°Ñ
Ð¾ÑÑÐ´ Ð¾Ðº
ÑÐ»ÑÐ¶ Ð¸Ð²Ð°Ð½Ð¸Ðµ
2.schedule (\"
size ),sizeof(size
ÐºÐ¾Ð»ÑÐ·Ñ ÑÐµÐµ
yel low
ardware _
<<\"( ÑÐºÐ°Ð·ÑÐ²Ð°ÐµÑ
abo ve
Or Expression
A &B
#include<iostream>\n\nintmain(){\nintarr[3 ]={
< Cache
Rate <<\"%
:\"<< tri
(str [start
Full Time
\" ;}\n\ndoubleget
Con tract
Glob alCounter
ÑÐ²ÐµÐ»Ð¸Ñ ÐµÐ½Ð¸Ñ
;\n}\n\n//Ð ÐµÑÐµÐ³ÑÑÐ·
Result <int,double
Shopping Cart
ShoppingCart &car
t. totalAmount-
ÑÑÐ¼Ð¼Ð°:\"<<car t.
ÑÑÐ¼Ð¼Ð°:\"<<cart. totalAmount<<\"ÑÑÐ±.
\")discount Rate=0.
t.addItem (\"
Ð£ Ð§
;}\n};\n\nclass Variable
Node >(name
;break ;\ncase'
BinaryOpNode >(op
Ð¾ Ñ
Value()==1 ){\nreturnopt
()constoverride{\nreturn\" (\"+left->toString
E valu
sa_ decryp
Ð°ÑÑÐ¸ÑÑÐ¾Ð²Ð°Ð½ Ð½Ð¾ÐµÑÐ¾Ð¾Ð±ÑÐµÐ½Ð¸Ðµ
id ;\n}\n\nvirtualbooloperator
Length Encode
transfer To
Indexed Binary
);\nif(! file
d '
,void*event Data
Event Impl
FOR WARD
:\ncout<<\" [
ing\"<<e-> seconds<<\"secondswhile
Ð¸ÑÐ¾Ð²Ð°Ð½ Ð½ÑÑ
transitionTo <
* (doublefactor
uniform_ real_
)?1 :n*factorial(n-1
incre asing
increasing _
B ill
,Sort Mode
:\";\nfor(inti=0;i<size;i++)cout<<arr[i]<<\"\";\ncout<<endl;\ndelete[]arr ;\nreturn0;\n}</w>
;i<=100 ;i
ip. octets.
(intv =0):value(v
s( k
ÑÐ¾Ñ ÐµÐº
title(t),author (a
;\nsize_tmax Size
Size (max
:\"<<pool.get Created
n 4
[r x
Ð°Ðº int
:\"<<b v.
Ð°Ðº char
:\";\nfor(constint&elem :dq
ÑÑÑÐ» ÐºÐ°
_ degree
s);\nfor(size_ti=0;i<rows;i++)\nfor(size_tj=0;j <cols;j++)\nresult
af termove
uint8_t >&data
No handler
ICMP Packet
con trol
>( \nc
type ().name
Pool:: print
Pool::print Pool
Pool:: releaseConnection(con
Pool::releaseConnection(con n
res||! res
res||!res ->data
ResourceWrapperr w
Ð¿ÑÐ¸Ð²ÑÑÐ¾Ð´Ðµ Ð¸Ð·
Multiply Expression
:graph[v]){\nif(! visited
].push_back(0);\ngraph[4 ].push_back(1);\ngraph[2].push_back(
].push_back(0);\ngraph[4].push_back(1);\ngraph[2].push_back( 3);\ngraph[3
texception :\"<<e.wh
:: worker
F uture
W rapped
For Completion
ÐÐÐÐÐ¦ Ð
Ð¿ÑÐµÐ´ Ð¼ÐµÑ
Sel f
Ð½ÑÑ ÑÑÐ½ÐºÑÐ¸Ñ
name [50];\nintage
ÐµÑÐµÐ¼ ÐµÑ
G_ MAX
Move constructor
\"};\ntask Dependencies[\"
Ð±Ð¾Ð»ÑÑÐµ \"<<value
Ð°ÑÐ¸Ð°Ð½Ñ 1
Ðµ \"<<age
Number(accNum ),
Msg =dynamic_cast<
Message &
Message& >(msg
Div isible
Ð¿Ð¾ÑÐ¾Ð± 1
\",20,4. 5
Ð¿Ð¾ÑÐ¾Ð± 2
quatern ion.
Fraction{\nprivate:\nintnumerator ;\nintdenominator
Handler >next
+high )/2.0
GENERATE_ FACTOR
GENERATE_FACTOR Y
< __VA_ARGS__
\" ;
_sequence <
Ð¸Ð»Ñ ÑÐ¸Ð¾Ð½
Generator (size_ti
++;\nleft --;\nright
Ð¾Ñ \"<<a<<\"Ð´Ð¾\"<<b
-i -1
#include<iostream>\n#include<cmath>\nusingnamespacestd;\n\n intmain(){\ndoubleside
Debug Mode
Debug mode
CirclesIntersecting (constCircle
CirclesIntersecting(constCircle &c1,constCircle
?\"<<(are CirclesIntersecting
?\"<<(areCirclesIntersecting (circle
?\"<<(areCirclesIntersecting(circle 1,circle
Edge (intfrom,intto
<<endl;\ncout<<\" &
){\nif(width <0)width
;\ndouble term=1.0
( Observer
(Observer &observer
>> observer
ror Tree
] \",\n\"
\nintflag s=fcntl
Ð°Ð¹ Ð¼Ð°ÑÑ
Ð´Ð°Ð»ÑÐµÐ¼ Ð¿ÑÐ¾Ð±ÐµÐ»
&){\n throwConfigException(\"
)!=d ictionary.
push_back(d ictionary[w
Z W
ÑÑÑÐ¾ÐºÐ¸ '\"<<
\")<<\"Ð¿Ð¾Ð´Ð¿Ð¾ÑÐ»ÐµÐ´ Ð¾Ð²Ð°ÑÐµÐ»ÑÐ½Ð¾ÑÑÑÑ
Email (email
;\n\ndoubledot Product(const
8.8.8. 8
,ip_str ,sizeof(ip_str
on Click
To Max
push(std:: move(cmd
redo Stack.
Append Command>(editor
[std:: slice
Ð Ð½ÐµÑÐ³Ð¸Ñ
Ð·Ð¼ÐµÐ½ÐµÐ½Ð¸Ðµ ÑÐ»ÐµÐ¼ÐµÐ½ÑÐ¾Ð²
=newchar[ strlen
ð 
- 32
(1 -
con n.inUse
nection Id
nection Pool
Ð¿ ÑÐ»
;\npublic:\nResource (inti):id(i
,Ð²Ð¾Ð·Ð²ÑÐ°ÑÐ°ÑÑ Ð°Ñ
\ntemplate<typename...Args >\n
Ñ Ð¸Ð¹
&x,double &y
Ð¿Ð°ÑÐ°Ð»Ð»ÐµÐ»Ñ Ð½Ñ
Size (size
#include<iostream>\n#include<string>\n#include<unordered_set >\n#include<cctype
l s\",\"
throwstd::out_of_range(\" ÐÐ½Ð´ÐµÐºÑÐ²Ð½ÐµÐ´Ð¸Ð°Ð¿Ð°Ð·Ð¾Ð½Ð°
_bytes=text. substr(i
UTF -8
:\"<<f. numerator<<\"/\"<<f.
//Ð Ð°ÐºÑÐ¾Ñ
ÑÐ¾Ð±ÐµÐ½ Ð½Ð¾ÑÑÐ¸
ÑÐ¾Ð±ÐµÐ½Ð½Ð¾ÑÑÐ¸ ÑÐµÐ°Ð»Ð¸Ð·Ð°ÑÐ¸Ð¸
_ prec
T uesday
Thur sday
, Weekday::
top ()!='
* GUARD_SIZE
Number (new_real
Number(new_real ,new_
Number(new_real,new_ imag
>> tests={\n{\"
abcdef \",\"
mo oth
Factory:public GUI
GUI Factory
attach (&
Un til
List.add Task(task
Val ,max
Val,max Val
cc cc
- 67
[ -
[- \\
[-\\ s]
[-\\s] ?
[-\\s]? \\d{
5,\" hello
5,\"hello \",'A'
ild_ stack
2 >/
2>/ dev
2>/dev /
2>/dev/ null
Ñ Ð¾ÐºÐµÑ
[HOST ]
Ñ ÐºÐ°Ð»
annotbebelow absolute
annotbebelowabsolute zero
;\nbreak ;\ndefault
sius*9.0 /5.0
;\nstd::cout<<*ptr <<std::endl;\nreturn0;\n}</w>
File Info
Consecutive Repe
, J
:\";\ncin>>a>>b>>c ;\n\nif(a
+c *c
namespacefs=std:: filesystem
File system
Filesystem error:\"<<e.wh
//Ð Ð¾ÑÐµÑÐ¸ÑÐµÐ»Ñ
Left() ->
Right() ->
Dependency Tracker
Service >service
ÑÐ¼Ð¼ Ñ
z 77
;}\nintget Max
co ol
)curren tTemp
Ð½Ð°ÑÐµ\"<<room Name
Mode ==\"
tTemp =targetTemp
Environment Change
mostat.set TargetTemperature
mostat.set Mode
mostat.setMode (\"
mo stat.
Acc Num
O ak
\");\n\n ResourcePool::print
*other. b
th Term
ru List.
From Cache
Ð»ÐµÐ´ÑÑÑ Ð¸Ðµ
ÑÑ Ð¾ÑÐ¸Ð±ÐºÐ¸
#include<iostream>\n#include<c stddef
(intc ap):capacity(cap
,void*where ){\n(void
,void*where){\n(void )
In Order
(Ð½Ð°Ð¿ ÑÐ¸Ð¼ÐµÑ
Ð¸Ð¼Ð²Ð¾Ð» Ñ
-Ð Ð¾Ð±Ð°Ð²
-ÐÐ¾Ð±Ð°Ð² ÑÑÐµ
Ð¸Ð½ Ð²ÐµÐ½ÑÐ°ÑÑ
R_ NAME
=TEX T
>>y1 >>z
>>y1>>z 1
>>y2 >>z
ÐÐ Ð¡
ÐÐ« Ð
ÐÐ Ð¢Ð«
ÐÐÐ¢Ð« Ð
Ð°ÑÑÑÐ¾ÑÐ½Ð¸ÐµÐ¼ÐµÐ¶Ð´Ñ ÑÐ¾ÑÐºÐ°Ð¼Ð¸
Ð·Ð°Ð¿Ð¸Ñ Ð°Ð½
\"){\ntool Type=\"
/ thickne
numbers. txt
tak ingu
);\nprocess_operation ('
Impl ::
=0;col <n
=0;col<n ;col++
,constchar *
;\nint&ref =x
value )\nuniver
value)\nuniver salRef
kopeck s
top ();\npq.pop
1 first
uint ptr_t
\\r\\n Content-Type:text/
\\r\\n \\r\\n
Ð¿Ð¾Ð²ÑÐ¾ÑÑÑÑ Ð¸ÐµÑÑ
pointevent Time
WindowFunction <T,T
Ð´ Ð¸ÑÑÐµÑÐµÐ½
ÑÐ¾Ð²Ð¾Ð´ Ð½Ð¾ÑÑÐ¸
Ð Ð°Ð¿Ð»Ð°Ñ
u_x x=0
apl (u
ometric _me
ÑÐµÐ´Ð½ÐµÐµÐ³ ÐµÐ¾Ð¼ÐµÑÑ
ÑÐµÐ´Ð½ÐµÐµÐ³ÐµÐ¾Ð¼ÐµÑÑ Ð¸ÑÐµÑÐºÐ¾Ðµ
ÑÐµÐ´Ð½ÐµÐµÐ³ÐµÐ¾Ð¼ÐµÑÑÐ¸ÑÐµÑÐºÐ¾Ðµ :\"<<ge
BFS Ð¾Ð±ÑÐ¾Ð´
Ð¾Ð´ Ð´Ð¸Ð°Ð¿Ð°Ð·Ð¾Ð½
in Word
(x,y ,z
Ñ Ð¾Ð·Ð½Ð°ÑÐµÐ½Ð¸ÐµÐ¼
con tent
Concrete Observer
th rough
other_le g
mo vie
(T &&arg
Ð¾Ð± ÐµÑÑ
fect Wrapper
(\" Literal
:: f1
try Dynamic
tryDynamic C
Pair :config
ometric Me
Fixed Size
Op t
;//Ð Ð¾Ð·Ð²ÑÐ°ÑÐ°ÐµÐ¼
Ð²ÐµÑ ÑÐ¸Ð¸
ide _char
. io
msg _
msg_ io
msg_io v
UNI X
Paren t
Ð Ð¯
Ð¸Ð¼ Ð¸ÑÑ
Ð¿Ð¾ÐºÐ¾Ð»Ð¸ÑÐµÑÑÐ² Ñ
Ð Ð
substr( j
31, 30,
*header =static_cast<
*header=static_cast< BlockHeader
->c anary
Ð° ÑÐ¸Ð¸
&&errno!=E INTR
abel <<\"
\");\nprint_ Vec4f
;\n}\n\nvoidset_ arg
){\narg _type
Common Subsequence
s. insert(c
& ...
Ð¾Ð»ÑÑ Ð¸ÑÑ
Entry Action
Ð´ÐµÐ¹ÑÑÐ² Ð¸Ðµ
map<std::string,std::unique_ptr< JsonNode>>
JsonNode >(std::
:\"<<ptr ->
next Free
s Needed
Pool[read Index].
#include<iostream>\n#include<cstring >\nusingnamespacestd;\n\n
){\nreturnx*x ;\n}\n\n
h n
ÑÐ¿ÑÐ°Ð² Ð°Ð½Ð°Ð»ÐµÐ²
ÑÐ¿ÑÐ°Ð²Ð°Ð½Ð°Ð»ÐµÐ² Ð¾
h l
an ner
a';c<=' z'
a';c<='z' ;c++
Addition s
Additions ForPalindrome
Negative =false
:Ð Ð¾Ð´ÑÑÐµÑ
Resource *
f_ event_open
formance Profiler
_ h
specific _value
<2 >(
Ð±Ð¾Ð»ÐµÐµ Ð²ÑÑ
j=i -1
E '
c i
 ID
Ð¾Ð»ÑÐ·Ð¾Ð²Ð°ÑÐµÐ»Ñ ÑID
;\n}\n\n//ÐÑÐ¾Ð²ÐµÑÑÐµÐ¼ ÑÐ½Ð¸ÐºÐ°Ð»ÑÐ½Ð¾ÑÑÑ
istingUser ->
User. email
));\nuser Manager.addUser(
=user Manager.get
=userManager.get UserBy
Hyb rid
hicle Type=\"
\"){\nbase Speed*=0.
;\nroute Type=\"
ÐÐÐ Ð
sqrt(dx*dx+dy *dy
ted=c aesarCipher
[ (index+i
[(index+i *i
[(index+i*i )%size
(\" A
Ð·Ð²Ð»ÐµÑÐµÐ½Ð¾ :\"<<pop
Ð·Ð²Ð»ÐµÑÐµÐ½Ð¾:\"<<pop (
;//Ð Ð¾Ð´Ð¸ÑÐ¸Ñ
;//ÐÐ¾Ð´Ð¸ÑÐ¸Ñ Ð¸ÑÑÐµÐ¼
ss D
S w
ÐºÐ¾Ð½ÐµÑ Ð´Ð¸Ð°Ð¿Ð°Ð·Ð¾Ð½Ð°
reate Pattern
st Rectangle
Path finder
isualize Path
End Of
)==curren t->children.
search (\"
tuple <std::string,int,double
=newint[size ]
am ry
Reference Counted
Iden tic
U ARE
\"<<setw(15 )<<\"
Handler (
Helper(BSTNode*node ){\nif(!node
traversal :\";\nb
reate_ reading
22 22
INT_ TYPE
OL_ TYPE
Stackoverflow \");\ntop
Stackoverflow\");\ntop ++;\ndata[
;\ntype s[top
NameToType ().
sep Po
Type Reg
;\nintage ;\npublic:\nPerson
ma Po
 RTTI
V ia
Via TypeInfo
e s:\"<<Box
*response =\"
(buffer ,\"
RUN TIME
Ñ ÑÐ²
â 
G rid
Z Function
+z [i]-1
Email Ð°Ð´ÑÐµÑ
-> with
To Stream
From Stream
Ð²ÐµÐ´ Ð¸ÑÐµ
(compile -time
ostringstreamo ss;\n
/ â
=(b-a )/n;\ndoublesum=0.0
S q
Ro ot
)->Ex pected<double,MathError
ÑÐ¾ÑÐ¸Ð± ÐºÐ¾Ð¹
,age ,gpa
=edge s[j].
Processor ->run
(c reate
===Ð ÐÐÐÐÐ
++]=L [i++
++]= R
++]=R [j++
Th reshold
ÑÐµÑÐµÐ´ÑÐ¿ÑÑÑÐ° \"<<endl;\nreturn-1
c math
:: trigger
EX IT
azy F
azyF ib
target User
String Message
Double Message
ing _
ing_ store
\",\" M
\",\" V
RomanNumber (value
X()const{returnx ;}\ndoubleget
X()const{returnx;}\ndoubleget Y()const{returny
ano i
anoi WithCounter
Ð½Ð¾Ð²Ð»ÐµÐ½ Ð½ÑÐ¹ÑÐ¿Ð¸ÑÐ¾Ðº
ÑÑÐ¾Ð» Ð±
ÑÑÐ¾Ð»Ð± ÐµÑ
modif y
ank Queue.
Spec :publicSpecification
\\n \\r
RuleOfFive obj
[2][2]-mat [1][2]*mat
*(mat [1][0]*mat
type ==\"
T URBO
:\" \n<<(are
:\"\n<<(are ModesCompatible
:\"\n<<(areModesCompatible (
:\"\n<<(areModesCompatible( MODE_
)?\" Ð¡Ð¾Ð²Ð¼ÐµÑÑÐ¸Ð¼
)?\"Ð¡Ð¾Ð²Ð¼ÐµÑÑÐ¸Ð¼ Ñ
)?\"Ð¡Ð¾Ð²Ð¼ÐµÑÑÐ¸Ð¼Ñ \":\"ÐÐµ
)?\"Ð¡Ð¾Ð²Ð¼ÐµÑÑÐ¸Ð¼Ñ\":\"ÐÐµ ÑÐ¾Ð²Ð¼ÐµÑÑÐ¸Ð¼
)?\"Ð¡Ð¾Ð²Ð¼ÐµÑÑÐ¸Ð¼Ñ\":\"ÐÐµÑÐ¾Ð²Ð¼ÐµÑÑÐ¸Ð¼ Ñ
dp [i][k]
dp [k
dp[k +1][j]
dp[k+1][j] ,op
dp[k+1][j],op s[k
} ;\n}\n\n
\"<<std::endl;\nstd:: free(ptr
En roll
\n(c =='
ir pl
irpl ane
ÐµÐ¼ Ð»Ðµ
Ð¿ Ð¸Ð½-ÐºÐ¾Ð´
urface Area
( S
File Encryp
ofstreamout(output File,ios::binary
encrypted. bin\",\"
Par sed
## Table
GameSettingsOld ::MAX_PLAYERS
:: DEFAULT_
Data Source
Protocol ::
Ð± Ð¸Ð½Ð°Ñ
:observer s){\n
