#version: 0.2
\ n
; \n
s t
i n
\ "
< <
c o
r e
: :
st d
e n
std ::
Ð µ
{ \n
u t
e r
Ð ¾
<< \"
in t
( )
Ð °
o r
;\n }
Ð ¸
a t
d e
co ut
cout <<
Ð ½
} \n
\" <<
en d
l e
;\n \n
end l
Ñ 
a l
endl ;\n
c l
) ;\n
u r
Ñ 
Ð¾ Ð
) {\n
Ñ 
in g
a m
o n
re t
st r
a r
> \n
s e
ur n
ret urn
c t
u de
in cl
ude <
incl ude
# include
#include <
Ðµ Ð
: \"
std:: cout
std::cout <<
s i
m a
u b
con st
<< std::
c e
t h
= =
Ð° Ð
\" Ð
str ing
u n
i f
i d
u e
v e
std:: endl;\n
<< std::endl;\n
<< endl;\n
}\n \n
t e
t r
g e
if (
am e
>\n #include
>\n#include <
<< \"Ð
a n
Ð »
z e
i c
Ð ²
Ð º
;\n }\n
c h
d o
() {\n
Ñ 
Ñ 
Ñ 
si ze
s s
i on
c k
r o
ct or
m p
in ()
a d
i t
stre am
u m
i o
f or
Ð ¿
/ /
ub le
v o
do uble
Ð ¼
u l
= 0
vo id
int ma
< io
return 0
\" ;\n
i s
0 ;\n}
p e
<io stream
l o
for (
in() {\n
ma in()
main() {\n
int main()
return 0;\n}
0;\n} </w>
return 0;\n}</w>
v al
Ð ´
n ame
#include <iostream
ve ctor
Ñ 
// Ð
ge t
m e
Ñ Ñ
Ñ 
p a
i g
un t
at a
t y
n e
+ +
p r
= \"
; i
o l
( int
l ic
\ \n
( const
Ðµ Ñ
p ub
pub lic
: \n
- >
s .
ul t
i r
s h
std:: string
p tr
i le
t o
\" ,
vector <
a ss
0 )
d ata
[ i
re s
( \"
);\n }\n
cl ass
}\n }
val ue
<iostream >\n#include
\n //
e l
C o
<iostream>\n#include <
n um
#include <iostream>\n#include
{\n std::cout
{\n cout
R e
[i ]
a y
() const
a se
Ð ·
ar r
);\n \n
b o
_ t
public :\n
a uto
u sing
0 ;\n
th er
) <<
0 ,
;\n\n int
o ther
pa ce
ig h
name s
\" \\n
<< \"\\n
p o
a ck
0 ;
names pace
> >
ÐµÐ½ Ð¸
}\n }\n
;\n\nint main()
using namespace
>\n using
namespace std
>\nusing namespace
Ñ 
res ult
i =
o de
Ð½ Ð°
co unt
\n return
Ð ±
>\n \n
i <
i me
Ð½ Ñ
t (
ch ar
a p
ad d
s )
q ue
{\n int
= 0;
e x
++ )
1 ,
\n std::cout
\n cout
k e
Ð° Ñ
\" )
i l
at ion
{\n return
Ð¾ Ñ
bo ol
int >
Ð ¹
] =
endl;\n cout
} ;\n
std::endl;\n std::cout
se t
Ð¸ Ñ
igh t
a s
el se
Ðµ Ñ
{\n if
for (int
++) {\n
I n
) ,
ct ion
a b
f f
1 0
const {\n
0; i
m o
ne w
o t
re ad
) {
Ñ Ð»
std::endl;\n \n
\n void
endl;\n \n
std:: vector<
ty pe
i ++)
st at
S t
) :
} else
; i++)
Ñ Ð¸
s (
Ñ 
a ge
< string
V al
{ return
Ðº Ð°
con d
Ñ 
std::endl;\n }\n
Ð 
b er
u ct
s o
() )
size _t
b ack
i ve
d _
te mp
- 1
p u
other .
endl;\n }\n
o per
& &
g th
! =
o f
i++) {\n
1 .
Ð¸ Ð¼
() <<
pu sh
- -
p t
p l
i x
c ur
2 ,
= 0;\n
] ;\n
f ile
> (
2 .
ma x
= {
s) {\n
o ver
b e
m in
0) {\n
}\n};\n\nint main()
u al
w or
stat ic
endl;\n return
s [
: \";\n
; }\n
N ode
s ;\n
ch e
ÐµÐ½Ð¸ Ðµ
in d
std::endl;\n return
Ð¾ Ñ
h e
ro w
lo ck
\ \
T y
i que
\", \"
Ty pe
, int
1 ;\n
Ð» Ñ
oper ator
:\" <<
s =
len gth
. .
an d
r ide
over ride
Ñ Ð¾Ð²
\n if
al se
f a
_ back
an ce
un ique
ren t
Ñ 
(int i
w h
\"Ð 
a c
{ }\n
u ff
ab le
\" :
f t
tex t
}\n return
Ð ³
Ð¿ Ñ
const {
<< \"Ð
ar t
pr int
ir t
irt ual
=\" <<
g r
[ ]
< vector
Ñ 
cur rent
else {\n
Ð¾ ÑÑ
std ;\n\n
namespace std;\n\n
) )
e d
P o
0 0
i al
tr ue
; //
as k
+ =
Ðµ Ñ
<< (
Ñ Ð¸
\" \";\n
_ f
_back (
0 ]
<< \"Ð
Val ue
ur ce
()) {\n
size ()
ke y
le ft
\n <<
v irtual
;\n int
Ð° Ñ
namespace std;\n\nint
>\n\n int
< =
auto &
Ñ 
I N
se cond
\n int
be g
ul l
Ð°Ð½ Ð¸
_ c
{\n if(
( n
Ð½Ñ Ð¹
Ð¸ Ð½
<iostream >\nusing
<iostream>\nusing namespace
mo ve
2 )
add r
t a
#include <iostream>\nusing
r ight
3 ,
;\n public:\n
str uct
;\n std::cout
std;\n\nint main()
>\n\nint main()
;\n cout
{\n public:\n
E x
f ind
| |
B ase
uff er
\";\n }\n
dele te
c in
ma ke
d is
1 )
[ j
ÐµÐ½ Ñ
) const
ÐµÐ» Ñ
o b
< c
lon g
5 ,
Ð¸ Ð²
n o
i v
te st
2 =
wh ile
{\n double
ptr <
std::string &
[ 0]
push _back(
ve c
<< \",
Ð ¡
1 ]
Ð¾Ð» Ñ
( std::
++ ;\n
templ ate
) {}\n
\n for
string &
e mpty
ar y
ser ver
size of
f o
make _
ven t
3 .
= std::
a k
u s
= new
false ;\n
<iostream>\n#include <string
lo c
A r
g or
override {\n
ce pt
ro ot
Ð² ÐµÐ´
<vector >\n#include
while (
other )
ull ptr
en t
cin >>
_c ast
template <
{\n std::
Ñ Ð¸
b uffer
i ze
0 .
ÐµÐ½Ð¸ Ñ
Ð 
: public
is _
s um
> =
Ð´ Ð»Ñ
Ð¸ Ð·
N ame
pl ay
q u
// Ð
Ð¸Ñ Ðµ
t ime
so urce
sizeof (
D e
Ñ Ñ
ar d
s ub
wor d
} ,
T r
Ð½ Ð¸
F ile
Ð²ÐµÐ´ Ð¸ÑÐµ
Der ived
\") <<
i ent
1 =
}\n};\n\n class
ÑÐ¸ Ñ
Co unt
template< typename
<< \"Ð¡
L o
P ro
Ð¾Ð ¶
V e
ir st
l ine
beg in(),
mor y
a g
\"Ð Ð²ÐµÐ´Ð¸ÑÐµ
<< \"ÐÐ²ÐµÐ´Ð¸ÑÐµ
er ror
c re
. end
y e
num ber
N um
M e
pro ce
& other)
dis play
a ,
i )
P tr
Ð¸ Ñ
<string >\n#include
( double
_f d
Ñ 
) \n
Ð 
Ð° Ñ
};\n \n
4 ,
. get
S e
ss age
}\n void
re f
();\n \n
. \"
Ð ¶
re ak
d ay
Ðº Ð¸
g le
Ð 
ith m
( c
\"\\n =
<< \"\\n=
Ð 
s y
ap h
gor ithm
and ler
true ;\n
< T
A l
2 ;\n
unique _
>\n\n class
th row
b reak
D ata
f irst
j e
\" \"
i e
s ,
\n double
int *
break ;\n
Ð¾ ÑÐ»
Ð² Ñ
( !
u p
std;\n\n class
namespace std;\n\nclass
al gorithm
f un
Ð¿ ÐµÑ
an s
Ð¾ Ñ
. length
\";\n for
<vector>\n#include <
o k
Num ber
Ñ Ð¸
ir cle
s c
Ar r
const override
Ð½ Ðµ
< algorithm
.\" <<
[j ]
c ase
( x
} );\n
pa ir
ad i
lo g
}\n std::cout
for(int i
rono ::
ta iner
m s
<< \"Ð
u g
) =
Re source
. h
else if
ÑÑ Ñ
th read
}\n cout
n ullptr
data .
I d
S h
\"Ð 
P r
();\n }\n
\n public:\n
? \"
' ,
Ð½Ð° Ñ
== 0)
[ 1]
T e
m utex
_cast <
y =
Ð½ Ð¾
move (
(const std::string&
o ut
d uct
)) {\n
Ñ Ð¾Ñ
w (
= 1
Ð½Ð° Ñ
1 ;
vector< int>
ar g
gr aph
Ð 
Arr ay
v ice
amo unt
ter n
(const string&
<iostream>\n#include <c
Node *
;\n return
s <<
= (
iv ate
i p
Re f
q .
make_ unique
Ð°Ñ Ñ
Str ing
, double
Ð°Ð½Ð¸ Ðµ
2 ]
\" ;
r adi
; ++
Ð» ÐµÐ¼
T o
S I
);\n std::cout
Ve ctor
empty ())
pr ivate
j =
b y
if (!
Ð 
e vent
) ;
Ð¾ÑÐ» Ðµ
{ 1,
Ð»ÐµÐ¼ ÐµÐ½Ñ
S ize
\" C
B o
);\n cout
Ñ Ð°Ð·
<iostream>\n#include <vector>\n#include
x =
O b
je ct
<< \")
me mory
template<typename T
i m
Ñ Ð¸
\" A
\n bool
h o
{\n std::string
Ð½Ñ Ðµ
al c
Ñ Ð¼
re al
Lo g
in ser
{\n string
\n std::
<iostream >\n\nint
#include <iostream>\n\nint
ro m
y (
Ð 
unique_ ptr<
clo se
E T
make_unique <
a =
i b
private :\n
d p
w e
que ue
' )
S T
for (const
Co mplex
other) const
1;\n }\n
endl ;
E n
cept ion
ye ar
so ck
\" +
ch rono::
D ate
unor dered_
1 <<
b )
<iostream>\n\nint main()
t x
<< \"Ð
D o
return false;\n
Ð¾Ð»Ñ Ð·
<< *
al loc
\" -
ms g
);\n return
name <<
.h >\n#include
Ð° :
* ptr
un d
constex pr
h as
Ð° \n
\" \n
T ime
i) {\n
_ v
c ache
1 2
ug in
virtual void
Z E
;\n}\n\nint main()
size_t i
(const auto&
he ight
// Ð¡
b in
{\n private:\n
<< \"Ð
x <<
id (
{\n for
* th
Ñ Ð¿
n ;
s w
result ;\n
to p
ÑÐ¸ Ð¸
++ i)
Ñ Ð»ÐµÐ¼ÐµÐ½Ñ
b =
Ñ Ñ
an t
f e
\\n \";\n
. push_back(
Ñ Ñ
s a
fa ult
file .
w r
s :
<iostream>\n#include <string>\n#include
_ error
Ñ Ñ
fun ction
R E
5 );\n
= true;\n
== '
std:: cin
il l
{\n throw
<c math
M atr
< 0)
Ñ Ð¾Ð´
Ð¸ Ñ
Matr ix
at ch
ste m
me ssage
Ð¿ Ð¾Ð»
P l
l ist
matr ix
de fault
( a
' \"
an ge
e p
ne ction
{}\n \n
& operator
Ð°ÑÑ Ð¸Ð²
Ð 
Sh ape
al ance
pat tern
f ig
<< c
\"Ð 
std::cin >>
0;\n \n
0 x
', '
ig it
value )
H el
SI ZE
ÐµÑÑ Ð²
\" =
\n auto
d ate
mon th
= false;\n
Ð½Ñ Ñ
< int>
r a
Ð ¢
{\n auto
e c
1 5
sh ared_
++;\n }\n
f re
by te
s \"
L e
(\" <<
in al
T h
;\n double
<< \"Ð
<< x
Ð¾Ð· Ð´
Ñ Ð»
<< name
ÑÑ Ð»
Ñ Ð½
{\n //
ÑÐ¸ Ð±
w ith
H andler
, const
a <<
po s
! \"
2 :
C ircle
M A
Po int
override {
alc ul
po int
. begin(),
Ð 
P er
A c
Ð¾ Ñ
++i) {\n
empty()) {\n
Ð· Ð½Ð°Ñ
Ð° ÑÐ¸Ñ
E R
<< b
ÑÐ¾Ð² ÐµÑ
tr y
<< \"Ð
long long
( i
return 1;\n
n )
il d
!\" <<
<< \"Ð
u ard
b ase
Ð 
e .
double >
po p
s ;
[ 2]
ob j
T _
<< \":
b ;\n
Ð°Ñ ÐµÐ»Ñ
void *
9 9
N e
= &
x ,
l ag
W or
delete []
-> get
nex t
Ñ Ð¸Ð¼
{ \"
al l
L E
4 .
( size_t
j <
n =
f rom
= {1,
\");\n }\n
T ask
result =
e )
}, \n
Ðº Ð»
false;\n }\n
3 );\n
Log ger
que st
* other.
Con tainer
Hel lo
Ð° \"
= 1;
ex ec
U ser
int ,
C h
u int
2 <<
d y
set w(
c ;\n
Ñ Ð°Ð²
. second
In fo
5 .
O r
E vent
unordered_ map
are a
re g
<< i
Ð ÑÐ¾Ð²ÐµÑ
id th
] )
<< \"Ð
it =
_ string
3 )
find (
f lo
\") \"
Ð¿ Ð¾
-> left
proce ss
s q
sig ned
c atch
\n static
<< \")\"
\")\" <<
{1, 2,
Ð¼ Ð°ÑÑÐ¸Ð²
_ addr
() {
// Ð
char *
\");\n \n
= 2
ior ity
ar ch
Ñ Ð´
e ff
'\" <<
// Ð
Bo ok
\n \n
Ñ ÑÑÐ»
Name ()
< size
c y
} catch
<< a
O N
J son
r untime
value ;\n
it ion
v isited
// Ð
â 
( m
std::endl;\n }
runtime _error
r y
Ñ Ñ
it s
ÑÐ½ Ðº
1 :
endl;\n }
() =
C K
<string>\n#include <
, \n
w idth
<string >\nusing
<string>\nusing namespace
\" ]
m mand
Ð° Ñ
.h>\n#include <
Ð°Ð» Ñ
\" [
<iostream>\n#include <cmath
& e)
<vector>\n#include <algorithm
. add
2, 3,
T >\n
value <<
Ð°Ð± Ð¾Ñ
int n
try {\n
catch (const
e) {\n
( 2
= 1;\n
cre ate
}\n int
size ;
sq r
un signed
pro duct
, std::
min ator
\n string
Pl ugin
0;\n virtual
\" S
sh ared
1; i
\"Ð Ð¾ÑÐ»Ðµ
<< \"ÐÐ¾ÑÐ»Ðµ
< memory
V isitor
5 ;\n
[i] [j]
B y
Ñ Ñ
i <=
. first
_fd ,
template<typename T>\n
size() <<
l ast
ar i
st udent
p h
E N
std::string >
shared_ ptr<
S or
â 
bool is
void print()
x )
= arr
Ð² Ñ
< int,
o pt
Re s
\" (
MA X
cl ient
Ex pression
â â
type id(
Al l
ig inal
& )
<< \"Ð¢
b lock
8 ,
j ++)
<< \"C
-> right
b u
ac count
[ 3
value) {\n
deno minator
mutex >
h andler
s _
< n;
Tre e
t it
t .
wr ite
[i] =
> 0)
0 };\n
A n
[i] <<
}, {
Ð ÑÐ¸Ð¼
Ð» Ð¸
val id
t ing
bo ok
( d
< f
4 );\n
<< e.
j++) {\n
sy stem
mutex> lock
b alance
it ial
Ð°: \"
break;\n case
> ::
= 0,
id <<
le ep
7 ,
' ;\n
d d
Ñ ÐµÑ
\n std::string
a il
virtual ~
c )
d ;\n
{}\n void
< size;
_clock ::
s leep
s /
{\npublic:\n virtual
Ñ Ñ
sc r
e. wh
Ð¼ ÐµÑ
p =
por t
io s::
s\" <<
Me ssage
Ñ Ð²
print() const
Ð½Ð¾Ð³ Ð¾
ÑÑ Ñ
S ub
0; j
<< e.wh
e.wh at()
<< e.what()
e.what() <<
\" F
Ð½Ñ Ð¼
ill isecond
3. 1
int &
<< \"[
exec ute
L O
F un
\" M
( str
Ñ ÐµÑ
5 )
* p
]) {\n
Ð² ÐµÑ
th is_thread
this_thread ::
to _string
y <<
Ñ Ñ
= default
s. size()
\": \"
int get
A L
bin ary
0 &&
// Ð
wor k
Ð £
<< f
data ;\n
ptr =
size =
Ñ Ð°Ð±Ð¾Ñ
In dex
break;\n }\n
2) {\n
3 =
Ð¾Ð»Ð¸Ñ ÐµÑÑÐ²
. name
indo w
< std::
c =
ac c
M an
arr [i]
Ñ Ñ
sw ap
Ð± ÑÑÑ
ÑÐ¾Ð² Ð°Ð½
0;\n }\n
( f
p y
// ÐÑÐ¾Ð²ÐµÑ
Rectan gle
an gle
Pro duct
_ in
3, 4,
throw std::
void set
true;\n }\n
return true;\n
po ol
pr ice
ult ipl
Ðµ Ñ
co eff
Ex ception
ÑÐ¸ÑÐ» Ð¾
) /
v )
<< \"=
\n template<typename
Po ol
string get
\";\n cin
m illisecond
3 ;\n
Res ult
ele ment
this_thread:: sleep
+ \"
ix ed
g uard
o pen
() override
ex pr
b ,
Ðº Ð¾Ð½
In t
E r
5 };\n
ÑÐµÑ ÐµÐ·
1) {\n
r <<
= i
s: \"
n am
Er ror
Ð ¤
return std::
<< endl;
nam ic
l d
we ight
size; i++)
for(const auto&
\";\n std::cin
i <<
ÐÑÐ¾Ð²ÐµÑ ÐºÐ°
A B
std::string get
') {\n
i +
<< num
<< value
Ð¾Ð»Ð¸ÑÐµÑÑÐ² Ð¾
R A
std:: endl;
<< std::endl;
inser t(
{\npublic:\n void
return a
<iostream >\n\nclass
> &
Ñ Ð¸
Th read
<< id
Co mmand
pop ();\n
\n if(
v ail
, \"
c :
and le
1 +
c alcul
man ager
I te
value =
print();\n \n
O R
ite m
ÑÐ» ÑÑ
1 6
y ;\n
o p
or iginal
<< d
Ñ ÐµÐ´
<< p
Ser vice
>\n#include <vector>\n#include
Ðº Ð¾Ð¼
n; i++)
Pro ce
) override
F _
0 ||
auto it
\n while
( &
#include <iostream>\n\nclass
( p
= a
ÑÐ¼ Ð¼
ÐµÑ Ð¾Ð´
ÐµÐ· ÑÐ»ÑÑ
ÐµÐ·ÑÐ»ÑÑ Ð°Ñ
lock _
ÐµÐ½Ð¸Ðµ :
. sin
Val id
max _
<< s
Ar g
ad j
radi us
se arch
Ñ ÐºÐ°Ð·
= 4
i ;\n
_ str
n ing
\";\n std::cout
ho ur
3 2
re ver
d ra
ex ception
cer r
cerr <<
E _
e k
b <<
= '
<< \"A
* b
== \"
1 (
d uration
no w
St udent
3 ;
r un
num <<
de f
();\n return
return \"
) \"
\" N
sy s/
Ob server
static _cast<
< sys/
ÑÐ½Ðº ÑÐ¸Ñ
Ð¾Ñ ÑÐ¸
sub str
t work
T I
Con fig
r c
push (
Ð² Ð¾Ð»
E le
}\n bool
}\n if
2 (
s;\n \n
for (size_t
arr [
\";\n \n
Ð 
2 D
<< n
{\n char
or der
Re g
(int j
j o
4 )
= delete
Con crete
lock_ guard
12 3
ÑÐ¸ Ð¿
Ñ ÑÐ¾Ð´
make_ shared
y )
Con nection
. size()
\" Hello
endl;\n for
Ñ Ð³
x +
Len gth
Ð¾Ð± Ð°Ð²
<iostream>\n#include <string>\nusing
2 0
1 *
<algorithm >\n#include
data )
});\n \n
sh ape
f r
2 ;
5 6
nullptr )
nullptr ;\n
ser ial
\n :
d =
Ac count
Te st
cle ar
Q ue
Ð´ Ñ
th is
ob server
<c string
Y e
std::endl;\n }\n};\n\nint
)\" <<
for (auto&
Ñ Ðµ
sa fe
Ð¾Ð» Ð¶
bool operator
( s
fo und
at ive
\";\n cout
b) {\n
[ v
a x
h igh
ÑÐ¸Ð± ÐºÐ°:
name ;\n
m ic
= 0.
F raction
Name() const
I D
() :
min ute
<memory >\n#include
num ;\n
protected :\n
std:: size_t
{\n std::vector<int>
sum =
}\n double
Man ager
Ð¾Ð³ Ð¾
return result;\n
<algorithm >\nusing
<algorithm>\nusing namespace
&) =
m id
S O
Ð¼ Ð¾Ð¶
Ð°Ð¹ Ñ
void print
ph a
endl;\n }\n};\n\nint
ed ge
tx t
U n
c apac
.length ()
x ;\n
ingle ton
new int
Ð°Ð¹ Ð»
Ð 
Ñ Ð¾Ð·Ð´
str )
-- ;\n
Or der
{ '
sig n
std::endl;\n for
Ñ 
u c
<< get
6 ,
n c
<f stream
close ();\n
num :
Ðº Ñ
igh bor
A R
K e
tit le
A dd
mplo ye
{\n vector<int>
2) <<
R o
int [
m =
f lag
<< \"S
+ 1,
r )
m .
ÐµÐº Ñ
<< \"Ð
Ð½Ð°Ð¹ Ð´
( b
Ð°Ð½ Ñ
Ñ Ñ
= 10;\n
double get
ch ild
Ñ Ð²
new Node
in put
sock addr
m ial
C ache
\\ t
1 -
ÐµÐ½ \"
\"Ð ÑÑÐ¾Ð´
if y
n) {\n
\" '
< 0
const =
n ,
A F_
\");\n return
v .
std:: chrono::
co m
uc ce
<< str
static void
<< \"ÐÑÑÐ¾Ð´
<< \"]
l y
<< y
<< result
= 5;\n
fr iend
Ð¾Ð² \n
mploye e
vail able
<iostream>\n#include <fstream
(int num
0);\n \n
Ñ Ð¾ÑÑÐ¸
e mpl
empl ace
in stance
H e
Ite m
Ð´ Ð¾Ð»Ð¶
( root
<< \"-
(size_t i
Ð Ñ
MAX _
ÑÐ¸Ð¼ Ð²Ð¾Ð»
calcul ate
Ð± Ð°Ð¹Ñ
\" a
S ingleton
* a
IN ET
new int[
Ñ Ñ
<< \"F
C l
Ð°\" :
Ñ Ñ
}\n ~
( T
-> second
Ñ ÐµÐ¼
AF_ INET
D E
an k
Ð´ Ð²
B lock
n <<
9 ,
<< \"'
{ cout
[3 ]
no mial
M P
];\n }\n
const std::string&
const string&
W rap
de st
5 ;
e mail
ut ion
re quest
<< \"M
data =
O f
_clock:: now();\n
* c
Ð¡ Ð¾Ð·Ð´
{\n protected:\n
Ob ject
\" P
Base {\npublic:\n
b .
{ std::cout
Ð½Ð¾ÑÑ Ñ
Ð ÑÐ¿Ð¾Ð»ÑÐ·
\"\\n Ð
<< \"\\nÐ
function <
, &
: name
2: \"
\"Ð §
\";\n }
ind rome
get Name()
stream file
< type
{\n result
int size
\"Ð Ð±
<< (is
t )
millisecond s(
Q u
C ar
ÐµÐ½ Ñ
count =
// Ð
Ptr =
ut ure
str) {\n
. empty())
Ñ Ð¸
jo in();\n
lo ad
Ð¿ÐµÑ ÐµÐ¼
4 ;\n
ÑÐ³ Ð¾Ð»Ñ
Ðº Ñ
return;\n }\n
Ð 
!= 0)
S imple
_fd );\n
t =
Ð° ÑÐ¸Ð¸
Wrap per
<< \"Ð§
dy namic
h andle
in itial
}\n };\n
ÐµÐ½Ð¸Ðµ: \"
Ð¾Ð¿ Ð¸
up date
Ñ \n
mo d
] [
// Ð
< 3;
( 0,
Ch ar
Se t
Ele ment
: data
m _
>\n#include <string>\n#include
w a
for(size_t i
ver t
o m
\" B
0. 0;\n
S S
Ð¸Ð· Ð¼
Ð¾Ð² Ð°Ð½Ð¸Ðµ
Ð´ Ð¾
if (n
if ic
= c
arr ;\n
make_shared <
name ,
no ex
ÑÑ Ð²
< stdex
<stdex cept
exception &
s() const
// ÐÑÐ¾Ð²ÐµÑÐºÐ°
result +=
Type ::
\"Ð ÑÐ¸Ð±ÐºÐ°:
* =
{ 0,
ÐµÐ½\" <<
Ðº Ð¾Ñ
ÐµÑ ÑÑ
}\n}\n\nint main()
<< \"ÐÐ±
Wor ld
Ñ :
scr ipt
>\n\n struct
decl type
Ð°ÑÑÐ¸ Ñ
\n ~
result;\n }\n
<< \"ÐÑÐ¸Ð±ÐºÐ°:
\n const
T E
exception& e)
Ð°Ð· Ð¼ÐµÑ
f ixed
alloc ate
std:: runtime_error
\n }\n
Ð°Ðº ÑÐ¸Ð¼
ÐºÐ» ÑÑ
temp =
.name ()
; }\n};\n\nint
;\n if
P acke
3 :
Ð²Ñ ÐµÐ¼
Ð¾Ñ Ð¼
if stream
current =
.end (),
S qu
3 D
Ðµ Ñ
delete ;\n
= delete;\n
. set
Ñ Ð¿
getName() const
return *this;\n
Ð´ Ð¸
std;\n\n struct
namespace std;\n\nstruct
tho d
addr .sin
prec ision
Arg s
flo at
<cmath >\nusing
<cmath>\nusing namespace
<ch rono
<std::string ,
' ||
W ith
1 ==
+ 1;\n
val u
T &
Ð Ð±
2 *
T ,
<vector >\nusing
<vector>\nusing namespace
l im
get line
<string ,
Vector 2D
std:: make_unique<
v isit(
Node (
ation al
arr[i] <<
Ñ Ñ
- =
*this;\n }\n
<ioman ip
start =
R ational
ic al
Ñ Ð°Ð¹Ð»
M y
he ap
\" x
y ,
\n for(int
return x
L ist
<< arr[i]
Ð°Ñ Ñ
con fig
W e
Ñ Ð¼
{\n const
in fo
Ð¾ Ñ
l ib
ÑÑ Ð°Ð½Ñ
le vel
\" *
set precision
R U
_ of
int count
>> a
ex p
Ð² Ð¾Ð·
it ch
fre e
P a
= \"Hello
int m
operator =(const
.name() <<
Ð¾ Ñ
const int
<iostream>\n#include <cstring
(const std::
S a
<string >\n\nclass
<function al
def ine
con tainer
\") {\n
w indow
fixed <<
uff ix
= 0)
le ag
CK _
a ;\n
( 1,
\" Ð±Ð°Ð¹Ñ
= {\n
< thread
arr =
par se
<fstream >\n#include
& operator=(const
s.end ())
\" %
0;\n for
log ger
ss <<
\"\" <<
|| c
if constexpr
# define
ari able
run ning
+ 1
g ative
\" D
ry pted
// Ð¡Ð¾Ð·Ð´
c an
std:: unique_ptr<
] :
}\n \npublic:\n
<= 0)
ÐµÐ¼ Ð¾Ð½
stream &
Ð½Ð¸ Ð¹
Ð¾Ð± Ñ
-1) {\n
c ==
M one
< 1
[i][j] =
size) {\n
e valu
M E
noex cept
% 2
a z
void add
if (i
// Ð£
leag ue
const char*
second s
sign al
L _
Pr ime
<< setw(
. print();\n
{\n for(int
x *
id )
Ð½ÑÐ¹ Ð¼Ð°ÑÑÐ¸Ð²
in valid_
invalid_ arg
ÐµÐº Ñ
s();\n \n
Ð¼Ð°ÑÑÐ¸Ð² :
< map
- \"
R O
S y
I mpl
Ð½Ð¸ Ðº
result <<
. print
d iv
t :
.end ())
res pon
v =
o s
' \\
reg ister
( other.
};\n int
+ b
1);\n \n
sw itch
Poly nomial
<< test
M in
text =
Ð Ð¾Ð½
serial ize
): \"
A D
U L
<std:: mutex>
IN G
Ex pr
Ð°Ð¼ Ð¸
i ,
\"Ð Ñ
is O
ne ighbor
g y
Ð¾Ð² :
ue ;\n
m )
\"] =
Me mory
std:: setw(
<< std::setw(
E mployee
{\n try
Ð¼Ð°ÑÑÐ¸Ð²: \";\n
] .
A N
<iostream>\n#include <fstream>\n#include
bool al
int x
Ð Ñ
a +
void display()
< unordered_map
- 1)
if (it
<std::mutex> lock
fre q
8 _t
of stream
Ð° Ñ
0;\n int
il ity
w n
d )
<< \"Derived
node ->
Ð² ÑÐµ
<c ctype
os <<
p q.
evalu ate
Ð» ÐµÐ½
s.end()) {\n
C O
h icle
buffer [
int a
Ñ Ð¹
{\n case
4, 5};\n
<< \"Base
F I
C T
Ñ Ð¾
= other.
+ other.
k =
<c std
M ax
gre e
() ==
H ash
1 8
c ircle
;\n \npublic:\n
loc al
do c
<iostream>\n#include <cmath>\nusing
4, 5,
throw runtime_error
In stance
clear ();\n
, 0);\n
* )
Ð´ Ð°Ð½
Ne twork
F F
vec =
Ð½ ÑÑ
: \"Ð
sum +=
s ucce
Ñ Ð¸
perror (\"
Ð¾Ð¶ Ð¸ÑÐµÐ»Ñ
s:\" <<
1;\n \n
s. emplace
< mutex>
vector<string >
' :
\"Ð ÐµÐ·ÑÐ»ÑÑÐ°Ñ
Ð¤ ÑÐ½ÐºÑÐ¸Ñ
= 100;\n
<< \"ÐÑ
== 0
{\n int*
G uard
2 -
t ,
Ref =
Count =
script ion
M ap
\" /
ÐµÐ¼Ð¾Ð½ ÑÑÑ
for(char c
nor mal
d a
<< \"Ð£
unordered_ set
Sy stem
// Ð
return data
a, int
3) <<
public Base
act ive
ÑÐ¸ÑÐ»Ð¾ :
Per son
con nection
alcul ator
default ;\n
= default;\n
W id
{\n static
E d
$ \"
<< \"ÐÐµÐ·ÑÐ»ÑÑÐ°Ñ
B in
Pr iority
lo w
2 4
[] (int
Ð¿ Ð°Ñ
std:: ios::
<mutex> lock
[ \"
6 4
s pan
B ank
Ðº Ð¾Ð¿Ð¸
3 0,
Ð±Ð°Ð¹Ñ \"
\" Ð±Ð°Ð¹Ñ\"
Ð±Ð°Ð¹Ñ\" <<
<thread >\n#include
0) :
throw std::runtime_error
s.size() <<
Le vel
Do c
amount ;\n
2 5
B ig
get _
i angle
ÑÑÑÑ Ðº
}\n }\n};\n\nint
;\n std::
.end()) {\n
\"N o
Ñ ÐµÐ¼
Ð³ Ñ
// Ð
+ std::
byte s
pr ime
Proce ssor
Sa fe
<< \"x
IN T_
pr iority
key) {\n
\"Ð ­
Vector 3D
' 0
in k
Sor t
s =\"
= d
< un
S E
beg in()
t i
uint 8_t
1 9
( re
Squ are
o d
$\" <<
{\n perror(\"
Info ();\n
G raph
ÑÐ¼Ð¼ Ð°
j )
<< \"%
String ()
<< \"Ð­
Ð½ÑÐ¹ Ð¼Ð°ÑÑÐ¸Ð²:
<un istd
Pa ir
-> parent
= h
\" };\n
1 1
ate gory
B uffer
Ð ¨
// ÐÑÐ¿Ð¾Ð»ÑÐ·
factor ial
( *
\";\n string
Value ()
m y
<T >
{ \\\n
boolal pha
3 };\n
Ð¿ Ð»
Ke y
\"Ð ÐµÑ
= std::chrono::
a in
= current
2 +
pre v
std:: this_thread::sleep
[ &
= -
// ÐÑÐ¸Ð¼ÐµÑ
3.1 4
v ari
Ðº Ð¾
<char ,
false;\n \n
<unistd .h>\n#include
std::this_thread::sleep _for(std::chrono::
= temp
ra w
// ÐÑ
= f
p .
<< \"ÐÐµÑ
\" c
nullptr) {\n
void display
Te mp
Ðº Ðµ
graph [
< 5;
x 2
- 1;\n
pe ed
str =
ÑÐ² Ð»Ñ
] ==
Are a
\";\n for(int
Pal indrome
<= n;
data _
< sstream
:: get
high _
resol ution
t _
M utex);\n
Count <<
Ye ar
file. close();\n
= 3;\n
x :
(it !=
<map >\n#include
Ñ ÐµÑ
boolalpha <<
Ð¿Ð¾Ð» Ð¾Ð¶Ð¸ÑÐµÐ»Ñ
data [
P I
Ð¾ Ñ
Ð° Ñ
S um
bool >
id ,
val )
display() const
\"ÐÑÑÐ¾Ð´ Ð½ÑÐ¹
con tin
msg )
std::endl;\n }\n};\n\nclass
Derived :
\";\n std::string
3; i++)
d ue
Ð² ÐµÐºÑÐ¾Ñ
Ð Ð¾Ð±Ð°Ð²
while (!
i z
C alculator
std:: lock_guard
a uthor
Temperat ure
ic ient
int* ptr
Ð°Ð¿ Ð°Ð·
2 ==
namespace std;\n\nvoid
end =
s 1
<< \"ÐÑÑÐ¾Ð´Ð½ÑÐ¹
L ine
data) {\n
area ()
h )
ptr ;\n
Ð´ Ñ
Ðº Ð²
std:: to_string
= nullptr;\n
high_ resolution
2);\n \n
\" O
Ñ \n
double x,
< queue
sor ted
left =
rever se
manager .
Json Value
123 4
<< \":\"
{ 10,
Ð¿ Ð¸
a, b,
<< \"Ð
:: n
std::lock_guard <std::mutex>
new Node(
\"Ð Ð¾Ð»Ð¸ÑÐµÑÑÐ²Ð¾
<< \"ÐÐ¾Ð»Ð¸ÑÐµÑÑÐ²Ð¾
= \";
<algorithm >\n\nint
contin ue;\n
<string >\n\nint
[ c
^ 2
Ð §
i ator
\n virtual
std::lock_guard<std::mutex> lock
return 0;\n
Ñ :
i;\n }\n
pl ugin
if (is
right =
\"; break;\n
<cmath >\n#include
In valid
Ñ Ð°ÑÐµÐ»Ñ
; ++i)
s 2
Ð·Ð½Ð°Ñ ÐµÐ½Ð¸Ðµ
\" b
<< max
+ c
x) {\n
N on
ÐµÑ ÐºÐ¸
F re
: return
A mo
Ð½ÑÐ¼ Ð¸
<iostream>\n#include <string>\n\nclass
for(int j
Ñ Ð¾ÑÐ¼
Ð¿Ð¾Ð· Ð¸
== -1)
- other.
}\n virtual
re move
'\\ 0
std:: cerr
std::cerr <<
oss <<
B u
s) :
<vector>\n#include <algorithm>\n#include
= 0.0;\n
<< \"a
Ð°ÐºÑÐ¸Ð¼ Ð°Ð»Ñ
{ 5,
Ðµ Ñ
squ are
j son
type _index
Id ()
{\n if(!
d ,
\n }
total _
Ed ge
int* p
a >>
Ð¾Ð¸Ñ Ðº
= default;\n};\n\nclass
if (std::
1) <<
\"Ð ÐµÑ
ur se
\":\" <<
<< count
Base *
az y
d f
pair :
() ?
Ð 
32 _t
m l
value;\n }\n
{\n bool
<< v
top ()
{ 2,
= str
< utility
Ñ ÑÐµÑ
<< text
IN F
respon se
Type ()
P A
+ 1);\n
Ð°Ð± Ð»
/ =
d x
an y
<string>\n\nint main()
high_resolution _clock::now();\n
D _
S mart
\" Error
s; i++)
{\n cerr
Wor d
<cstring >\n#include
p )
W indow
<functional >\n#include
; }\n};\n\nclass
<< ptr
v ar
endl;\n }\n};\n\nclass
Bin ary
R ate
' A
Ð´Ð¸ Ð°Ð¿Ð°Ð·
= value;\n
Ñ: \"
\" Total
result;\n}\n\nint main()
same _v
id) {\n
') <<
ÑÑÑÐ» ÐºÑ
I P
: value
= x
ver sion
A vailable
\" Â
ie w
Bu ilder
ser vice
\n struct
3 0);\n
Ñ Ð¾
S o
other) noexcept
C A
0) return
<chrono >\n#include
return result;\n}\n\nint
value (
\"Ð§ Ð¸ÑÐ»
< n
1 \",
= dynamic
it ->second
<< \"Error
int max
str len
] ++;\n
r =
<< \"Ð§Ð¸ÑÐ»
succe ss
Ñ Ð°ÑÑ
ÑÐºÐ°Ð· Ð°ÑÐµÐ»Ñ
: \\n\";\n
ref =
Packe t
time _t
pair <int,
<vector>\n#include <algorithm>\nusing
std:: unordered_map
An imal
R C
Ð¾ ÑÐ¸Ð±
Cl ass
Ð¼Ð¾Ð¶ ÐµÑ
Ð¼ Ð°ÑÑÐ¸Ñ
{\n dp
return !
(int n)
this_thread::sleep _for(chrono::
p 1
Ð¡Ð¾Ð·Ð´ Ð°ÐµÐ¼
l arge
ÐºÐ¾Ð½ ÑÑÐ°Ð½Ñ
// Ð
L ,
{\n std::cerr
std:: map
&& other)
size _
\"\n <<
_ range
row s
Ð°\" <<
static _
ÑÐ°Ð² Ð½ÐµÐ½Ð¸Ðµ
Ð½Ð¸ Ðµ
tre e
g c
= 0;\n};\n\nclass
Bo x
for m
Mone y
= 6
7 8
Ð± ÐµÐ·
ÑÐ²Ð»Ñ ÐµÑÑÑ
\"Ð Ðµ
<< sum
= i;\n
- b
ÑÐ¸ Ð¹
L A
rele ase
uint 32_t
Do or
v ation
operator *
int b)
ifstream file
// ÐÐ¾Ð±Ð°Ð²
} };\n
.empty()) {\n
id =
{\n sum
M ,
Ð¿ÐµÑÐµÐ¼ ÐµÐ½
5) <<
R I
al ig
C H
std::string str
s() {\n
a *
string str
int d
m utation
n) :
Ð° Ñ
}\n string
(struct sockaddr
txt \");\n
str <<
<< *ptr
== nullptr)
ibon acc
s[] =
{ 3,
D ay
std:: sqr
Ñ Ð¶
int* arr
\n try
<iostream>\n#include <memory>\n#include
// Ð¡Ð¾Ð·Ð´Ð°ÐµÐ¼
G rade
( 5,
height ;\n
vol ume
= []
10) <<
con trol
I I
( r
( 4
i *
a )
<< \"*
lock_guard <mutex>
\" U
s By
> 0
Ñ Ñ
vec .begin(),
q ;\n
m ;
<unordered_map >\n#include
}\n std::string
Ser ial
lock (m
void execute
p 2
\";\n return
{\n count
Info ()
{\n std::lock_guard<std::mutex>
f ield
con n
hour s
<< \"Total
new _
(int x
<string>\n#include <vector>\n#include
Ñ ÑÐ½Ðº
sockaddr *)
(struct sockaddr*)
sockaddr*) &
(struct sockaddr*)&
): \";\n
de t
Reg istry
\"Ð Ð¾
<< \"ÐÐ¾
\"% \"
static_ asser
ÐµÐ¼Ð¾Ð½ÑÑÑ Ð°ÑÐ¸Ñ
delete[] arr;\n
\n for(const
>= 0
\" .
c m
v 1
len =
begin() +
// Ð¢
minute s
e ven
unsigned int
graph ,
5; i++)
Ð°Ð¹ Ð´
\" H
text <<
Col league
number s)
addr ,
En d
nullptr;\n }\n
0. 0
{\nprivate:\n int
<< \"%\"
po wer
{\n struct
Ð°: \";\n
value :
double a,
E L
if (a
pos) {\n
<< pair
Ñ ÐµÑ
V irtual
\"\\n Ð
<< \"\\nÐ
3.14 15
3.1415 9
\"Error :
d iff
n -
});\n }\n
\"\\n Ð¡
<< \"\\nÐ¡
ÐÑÐ¿Ð¾Ð»ÑÐ· Ð¾Ð²Ð°Ð½Ð¸Ðµ
\"; }\n
F actory
sockaddr _in
d .
f uture
data <<
c ar
// ÐÐ±
4 2;\n
<< \"Error:
mar k
\"%\" <<
Ñ Ð°Ñ
a fter
] ()
\n size_t
<< \"Ð
size ,
Ve hicle
F or
- 1;
[] (const
: x
un k
c _str
\" G
\\ r
wrap per
ne gative
double ,
];\n \n
for ward
(int v
Ñ Ðµ
\\n \"
\\n\" <<
d igit
\" 0
\"Ð Ð°Ð·Ð¼ÐµÑ
<< \"ÐÐ°Ð·Ð¼ÐµÑ
ime ter
bu ild
ÑÑ Ð±
arithme tic
1 e
count ++;\n
::n pos)
Ð¿Ð¸ Ð»Ñ
ÑÐ¸ÑÐ» Ð°
[0] =
option al
bin \",
<< \"Ð¤
operator ()
s.empty()) {\n
int[ size
\"A fter
<< \"After
temp ;\n
O n
= 3
#include <sys/
er r
Se arch
15) <<
B U
();\n std::cout
[ u
= 1.
new int[size
2 6
ÑÐ¾Ð²Ð°Ð½ Ð½ÑÐ¹
is_ open
for (char
Ð ¦
I s
a v
RE A
SO CK_
(i <
\" â
child ren
= 42;\n
// ÐÑ
\"Ð¡ ÑÐ¼Ð¼Ð°
):\" <<
ÐµÑ Ð¶
std:: sor
ÑÑÑÑÐº ÑÐ¾Ñ
C re
= {10,
+ 1)
H older
out put
c ,
g ine
\\\n }
m ission
M on
Lo ck
safe _
Ð±ÑÑÑ Ð¿Ð¾Ð»Ð¾Ð¶Ð¸ÑÐµÐ»Ñ
ÑÐ¸ Ð°Ð»Ð¸Ð·
Ñ Ð´
6 .
4 };\n
vec.begin(), vec
Ð½Ðµ Ð½Ð°Ð¹Ð´
<< std::endl;\n}\n\nint
std::endl;\n}\n\nint main()
1: \"
set ting
count <<
T *
adj acency
o wner
Ro om
\"Error: \"
root =
stack .
== 1)
me thod
<< m
Ñ Ñ
str 1
vec .
\"Ð Ð¾ÑÐ¾Ðº
<< \"ÐÐ¾ÑÐ¾Ðº
ÑÐºÐ°Ð· Ð°Ñ
Con st
lock (
p i
<< \"Ð¡ÑÐ¼Ð¼Ð°
int result
1);\n }\n
current ->
arr[] =
size <<
G _
Ñ :
is E
? \"Ð
longe st
al ar
b it
capac ity
Sh ared
si an
se quence
Recor d
Ð± Ñ
ac qu
bo x
H o
Info() const
a 2
k )
Ð¿ÐµÑ Ð²
M _
M ath
\"\\n Ð
<< \"\\nÐ
{10, 20,
x) {
// ÐÐ¾Ð½
Ð· Ð°Ð²ÐµÑ
- 9
std:: shared_ptr<
<< \"ÐÑ
ÐÑÐ¾Ð²ÐµÑ ÑÐµÐ¼
<< filename
success f
std::string name;\n
bu f
int temp
Ð²Ñ Ð°Ñ
<sstream >\n#include
pec ific
\"Ð Ð°\"
? \"ÐÐ°\"
\"ÐÐ°\" :
: \"ÐÐµÑ
# #
Re quest
Ñ Ñ
this !=
!= &other)
&other) {\n
Ð² ÑÐ¾Ñ
Ð¾ÑÑÐ¸ ÑÐ°ÑÐµÐ»Ñ
Ð¾Ð¶ Ð´
std::vector<int> vec
vari ant
<< \"D
an not
Value =
Ð°Ð»Ð¸Ð½ Ð´Ñ
Ð°Ð»Ð¸Ð½Ð´Ñ Ð¾Ð¼
j) {\n
\" },\n
\" (\"
\"ab c
Ð¿Ð¾Ð»ÑÐ· Ð¾Ð²
std::this_thread::sleep_for(std::chrono:: milliseconds(
Set ting
G ame
data (),
7 .
ÐºÐ¸ :
<< endl;\n}\n\nint
endl;\n}\n\nint main()
1. 0
ÑÑÑ Ð¾ÐºÑ
( l
// ÐÑÐ¾Ð²ÐµÑÑÐµÐ¼
Inte ger
;\n addr.sin
h ton
(server _fd,
v _
M o
arg s)
( test
( void*
B alance
Node {\n
\" Type
(int a,
string name;\n
<algorithm>\n\nint main()
<queue >\n#include
ÐºÐ¾Ð¼ Ð¿Ð¸Ð»Ñ
[] =
B LO
Count ++;\n
P RO
string getName()
Ð· Ð°Ð´
? \"Ð´
int i
( 3,
_tra its
f ib
<< find
static int
s. erase
= {5,
ÐºÐ¸ \n
int num
t l
<vector>\n#include <string>\n#include
port =
= hton
1 <
Ð ÐµÑÐ¾Ð´
± Ñ
O p
std::string text
3 <<
M IN
3. 0,
<< r
Ð¼ ÐµÑÐ¾Ð´
namespace std;\n\n//
is_open ())
Ð» Ñ
: numbers)
buffer ,
{ }
{\n lock_guard<mutex>
Ð·Ð½Ð°ÑÐµÐ½Ð¸Ðµ: \"
<< fixed
3 x
\"Ð´ Ð°\"
? \"Ð´Ð°\"
\"Ð´Ð°\" :
: \"Ð½ÐµÑ
\"Ð½ÐµÑ \")
: \"Ð½ÐµÑ\")
\"Ð½ÐµÑ\") <<
amount) {\n
out_of _range
left ;\n
un ion
s[i] <<
\" Ð½Ðµ
radius *
auto& pair
An y
size :
size: \"
filename <<
return value
Ð¾Ð±Ñ ÐµÐºÑ
close (server
sub scr
ch ange
Count() <<
s\" :
<< \"/
operator +
!= other.
< other.
< double>
\" E
vector<int> vec
int: \"
do wn
< SIZE
;\n std::string
other. real
other. imag
ÐºÐ¾Ð¼Ð¿Ð¸Ð»Ñ ÑÐ¸Ð¸
AD D
Ð¾Ð¿ Ð°Ñ
uint 16
<< setprecision
A p
il ter
for (auto
v) :
Ð± Ð¾Ð»Ñ
int sum
Ð· Ð¾Ð²
<< \"'\"
\"'\" <<
std:: exception&
3);\n \n
close(server _fd);\n
Ð²Ñ Ð¿Ð¾Ð»
j <=
>> n;\n
L ib
f ill
();\n cout
{\n Node*
Ð°Ð½Ð¸ Ñ
\"Ð­ Ð»ÐµÐ¼ÐµÐ½Ñ
<< \"Ð­Ð»ÐµÐ¼ÐµÐ½Ñ
int arr[]
' -
right) {\n
SIZE ;
// ÐÑÐ²
Do uble
auto& [
Ð¤ÑÐ½ÐºÑÐ¸Ñ Ð´Ð»Ñ
Sub string
\"ÐÐµÑ \")
: \"ÐÐµÑ\")
\"ÐÐµÑ\") <<
Que ue.
\"/ \"
other) {\n
operator+ (const
. count()
ÑÐ³Ð¾Ð»Ñ Ð½Ð¸Ðº
= max
it !=
ÑÐ¾ÑÑÐ¸ ÑÐ¾Ð²
ÑÑ Ð°Ð²
ÑÐ¸ÑÐ»Ð¾: \";\n
Complex &
Ñ Ð°Ð´Ð¸
lock(m tx);\n
de vice
name (n),
std::exception& e)
SIZE =
Ð½Ð¸ Ð³
\"Ð¡ Ñ
<< total
5 :
C ur
Strate gy
( value
7 ;\n
str 2
<type _traits
[v ]
arr;\n return
ÑÐ»ÐµÐ¼ÐµÐ½Ñ :
>> b
T able
num =
{ //
string text
<< \"c
<< \"Ð¡Ñ
Ð ÐµÑ
<iostream>\n#include <cstring>\n#include
= socke
socke t(
= socket(
_fam ily
Count ;\n
dynamic _cast<
Data ()
Pr ice
Ye s\"
pool .
Thread Safe
\" ÑÑÐ±
file (\"
up per
ÑÐ»ÐµÐ¼ÐµÐ½Ñ: \"
R adi
join();\n }\n
we ak
Ñ Ñ
text) {\n
ÐºÐ° Ð½Ð°
Ð¿ Ð°Ð»Ð¸Ð½Ð´ÑÐ¾Ð¼
i an
ÑÑ Ðµ
&& !
coeff icient
T Y
4 :
< rows;
is_ arithmetic
b ;
C ase
+ y
Ð¿ ÑÑÑ
( 10,
\";\n else
double x
_ list
\" m
L ight
::npos) {\n
<< number
AF_INET, SOCK_
to String()
}\n};\n\nclass Derived
\" Yes\"
? \"Yes\"
\"Yes\" :
: \"No
l ink
x 1
INT_ MAX
n; j++)
s.size(); i++)
I t
cond ition
ÑÐ¾Ð·Ð´Ð°Ð½ \"
ÑÐ¾Ð·Ð´Ð°Ð½\" <<
\"Ð¡ ÑÐµÐ´
N UL
char buffer[
0) ?
std::string getName()
\"Ð Ñ
Ð´Ð¾ÑÑ ÑÐ¿
cel si
uff man
6 ;\n
c .
end -
Ñ ÑÐ¸
\";\n if
: value(
<< l
std:: ifstream
ÑÐ°Ð±Ð¾Ñ ÐºÐ°
- 1);\n
<< \"File
execute ()
+ std::to_string
name;\n int
8 .
--;\n }\n
socket( AF_INET,
= socket(AF_INET,
socket(AF_INET, SOCK_
] <<
1; j
t uple
C C
Coffe e
sc ale
Ð¼Ð¾Ð¶ÐµÑ Ð±ÑÑÑ
Ð´Ð¾Ð»Ð¶ Ð½Ð¾
->left =
] !=
<iomanip >\n#include
<< \"Ð¡ÑÑ
b) {
Ð¾Ñ Ð°Ð´
1 \");\n
{\n while
< SIZE;
\" 2.
min _
<< \"\"
M, 0);\n
per son
ÐµÑ ÑÑ
ar =
v ,
qu antity
Lib rary
Amo unt
Expression >
Complex Number
Ð± Ð°Ð»
r ,
struct {\n
;\n string
< decltype
+ to_string
is_open()) {\n
: name(n),
clone ()
_family =
(n) {}\n
alloc ation
= dynamic_cast<
; \\\n
M O
_ _
Wid get
Val =
time _
Ð¾Ð¿Ð¾Ð» Ð½Ð¸ÑÐµÐ»Ñ
length =
x, y;\n
(re inter
Serial iz
E S
<< size
Ñ ÐµÐºÑ
Ð «
8 0
_ port
hton s(
<< data.
Derived *
test 1
test 2
\" 1.
<< \"ÐÑ
Tex t
Inter face
Ñ ÐºÐ¸
Alloc ator
Node >
u da
{ 4,
normal ize
f )
9 0
\"] \"
Ð£ Ð´
con tent
\n for(size_t
n, int
ÐÑÐ² Ð¾Ð´
>= 0)
Stat us::
Tr iangle
'\\0 ';\n
A ge
comple ted
sho w
f l
\n char
Ð½ Ñ
[ n
\n std::vector<int>
dp [i
std:: invalid_arg
[i] ==
ÑÐ¸ Ð¹
= htons(
{\n size_t
( 1
denominator ;\n
.first <<
default;\n virtual
. substr
name =
Ð ­
uint16 _t
s uffix
} \\\n
C ustom
rece ived
= chrono::
9 .
<< \"/\"
\"/\" <<
value: \"
gro up
\"Ð Ð°Ð¹Ð´
\"Ð Ð°ÑÑÐ¸Ð²
<< \"ÐÐ°ÑÑÐ¸Ð²
// ÐÑÐ²Ð¾Ð´
public Shape
= AF_INET
AF_INET ;\n
= AF_INET;\n
(n <=
std:: setprecision
<< std::setprecision
t w
<< \"1.
\"No \")
: \"No\")
\"No\") <<
S uffix
c) {\n
m ust
col s;
root ->left
static constexpr
unsigned char
num ,
day s
5, 6,
Ð¼ Ð¸
std:: max
arr[i];\n }\n
sum <<
count ;\n
void execute()
g ment
a, double
<sys/ socke
<sys/socke t.h>\n#include
t /
n :
e qual
std:: fixed
<< std::fixed
std::fixed <<
S pan
= find
V ar
We ek
<< \"B
ste ady
hel lo
true) {\n
> ;\n
int age
Ð½Ð° \"
Ð¾Ð´Ð¸ ÑÐ¸
ÐµÐ½ Ð½Ð°Ñ
O _
Stat us
_port =
== other.
c all
Size =
Ð°Ð»Ð¸ Ð´
error :
error: \"
i >=
{}\n double
right ;\n
2;\n \n
t m
* x
operator []
= 2;
value( v)
{\n using
<iostream>\n#include <vector
<cstd lib
<< \"2.
SOCK_ ST
SOCK_ST REA
_ size
\"\\nÐ Ð¾ÑÐ»Ðµ
<< \"\\nÐÐ¾ÑÐ»Ðµ
\"Ð Ð½Ð°Ñ
[ pos
namespace std;\n\nbool
{\n Derived
Ð´Ð¾Ð»Ð¶Ð½Ð¾ Ð±ÑÑÑ
(2) <<
= get
O P
Resource Wrapper
Ð°Ð±Ð» Ð¾Ð½
true;\n \n
a, const
5 ]
= arr[i];\n
value ;
case '
Ð° Ñ
0, 5
ADD R
= '\\0';\n
Ñ \n
map <string,
<< \"ÐÐ½Ð°Ñ
{\n long
type =
P E
<< (int)
30, 4
1 };\n
<iostream>\n#include <vector>\nusing
con tain
Ð· Ñ
area =
But ton
Value <<
U N
\"ÐÑÑÐ¾Ð´Ð½ÑÐ¹ Ð¼Ð°ÑÑÐ¸Ð²:
Ð ÐµÐ¼Ð¾Ð½ÑÑÑÐ°ÑÐ¸Ñ
_ if
max Val
s peed
me m
t ter
Le ap
State ::
Doc ument
f ;\n
year ;\n
0x 0
6, 7,
0) {}\n
De mo
Ð ¯
7 );\n
>> num;\n
Pr inter
int b
t. join();\n
g o
y +
c 2
title <<
err no
lob al
\" In
ptr) {\n
ÑÐ¸ ÑÑ
\": \";\n
ne twork
Ð°:\" <<
he ader
root ->
C RC
bool is_
Recur sive
pos =
= *
\"Ð Ð»Ð¸Ð½Ð°
double y
\"Ð Ð»
Ð¿ÐµÑÐµÐ¼ ÐµÑ
<iostream>\n#include <string>\n\nint
pop();\n }\n
<< \"Ð¡ÑÐµÐ´
Ð´Ð°Ð½ Ð½ÑÑ
\n vector<int>
' a
l c
A b
F ield
m ,
Ð´ ÐµÐºÑ
Ð²ÑÐµ Ñ
0 ?
unique_ lock
gc d
}, {'
over flow
f 1
Ð¸ Ð´
\"ÐÐ¾ÑÐ¾Ðº \"
{}\n virtual
int n;\n
C S
Ho ur
h ren
hren he
amount <<
Bank Account
Ð¾ÐºÐ°: \"
{\n current
it) {\n
key <<
] (const
v ;\n
' +
8 )
file <<
0, double
Ð Ð
4 0,
c n
per imeter
ÑÐ¸ Ñ
subscr ibe
> {\n
ID :
ID: \"
\";\n case
s. find(
Ð¡ ÑÑÐ»
P O
> ,
-\" <<
<< amount
<< sizeof(
Ð¼ ÐµÐ¶
Ð Ð¾Ð¿Ð¾Ð»Ð½Ð¸ÑÐµÐ»Ñ
[ k
double *
<vector>\n#include <algorithm>\n\nint
7, 8,
pair .first
* 10
ÐµÑ ÐºÐ¾Ðµ
next ;\n
(int n
x y
f d
double area()
SOCK_STREA M,
Ð± Ð¾Ñ
y namic
;\n for
number s
s;\n \npublic:\n
left <<
Que ue
: 1;\n
L RU
< N
ÑÑÑ Ð°Ð½Ð¾Ð²
width ,
c ity
\n for(char
( 0)
is_ same_v
<< key
]++;\n }\n
Ðµ :
<< \"ÐÐ»Ð¸Ð½Ð°
if (num
Ptr <<
// Ð£Ð´
us =
5, 6
}\n else
Ð² Ð»
cn tl
5};\n \n
<sys/ type
<sys/type s.h>\n#include
< ar
ÑÐ¸Ð± ÐºÐ°
x ;
Ð¼Ð¾Ð¶ Ð½Ð¾
Ñ ÐµÐºÑÑ
Ð° (
l ,
<< \"Ð¦
<< \"U
++ j)
* side
Mon th
Type() const
Shared Ptr
ue st
void update
<iostream>\n#include <memory
ultipl ier
<< \"Ð
name) {\n
' ')
g =
std:: function<
[\" <<
0;\n std::cout
4 =
numbers) {\n
20, 30,
/ 2;\n
an a
<< message
name (n)
b ad
\" 3.
<< \"Â
. display
ÑÐ´ ÐµÐ½Ñ
lib rary
ÐÑÐ¿Ð¾Ð»ÑÐ· ÑÐµÐ¼
8 ;\n
ios:: binary);\n
2 };\n
( 5);\n
int id;\n
std:: ofstream
index =
notify _
v 2
Ñ Ðµ
<ne tine
<netine t/
<ar pa
<arpa /
<arpa/ ine
-- )
return n
\";\n print
<< \"3.
ul ar
<< matrix
Ð¾Ð± ÑÐ°Ð±Ð¾Ñ
v isit
LRU Cache
al th
= b;\n
\" ÑÐ°Ð·
R T
< double,
<string>\n#include <cctype
ostream& os,
os, const
y *
< stack
Ð² Ð¾Ð±
* it
1;\n }
b >>
s.size() -
<< \"m
Ñ Ñ
Ñ: \"
thread t
0, 0,
\" ->
f ,
cle an
<< \"\\n-
B ST
Ex ample
*ptr <<
% 4
M_ PI
{\n ifstream
<clim its
endl;\n auto
Ð½Ð° Ð¿Ð¾Ð·Ð¸
root ;\n
= sizeof(arr)
sizeof(arr) /
/ sizeof(arr[0]);\n
<< \"ÐÐ»
\"\\n Ð
<< \"\\nÐ
std:: make_shared<
<numer ic
Ð¸ Ð³
(char c
int value
<< val
y -
T RA
im um
return name
° C
ÐµÐ½ Ð½ÑÐ¹
ÑÑ ÐºÐ°ÐµÐ¼
Ð°Ð½Ð¸ Ñ
ap ply
Big Int
= m
Ð²ÑÐµÐ¼ Ñ
a -
<< boolalpha
; j++)
qu ick
All ();\n
Ð°Ð½Ð¸ Ñ
<< \"Type
m) {\n
ÐµÐ½Ð¸Ðµ \n
1 &&
Ð²Ð¾Ð· ÑÐ°ÑÑ
Ð Ð·
SOCK_STREAM, 0);\n
= 5
std::map <std::string,
ÑÐ¾ ±Ñ
size -
Visitor &
m it
F lag
RA II
acqu ire
= {\"
(const exception&
Ð½Ðµ Ð¼Ð¾Ð¶ÐµÑ
endl <<
Ð° Ñ
// ÐÐ¾Ð±Ð°Ð²Ð»ÑÐµÐ¼
it ude
: vec)
ÐµÐ¹ ÑÑÐ²
= min
Ð°Ð¼ Ð¼
\"Ð Ð°ÐºÑÐ¸Ð¼Ð°Ð»Ñ
<< \"ÐÐ°ÐºÑÐ¸Ð¼Ð°Ð»Ñ
{}\n};\n\nint main()
p2 =
<arpa/ine t.h>\n#include
std:: min
int total
ÐµÐ» ÐµÐ¹
0 :
<cmath >\n\nint
<< k
epol l
reg istry
ig ned
C ategory
Tr ie
g ap
P U
ro om
sian .
c uda
6 0;\n
[](int x)
Ð¸ Ð¿
10;\n }\n
{\nprivate:\n double
\" Resource
Ð± Ð»Ð¸
N ;
Base &
w ,
<netinet/ in
<netinet/in .h>\n#include
socket(AF_INET, SOCK_STREAM,
3 -
\"Ð Ð°Ð·
s rc
f .
i a
void handle
hex <<
bool has
node =
e mp
# \"
do or
S pecific
c <<
1234 56
for \"
Ð¿Ð¾Ñ ÑÐ´
{\n std::ifstream
V AL
decl val
10 24
explic it
SI G
Med iator
BLO CK
( j
at \"
destro yed
div ide
name ;
return nullptr;\n
<< &
<< data
++j) {\n
s k
<< p.
C all
P _
Enc ry
',' .
char c
Ñ ÑÐµÐ´
( year
Ð°ÑÑÐ¸Ñ Ð°
Ð³ Ð¾Ð´
Y ;\n
: str)
char [
{\n delete[]
std::endl;\n auto
if (c
name ()
Ð½Ð°Ñ Ð°Ð»
\");\n std::cout
(i +
switch (
Ð´ Ð»Ð¸Ð½
area() const
Value :
#include <sys/types.h>\n#include
<sys/socket.h>\n#include <netinet/in.h>\n#include
rec v
= \"AB
--) {\n
message <<
found =
( -
= 20;\n
h istory
Ð´Ñ ÐµÑ
Stack .
std:: boolalpha
<< std::boolalpha
// ÐÑÐ¿Ð¾Ð»ÑÐ·ÑÐµÐ¼
Com mon
\n Matrix
ÑÐ°Ð· ÑÑ
Ð¾ÑÑ Ñ
constexpr (std::
] +
Ð½Ð¸ Ñ
F S
* radius
dp[i][j] =
<< \"Resource
\"Ð§Ð¸ÑÐ» Ð¾
>> b;\n
(c ==
&& \n
do g
30, 40,
40, 5
std:: thread
<iostream >\n\nvoid
#include <iostream>\n\nvoid
ptr <<
addr ;\n
<< \"ÐÐ°Ð·
g lobal
s ++;\n
Ver sion
entry .
* \"
numbers =
s l
tr ic
args) {\n
* matrix
Sub set
c;\n }\n
rows; i++)
6 );\n
ÑÐ¼ Ð¾
pref ix
// Ð
arr[i] =
m; i++)
\"ÐÐ» Ð¾ÑÐ°Ð´
<< \"ÐÐ»Ð¾ÑÐ°Ð´
<< \"Ð§Ð¸ÑÐ»Ð¾
0;\n cout
ÐºÐ» Ð°ÑÑ
mo v
(const std::exception&
continue;\n }\n
\n Complex
ptr 2
clone() const
imen sion
<< title
mer ge
To Ptr
<< \"\\nÐÑÐ¸Ð¼ÐµÑ
+ j
<cmath>\n\nint main()
T T
Ð²Ñ Ñ
= make_shared<
s p
current State
greg ate
Ð¸ Ð»Ð¸
\" \\t
ÑÑÑ Ð¾ÐºÐ°:
<< \"E
s;\n }\n
<type info
txt \",
>> c;\n
c) :
<< \".
<iostream>\n#include <thread>\n#include
ÑÐ¸ÑÑ ÐµÐ¼
c_str (),
to \"
d ir
n itude
sy nc
(); }\n
Cur rent
i -
( 3);\n
Â ²
\"Ð¢ Ð¾Ñ
<< \"Ð¢Ð¾Ñ
de allocate
ware ho
FI EL
Ac ce
6 };\n
3.0, 4.
Ð¾Ð± ÑÐ°Ñ
= 4;\n
if (arr[i]
c v.
\npublic:\n void
<stdexcept >\n#include
= temp;\n
c;\n \n
Ñ Ð¼
\") =
c 1
5 0);\n
// ÐÑÐ¿Ð¾Ð»ÑÐ·Ð¾Ð²Ð°Ð½Ð¸Ðµ
sockaddr*)& addr,
(struct sockaddr*)&addr,
if (x
f 2
h =
destin ation
stat us
0 +
n;\n \n
ÑÑÐ± .\"
ÑÑÐ±.\" <<
U til
ÐµÑ ÐµÐ²
void draw()
#\" <<
Pay ment
he ad
l p
std::boolalpha <<
= r
word) {\n
<iostream >\n\nstruct
#include <iostream>\n\nstruct
{\npublic:\n static
endl;\n delete[]
nums =
b, c;\n
if (b
2; i++)
<< msg
\"ÐÐ²ÐµÐ´Ð¸ÑÐµ ÑÑÑÐ¾ÐºÑ
7 )
(auto& t
a, b;\n
age <<
;\n bool
to _
\");\n cout
(int x)
<netinet/in.h>\n#include <arpa/inet.h>\n#include
<< \"ÐÐµ
(sock ,
E mail
is Prime
memory _
sy m
Le ft
U se
Ð¿ÑÐ¸ Ð¾ÑÐ¸ÑÐµÑ
H O
l ayer
World \";\n
<< \"\\t
// ÐÐ¾Ð¿Ð¾Ð»Ð½Ð¸ÑÐµÐ»Ñ
] ,
Ñ ÑÑÐ¸
ÑÑÑÐ¸ ÑÐ¸
}\n friend
: value(v)
key =
= -1;\n
int a,
Me thod
auto result
throw std::invalid_arg
<char, int>
\"ÐÐµÐ·ÑÐ»ÑÑÐ°Ñ :
Ð Ð
int left
q. fron
Fraction &
+ i
if (auto
* >
Copy able
en able
= make_unique<
Ð¼ Ð½Ð¾Ð¶
D igit
ul ate
void accept(
Ð± Ñ
alloc ator
Type =
throw invalid_arg
other) :
Ð¾Ð¸Ð· Ð²ÐµÐ´
3 6
ÐÑÐ¾Ð²ÐµÑÐºÐ° Ð½Ð°
Ð Ð¾Ð»
now =
Ð¼ÐµÐ¶ Ð´Ñ
<vector >\n\nint
vec.begin(), vec.end(),
= std::max
T H
F ixed
{\n dp[i][j]
ÑÐ¸ Ðº
: text)
ÑÑ ÐµÑÑÐ²
<< *p
operator -
<string >
iv ision
<sys/types.h>\n#include <sys/socket.h>\n#include
endl;\n break;\n
-> \"
\"ÐÐ½Ð°Ñ ÐµÐ½Ð¸Ðµ
de gree
ER ROR
Info();\n \n
noexcept {\n
use _count()
s \n
k ->parent
G enerator
se ssion
F rom
z =
W r
I mage
T 2
double d
Ð°Ð½ Ñ
< cols;
T, typename
namespace std;\nint
0};\n \n
T itle
Ð¾Ñ ÐºÑ
Ð¿Ð¾Ð·Ð¸ ÑÐ¸Ð¸
i ;
(int id)
num;\n \n
R ange
<cctype >\nusing
<cctype>\nusing namespace
<< \"ÐÐµÐ·ÑÐ»ÑÑÐ°Ñ:
{\n count++;\n
std::endl;\n delete[]
next =
7 };\n
\n void*
<< \"ÐÐ½Ð°ÑÐµÐ½Ð¸Ðµ
|| \n
Ð³ Ð¾ÑÐ¸Ñ
Ð³Ð¾ÑÐ¸Ñ Ð¼
arr) {\n
Do g
re e
A ,
V iew
double sum
in _
node ;\n
state =
be st
{\n T
col s
<= 0
operator* (const
gram ming
ÑÑÑÐ¾ÐºÐ°: \"
std;\nint main()
task _
we ek
{\n max
3 5
\" true
s. pop();\n
static const
',' 1
s *
>\nint main()
t.join();\n }\n
temp;\n }\n
<unistd.h>\n#include <iostream>\n#include
( w
close(server_fd);\n return
// Ð
( 5)
Ð Ð¾Ð¸ÑÐº
<< \"In
void log
name(n) {}\n
return name;
1e -9
string& str)
endl; }\n
packe t.
Ð¿Ð¾Ð»ÑÐ·Ð¾Ð² Ð°Ñ
b r
void visit(
Point 2D
ST RU
<iostream>\n#include <cmath>\n#include
str ;\n
Ð¿ÑÐ¸Ñ Ð²
int j
5 =
ÑÐ» Ð¾Ð²
ÑÑÑÐ¸ÑÐ¸ ÐµÐ½Ñ
L azy
product =
= 2;\n
\" i
Ð´ ÐµÐ¹ÑÑÐ²
},\n {'
/ 2.
double :
b *
Ð½ ÑÐ»
' ;
ÐµÐ³ Ð¾
operator- (const
SIZE; i++)
Ð Ð
av g
Base ()
Value: \"
sockaddr_in addr;\n
addr.sin_family =
F D_
1) return
<iostream>\n#include <cmath>\n\nint
!= '
3: \"
Ð¿Ð¾Ð»Ð¾Ð¶Ð¸ÑÐµÐ»Ñ Ð½ÑÐ¼
Ð±ÑÑÑ Ð¿Ð¾Ð»Ð¾Ð¶Ð¸ÑÐµÐ»ÑÐ½ÑÐ¼
x -
Ð² Ð¾Ð´
std:: swap
de mon
] \"
Visitor& visitor)
<cstring >\nusing
<cstring>\nusing namespace
\"Hello \";\n
Ð¿ Ð°Ð´
Ð¿ Ð°Ð¼
3 0
<memory >\nusing
<memory>\nusing namespace
operator[] (size_t
2; i
Ð ÑÐ»Ð¸
= {3,
Length =
<< min
T& value)
_ per
2. 0,
s() <<
{\n t.join();\n
line ;\n
Container &
' &&
+ 2
<< user
bytes\" <<
addr.sin_port =
t v_
Ð¾Ñ Ñ
back ()
6 )
ver due
]() {\n
F ly
De scription
mem c
T ag
4 0
bool operator==(const
int current
namespace std;\n\ntemplate<typename
<< \"i
' },\n
for (std::size_t
Resource Holder
y 1
(const T&
go od
arr 2
\" bytes\"
ÐºÐ¾Ð¾Ñ Ð´Ð¸Ð½Ð°Ñ
<< \"ÐÐ°Ð¹Ð´
destroyed \"
destroyed\" <<
if ied
Ð°ÐºÑÐ¸Ð¼ ÑÐ¼
uplic ate
de scription
// ÐÐµÐ¼Ð¾Ð½ÑÑÑÐ°ÑÐ¸Ñ
clean up
sen sor
double result
< atomic
ÑÐ¾Ð± ÑÑÐ¸
pal indrome
= std::make_unique<
* mat
se ek
Matrix &
shor t
+ 1];\n
v <<
int arr[
double: \"
Ð½ÑÑ ÑÐ¸ÑÐµÐ»
Ð´Ð¾ \"
string >
me ter
ÑÑÑÐ¾ÐºÑ :
2. 0;\n
, Ñ
Ñ ÑÐ¾
successf ully
>( end
signal _
2, 3};\n
<char >
\"ÐÐµÐ·ÑÐ»ÑÑÐ°Ñ: \"
std::endl;\n if
Ð¸ \"
Ð²Ð¾Ð· Ð²ÑÐ°Ñ
double total
S A
while (i
J SON
( vec.begin(),
ing \"
int[size ]
new int[size]
t 1
U p
Ð£Ð´ Ð°Ð»ÑÐµÐ¼
// Ð£Ð´Ð°Ð»ÑÐµÐ¼
min Val
{\n thread
Name <<
en queue
re ar
fron t
Ð¿Ñ Ð¾Ñ
Week day
ÑÑÑ Ð¾Ðº
ibonacc i
[v] =
Ð Ð»Ñ
Ñ Ð·
std::string& str)
wor ld
}\n const
ÐÐ¾Ð½ ÑÑÑÑÐºÑÐ¾Ñ
Ð·Ð½Ð°Ñ ÐµÐ½Ð¸Ñ
// ÐÑÐ»Ð¸
a .
l azy
pop _back();\n
( Node*
= {2,
\"ÐÐ²ÐµÐ´Ð¸ÑÐµ ÑÐ¸ÑÐ»Ð¾:
{\n vector<
( h
Ð´Ð¾Ð»Ð¶ ÐµÐ½
ÑÑÑÐ» ÐºÐ°
Ð¸Ñ Ñ
mag nitude
ic _
target) {\n
ptr 1
bytes =
<fstream>\n#include <string>\n#include
ÑÑÐ¿ ÐµÑ
i--) {\n
Ðµ \n
<< \",\"
: name(n)
s. clear();\n
d) :
std::endl;\n return;\n
Derived &
ÐµÑÑÑ Ñ
\" ÑÑÐ±.\"
Con trol
Ñ ÐµÐ·ÑÐ»ÑÑÐ°Ñ
!= nullptr)
q )
R atio
\"â 
Stre am
Specific ation
* m
r) :
ÑÐµÐºÑÐ½ Ð´
Po wer
<< duration
.count() <<
\" hello
+ \n
new char[
size() const
num) {\n
age ;\n
imag *
Serializ able
ÑÑÑÐ¾ÐºÑ: \";\n
Ð´Ð² Ð¸Ð³
Ð°ÑÐ¸Ð¸ \n
Shape {\npublic:\n
socke t
>= 0;
< str
Ð¡ Ð¢
s[i];\n }\n
( temp
type ==
Ð¢ ÐµÑÑ
Ð¸Ð½ Ð´ÐµÐºÑ
k) {\n
|| !
tw in
if (amount
twe en
\"Ð Ð°ÑÑÐ¸ÑÐ°
or d
nums) {\n
m utable
true ,
std::endl; }\n
Ñ ÑÐ¼Ð¼
<< line
Ðµ: \"
{\n std::vector<std::string>
endl;\n if
Se gment
>(end -
false;\n break;\n
Ð°Ñ Ñ
5 0};\n
1;\n int
D ;\n
(double a,
<arpa/inet.h>\n#include <unistd.h>\n#include
AF_INET;\n addr.sin_port
= [&
i +=
Ð° Ð²
D ynamic
];\n int
return std::make_unique<
= \"abc
\n vector<
type) {\n
R G
return \"\";\n
endl;\n return;\n
10) {\n
Ð°Ñ Ð°
< 2;
Virtual Base
B O
H uffman
<iostream>\n#include <type_traits
B it
u =
Ñ Ð²
{}\n friend
= matrix
6 0
{\npublic:\n double
= std::make_shared<
bo und
Ñ ÐµÑ
S ig
<< \".\"
empty() &&
running =
. s_addr
ch unk
empty() ||
val <<
Ñ Ð±
ÑÐ» ÑÑ
Ð Ð
[i]) {\n
arr, int
thread s)
Ð¿Ð¾Ð» ÑÑ
Non Copyable
A t
Point {\n
<< \"O
Ð² ÐµÑ
this ->
D O
Ð´ ÐµÑÐµÐ²
b ->
<< is_
flag s.
Al igned
A g
} catch(const
Ñ: \"
= 6;\n
Wor k
// ÐÐ¾Ð½ÑÑÑÑÐºÑÐ¾Ñ
(! visited
Ð¸Ð¼ ÐµÐµÑ
!= -1)
Ð½ÐµÐ»Ñ Ð·Ñ
_ name
* 2
8 8
5 0,
std::chrono:: high_resolution_clock::now();\n
= std::chrono::high_resolution_clock::now();\n
a /
recom mendation
string ::npos)
3;\n \n
b l
D ,
virtual string
Shape {\n
return make_unique<
> create
{\n total
<< buffer
Ñ ÐµÐ»
// ÐÐ¾Ð¸ÑÐº
Ð ¥
C V
Ð°Ñ Ñ
b 2
\n friend
Un ique
4 ;
s[i] =
type :
ÐµÐ¼ Ð¿ÐµÑÐ°Ñ
<< \"G
std::endl;\n break;\n
D A
> ep
ep s
f s::
S Q
File (const
= \"Hello\";\n
<stdexcept >\nusing
<stdexcept>\nusing namespace
must be
s;\n}\n\nint main()
5 5
g )
(const char*
Ð» Ð¾Ð¶
get() const
ch ;\n
> 1)
ÑÐ¸ÑÐ»Ð¾: \"
(std::size_t i
std::endl; }\n};\n\nclass
instance ;\n
Instance ()
*p <<
[i];\n }\n
{\n vector<string>
Value() const
.s_addr =
\") ==
thread s.emplace
2 \",
Ð½Ð°Ð¹Ð´ ÐµÐ½Ð¾
ÑÐ»ÐµÐ¼ÐµÐ½Ñ Ñ
Derived d;\n
use_count() <<
sol ute
void process
Co urse
C irc
D )
: arr)
c ustomer
bor row
ref Count
Smart Pointer
De t
Encry ption
Json Exception
= static_cast<
+ m
Circle (double
val) :
\"\\nÐ Ð°Ð·Ð¼ÐµÑ
<< \"\\nÐÐ°Ð·Ð¼ÐµÑ
\" L
5 0));\n
3 7
std:: strlen
if (!visited
4 ]
return Complex
= start
<< \"Con
' .
number <<
\".\" <<
cm d
Ð¸ Ð»Ñ
return true;\n}\n\nint
<< \"c1
8 };\n
ÐµÐ¿ÐµÑ Ñ
virtual double
& read_fd
time out
\" I
= arr;\n
send (client_fd,
\"Ð ÐµÐºÑÐ¾Ñ
Inter val
enable _if
ÑÐ¶ Ðµ
type: \"
ÑÐ¾Ð»Ñ ÐºÐ¾
F ilter
le tter
rol l
co urse
s.size(); ++i)
Ð¾Ð¿ ÑÑ
Ð¾Ð¿ÑÑ ÐºÐ°
F inal
b ank
Qu antity
ER _
123456 78
s, int
if(c ==
+= c;\n
double distance
delete[] data;\n
y;\n \n
<< \"(\"
\"(\" <<
virtual bool
\" false
<stack >\n#include
traver sal
gre ater
\"Ð Ð¸Ð½Ð¸Ð¼
<< \"ÐÐ¸Ð½Ð¸Ð¼
const int&
All ()
ÑÑÐ½Ðº ÑÐ¸Ð¸
D istance
\"ÐÐ²ÐµÐ´Ð¸ÑÐµ ÑÑÑÐ¾ÐºÑ:
[ this
<< dec
<< age
out of
m 2
';\n }\n
ter m
ug h
E X
area() <<
NUL L,
virtual std::string
std:: time_t
5};\n int
// Ð¡Ð¾Ð·Ð´Ð°Ð½Ð¸Ðµ
.size() <<
std;\n\nclass Base
{\n delete
c ategory
Ð¡ÑÑÐ» ÐºÐ°
Ð¾Ð¿ ÑÑÐºÐ°ÐµÐ¼
U E
packe t
f in
x or
. register
sqr t
atomic <
<< string
fo o
En titie
H andle
ig in
p Impl
STRU CT_
twin Prime
buffer ;\n
C I
(c)) {\n
(a +
<< \"ÐÐ°ÑÑÐ¸ÑÐ°
ÑÐ¾Ð² Ð¿Ð°Ð´
steady _clock::now();\n
Ð°ÑÑÑÐ¾Ñ Ð½Ð¸Ðµ
\"Ð¡ÑÑ Ð¾ÐºÐ°
b;\n std::cout
++it) {\n
5] =
ele m
s;\n int
double area
( \n
filename) {\n
Ð¿Ñ Ð¾Ð±
Ð´ Ð°
true;\n}\n\nint main()
mid =
result) {\n
// Ð
other. coeff
cke t
ÐµÐ¶ Ð¸Ð¼
l ie
- a
Ð½Ð¾Ðµ Ð·Ð½Ð°ÑÐµÐ½Ð¸Ðµ:
double b)
dec <<
: $\"
n ull
F A
Type ,
S U
file (filename,
Ð¨ Ð°Ð±Ð»Ð¾Ð½
= a;\n
val =
if( this
if(this !=
{\n unsigned
dp [
s2 =
back _inser
back_inser ter
value(v) {}\n
= {0,
Ð½Ð°Ð¹Ð´ ÐµÐ½
}\n delete[]
ÑÐ¸ÑÐµÐ» :
C ++1
<< \"]\"
\"]\" <<
double price
<< \"Or
\"Or iginal
<< \"Original
SIZE ];\n
ÐµÑ ÐºÐ°Ñ
\"};\n \n
t urn
g acy
failed \"
failed\" <<
To String
Str =
\n long
true;\n for
s[0] =
if (count
= nullptr)
En gine
4) <<
Id() const
ÑÐ¸ Ð¹
Ñ \"
\n if(!
namespace std;\n\nstring
endl; }\n};\n\nclass
void() >
v able
Ð²ÑÑ Ð°Ð¶
Min ute
Ðº Ñ
TI ON
get Type()
getType() const
<< \"is_
Call able
C el
M ultiton
balance <<
year <<
m 1
ÑÐµÐ½\" <<
<< to
<< \"Ð¡ÑÑÐ¾ÐºÐ°
_ queue
ge st
<= 1)
Ð¸ Ñ
<< area
area <<
left +
Ð½Ð¾ÑÑÐ¸ \n
with \"
[i +
std::getline (std::cin,
ÐµÑÐºÐ¸ Ð¹
<< i+1
Complex& other)
mid +
// ÐÐµÑ
* other.real
_fd =
{\n value
trans form
0; i--)
(double x)
<iostream>\n#include <map>\n#include
i) :
sh ut
first =
8, 1,
<< \"ÐÐµÐºÑÐ¾Ñ
id \n
at tr
9 };\n
count: \"
A fter
double calculate
c s
ÐµÐ¼Ð¿ÐµÑÐ°Ñ ÑÑ
Ð± Ð¸Ñ
unsigned long
idd le
} ;
ultiplic ation
C y
malle st
Con text
_type {};\n\ntemplate<typename
user name
[pos ]
Ne gative
long double
BU FF
BUFF ER_
<< \"ÐÐµÐ²ÐµÑ
1 ||
\"x \"
<< \"x\"
\"x\" <<
price ;\n
> :
T =
priority _queue
Sen sor
line)) {\n
= (a
dec rypted
: data)
b;\n \n
arr 1
{\nprivate:\n string
k nown
q. pop();\n
< N;
<< target
h) :
Ð¡ Ñ
U SE
D P
close (sock);\n
<iomanip >\nusing
<iomanip>\nusing namespace
4 5
Ñ ÑÐ°Ð²
Ð Ð¾Ð·
<< \"No
<= m;
month ==
Ð± Ð»
Ð Ð¾Ð´
( type
Str uct
\\n\";\n \n
std:: fab
// ÐÐ·
'- ')
\", y
< Args
\"Ð Ð´ÑÐµÑ
<< \"ÐÐ´ÑÐµÑ
lock( queue
u d
active _
0;\n while
constructor \"
constructor\" <<
void visit
<< setw(15)
setw(15) <<
Sub ject
carte sian.
FIEL D
ne uron
Ð¾Ð± Ð¼
account Number
;\n }\n};\n\nint
( 5.
Ñ ÐµÐ¼
constexpr int
<ctime >\n#include
[u ]
<vector>\n\nint main()
if (str
dx =
{}\n bool
/ 2.0;\n
b;\n cout
3) {\n
Ðº Ð½Ð¸Ð³
i+1 <<
b +
40, 50};\n
_ ex
Ñ Ð°ÑÑ
<< pair.first
6 :
return new
_ iterator
: threads)
en gine
2, 8,
total Second
Ð³ Ð»
ÐÐ· Ð¼
<utility >\n#include
Ðµ \"
& 0x
size);\n \n
Setting s
bo ard
ST A
State ()
Lo c
F in
ve hicle
( '
= 10,
f =
{\nprivate:\n std::string
{\n if(this
k <
Ð±ÑÑÑ Ð¾ÑÑÐ¸ÑÐ°ÑÐµÐ»Ñ
>: \"
Date Time
: %
= x;\n
\" Result:
<< \"Result:
begin(); it
Ð´ÐµÐ¹ÑÑÐ² Ð¸ÑÐµÐ»Ñ
: size
i ==
. )
obj ;\n
{\n c
enc rypted
Th is
duration _cast<std::chrono::
c ustom
Par ser
string result;\n
R ating
Ð² ÐµÑÑ
val :
= IN
- 1]
S core
Ð Ð¿ÑÐµÐ´
Ð ÑÐ¸Ð±ÐºÐ°
Ñ Ð°Ð¼
is Valid
print Info()
void printInfo()
end) {\n
: ptr
void register
^2 +
pattern) {\n
q =
TI ME
return id
{\n void*
D I
Ð²Ñ Ð·Ð¾Ð²
T uple
> max
<< std::setw(15)
std::setw(15) <<
5 0
Ð¾ÑÑ ÑÐ¿
B e
Builder ::
(void* ptr)
\"': \"
celsi us
pay ment
P hone
\\\n return
P impl
binary |
++ ]
file. write
time stamp
b;\n b
ing _
{1, 3,
time_ point
<< \"De
int start
10; i++)
index) {\n
<< word
distr ibution
Ñ \"
Ð¸ \n
annot open
\" Test
item :
s: \";\n
if (is_
Ð Ñ
b f
-1;\n }\n
width (w
3, 5,
IN ADDR
INADDR _
\"Ð ÑÐµ
<< \"ÐÑÐµ
ÑÑÐ¿ÐµÑ Ð½Ð¾
Ð²Ñ Ð±Ð¾Ñ
if (new
m -
getline (cin,
En try
<< *it
std:: unordered_set
{\n Point
: 0;\n
acce ss
. args)
ÐµÐ· Ð¾Ð¿Ð°Ñ
s +
ver se
RG B
<< book
Ð» ÐµÑ
AL I
. data(),
& b)
d 2
\"ÐÐ²ÐµÐ´Ð¸ÑÐµ ÐºÐ¾Ð»Ð¸ÑÐµÑÑÐ²Ð¾
constexpr bool
String &
[0] <<
\"true \"
Ð½Ð°Ð¹Ð´ÐµÐ½\" <<
; });\n
= 0x
std:: ab
3.14159 26
Proce ssing
< list
Ñ ÑÑÐµÑÑÐ²
gr id
n &&
string::npos) {\n
med iator
= n
int y
D :
on port
total =
<cstdlib >\n#include
int sock
Ð¨ Ð°Ð³
Tracker ::
Resource *
text ;\n
thread s;\n
Ð¼ Ð°
Do wn
- Ð½Ðµ
\" 4.
<< \"4.
: \"\"
Re ad
: task
sym bol
void clear
Type Info
c a
Thread Pool
std:: out_of_range
Pr int
Reg istered
Connection Pool
sk ip
Category ::
Pimpl Example
file. read
<< balance
Ð¾ :
1; i++)
( this
(this !=
= p
< 10;
Ð± Ñ
int value;\n
Ð¼ ÐµÐ½Ñ
o und
Ð½Ð¾Ðµ Ð¿Ñ
ÑÐ°Ð´Ð¸ ÑÑ
\"ÐÐ»Ð¾ÑÐ°Ð´ Ñ
<< \"ÐÐ»Ð¾ÑÐ°Ð´Ñ
std::unordered_map <char,
ailed to
\"ÐÐ± Ñ
<< \"ÐÐ±Ñ
of range
\";\n std::getline(std::cin,
Ð¾Ñ ÐµÐ½
return -1;\n
count ;
width(w ),
<< w
n %
printInfo() const
s[i] ->
Index =
* 2,
<string>\n#include <sstream>\n#include
< 10
double &
y ;
v iew
// Ð¡ÑÑÐ»ÐºÐ°
{\n threads.emplace
g ;\n
\"ÐÑ ÑÐ¾ÑÑÐ¸ÑÐ¾Ð²Ð°Ð½Ð½ÑÐ¹
<< \"ÐÑÑÐ¾ÑÑÐ¸ÑÐ¾Ð²Ð°Ð½Ð½ÑÐ¹
F actor
inser t
<atomic >\n#include
add ition
Ne w
Ð² Ð°Ð½
Ð¸Ð½ Ñ
in Use
raw ing
A S
int y)
c <=
data (
( N
original =
ord in
ordin ate
operator <
<type_traits >\n#include
? \"true\"
\"true\" :
: \"false
size_t size()
Ð· Ð°
< m;
int index
if (index
msg <<
D =
3.1415926 5
mutex m
all ();\n
Ð 
vector<thread >
// Ð¤
{\n Student
.length(); i++)
col league
\"Ð¡ÑÐµÐ´ Ð½ÐµÐµ
<< \"Ð¡ÑÐµÐ´Ð½ÐµÐµ
0, int
Fraction& other)
operator /
4. 0,
File ,
sock =
json <<
\n Polynomial
Ðº Ñ
\"Ð Ð¼
<< \"ÐÐ¼
initial ize
<< \"[\"
\"[\" <<
\" },
Value() <<
std:: type_index
flag s
off set
Base* b
{\n std::vector<
}\n }\n};\n\nclass
1] =
for(std::size_t i
in .
ÑÐ¾Ð² Ð°Ñ
sh are
},\n {
ÐÑ Ð¾Ð¿ÑÑÐºÐ°ÐµÐ¼
\"C annot
node) {\n
unordered_map <char,
std::string& key)
.add Edge
[] (double
Ch ild
<< \"':
3x 3
An d
Wr ite
unique_ptr< Expression>
A sync
igin ator
ical .
:\";\n cin
int data;\n
b;\n}\n\nint main()
<< distance
<< height
w =
operator !=(const
Node* current
std::unordered_map <std::string,
am b
y, z
= left
execute() override
double b
dec imal
der ived
: Base
= INADDR_
INADDR_ AN
= INADDR_AN
INADDR_AN Y;\n
= INADDR_ANY;\n
1 \n
= pattern
( text,
ÑÐ² Ð°ÐµÐ¼
Ð¿Ð°Ñ Ð°Ð¼
: \"\")
factor ie
All();\n \n
time (nullptr);\n
*it <<
e t
<Args >(args)
Ð¶ Ðµ
h n
Proto col
y 2
d imension
< V
ad v
setprecision (2)
<< setprecision(2)
R ight
ÑÐ¸Ð¿ Ð°
if(it !=
draw() const
a hrenhe
has_size_ method_v
g uest
fl ush
+= amount;\n
{\npublic:\n int
1 \"
distance To
bool operator!=(const
operator< (const
(std:: is_same_v
constexpr (std::is_same_v
}\n //
v :
(reinter pret_cast<char*>(&
return;\n \n
0);\n std::cout
c;\n std::cout
: \"ÐÐµ
p ;\n
p1 =
file. is_open())
Sig n
ÐÐ¾Ð½ ÑÑÐ°Ð½Ñ
str .length()
% 10;\n
/= 10;\n
me an
= mid
5);\n \n
V E
w, double
radius <<
addr.sin_addr .s_addr
addr.sin_addr.s_addr =
== E
buffer <<
cho ice
{\n print
<< con
Ð Ð
* i
3 3
j ;\n
shut down
type ;\n
: type
{5, 2,
Count++;\n }\n
test1 =
test2 =
ÑÑ Ð°Ñ
<< task
count++;\n }\n
from \"
close (client_fd);\n
threads) {\n
\"Ð¢Ð¾Ñ ÐºÐ°
<< \"Ð¢Ð¾ÑÐºÐ°
ud io
[1] =
Suffix Tree
<< calculate
order _
n ap
F ibonacci
},\n {0,
<< re
Ð Ð¾Ð¿ÑÑÐºÐ°
: std::
My Class
re mainder
Binary Op
+ x
SS L_
C ipher
sh ift
per mutation
back up
throw JsonException
= c;\n
Ð Ð°Ð±Ð¾Ñ
d <<
val ;\n
0);\n }\n
r ;\n
double c
sel l
:\";\n std::cin
[v]) {\n
ÑÐ¾Ð´ ÐµÑÐ¶
duration =
Ð Ð°Ð·
mic roseconds
std::string result;\n
= \"\")
( true)
\"Hello World\";\n
0.0;\n \n
\"Result: \"
= 7;\n
Ð½Ð° Ð¿Ð¾Ð·Ð¸ÑÐ¸Ð¸
Ð½Ðµ Ð½Ð°Ð¹Ð´ÐµÐ½\"
max Length
ÐºÐ¸: \";\n
5) {\n
'},\n {'
z ;\n
c;\n cout
< random
< >
file :
Ñ ÐµÐ¹
_ result
auto end
std::chrono:: duration_cast<std::chrono::
number =
v2 =
<< h
Ð¿Ð¾ÑÐ»ÐµÐ´Ð¾Ð² Ð°ÑÐµÐ»Ñ
int target
width(w), height(h)
* radius;\n
Ð¾Ð» ÐµÐµ
std:: mutex
ÑÐºÐ°Ð·Ð°ÑÐµÐ»Ñ Ð½Ð°
); //
Ð¿ÐµÑÐ² Ð¾Ð³Ð¾
(n %
\" W
Status();\n \n
e =
entr ie
Ð´Ð² Ð°
age =
7 7
id ;
= 1,
\n private:\n
] ]
\"\\n \\n
<< \"\\n\\n
ptr;\n }\n
Ð°Ñ Ð³
u ,
// ÐÑÐ¾Ð¿ÑÑÐºÐ°ÐµÐ¼
E ven
s mall
];\n for(int
Size ()
std:: queue
k opeck
se q
-= amount;\n
is match
- 0
file.close();\n return
r 2
to upper
Data =
bool operator<(const
s1 =
<vector>\n#include <memory>\n#include
(int v)
<< \"b
recur sive
9 ;\n
r .
= 3.14;\n
<iostream>\n#include <vector>\n\nint
word <<
3.14159265 35
: '\"
LO W
cannot be
<< \"Invalid
Matrix2 x2
Ð Ð
Ð½Ð¾Ðµ ÑÐ¸ÑÐ»Ð¾
reversed =
0 },
q.empty()) {\n
= 1)
ptr1 =
double h)
<stdexcept >\n\nclass
< iterator
N ON
errno ==
ssize_t bytes
() %
\" p1
<< \"p1
ÑÐ¸Ð¼Ð²Ð¾Ð» Ð¾Ð²
\";\n getline(cin,
}\n file.close();\n
str ();\n
B E
5;\n \n
* *
<< \"*\"
\"*\" <<
Ð Ð¾Ð´Ð¸ÑÐ¸
{\n os
H I
= sum
Name =
<< \"ÐÐ¾Ð´
Priority ::
e ,
0x FF
\"Â °C
[]() {
Description ()
TY PE
r isk
Concrete Element
AB LE
A st
std:: any
// ÐÐ¾Ð¿ÑÑÐºÐ°
w o
city _
P LA
PLA Y
c p
sub ject
I MP
Cel si
u _
chrono:: high_resolution_clock::now();\n
= chrono::high_resolution_clock::now();\n
Reser vation
= 2.
|| month
3 1,
: data(
p) {\n
<iostream>\n\nclass Base
width <<
<< '
! (*this
return !(*this
tern ative
\" d
Z ero
<< \"Ð
line <<
Ñ Ð´Ð»Ñ
<cmath >\n\nclass
// ÐÑÐ¸Ð±ÐºÐ°:
ÐºÐ¾ ÑÑÑÐ¸ÑÐ¸ÐµÐ½Ñ
Ð¿Ð» ÐµÐºÑ
Ñ:\" <<
data;\n }\n
L I
target =
<< std::get
ptr2 =
con text)
sec =
E W
= std::min
{ 7,
<iostream>\n#include <cstring>\nusing
// ÐÑÐ¸Ð±ÐºÐ°
pair.first <<
\" Ð²
\",\" <<
M utex;\n
<string>\n#include <unordered_map>\n#include
[c ]++;\n
(a ==
* e
< num
std::string& msg)
-> set
std::string& n)
& operator=(
< 2
Ð°Ð» Ð»
Ser ver
int num;\n
<< current
data[i] =
\"\\n= ÐÑÐ¸Ð¼ÐµÑ
Ð²ÐµÑ Ñ
f ut
Args &&
Args&& .
Args&&. args)
x, int
<< original
= 1.0;\n
ab s
std::string::npos) {\n
lock .
Visitor {\npublic:\n
Ð¾Ñ 1
1 Ð´Ð¾
string& key)
0);\n if
\" v1
<< \"v1
- '0
G ro
atern ion
O ut
F ahrenhe
str2 =
Ð°ÑÐ¾Ñ Ð½Ð¾
Balance ()
month ,
0; k
return 2
Ð´Ð¾Ð»Ð¶ Ð½Ð°
sho uld
std:: endl
<< std::endl
' /
0 *
data ;
Ð¿Ð¾ ÑÐ¼
ÑÐ¼ Ð¾Ð»
Ð¿Ð¾ ÑÐ¼Ð¾Ð»
ÑÐ¼Ð¾Ð» Ñ
Ð¿Ð¾ ÑÐ¼Ð¾Ð»Ñ
ÑÐ¼Ð¾Ð»Ñ Ð°Ð½Ð¸Ñ
Ð¿Ð¾ ÑÐ¼Ð¾Ð»ÑÐ°Ð½Ð¸Ñ
(auto it
> get
friend class
3, 2,
\"Ð¤ Ð°Ð¹Ð»
<< \"Ð¤Ð°Ð¹Ð»
(num <
(4 2);\n
string& msg)
true _type
constexpr (is_same_v
s +=
<string>\n#include <algorithm>\nusing
_ l
Plugin Manager
pair<int, int>>
se g
file.is_open()) {\n
\"); //
ple \",
99 );\n
operator s.
\"ÐÐµÑ Ð²ÑÐ¹
<< \"ÐÐµÑÐ²ÑÐ¹
\"\";\n \n
int mid
get Value()
& x;\n
= &x;\n
endl;\n int
perimeter ()
> clone()
}\n static
SO CK
\"Ð§Ð¸ÑÐ» Ð°
<< \"Ð§Ð¸ÑÐ»Ð°
Ð Ð
\";\n int
created \"
created\" <<
= arr[
0;\n for(int
status =
Simple Span
ÑÑ Ñ
<< test1
test1 <<
<< test2
test2 <<
std::string& s)
// ÐÐ·Ð¼
task :
ex ample.
V ol
// ÐÐ¾Ð±Ð°Ð²Ð»ÐµÐ½Ð¸Ðµ
<< \"Â°C
operator() (const
TT P
< /
S ;
CS V
\n T
com mon
coffe e
b st.
// Ð­
2, '
Ast Builder::
AstBuilder:: make_
city_ network
Concrete Observer
Me mento
element s.
transaction .get_
','. ','.
Token Type::
Ð½Ð°Ñ ÑÑÐ½ÐºÑÐ¸Ñ
& a,
Ñ ÑÐ°Ð·
( y)
root) {\n
re qu
height <<
friend std::
Value (
dy =
(); ++it)
<vector>\n#include <queue>\n#include
numbers[] =
<< std::endl;\n\n
int age;\n
: real
<< real
start ;
static bool
, ÑÑÐ¾
s; ++i)
while (left
*ptr =
return width
tr iangle
<< numbers[i]
numbers[i] <<
start +
ToPtr =
{\npublic:\n std::string
}\n }\npublic:\n
<< \"==\"
\"==\" <<
2 7
Ð 
{\n is
[]() {\n
return value;
get Id()
void set_
ÑÑÑÐ» Ð¾Ðº
\"Ð ÑÐ¾Ñ
Date &
\"0 \"
std::endl;\n for(int
task s.
Ð¡ÑÑÐ»ÐºÐ° Ð½Ð°
0x \"
0x\" <<
virtual public
ref <<
= parse
Count() const
ar m
Array &
V ;
n *
Visitor :
return ptr;\n
<< left
<< search
operator delete
D iv
G IN
CH E
Ag gregate
seek g
= 5,
double a
0);\n cout
Ð´Ð¾Ð»Ð¶Ð½Ð° Ð±ÑÑÑ
< 8
m ismatch
result 2
<iostream>\n#include <memory>\nusing
auto duration
// ÐÐ¾Ð»
find Max
int k
( k
+= \"
Ñ Ð¼
Cre ating
neighbor :
i++;\n }\n
int min
{\n validate
(int value)
Per mutation
ÑÑÐµÑ ÑÐ¸Ðº
instance =
num;\n std::cout
auto& item
price <<
Ð±Ñ ÐºÐ²
result [i]
!= string::npos)
c2 =
val) {\n
Ð²Ð» ÐµÑ
target <<
V A
shape ->
an \",
server _fd
endl;\n for(int
str1 =
= \"A
ÐµÐ² Ð¾Ð¹
++] =
ÑÑ Ð°Ð½Ð°Ð²Ð»Ð¸Ð²
Ñ ÐµÐ½Ð¸Ðµ
Ð¿Ð¾Ð·Ð¸ ÑÐ¸Ñ
Ð½Ðµ ÑÐ²Ð»ÑÐµÑÑÑ
\", \";\n
// Ð¡Ñ
s[1] =
Count [
ener ic
{\n if(arr[i]
bin \");\n
b 1
O K
c b
Ð² Ð°Ð´ÑÐ°Ñ
name; }\n
arr +
example. com
Args. args)
\"\\n Ð
<< \"\\nÐ
PO L
Ð¿Ñ ÑÐ¼Ð¾
counter =
Circle &
cope Guard
<< model
+ 1;
a :
[key ]
j ++;\n
Request &
setprecision(2) <<
color =
atomic< bool>
Json Object
successf ul
f s
Door State::
Vector3D &
max Size
Money &
De vice
e sar
IMP LE
IMPLE MEN
reser vation
<< is
: radius(r)
c irc
>> word)
left(nullptr), right(nullptr)
Node* root
duration .count()
ÑÑÑÑÐº Ñ
ex ample
numerator *
new double
] {
{\n char*
== 0;
index) const
s_ al
s_al ternative
= pq.
= arr[0];\n
= root;\n
string :
validate _
x (x
y( y
z <<
wa it(lock
wait(lock ,
\" |
l ight
Ð´Ð»Ñ Ð´
width *
int client_fd
client_fd =
= recv
Ð¾Ñ ÑÐ¾ÑÑÐ¸ÑÐ¾Ð²Ð°Ð½
\"ÐÐµÐ²ÐµÑ Ð½ÑÐ¹
<< \"ÐÐµÐ²ÐµÑÐ½ÑÐ¹
0) cout
msg ,
red uce
result;\n result.
hash =
N ING
ÐºÑ ÐµÑ
toString() const
Ð´Ð°Ð½Ð½ÑÑ \n
string& n)
_ id
return total
a 1
int x,
\npublic:\n static
<< std::setw(10)
std::setw(10) <<
<< hex
End ing
endl;\n //
Ð°ÑÐ³ ÑÐ¼
Ð¾Ðµ ÑÐ¸ÑÐ»Ð¾:
Ð³Ñ Ð°Ð½Ð¸Ñ
{}\n int
Count ;
' [
<< error
not found
< V;
[i][j];\n }\n
<memory>\n#include <vector>\n#include
h al
base =
void* ptr
M ach
b ig
U T
By Id
Gro up
1;\n unsigned
tr i
S peed
at tach
ite space
( y
== 2)
<< year
Ñ ÐµÐ½
duration.count() <<
Add ition
Ð¡ ÑÐ°Ð²Ð½ÐµÐ½Ð¸Ðµ
= \"hello
current ;\n
{\n ofstream
<< \"ÐÐ¸Ð½Ð¸Ð¼Ð°Ð»Ñ
h t.
cv. notify_
B :
get Instance()
= k
\"Ð Ð½
<< \"ÐÐ½
Ñ ÐµÑ
5, 6};\n
{\n arr[i]
&& c
result;\n \n
by zero
}\n break;\n
imag <<
magnitude ()
obj) {\n
<f cntl
Ð¾Ð±Ð¼ ÐµÐ½Ð°:
double side
<< radius
= vec.
msg =
int value)
(vec.begin(), vec.end(),
Ñ: \";\n
Ð² Ð¸ÑÐ¾ÐºÐ¾Ñ
string& s)
( void)
r) {\n
std:: po
0) std::cout
Ñ Ñ
mod ify
default;\n \n
< 1e-9
- side
in line
Time =
CO MP
COMP LETE
<< endl;\n\n
// Ð§
(n <
temperat ure
[i][j] <<
U R
0) <<
}\n for
Nex t
overflow _error
(n -
d q.
forward ing
N o
Stat s();\n
-> color
log (const
void log(const
P RI
u it
Ð·Ð°Ñ Ð²
ÑÐ¼ ÐµÑÐ¸Ñ
last =
So urce
Dependenc ie
alig nof
x ml
m ul
BST Node*
de serialize
MO DE_
Library Item
Transaction Type::
IMPLEMEN T_
Tr uck
balance +=
\"Ð¡ ÑÐµÑ
<< \"Ð¡ÑÐµÑ
% 100
&& y
Ð¼Ð°ÑÑÐ¸Ñ Ñ
{\n data
cols; j++)
if (root
0;\n if
->right =
t 2.
1;\n for
ÐÐ¾Ð» ÑÑ
time (&
( time
r 1
base ;\n
8, 9,
int numbers[]
( Ð²
int MAX_
% i
: x(x
<< \"int
<condition _variable
condition _variable
file: \"
= start;
name;\n double
<< pos
void on
{4, 5,
<< endl
Ð¼ Ð¾Ð´Ð¸ÑÐ¸
is Palindrome
incre ment();\n
0 /
Shape >
set sock
sockaddr*)&addr, sizeof(addr))
Ñ :
rand ()
- 1,
Ñ ÑÐ¾
\"ÐÐ°Ð¹Ð´ ÐµÐ½Ð¾
position s;\n
Char =
Ð¿Ñ Ð¾ÑÑ
<< \"\\n\";\n
9 )
empty() ?
i++) cout
while(true) {\n
<< event
str ()
<< std::string
(); //
join();\n \n
<< \"H
<< \"Cannot
5; ++i)
C P
model <<
D uplicate
J o
Jo hn
M iddle
ap pro
\" 10
<< \"P
Ð¿Ð» Ð°Ñ
void operation
{\n state
to g
Expression {\n
Message &
void write
ÑÐ°Ð· Ð½ÑÑ
{\n result.
ÐºÐ¸: \"
std::endl <<
= y;\n
ÑÐ°Ð· Ð´
size; ++i)
+ b;\n
int u
1\" <<
double width,
Ð²ÐµÐºÑÐ¾Ñ :
Ð Ð»
dx +
{\n visited
Lon gest
tel l
' *
s);\n \n
num;\n cout
max =
<< \"ÐÐ¾Ð¸ÑÐº
Ð½Ð¾Ðµ ÑÐ¸ÑÐ»Ð¾:
(double x
false _type
{\npublic:\n string
<< (has
b n
m tx;\n
{\n unique_lock<mutex>
a %
microseconds >(end
pos <<
int SIZE
in valid
< right)
\"Ð¡ Ð»
getValue() const
:: create
Ð½Ð¾Ðµ Ð·Ð½Ð°ÑÐµÐ½Ð¸Ðµ
server_fd =
SO L_
SOL_ SOCK
f cntl
3) ?
[j]) {\n
\n int*
Ð Ð
Ð°Ð» Ð³Ð¾ÑÐ¸ÑÐ¼
] >
s.\" <<
Ð½Ð¾ÑÑÑ: \"
ÐµÐ»ÐµÐ½Ð¸Ðµ Ð½Ð°
return data_
I C
( t),
\n std::size_t
BUFFER_ SIZE
< U
= create
operator<<( ostream&
v ia
< 4;
std:: left
<< std::left
std::left <<
sum /
10 ?
- i
I O
Start =
std::endl;\n //
test 3
a unch
Ñ ÐºÐ¾Ñ
Ð´ ÐµÐ¼Ð¾Ð½ÑÑÑ
ser vable
ÑÐ»ÐµÐ¼ÐµÐ½Ñ \n
title ;\n
A udio
b ar
x, double
side ;\n
<< \"Mo
20 2
Demon stration
- 1];\n
toString() <<
D ue
allocated Block
<< setw(10)
setw(10) <<
epo ch
Ex ec
Vec 4
<< \"//
_ event.
<fstream>\n#include <vector>\n#include
= 8;\n
if (year
100) {\n
{\n Date
Matrix& other)
\"ÐÑÐ¸Ð±ÐºÐ°: \"
radius(r) {}\n
(s) {}\n
int v
{0, 1,
<< duration.count()
// ÐÐ¾Ð»ÑÑ
{\n x
String (const
operator<<(std:: ostream&
return os
double length
variant <int,
decay _t
\"false \")
= graph
bool> visited
{\n i++;\n
Ð¿Ð¾Ð·Ð¸ÑÐ¸Ð¸ \"
: filename
\"ÐÐ²ÐµÐ´Ð¸ÑÐµ ÑÑÐ¸
1) %
Ð¼Ð°ÑÑÐ¸Ð² Ð°:
Ð¿ÑÐ¾Ð± ÐµÐ»
const T&
auto start
microseconds>(end -
( text
ÑÑÑÐ»ÐºÐ° Ð½Ð°
<vector>\n#include <numeric
con j
int num,
height ;
(i %
Ð± Ð¾Ð»ÐµÐµ
buffer, sizeof(buffer)
/ 2
else cout
{\n for(size_t
x) const
Ð² Ð°Ð»Ð¸Ð´
pattern .length();\n
= pattern.length();\n
\n {\n
height =
ptr ;
find Min
< set
distance =
2) +
Ð²ÐµÑ ÑÐ¸
_t <
operator<<(ostream& os,
b :
use ();\n
<< std::setprecision(2)
? \"0\"
\"0\" :
bool can
i++) std::cout
<string>\n#include <vector>\nusing
_val =
{ 1.0,
5. 0,
c cur
: virtual
ff ic
<< ref
: cout
Ñ ÐµÐ³
b) <<
<thread>\n#include <mutex>\n#include
ÑÐ»Ñ ÑÐ¸Ñ
\" 5
is Leap
= T
e scape
Ð Ð°Ñ
= cache.
bad_ alloc
Mach ine
* 100
right ->
log File
void operator
S ched
G U
he alth
ÐµÐ³Ñ Ð°Ð»
Per mission
SQ L
String Wrapper
swap :
Circle(double r)
Computation s::
4 2
C ity
{ 1.
\"Ð Ð°ÑÑÑÐ¾ÑÐ½Ð¸Ðµ
<< \"ÐÐ°ÑÑÑÐ¾ÑÐ½Ð¸Ðµ
w .
ostream& operator<<(std::ostream&
operator<<(std::ostream& os,
s1 <<
(true) {\n
<cmath >\n\nstruct
Area ()
Circle circle
' 1
Ð±Ð¾Ð»Ñ ÑÐµ
failed :
real <<
C++1 7
m t199
mt199 37
void sor
\" R
new int[size];\n
5;\n int
3 *
Ð ¬
0, right
1;\n while
std:: reverse
{ {1,
= q.front();\n
q.front();\n q.pop();\n
<< \"Ð¡Ð»
msg) override
Circle :
us() const
vol atile
SOL_SOCK ET,
SOL_SOCKET, SO_
F L,
std::vector<std::thread >
i);\n }\n
rand() %
Ð²ÐµÑ Ñ
close(sock);\n return
ÑÑÐ°Ð½Ð°Ð²Ð»Ð¸Ð² Ð°ÐµÐ¼
text, const
<< pattern
Ð´Ð»Ñ Ð¿ÑÐ¾Ð²ÐµÑ
choice ;\n
(year %
Count) {\n
t) {\n
-1]) {\n
Ñ Ð°Ð¹
<< \"ÐÑÐµÐ³Ð¾
}\n \nprivate:\n
double det
{\nprivate:\n static
r itical
s; }\n
Ending Here
\") ?
lo at
L );\n
aunch ::
Ð¼Ð¸Ð½Ð¸Ð¼ ÑÐ¼
Vol ume
noexcept \n
prom ise
Ob servable
ÐÐ·Ð¼ ÐµÐ½ÐµÐ½Ð¸Ðµ
!= std::string::npos)
Al arm
ÐºÑ Ñ
We ight
g .addEdge
\");\n auto
un iver
Id <<
ÑÐ¸Ð³ ÑÑ
<< "
-> handle
Stats();\n \n
free (ptr);\n
ÑÑ ÑÐ´ÐµÐ½Ñ
F ive
(std:: declval
Trie Node*
= current->
static void*
+ z
Bo ole
Boole an
month ly
void* operator
score +=
memory Pool
negative =
value \n
Th row
free List
DE C
O ther
Type Erased
operator \"\"
4 ==
if (m
if (month
k ++)
k++) {\n
double radius;\npublic:\n
{\n Circle
s >
<< width
<iostream>\n#include <cmath>\n\nstruct
Ð²ÐµÐºÑÐ¾Ñ: \";\n
add (const
vector< bool>
std::string& name)
top() <<
_ sor
radius =
= hash
if (age
{\n Complex
amb da
x, y,
\" Y
s.erase (it);\n
end ;
Ñ Ð½Ð¾Ð²
p) :
- start);\n
<< \"m1
+ 2)
Ðµ Ñ
endl; }\n};\n\nint
== target)
Ð¢ Ð¸Ð¿
~ Base()
2;\n }\n
\") +
std::endl;\n int
<fcntl .h>\n#include
fd =
area: \"
addr;\n addr.sin_family
(server_fd, (struct
] (int
str1 <<
\" Ð¸
Ð Ð¾Ð¼
(5) <<
2, 2,
ÑÐºÐ°Ð·Ð°Ñ ÐµÐ»ÐµÐ¹
Polynomial &
&& b
name \n
2;\n std::cout
void undo
n) {
Ð² Ð¼
& d;\n
= &d;\n
k <<
// ÐÐ¾Ð´Ð¸ÑÐ¸
*p =
<< \"ÐÑÐ¾Ñ
length :
length: \"
Name ;\n
std:: set
topolog ical
\" Task
node :
Ð¿ÐµÑÐµÐ¼ÐµÐ½ Ð½ÑÑ
one ();\n
Ptr +
std:: hex
<< std::hex
std::hex <<
<< (a
];\n}\n\nint main()
name :
is not
<< \"Test
if (d
end ing
get Max
b ==
ÑÑÐµ ÑÐ³Ð¾Ð»ÑÐ½Ð¸Ðº
Ð¿Ñ Ð¾Ð³Ñ
height(h) {}\n
delete;\n \n
void save
Ð¿Ñ Ð¾Ð¸Ð·Ð²ÐµÐ´
br id
AB \";\n
Al gorithm
Acce ss
const size_t
ÐÐ°Ð±Ð¾Ñ Ð°
// Ð½Ðµ
m, int
radius;\npublic:\n Circle(double
int N
h ;\n
weight ;\n
<< \"L
= 200;\n
numerator <<
};\n }\n
p ,
ÑÐ¸ÑÐ»Ð°: \";\n
4] =
std::vector<int> nums
{\n std::ofstream
Y _
Ð¾Ð± Ñ
string: \"
Ð´Ð¾Ð»Ð¶ÐµÐ½ Ð±ÑÑÑ
failed: \"
real *
double to
}\n }\n}\n\nint
Ñ\" <<
Ñ Ð´Ð²Ð¸Ð³
'A '
\"Hello ,
|| b
Ð» Ð¾Ð³
< text.length();
Ñ :
wa it
1) *
Expression Exception
return it->second;\n
digit =
r p
<< str1
(left <
: \"Ð½Ðµ
Re al
-> next
pe ek
bool isE
double h
0) throw
: shape
string& name)
(0) {}\n
for k
\" Value:
{\n running
\n sockaddr_in
bytes ]
( total
s rand
\"},\n {\"
Ð¿ÑÐ¾Ð²ÐµÑ ÐºÐ¸
bool found
auto *
Animal {\npublic:\n
ÑÑ ÐµÐ¿
sto i
getId() const
return id;
();\n if
std:: str
value;\n \n
typename =
\" ÑÐ¾Ð·Ð´Ð°Ð½\"
s g
while (temp
* (p
Ñ Ðµ
inline static
Me m
N O
G H
arr;\n \n
vo wel
Ð½ÐµÑ ÐºÐ¾Ð»Ñ
ÑÑÑÐ»ÐºÑ Ð½Ð°
l ing
64 _t
_type =
with _
namespace std;\n\nenum
int& ref
Qu ote
Ð¾Ð¿ÐµÑ Ð°
f _
int value;\npublic:\n
' }
// ÐÐµÑÐ¾Ð´
[ start
Ð² Ð¾
> )
if (current
Ð¸ÑÐ¿Ð¾Ð»ÑÐ· ÑÐµÐ¼
int n,
Ð°Ð±Ð»Ð¸ Ñ
st. top()
void show()
\" ÑÐ²Ð»ÑÐµÑÑÑ
Rate =
demon strate
public Expression
iction ary
Ð¿ÑÐ¾Ñ ÐµÑ
Qu aternion
poly nomial
IMPLEMENT_ STRUCT_
40 9
2. 7
Ñ Ð°Ðº
double balance
true;\n }
{\n Matrix
1 7
Ð¸Ð·Ð¼ ÐµÐ½ÐµÐ½Ð¸Ñ
= !
ÑÐ¾Ð´ÐµÑÐ¶ Ð¸Ñ
ÐÑ ÑÐ¸ÑÐ»ÑÐµÐ¼
// ÐÑÑÐ¸ÑÐ»ÑÐµÐ¼
ÐÐ¾Ð¿Ð¾Ð»Ð½Ð¸ÑÐµÐ»Ñ Ð½ÑÐµ
Rational &
false;\n }
operator >(const
bool operator>(const
std:: ostream&
<< s1
\"a =
: \"false\")
\"false\") <<
graph .size();\n
= graph.size();\n
min =
ÑÐ¾ÑÑÐ¸ÑÐ¾Ð² ÐºÐ¸:
s) <<
type ()
<iostream>\n#include <cmath>\n\nclass
msg) {\n
<< obj
wait(lock, [this
<list >\n#include
() &&
std::endl; }\n};\n\nint
ap pend
<cctype >\n\nint
4) {\n
\". \"
newNode ;\n
Ð¿Ð¾ ÑÑÑÐ»
1) :
Ð½Ð¾ÑÑÐ¸ :
] <
virtual ~Base()
\" test
: std::cout
~ Shape
virtual ~Shape
: width(w),
0));\n \n
: title
IN T
std:: unique_lock<std::mutex>
&& j
ÑÐºÐ°Ð· ÑÐ²
denominator =
\"ÐÑÑÐ¾Ð´ Ð½Ð°Ñ
<< pair.second
int start,
true;\n if
\n sor
();\n delete
ÐºÐ°: \"
_code ()
Resource >
= delete;\n};\n\nint
delete;\n};\n\nint main()
= INT_MAX
undo ()
void undo()
Ð´ ÐµÐ»ÐµÐ½Ð¸Ðµ
% =
\n Resource
B ,
friend ostream&
ostream& operator<<(ostream&
\"Ð Ð²Ð°Ð´ÑÐ°Ñ
<< \"ÐÐ²Ð°Ð´ÑÐ°Ñ
Ð½ ÑÑ
<< \"Cache
// ÐÐ±ÑÐ°Ð±Ð¾ÑÐºÐ°
std:: future
<chrono >\nusing
<chrono>\nusing namespace
Ð´Ð°Ð½ Ð½ÑÐµ
cs v
f ir
u )
\" f1
<< \"f1
p <<
\"\\n Ð
<< \"\\nÐ
arr[], int
ÐÑ ÑÐ¸ÑÐ»ÐµÐ½Ð¸Ðµ
Ex tended
Ð°Ð»Ð» ÐµÐ»Ñ
r ink
Ñ Ð°Ñ
act ual
Ð°ÑÐ¸ ÑÐ¼ÐµÑÐ¸Ñ
F ull
Ð Ð
cre ator
conn .
AN G
eps) {\n
ÐµÑÑ Ñ
5. 0
ÐÑÐ¸Ð¼ÐµÑ 1:
ÐÑÐ¸Ð¼ÐµÑ 2:
data;\n Node*
Node* left;\n
diff =
2. 5,
s 3
\" 2
normalize ();\n
9, 10};\n
Ð³Ñ Ð°Ñ
<< \"d
else if(
<iostream>\n#include <functional>\n#include
input) {\n
( .)
string& filename)
A :
[c ]
ument &
ument& e)
}\n}; </w>
= (i
at position
= \"\";\n
Ð Ð
2;\n cout
'0 ';\n
<< \"Number
repl ace
\"i \";\n
<< \"i\";\n
c 3
rece ive
Counter ()
Base {\n
};\n\nint main()
shape s)
: shapes)
total Area
top Index
int server_fd
bytes] =
0, j
ÐºÐ¾Ð¾ÑÐ´Ð¸Ð½Ð°Ñ Ñ
4);\n \n
] +=
\"Ð¡ Ð¸Ð¼
<< \"Ð¡Ð¸Ð¼
\"In itial
<< \"Initial
con text
string name;\npublic:\n
this_thread::sleep_for(chrono:: milliseconds(
All() {\n
\" Time
b, c,
[j -1])
ÐµÑÑ Ñ
\"ÐÐ²ÐµÐ´Ð¸ÑÐµ Ð´Ð²Ð°
P urchase
ÐÐ¾Ð´Ð¸ÑÐ¸ ÐºÐ°ÑÐ¸Ñ
7 :
std::string name;\npublic:\n
256 ];\n
noexcept :
= 30;\n
\", b
maxVal =
get Total
heap [
forward <Args>(args)
int size)
\"Â°C \"
<< \"Â°C\"
\"Â°C\" <<
S copeGuard
original <<
\"\\n 2.
<< \"\\n2.
Ð¿ÐµÑÐµÐ¼ÐµÐ½ Ð½Ð¾Ð¹
- ÐºÐ¾Ð´
RGB Color
de queue
P ipeline
(a <
(5, 3)
_ pos
A *
\"\\n 1.
<< \"\\n1.
memory_ order_
= cache
. create
= [](double
<< \"ID:
\"ID: \"
_ ptr
Ð¼ ÐµÑ
Ref ()
auto& task
anc ial
C LO
| =
Ð¼ Ñ
Ð¼Ñ ÑÑ
l ar
<< \"Value:
\"Value: \"
ÑÐ¾Ð±ÑÑÐ¸ Ð¹
( event
std:: array
> eps
control ->
operator\"\" _
\"\\nÐ Ð¾
<< \"\\nÐÐ¾
str2 <<
(amount >
Ð±Ð°Ð» Ð°Ð½Ñ
% 400
um ference
Node(int val)
data( val),
: data(val),
year =
<< \"=\"
\"=\" <<
operator() (int
<climits>\nusing namespace
// ÐÐ»Ñ
{\n Time
ÑÐ°Ð·ÑÑ ÑÐµÐ½\"
ÑÐ°Ð·ÑÑÑÐµÐ½\" <<
String& other)
!(*this ==
friend std::ostream&
std::ostream& operator<<(std::ostream&
& a;\n
= &a;\n
Ð½Ð¾Ð¼ Ð¿Ð¾ÑÑÐ´
3};\n \n
<iostream>\n#include <typeinfo
Ð¼ Ð¾Ð³
(i ==
<vector >\n\nclass
Number &
un iform_int_
uniform_int_ distribution
return {
<cctype>\n\nint main()
Ð Ð½
left ]
in ner
+ imag
N; ++i)
(right -
double real,
operator/ (const
const int*
Rectangle (double
}\n size_t
G A
s(const std::string&
Ñ Ñ
0);\n sockaddr_in
( AF_INET,
\n Fraction
0 \"
(3, 4);\n
< str.length();
<numeric >\n#include
Ð½Ð¾ \"
(size_t j
\"\") <<
3; j++)
= j;\n
true;\n cout
x ^2
file 1.
pattern =
else std::cout
std::string& message)
message) {\n
// 1
// Ð¢ÐµÑÑ
Ref <<
Ð¸ÑÑ ÐµÐ¼Ð°
Digit =
= (num
Ð²ÐµÑ ÑÐ¸Ð½
std::setprecision(2) <<
local time(&
task s)
: tasks)
tasks) {\n
description <<
Date (2024,
s(const string&
<< \"5.
c c
+ 1]
std;\n\n union
namespace std;\n\nunion
Ð´Ð»Ñ Ð´ÐµÐ¼Ð¾Ð½ÑÑÑ
\"U sing
{\nprotected:\n std::string
<< f.
an g
[key] =
j++;\n }\n
S ucce
det ;\n
n; ++i)
ÑÐºÐ¸ Ð¹
L Y
A verage
Product >
[& ](const
first ;\n
= void
State Machine
to ,
<< student
throw std::out_of_range
= make_
print Size
He ader
Ð Ð¾ÑÑÑÐ¿
Tree Node*
Resource Pool
addable _v
f uel
del ta
| ios::
Ð¨Ð°Ð±Ð»Ð¾Ð½ Ð½Ð°Ñ
<< int
ÑÐ°Ð· Ð½ÑÐ¼Ð¸
ÑÐ¾Ð·Ð´Ð°Ð½Ð°\" <<
M_PI *
<< c.
(root ==
{\n static_asser
>() <<
h ,
component s.
Ð½ÑÐ¹ \"
M ultiplier
2, 3
\" to
d *
= l
Ðº Ð¼
return data[index
w ;\n
to_string ()
start) {\n
Ð¾Ð± ÑÐ¾Ð´
tell g
<< \"Ð¢Ð¸Ð¿
std::endl;\n for(const
double radius;\n
2) ?
[this ]
random_ device
ÑÐ°Ð±Ð¾Ñ Ñ\"
ÑÐ°Ð±Ð¾ÑÑ\" <<
Ð Ð¼Ð¸Ñ
ÐÐ¼Ð¸Ñ Ð°ÑÐ¸Ñ
char >
de que
< Container
value);\n }\n
is a
ument: \"
it->second;\n }\n
double evaluate
N :
100;\n std::cout
Ð¸ Ñ
x, y
= newNode;\n
Array =
+ i)
Base {\nprotected:\n
RO W
shapes) {\n
pid =
continue;\n \n
s. begin()
<< \"Client
{\n std::unique_lock<std::mutex>
Ð²ÑÐ¾Ñ Ð¾Ð³Ð¾
med ian
Ð¸Ð·Ð¼ ÐµÐ½Ð¸ÑÑ
<< \"Name
Ñ Ð¸ÑÐ¿Ð¾Ð»ÑÐ·Ð¾Ð²Ð°Ð½Ð¸ÐµÐ¼
' C
ÑÐ¸ ÐºÑ
% 10
{\nprotected:\n string
G L
Con sole
So cket
if (start
tree [node
Size ;
s;\npublic:\n void
void load
valid =
w ill
ÐµÑ Ñ
<< \"W
length _
Base& other)
ÐºÐ¾Ð½ ÑÑÑÑÐºÑÐ¾Ñ
U S
p ->
an imal
\n int&
<string>\n#include <algorithm>\n#include
Ñ\" <<
temp /=
<iostream>\n#include <unordered_map>\n#include
\"x =
(1, 2,
const Ref
F loat
E POL
a a
8 4
* 60
<condition_variable >\n#include
ÑÐ¸Ð¼Ð²Ð¾Ð» :
MAX_ SIZE
in Quote
total Amount
<< \"Using
[i-1] ==
' ]
B ()
VAL UE
T A
[ s
iagon al
acc umulate
days In
_ ref
A x
// ÐÐ¾Ð´
Ð´Ð¸Ð°Ð¿Ð°Ð· Ð¾Ð½Ðµ
Database Record
A A
\"AB AB
= \"ABAB
= t
bad_alloc ();\n
p :
void >\nstruct
= void>\nstruct
Fibonacci Generator
}\n};\n\ntemplate<typename T>\nclass
std:: list
&& right
T wo
std::lock_guard<std::mutex> lock(mtx);\n
Ð²Ñ ÑÐ¸ÑÐ»ÐµÐ½Ð¸Ñ
O S
left ->
\"â 
evaluate (
lock(queue Mutex);\n
g pa
f ilter
\"D rawing
<< alignof
Bit Set
BitSet 64
ne ss
DEC LARE_
asser t
CON FI
CONFI G_
printable _v
Encryption System
CA P_
stop pable
= file.
}\n};\nint main()
n .
ÑÑÐ½ÐºÑÐ¸Ñ Ð´Ð»Ñ
int \n
400 ==
throw out_of_range
Matrix result(rows,
i, int
{\n if(i
|| j
* M_PI
/ 60;\n
{\n {\n
5);\n cout
Co ordinate
const double
4. 0};\n
Ñ \"
< variant
f) :
double dx
Ð¾Ð±ÑÐ°Ñ Ð½Ð¾Ð¼
pq. push(
maxLength =
' ';\n
{\n for(const
A -
A E
: resource
{\n swap
<random >\n#include
first <<
<< price
test s
3 +
ÑÑÑÐ» ÐºÐ¸
<< \"ÐÐ¾Ð·
10 +
4. 0);\n
<< s.
[ N
<< \"String
| O_
\");\n if
<< \"Processing
sizeof(addr)) <
tv_ sec
tv_sec =
* height;\n
\"AB C
ÑÐ´Ð°Ð» Ð¾ÑÑ
0\" <<
f2 =
if (pos
<< \"ÐÑÑÐ¾Ð´Ð½Ð°Ñ
<< \"ÐÑÐ¾Ð²ÐµÑÐºÐ°
ÑÐ»ÑÑ Ð°Ð¹
{\n Vector2D
<< type
node, int
\"F irst
x ^
Ð½Ð° Ð½Ð¾Ð»Ñ
(2 *
T >
Ð¼Ð¾Ð´Ð¸ÑÐ¸ ÐºÐ°ÑÐ¸Ð¸
K _
{\n std::size_t
<< \"\\nÐ¡Ñ
-> print();\n
template<typename U
ÑÐ°ÑÑ :
ÑÐ°ÑÑ: \"
\"ÐÐ¼ Ñ:
<< \"ÐÐ¼Ñ:
\"ÐÐ¼Ñ: \"
use ()
(n ==
det =
std;\n\ntemplate<typename T>\nclass
5);\n std::cout
Ñ Ñ
quantity <<
Date& other)
<< \"Task
operator* ()
<< node
// Ð
NUL L);\n
uint 64_t
8 ;
<algorithm >\n\nclass
side C
<< \"):\"
\"):\" <<
{\n observer
Color ::
1; //
T O
std::string& filename)
ÐµÑ Ðµ
{\n for(auto&
A d
0 =
= A
= pool.
break;\n \n
fail ure
// ÐÑ
A uthor
<< \"N
E E
library .
Ð·Ð°Ð² Ð¸ÑÐ¸Ð¼
x \n
delete (void*
operator delete(void*
L ;\n
ener gy
\\\n auto
G PU
Ð·Ð½Ð°Ñ ÐµÐ½Ð¸Ð¹
( Ñ
ÐÐ°Ð±Ð¾ÑÐ° Ñ
Ñ ÑÐ°Ð·Ð½ÑÐ¼Ð¸
balance -=
Number ()
0) ||
100 !=
rows =
cols =
<fstream >\nusing
<iostream>\n#include <fstream>\nusing
<fstream>\nusing namespace
\"Ð ÐµÑ
<< \"ÐÐµÑ
time :
// ÐÐ¾Ð¿Ð¾Ð»Ð½Ð¸ÑÐµÐ»ÑÐ½ÑÐµ
== 1
0; });\n
<variant >\n#include
graph (n);\n
Traver sal
{2, 3,
(i !=
double i
real (r),
: real(r),
real(r), imag
imag (i)
real(r), imag(i)
+ b;
\" Vector
: \"NO
input ;\n
(file, line))
}};\n \n
8) <<
ÐÑÐ¾Ð²ÐµÑÑÐµÐ¼ ,
// ÐÑÐ¾Ð²ÐµÑÑÐµÐ¼,
\" bytes
rp n
zero \");\n
Ð½Ð°Ñ ÑÑÑÐ»ÐºÐ°
Ð¾Ð¶ Ð½Ð¾
ÐµÑÐºÐ¸ Ðµ
Ð¸ :
Ñ Ðµ
Ð Ð¬
<< length
Al ge
Alge bra
Algebra ic
Concrete Colleague
<< \"Ð¡ÑÐµÐº
Ð¿ÑÑÑ \"
Ð¿ÑÑÑ\" <<
Ð½Ð¾ÑÑÐ¸: \"
* 2;\n
shape :
s;\n for
sa _
ÐºÐ»Ð¸ ÐµÐ½Ñ
s)) {\n
Ð° ,
most Frequent
To Const
0; //
a) :
< count;
} );
<< (isValid
start, int
= compute
j ]
\"\\nÐ Ð²ÐµÐ´Ð¸ÑÐµ
<< \"\\nÐÐ²ÐµÐ´Ð¸ÑÐµ
/ \"
P S
s[2] =
<typeinfo >\n#include
5, 7,
spe ak
int new
<< \"Time
( t
ex tract
cand idate
Ð°ÑÐ¸ Ð°Ð½Ñ
Event &
event) {\n
std;\n\nbool is
true;\n std::cout
sub span
_ array
B =
Â µ
\" Âµ
0.0) {\n
default: return
st ;\n
fill ('0
// Ð
Vector &
Ð ÐµÐ·Ð¾Ð¿Ð°Ñ
<< \"Sum
+ k
k ,
Â °C
{\n std::swap
ÐºÐ»ÑÑ ÐµÐ½\"
an nel
return os;\n
( Ð¿Ð¾
if (k
CO L
matrix [i][j]
\"\\n 3.
<< \"\\n3.
<< counter
\"\\n Ð
<< \"\\nÐ
PA G
A ()
true;\n break;\n
adv ance
<< request.get
string& message)
In ser
->color =
Ax is()
endl;\n });\n
jo in
Ð¾ÑÐ¸Ð± Ð¾Ðº
(it ==
" <<
_ wrapper
re maining
max Count
mit ted
In ventory
<< product
false_type {};\n\ntemplate<typename
<< \"):
Se quence
Vector3D& other)
p ].
L imited
Handler >
Sched uler
stop _
Config Exception
Processor :
M L
Weekday ::
Ð¼ ÐµÑÑÑ
to Fahrenhe
current Temp
TRA C
File Handler
D iff
ca esar
Memory Tracker::
kel v
l ind
lind r
(depth *
Singleton Logger
amount;\n std::cout
value s)
= value
Ð²ÑÐ¾Ñ Ð¾Ð¹
Ro w
Word =
<< \"-\"
auto now
0; }\n
1;\n for(int
vector<int> nums
data;\n \n
double dy
visited [v]
visited[v] =
Ð¾Ð±ÑÐ°ÑÐ½Ð¾Ð¼ Ð¿Ð¾ÑÑÐ´
p q;\n
| std::ios::
pop ()
d um
Ð½ÑÑ ÑÐ¸ÑÐµÐ»:
msg) :
- 4
? \"Y
\"Y ES
? \"YES
\"YES \"
? \"YES\"
\"YES\" :
\"NO \")
: \"NO\")
\"NO\") <<
m) :
random_device r
r d;\n
random_device rd;\n
(r d
( getline
_count <<
8 :
1024 *
b;\n a
position \"
[0] ==
s\");\n }\n
}\n result
break;\n default:\n
Ð½Ð¾ \n
Ð Ð
ÐÐ ÐÐ
q;\n q.
= y
Ð´Ð»Ð¸Ð½ Ñ
~Shape ()
virtual ~Shape()
0;\n}\n\nint main()
signal (
= accept(server_fd,
buffer[ bytes]
buffer[bytes] =
double volume
str2) {\n
Polynomial& other)
Ð¿Ð¾Ð·Ð¸ÑÐ¸Ñ Ñ:
Ð°ÑÐ¸ÑÑÐ¸ ÐºÐ°\n
_info &
_code() <<
<< \"Database
INF O
[j-1]) {\n
/ b
value; }\n
{}\n std::string
std::endl;\n });\n
2 2
Size <<
return value;\n
d 1
<unordered_set >\n#include
= \"ab
amount;\n cout
display Info()
void displayInfo()
displayInfo() const
return year
= task
ÑÐ¸ Ñ
max EndingHere
Var =
\" ye
7 9
fill('0 ')
\\n\";\n return
s to
side *
time ;\n
h 1
: result)
ÐÐ¾Ð½ ÐºÑÐµÑ
I T
<< e
? a
name ##
find(key);\n if
return a.
D) {\n
Ð Ðµ
ÑÑÑÑÐºÑ ÑÑ
join able
Id) {\n
<< \"\\nÐÑ
{\n switch
/ det;\n
ccur rence
Concrete State
void* allocate
malloc (size);\n
ÑÐ»ÐµÐ¼ÐµÐ½ÑÐ¾Ð²: \"
Ð²ÑÐµÐ¼ ÐµÐ½Ð¸
\"\\n Ð
<< \"\\nÐ
s To
sizeof(arr[0]);\n \n
foo ()
100;\n cout
.add_ edge
j --;\n
// ÐÐ·Ð¼ÐµÐ½ÐµÐ½Ð¸Ðµ
ex tra
enc ry
Type ==
(double factor)
W a
Message& msg)
Ð°Ñ ÑÐµÑ
<< \"ÐÐ°Ð¹Ð´ÐµÐ½Ð¾
E qual
alig n
R un
h uffman
reser ve
file. seekg
ÐÑÐ¸Ð¼ÐµÑ 3:
<< str2
\"ÐÐµÐ´Ð¾ÑÑ Ð°ÑÐ¾ÑÐ½Ð¾
balance ;\n
\"Ð ÑÐµÐ¼
<< \"ÐÑÐµÐ¼
left;\n Node*
root->right =
U >\n
<< \"ÐÐ¾Ð¼
weight =
ÑÐ¸ ÐºÐ»
width, height;\npublic:\n
Ðº Ñ
operator[](size_t index)
false;\n cout
{ 3.0,
<< ch
<< start
\"Ð­Ð»ÐµÐ¼ÐµÐ½Ñ \"
D B
{ 9,
<iostream >\n\n
#include <iostream>\n\n
if (value
s <
Ð¼ÐµÐ½Ñ ÑÐµ
\"F ound
= 0.0)
Ð½ÑÑ ÐºÐ¾Ñ
<string>\n#include <utility
// ÐÐ¼Ð¸ÑÐ°ÑÐ¸Ñ
while (getline
- 2,
<= '
container) {\n
n, double
size_t pos
throw ExpressionException
ÐµÐ½ Ð½ÑÐµ
Ð Ð«
\" &&
});\n cout
namespace std;\n\ndouble
mid ]
<< index
index <<
<< \"Derived::
Book book
Radi us()
{}\n ~
\"ÐÐ²ÐµÐ´Ð¸ÑÐµ ÐºÐ¾Ð¾ÑÐ´Ð¸Ð½Ð°ÑÑ
= 50;\n
\"Ð¡Ð¸Ð¼ Ð²Ð¾Ð»
<< \"Ð¡Ð¸Ð¼Ð²Ð¾Ð»
Hash =
match =
+ j]
ÑÐ» ÐµÐ´ÑÑ
\"Ð§Ð¸ÑÐ»Ð¾ \"
int year;\n
Ð°\n cout
add (int
nullptr) :
INT_MAX ;\n
s.push_back( {
file 2.
/ 3.
ÑÑÐ½Ðº ÑÐ¸Ñ
S =
memset(& addr,
memset(&addr, 0,
0, sizeof(addr));\n
s)\" <<
f ull
std:: is
(x +
{\n type
void add_
He ight
\"\\n After
<< \"\\nAfter
4; i++)
resto ck
\"Un known
task =
'-') <<
So F
ÑÐµÑÐµÐ· ÑÐºÐ°Ð·Ð°ÑÐµÐ»Ñ
\");\n close(server_fd);\n
aunch:: async,
<future >\n#include
Fly weight
_value =
Ð¿Ð¾Ð»Ð¾Ð¶Ð¸ÑÐµÐ»ÑÐ½ÑÐ¼ !\"
Ð±ÑÑÑ Ð¿Ð¾Ð»Ð¾Ð¶Ð¸ÑÐµÐ»ÑÐ½ÑÐ¼!\"
Ð¿Ð¾Ð»Ð¾Ð¶Ð¸ÑÐµÐ»ÑÐ½ÑÐ¼!\" <<
mpty()) {\n
trans fer
data) const
Qu ick
{\n front
q. enqueue
key :
re interpret_cast<
M ultiply
( val
get Description()
W h
<< \"Max
<map>\n#include <string>\n#include
Request& request)
daysIn Month
Serializ ation
<int> q;\n
Message >
Shop ping
->getName() <<
s.end ()
wareho use
00 1\",
>> :
Ne sted
\"Ð¡Ñ ÑÐ´ÐµÐ½Ñ
Ð¸ Ð»
ÑÐ²Ð»ÑÐµÑÑÑ \")
0. 5
(n +
m tx
( DoorState::
'0 ');\n
_list [
PRI ME
sched ule
b attery
ver ify
Ð°\n std::cout
ARG S
<< \"Drawing
(pos <
X ML
PRO T_
grade =
new Tree
\\n \\t
MEN T
fect forwarding
chrono:: duration
LO G_
2 _
Ab solute
Fin ancial
sign at
Room Type::
<< double
5;\n std::cout
Exception :
ÑÐµÐ½Ð°\" <<
Ð¾ÑÑÐ¸ÑÐ°ÑÐµÐ»Ñ Ð½ÑÐ¼
Ð±ÑÑÑ Ð¾ÑÑÐ¸ÑÐ°ÑÐµÐ»ÑÐ½ÑÐ¼
