{
  "5615": "Ġvariant",
  "8484": "integer",
  "4460": "TIME",
  "2359": "ĠInt",
  "5109": "rd",
  "2561": "Ġabs",
  "6768": ">().",
  "9098": "ÐĶÐµÐº",
  "4896": "SQ",
  "5883": "ĠÑģÑĤÐµÐ¿",
  "5838": "Ġfuel",
  "9260": ">*",
  "4570": "Ġ\\\"[\\\"",
  "8836": "Ð¸Ð¼ÐµÑĤÑĢ",
  "3262": "Ġdfs",
  "7755": "ĠSum",
  "8534": "Ġ\\\"!\\\"",
  "7080": "ĠCreating",
  "8389": "Ð¾ÑĤÐ²ÐµÑĤ",
  "7836": "RUN",
  "1107": "[](",
  "6823": "ridges",
  "683": "Ġwh",
  "527": "uni",
  "305": "ouble",
  "3055": "12345",
  "8490": "Smallest",
  "8703": "ĠLoggable",
  "3077": "Ġbinary",
  "853": "ger",
  "3749": "nitude",
  "541": "atic",
  "5563": "ÐĿÐµÐ´",
  "632": "Value",
  "5708": "opped",
  "3186": "Ð¨",
  "7443": "ability",
  "8691": "ForPalindrome",
  "6322": "ĠValidationResult",
  "2792": "Ġobservers",
  "994": "Ġtask",
  "4031": "ĠDemo",
  "9846": "ground",
  "272": "ame",
  "7243": "Ġscaled",
  "6392": "ĠbadChar",
  "8009": "Ð¢ÐµÐ¼Ð¿ÐµÑĢÐ°ÑĤÑĥÑĢÐ°",
  "3054": "scription",
  "3479": "Storage",
  "6319": "Usage",
  "7744": "Ġbrightness",
  "9204": "ĠParser",
  "7338": "ĠÐ¼Ð¸Ð½ÑĥÑĤ",
  "1030": "Ð°Ð¼",
  "1018": "ip",
  "5724": "Quotes",
  "7489": "ĠbookCount",
  "6598": "ĠÐ¢Ð¸Ð¿",
  "7120": "salary",
  "5818": "Box",
  "9660": "Subsystem",
  "8023": "Developer",
  "6689": "orders",
  "4029": "Ġ123",
  "9473": "MAL",
  "4452": "Ġcharact",
  "911": "ose",
  "6815": "Ð§ÐµÑĤ",
  "9216": "Ġ']'",
  "2919": "ĠPlugin",
  "6328": "inished",
  "7094": "Async",
  "4324": "istream",
  "1424": "Ġcheck",
  "1787": "ĠÑģÐ»",
  "9061": "ĠBOOL",
  "4214": "Ġexponent",
  "3287": "Ġofstream",
  "2213": "hicle",
  "6011": "FIG",
  "9885": "Ġcoins",
  "4935": "Clo",
  "3459": "Ġmethod",
  "429": "Ġ&",
  "3711": "limits",
  "1223": "Ġref",
  "3118": "Ġcoeffs",
  "1006": "ÑĭÑĤ",
  "8201": "ÐľÐ½Ð¾Ð³Ð¾",
  "7556": "ĠÐ¼Ð¾Ð³ÑĥÑĤ",
  "7066": "ĠÑĢÐµÐ·ÑĥÐ»ÑĮÑĤÐ°ÑĤÐ°",
  "2370": "Word",
  "5779": "ested",
  "9206": "igenvalues",
  "2972": "ĠÐŁÑĢÐ¾Ð²ÐµÑĢÑıÐµÐ¼",
  "2134": "ÐŃ",
  "3717": "Ġevaluate",
  "7188": "ÐľÐ°ÑĢ",
  "7061": "Ð¾Ð»ÑĮÐ·Ð¾Ð²Ð°ÑĤÐµÐ»ÑĮ",
  "4940": "bserv",
  "5896": "TRACT",
  "2838": "handle",
  "1526": "rol",
  "9808": "Ġrabin",
  "2920": "Ġclone",
  "733": "ĠÐ½Ð°",
  "4615": "Ġcreator",
  "6004": "atisf",
  "5594": "ÑĢÐ¾Ð±ÑĮ",
  "9112": "ĠÐ¾ÑĤÑĢÐµÐ·",
  "2467": "Ġvisitor",
  "5318": "ĠÐ»Ð¸",
  "5348": "Ġbfs",
  "8031": "ÐłÐ°Ð·Ð½Ð¾ÑģÑĤÑĮ",
  "8766": "TABLE",
  "1393": "has",
  "5061": "Ġbuf",
  "98": "¡",
  "5755": "LY",
  "8478": "Duplicate",
  "5139": "Change",
  "8159": "Ġweekday",
  "3367": "Leap",
  "2113": "Emp",
  "1504": "ĠÑĩÐ¸ÑģÐ»Ð¾",
  "4355": "<>",
  "2049": "iomanip",
  "5777": "Ġ&&\\",
  "8070": "Ġeditor",
  "9662": "TreeType",
  "9292": "nullopt",
  "3241": "running",
  "2977": "Ġdate",
  "6859": "dog",
  "6971": "ĠÑģÑĥÐ¼Ð¼Ñĥ",
  "7517": "destination",
  "8532": "Ġ\\\"â",
  "7516": "ĠÐ¿Ð¾Ð²ÐµÑĢÑħ",
  "4333": "Ġbank",
  "6099": "ĠConcreteObserver",
  "8310": "Ð¡ÑĢÐµÐ´Ð½Ð¸Ð¹",
  "4232": "title",
  "8084": "BSTNode",
  "2260": "ĠTr",
  "1027": "ordered",
  "7103": "Secret",
  "2829": "enum",
  "7349": "SETFL",
  "4180": "ÐµÐ³Ð¸ÑģÑĤÑĢ",
  "1199": "new",
  "1866": "Ġcontainer",
  "4869": "elsius",
  "6885": "ading",
  "2764": "Ġopt",
  "5834": "\\\"}\\",
  "5381": "Opt",
  "5113": "()]",
  "293": "ream",
  "8175": "ĠPtr",
  "2427": "Read",
  "199": "ut",
  "6579": "erry",
  "8314": "ĠÐĿÐ°ÑħÐ¾Ð´Ð¸Ð¼",
  "3880": "ĠÐĺÐ½",
  "2855": "Ġafter",
  "922": "Ġcomp",
  "9378": "Ġperformance",
  "738": "ain",
  "9883": "ĠCASE",
  "9155": "Allocation",
  "3864": "77",
  "7829": "ÐĳÐµÐ·Ð¾Ð¿Ð°Ñģ",
  "6981": "ĠÐºÐ¾ÑįÑĦÑĦÐ¸ÑĨÐ¸ÐµÐ½ÑĤÑĭ",
  "561": "ith",
  "7894": "SmartPointer",
  "6767": ").\\\"",
  "3251": "Ġlevel",
  "7449": "ÑĪÐµÐ½",
  "402": "ode",
  "6317": "ĠMemoryTracker",
  "6950": "Ð¾ÑıÐ½Ð¸Ñı",
  "3572": "ĠÐ´Ð»Ð¸Ð½",
  "1925": "25",
  "5355": "ĠÐ¸ÑĤÐµÑĢ",
  "4889": "uffmanNode",
  "3439": "Uni",
  "7457": "ÐĿÐ¾Ð²ÑĭÐ¹",
  "7221": "Ġgeneration",
  "9022": "Ġsrand",
  "3468": "Work",
  "9633": "ĠWork",
  "245": "include",
  "8612": "toggle",
  "4958": "Ġsent",
  "8138": "deserialize",
  "1179": "result",
  "2161": "idget",
  "6939": "Ð¸ÑģÑĤÐ¸Ðº",
  "9024": "ÐµÐ½ÑĨÐ¸",
  "1795": "Ġsockaddr",
  "5826": "Width",
  "2691": "End",
  "6633": "Ad",
  "2999": "ĠÐĺÑģÐ¿Ð¾Ð»ÑĮÐ·Ð¾Ð²Ð°Ð½Ð¸Ðµ",
  "1871": "Ġ60",
  "914": "andler",
  "7480": "STAN",
  "3325": "ÑĨÐµÐ½",
  "8835": "Inorder",
  "6371": "ĠgetDescription",
  "957": "shared",
  "9170": "PEAT",
  "2760": "Ser",
  "7713": "matic",
  "2267": "olume",
  "3107": "ĠÐ²ÑĭÐ¿Ð¾Ð»Ð½",
  "5452": "ĠÐ¿Ð°Ð¼ÑıÑĤÐ¸",
  "353": "ex",
  "2199": "ics",
  "7164": "Ð¸ÑĤÐ°",
  "346": "Ġname",
  "988": "Ð½ÑĭÐµ",
  "1241": "Ðķ",
  "2981": "Ð°Ð»Ð¸Ð½Ð´ÑĢ",
  "7998": "Ð¸ÑĩÐ½Ð¾Ðµ",
  "2264": "future",
  "1984": "write",
  "963": "atter",
  "8088": "FA",
  "175": "Ł",
  "1916": "month",
  "7224": "Ð¦ÐµÐ»",
  "5275": ")));\\",
  "2170": "token",
  "6138": "AE",
  "1435": "Ġyear",
  "2800": "Ġhigh",
  "7776": "ĠMAP",
  "1074": "ÑĨÐ¸Ð¸",
  "2630": "eur",
  "5573": "ĠÑĢÐ°Ð·Ð´ÐµÐ»",
  "8209": "START",
  "3515": "ĠÑĦÑĥÐ½ÐºÑĨÐ¸Ñı",
  "6985": "GRAM",
  "2371": "flow",
  "3101": "Ġpower",
  "1975": "ĠSO",
  "9317": "Ð»Ð»",
  "2317": "imit",
  "6390": "bitmask",
  "1986": "ÐµÑĩ",
  "9533": "ĠintPtr",
  "5334": "96",
  "335": "ol",
  "3083": "ĠÐĴÑĭÐ²Ð¾Ð´",
  "1564": "List",
  "6238": "Ġctx",
  "4383": "ÑĨÐµÐ½ÐºÐ°",
  "5338": "ggle",
  "5067": "Ġcommon",
  "8687": "ĠÐ¿Ð°Ð»Ð¸Ð½Ð´ÑĢÐ¾Ð¼Ð¾Ð¼",
  "7732": "Ġresidual",
  "2837": "flag",
  "2918": "perm",
  "9858": "regular",
  "2884": "element",
  "1506": "real",
  "6448": "Ġhotel",
  "6603": "DatabaseConnection",
  "7377": "Db",
  "7568": "Parent",
  "6829": "nÐŁÐ¾Ð¸ÑģÐº",
  "277": "Ġo",
  "6853": "'};\\",
  "8041": "nÐ¡ÑĤÐ°ÑĤÐ¸ÑģÑĤÐ¸ÐºÐ°",
  "9271": "ILD",
  "1260": "raw",
  "3810": "Double",
  "8663": "DELET",
  "4868": "reshold",
  "8600": "Ð¡Ð¾Ð´ÐµÑĢÐ¶",
  "616": "Ñİ",
  "8091": "Handlers",
  "9493": "night",
  "2517": "exception",
  "870": "Ġtest",
  "3022": "ĠĠĠĠĠĠĠĠĠ",
  "4446": "Ġrc",
  "5916": "ipeline",
  "6533": "Selector",
  "2419": "SE",
  "4438": "ÑĥÐµÑĤ",
  "4674": "CV",
  "1718": "Ð¸ÑģÑĤ",
  "4099": "Ġ);\\",
  "491": "][",
  "7045": "ĠÑģÑĤÐ¾ÑĢÐ¾",
  "8977": "sz",
  "8492": "Ð¡Ð¾Ð¾Ð±ÑīÐµÐ½Ð¸Ðµ",
  "9338": "ĠMeter",
  "456": "ser",
  "6668": "Ġfork",
  "2234": "qui",
  "4382": "Distance",
  "4657": "ĠprocessBy",
  "848": "dent",
  "2464": "ĠÐ¾Ð´",
  "5101": "Dynamic",
  "7920": "48",
  "8212": "minute",
  "9423": "ĠÐ²ÑĭÑĢÐ°Ð¶ÐµÐ½Ð¸Ñı",
  "4931": "ĠÐŁÐ¾Ð»ÑĥÑĩ",
  "3071": "Ġsuccessf",
  "2456": "range",
  "9799": "ĠÐŁÑĢÐµÐ´Ð²Ð°ÑĢÐ¸ÑĤÐµÐ»ÑĮ",
  "43": "H",
  "5859": "ĠgetTotal",
  "3374": "Document",
  "1235": "},\\",
  "2689": "args",
  "4124": "Ġperimeter",
  "6030": "sv",
  "970": "ĠI",
  "7058": "ĠÐĲÐ²",
  "9814": "ĠsieveOf",
  "8652": "Ġdisc",
  "8920": "Ġ'.')",
  "6159": "ÑĩÐ¸ÑĤ",
  "9836": "JSON",
  "7246": "fieldCount",
  "942": "Ðļ",
  "933": "Ġu",
  "3469": "book",
  "4132": "Ġfabs",
  "9701": "ĠabsA",
  "7600": "version",
  "9547": "pez",
  "1996": "Database",
  "4334": "Ġmask",
  "1791": "ÑĤÐµÑĢ",
  "6275": "ĠÐ·Ð°Ð´",
  "9561": "Revenue",
  "768": "ĠÐ´Ð»Ñı",
  "1478": "ectangle",
  "7168": "abab",
  "9425": "ensating",
  "370": "vector",
  "8000": "ĠÐ¡Ð¾ÑĢÑĤÐ¸ÑĢÐ¾Ð²ÐºÐ°",
  "6239": "Ġ\\\"):",
  "2671": "}};\\",
  "6289": "ĠÐ·Ð½Ð°ÑĩÐµÐ½Ð¸Ð¹",
  "9294": "sufficient",
  "275": "Ġs",
  "7697": "But",
  "8271": "Ġepoch",
  "5680": "lvin",
  "4609": "imized",
  "4883": "aternion",
  "1395": "ÐĹ",
  "4500": "ÐĺÑģÑħÐ¾Ð´Ð½Ð°Ñı",
  "2780": "Ġall",
  "5950": "ÐµÐ½Ð¸Ð¸",
  "9991": "ĠÐ±ÑĥÐºÐ²Ð°",
  "3634": "([](",
  "2197": "ink",
  "8812": "ĠSm",
  "9668": "ĠrequestQueue",
  "2348": "Ġlogger",
  "7262": "ĠPermission",
  "9845": "go",
  "3001": "priority",
  "7891": "Optimized",
  "4695": "Ð¡Ðº",
  "8480": "Ġ'{')",
  "8607": "Ġident",
  "6812": "Ġmovie",
  "6568": "ÑĩÐ»ÐµÐ½",
  "7451": "ĠÐ¸ÑģÐ¿Ð¾Ð»ÑĮÐ·Ñĥ",
  "174": "ŀ",
  "9874": "Ġforce",
  "3900": "ĠÐ¸Ð»Ð¸",
  "752": "Ð°Ð¹",
  "2451": "Ġcreated",
  "6954": "aving",
  "3354": "Ġfd",
  "760": "this",
  "5925": "Spec",
  "4647": "Ġmutex",
  "5894": "ÐĿÐµÐ¸Ð·Ð²ÐµÑģÑĤ",
  "6955": "avings",
  "4918": "itional",
  "6656": "():",
  "2982": "ĠAl",
  "3021": "Ð¸Ð°Ð½",
  "6918": "Ġkm",
  "8149": "idence",
  "2858": "Priority",
  "6323": "ĠmostFrequent",
  "7595": "ÐµÐ½Ð½Ð¾Ð³Ð¾",
  "6861": "kar",
  "1369": "ĲâķĲâķ",
  "6042": "ÑĮÑİ",
  "8253": "ĠÑĪÑĤ",
  "8367": "Ð¾Ð²Ð¾Ð¹",
  "2985": "Ð¸ÑģÑĤÐµÐ¼",
  "8338": "Sorted",
  "9126": "ĠÐ¼Ð°ÑģÑģÐ¸Ð²Ðµ",
  "6896": "Ð´ÑĢÐ°",
  "7350": "Ġremoved",
  "1739": "),\\",
  "9875": "getOr",
  "6739": "ĠÐ±ÐµÐ·Ð¾Ð¿Ð°Ñģ",
  "6686": "ivation",
  "8531": "inQuotes",
  "8780": "course",
  "7515": "Ġoptimized",
  "5091": "ĠĠĠĠĠĠĠĠĠĠĠĠĠĠĠĠĠĠĠĠĠĠĠĠĠĠ",
  "2793": "Ġclean",
  "4685": "Ġfl",
  "2570": "ĠÐºÐ¾Ð»Ð¸ÑĩÐµÑģÑĤÐ²Ð¾",
  "1813": "Ġdistance",
  "9921": "ĠÐ¡Ð±",
  "8421": "comparable",
  "5080": "ĠStatistics",
  "287": "ss",
  "3007": "Ð¸Ð»ÑĮ",
  "7063": "OLD",
  "3234": "ĠNULL",
  "8622": "ĠComplexTrig",
  "5866": "keys",
  "7317": "ĠÐ·Ð½Ð°ÑĩÐµÐ½Ð¸ÐµÐ¼",
  "1513": "Ġreal",
  "4696": "ĠÐ·Ð½",
  "4648": "Ġnegative",
  "1057": "Ġfind",
  "8277": "ĠÐłÐ°Ð·Ð¼ÐµÑĢ",
  "7485": "ONLY",
  "3773": "ÐµÐ¿ÐµÑĢÑĮ",
  "6134": "ĠRGBColor",
  "2997": "Ġhton",
  "3530": "Ġ---\\\"",
  "2354": "tract",
  "5798": "Squares",
  "3957": "Ð¼ÐµÐ½Ð¸",
  "1007": "Ð°ÐµÐ¼",
  "5167": "Ġpayment",
  "128": "Ã",
  "3834": "Ġnormalize",
  "224": ");\\",
  "7112": "dimension",
  "774": "Ġlong",
  "2958": "els",
  "7734": "seg",
  "5936": "unlock",
  "4764": "arison",
  "6368": "Ð¼Ñĭ",
  "5732": "csv",
  "8458": "ribute",
  "7563": "78",
  "7151": "getC",
  "9575": "ĠPoly",
  "9018": "Ġbody",
  "1634": "Ġimag",
  "4146": "ATE",
  "3009": "Ġfut",
  "7461": "Ð°Ð¹ÑĪ",
  "8904": "Ġinterests",
  "2396": "TR",
  "4810": "ambda",
  "6621": "ĠÐ¿Ð¾ÑģÐ»ÐµÐ´Ð¾Ð²Ð°ÑĤÐµÐ»ÑĮ",
  "563": "\\\")",
  "7718": "tail",
  "1024": "Ġcol",
  "6341": ")]",
  "2966": "otype",
  "9082": "ĠtoFahrenheit",
  "9122": "Ġexpensive",
  "3257": "Ġlow",
  "2971": "ĠÐ·Ð°Ð²ÐµÑĢÑĪ",
  "5999": "ĠÑģÑĤÑĥÐ´ÐµÐ½ÑĤÐ¾Ð²",
  "2127": "ĠÐ¾Ð±ÑĬ",
  "61": "Z",
  "5171": "entity",
  "7482": "Ġouter",
  "7790": "Ġ101",
  "8408": "ÐĺÐ¢",
  "3931": "Ġ13",
  "5272": "password",
  "7278": "half",
  "8881": "Checking",
  "412": "Ð¾Ð»",
  "2695": "serialize",
  "7474": "ĠÐ¾Ð±Ð°",
  "7671": "Ġinteger",
  "5112": "reet",
  "5873": "Ġseg",
  "6067": "Ġseq",
  "69": "b",
  "200": "er",
  "9518": "leTime",
  "1470": "';\\",
  "1606": "================",
  "1640": "gist",
  "8342": "]\\\"",
  "2461": "Ġcontent",
  "1626": "imal",
  "8647": "venshtein",
  "3115": "famil",
  "8570": "Ġdead",
  "458": "Ġelse",
  "4233": "was",
  "5813": "ĠÐµÐ´Ð¸Ð½Ð¸ÑĨ",
  "5487": "ÑıÑĢ",
  "6569": "Ġdestructor",
  "242": "ude",
  "8219": "Demo",
  "110": "¯",
  "6717": "ĠHuffmanNode",
  "6942": "1234",
  "6975": "Ġdimension",
  "7688": "ĠÐ²ÑĭÑĢÐ°Ð¶ÐµÐ½Ð¸Ðµ",
  "8882": "Ð°ÑĤÐ¾ÑĢÑĭ",
  "3787": "ggregate",
  "5429": "Ð¡Ð»",
  "8344": "elem",
  "1275": "Ġres",
  "7615": "ĠManager",
  "508": "ÑģÐ»",
  "5879": "ĠÐ¿ÐµÑĢÐµÑģÑĤ",
  "623": "res",
  "2673": "ces",
  "483": "Ġj",
  "9411": "EXT",
  "8994": "engine",
  "5699": "Ġstringstream",
  "2385": "ÐļÐ¾Ð»Ð¸ÑĩÐµÑģÑĤÐ²Ð¾",
  "6925": "ĠtaskQueue",
  "4138": "ÐµÐ½Ð¸ÐµÐ¼",
  "6891": "ĠSim",
  "849": "Ġthrow",
  "7337": "middle",
  "1052": "ĠÐ¾ÑĤ",
  "359": "ype",
  "7225": "ĠÐ¾Ð¿ÐµÑĢÐ°ÑĨÐ¸Ð¹",
  "4559": "ĠList",
  "8538": "Ð°ÑĢÐ°Ðº",
  "9422": "RESHOLD",
  "9284": "calc",
  "5632": "Ð°Ð·Ð²",
  "7288": "ÑĢÐ°Ñģ",
  "4601": "ĠÑģÐ°Ð¼",
  "969": "mutex",
  "256": "const",
  "2400": "Ġdays",
  "8359": "Ġnn",
  "7945": "record",
  "2412": "high",
  "7837": "ĠÐĲÐ»ÑĮÑĤÐµÑĢÐ½Ð°ÑĤ",
  "1493": "SIZE",
  "4408": "ĠAct",
  "6046": "ĠTR",
  "4858": "utdown",
  "3941": "Method",
  "1474": "Ġ12",
  "4224": "13",
  "7021": "Ġhold",
  "4967": "Ġstrcpy",
  "9979": "ĠÐ³Ð¾Ð´Ñĥ",
  "989": "lement",
  "2182": "Ġarray",
  "9361": "ĠOrigin",
  "3885": "Trans",
  "8906": "ĠÑĦÐ¾ÑĢÐ¼ÑĥÐ»",
  "2188": "Ġexecute",
  "6401": "ĠÐ¿Ð¾Ð´ÑģÑĤÑĢÐ¾ÐºÐ¸",
  "3411": "tuple",
  "1388": "Ġbase",
  "9597": "ĠFUEL",
  "2733": "FI",
  "5062": "ÐµÐ½ÐµÑĢ",
  "9443": "Ð§Ð°ÑģÑĤÐ¾ÑĤÐ°",
  "6916": "ĠcurrentLength",
  "3610": "actorial",
  "4945": "xFF",
  "3935": "Ġengine",
  "9114": "...\\\\",
  "6650": "Ġroman",
  "5602": "OT",
  "9891": "Release",
  "6029": "noexcept",
  "1860": "000",
  "1699": "erase",
  "1069": "yst",
  "4682": "ĠY",
  "7814": "Ġstructure",
  "4469": "Ġentity",
  "5716": "ÐļÐ²Ð°Ð´ÑĢÐ°ÑĤ",
  "7624": "beg",
  "8210": "subspan",
  "4743": "Ġmessages",
  "3493": "ĠÐ¡Ð¾Ð·Ð´Ð°Ð½Ð¸Ðµ",
  "2302": "quence",
  "2709": "enter",
  "2730": "ÑģÐ¾ÑĢÑĤÐ¸ÑĢÐ¾Ð²Ð°Ð½",
  "3959": "ĠnewNode",
  "713": "Ġtrue",
  "117": "¶",
  "4987": "ANS",
  "1319": "qrt",
  "7733": "ÑĢÐµÐ±",
  "8811": "Ġcoord",
  "547": "ĠA",
  "729": "error",
  "4990": "ĠÑģÐ¾Ð·Ð´Ð°Ð½Ð°",
  "5502": "Ġminor",
  "7930": "VEL",
  "336": "alue",
  "7915": "ĠROWS",
  "7198": "HelloPlugin",
  "4625": "ĠÑĥÐ´Ð°Ð»ÐµÐ½Ð¸Ñı",
  "4250": "ĠÑģÐ»ÑĥÑĩ",
  "3082": "Ġsetprecision",
  "8908": "Ð¸ÑĤÐµÐ»Ð¸",
  "8748": "uclidean",
  "1144": "Ð¸ÑĤÐµÐ»ÑĮ",
  "1281": "Le",
  "7794": "ĠLock",
  "7795": "ĠCore",
  "8650": "ĠDataProcessor",
  "6523": "ÑĢÑĥÐ·ÐºÐ°",
  "7553": "ĠÐ¿ÑĢÐ¸Ð½Ð¸Ð¼",
  "420": "ÐµÐ½Ð¸",
  "8732": "ĠÑĢÐ°Ð´Ð¸Ð°Ð½Ð°Ñħ",
  "2660": "Ð½Ðµ",
  "3597": "comm",
  "6211": "ĠÑģÐ»ÑĥÑĩÐ°Ð¹",
  "5301": "Registered",
  "4693": "ÑģÐ»Ð¾Ð²",
  "9205": "AlignedBase",
  "504": "ĠM",
  "8571": "iler",
  "7108": "Whe",
  "1048": "Val",
  "6844": "ĠÐ´ÑĥÐ±Ð»Ð¸ÐºÐ°ÑĤÐ¾Ð²",
  "4332": "Ġflag",
  "6381": "ĠÐŁÑĢÐ¾ÑģÑĤ",
  "228": "Ð¾Ð",
  "3388": "wner",
  "6288": "Ġ2023",
  "867": "ĠÑĢÐ°Ð",
  "8946": "BB",
  "3683": "ĠÑģÑģÑĭÐ»ÐºÐ¸",
  "6456": "Ġthermostat",
  "471": "pt",
  "8975": "material",
  "2629": "Window",
  "5715": "ÐļÐ¾Ð½",
  "2588": "utility",
  "95": "|",
  "9031": "++,",
  "8114": "fact",
  "6462": "Ð¡Ð¿",
  "9220": "scriptions",
  "7509": "Ġpartitions",
  "4216": "ĠÐ¿Ð¾Ð´ÑģÑĤÑĢÐ¾Ðº",
  "30": ";",
  "2631": "Ġ$\\\"",
  "8962": "Something",
  "1591": "24",
  "196": "Ðµ",
  "5812": "TEMP",
  "4205": "ĠPrint",
  "5881": "ĠÐŀÐ¿ÐµÑĢ",
  "4495": "Ġexpected",
  "4344": "ĠVehicle",
  "496": "Ġ4",
  "3204": "grade",
  "7375": "DA",
  "1282": "Ġun",
  "2970": "Ġreversed",
  "1108": "ton",
  "5666": "ĠÐĺÐ·Ð¼ÐµÐ½ÐµÐ½Ð¸Ðµ",
  "9470": "Literal",
  "6383": "ĠdisplayInfo",
  "5462": "Bound",
  "5457": "pherical",
  "4329": "ertex",
  "585": "[]",
  "5641": "ĠÐ¿ÐµÑĢÐµ",
  "7724": "rerror",
  "6519": "ĠÑģÐ¾Ð²Ð¿Ð°Ð´Ð°ÑİÑĤ",
  "4814": "iter",
  "162": "Ĵ",
  "5529": "*[",
  "195": "Ġstd",
  "7214": "ĠComputation",
  "9631": "aily",
  "7148": "\\\\\\\",",
  "5276": "71",
  "5383": "_;",
  "976": "auto",
  "5281": "aused",
  "2468": "gine",
  "2845": "Student",
  "9472": "Mult",
  "9736": "ĠMathComputations",
  "2112": "gister",
  "7707": "VA",
  "1793": "omial",
  "9553": "ĠCtrl",
  "3681": "ÐµÐ¹ÑģÑĤÐ²",
  "5583": "Ġlisten",
  "5998": "Ġchanged",
  "4934": ")[",
  "7481": "127",
  "6817": "Query",
  "1166": "Ġmake",
  "681": "act",
  "8900": "handleRequest",
  "1229": "Ġconstexpr",
  "8671": "Ġsquared",
  "1742": "join",
  "1900": "ultiply",
  "9199": "Ġ','",
  "176": "ł",
  "4503": "Ð¡ÑĢÐµÐ´Ð½ÐµÐµ",
  "1204": "Ġ});\\",
  "1132": "Ð¾Ñģ",
  "2108": "Command",
  "7232": "Locking",
  "1134": "ĠÐ¸Ð·",
  "1895": "Ð½Ð¾ÑģÑĤÑĮ",
  "9051": "ĠinQuotes",
  "9901": "ÐŁÐ¾Ð³ÑĢÐµÑĪÐ½Ð¾ÑģÑĤÑĮ",
  "6345": "YES",
  "1933": "Ġtitle",
  "299": "Ġ+",
  "866": "for",
  "4803": "oi",
  "2361": "onents",
  "2375": "ĠBig",
  "1572": "Ð½Ð¸Ðº",
  "4776": "ĠÑĤÐ¾Ð²Ð°ÑĢ",
  "9277": "Side",
  "3933": "101",
  "8374": "ĠSign",
  "5137": "rency",
  "4984": "ĠÐ¸Ð½ÑĤÐµÐ³ÑĢ",
  "4179": "ĠÐ¸Ð·Ð¼ÐµÐ½Ð¸",
  "2804": "fds",
  "3451": "Ð°ÑİÑī",
  "6021": "Tuple",
  "9165": "Ġ')'",
  "9995": "ÑıÐ¼Ð¾ÑĥÐ³Ð¾Ð»ÑĮÐ½ÑĭÐ¹",
  "7698": "Deg",
  "443": "Ġch",
  "3061": "Vec",
  "16": "-",
  "6736": "Ġtransactions",
  "7652": "Device",
  "1821": "Ð´Ð°",
  "8089": "Frequency",
  "6831": "ĠValidator",
  "556": "ory",
  "2174": "Expr",
  "2312": "Thread",
  "4117": "tocol",
  "8094": "Main",
  "9817": "Ġprediction",
  "6470": "Ð¸Ð½ÐµÐ¹",
  "3837": "New",
  "6730": "Constant",
  "4941": "custom",
  "4532": "eneric",
  "9399": "ĠÑĢÐ°Ð·Ð¼ÐµÑĢÐ°",
  "5410": "Ġdevice",
  "2107": "Ġ\\\"%",
  "8287": "CVV",
  "6344": "OOL",
  "526": "back",
  "1648": "Ġpar",
  "3291": "ĠEmployee",
  "7526": "omething",
  "3096": "Ġ\\\"\\\")",
  "7241": "ĠExample",
  "9600": "imize",
  "5435": "Ġshould",
  "8129": "ware",
  "4041": "depth",
  "4963": "ĠTimer",
  "3220": "eady",
  "8752": "ĠReverseCompare",
  "7574": "nname",
  "2200": "Stack",
  "7601": "ĠCop",
  "7084": "ĠÐ¿ÑĢÐµÐ´ÑģÑĤÐ°Ð²Ð»ÐµÐ½Ð¸Ðµ",
  "5599": "silon",
  "728": "Ð°Ð·",
  "5262": "ĠÑĨÐ¸ÐºÐ»",
  "2865": "Ġby",
  "8553": "angular",
  "3023": "ÐĶÐ»Ð¸Ð½Ð°",
  "7994": "Ð¸Ð½Ñĥ",
  "839": "ĠÐ¡",
  "8757": "56",
  "5295": "ĠconstRef",
  "4555": "ÐµÐ½Ð½ÑĭÐµ",
  "2305": "Ġempty",
  "5036": "ĠÐ·Ð°Ð´Ð°ÑĩÐ¸",
  "416": "ÑĨ",
  "3404": "stamp",
  "7590": "Ð½ÐµÐ³Ð¾",
  "742": "ÐµÑģ",
  "5662": "ĠÑĢÐ°Ð·ÑĢÑĥÑĪÐµÐ½",
  "7312": "):\\\\",
  "7040": "ĠÐļÐ¾Ð¼Ð¿",
  "8694": "ĠThreadSafeLogger",
  "6252": "Ġ150",
  "495": "double",
  "8664": "ĠÐĹÐ°Ðº",
  "1610": "Ġarg",
  "7185": "ÐłÐ°Ð²",
  "8057": "ÐŀÐ±ÑīÐ°Ñı",
  "7091": ")...);\\",
  "3185": "match",
  "6247": "Ġvars",
  "4109": "ĠST",
  "1797": "*)",
  "7535": "Ġrenderer",
  "8025": "ĠÐ»Ð¸ÑĤÐµÑĢÐ°Ð»",
  "6066": "logger",
  "3011": "rie",
  "8863": "ĠStart",
  "216": "Ġi",
  "4353": "ĠÐ¸Ð¼ÐµÐµÑĤ",
  "1178": "day",
  "4153": "capacity",
  "6501": "Ġapple",
  "4921": "Ġparam",
  "2973": "]->",
  "4076": ">(\\",
  "6483": "ĠGU",
  "5827": "eb",
  "4273": "Ð¸ÑģÑĤÐ¸ÐºÐ°",
  "7780": "Ġthen",
  "2632": "amp",
  "6006": "ACK",
  "4370": "ĠÐºÐ¾Ð¼",
  "5509": "Plugins",
  "9375": "CTANGLE",
  "7095": "Bank",
  "3351": "variable",
  "6878": "Ġdt",
  "9623": "ĠOut",
  "2308": "Ġinter",
  "2486": "ÑĥÐºÑĤÐ¾ÑĢ",
  "1723": "Status",
  "111": "°",
  "4409": "ĠmaxLength",
  "2132": "crement",
  "2880": "Concrete",
  "8328": ">*>(",
  "6600": "ĠtopIndex",
  "207": "de",
  "8406": "Ð¸ÑĩÐ½ÑĭÐ¹",
  "6420": "available",
  "2853": "Ġflags",
  "8098": "MEDIUM",
  "829": "ess",
  "1313": ",\\",
  "1407": "leep",
  "8130": "ĠÐ°Ð±",
  "1700": "Ð¸Ðµ",
  "9940": "ÐĹÐ°Ðº",
  "116": "µ",
  "4443": "ĠSystem",
  "3786": "Title",
  "63": "\\",
  "1080": "ions",
  "652": "Ġcount",
  "6164": "Ð¼Ð°ÑģÑģÐ¸Ð²",
  "7832": "ĠUDP",
  "6749": "Att",
  "9270": "IRC",
  "889": ">&",
  "961": "Ð°Ð½Ð¸Ðµ",
  "5886": "curring",
  "6595": "Complete",
  "5673": "Digits",
  "6450": "ĠPI",
  "2140": "Ġvalues",
  "6154": "Ġdown",
  "7934": "fit",
  "285": "string",
  "6386": "Ġsender",
  "9354": "102",
  "2531": "Ġsuccess",
  "4974": "Ð¾Ð¶Ð´ÐµÐ½",
  "5390": "intValue",
  "2714": "Builder",
  "7673": "distanceTo",
  "4684": "Ġmediator",
  "9656": "IndexEntry",
  "5559": "printStats",
  "3190": "ĠÑģÐ¾ÑĢÑĤÐ¸ÑĢÐ¾Ð²",
  "9395": "ĠÐ¸Ð¼Ñı",
  "2344": "roup",
  "8734": "ĠÐĴÐ¾Ð·Ð²ÑĢÐ°ÑīÐ°ÐµÐ¼",
  "1133": "ated",
  "5691": "Ð»Ð°",
  "4799": "author",
  "8518": "bed",
  "1232": "idth",
  "73": "f",
  "1955": "Ġsafe",
  "2171": "atio",
  "7138": "Ð»Ð¸Ð¶",
  "1264": "nection",
  "2925": "Ð½ÐµÑĤ",
  "8061": "ĠÐ¿ÑĢÐ¸Ð²ÐµÐ´",
  "2885": "neighbor",
  "4391": "by",
  "6550": "factorial",
  "5219": "NING",
  "6580": "ĠÑĩÐ°Ñģ",
  "8589": "ÑĨÐ¸ÐµÐ¹",
  "329": "Ðº",
  "3675": "Ġwrapper",
  "7430": "ĠSpan",
  "2367": "ÐĴÑĭ",
  "4028": "Ġaccess",
  "9987": "detach",
  "7051": "ĠÐ¢ÐµÐ¿ÐµÑĢÑĮ",
  "4595": "Ġtail",
  "5384": "ired",
  "2796": "dest",
  "2667": "Ġgenerate",
  "7625": "Ð¾Ð¼Ñĥ",
  "3276": "ĠBigInt",
  "4462": "ializer",
  "5665": "1234567890",
  "7901": "Ġcommitted",
  "9497": "ous",
  "2993": "invalid",
  "9760": "modify",
  "6019": "Pending",
  "7917": "!\\",
  "2183": "ery",
  "4463": "Ġcartesian",
  "8264": "ĠcanHandle",
  "8313": "ConstantNode",
  "1670": "ĠÐ¸Ð½",
  "4162": "change",
  "4616": "&)>",
  "2750": "Ġmultiply",
  "4968": "ÑĪÐ¸Ð¹",
  "7233": "ĠÐºÐ¾Ð¿Ð¸ÑĢÐ¾Ð²Ð°Ð½Ð¸Ðµ",
  "804": "ÐµÐ·",
  "3728": "Tra",
  "5966": "ÐĶÐ¾Ð±Ð°Ð²Ð»ÐµÐ½",
  "7944": "inUse",
  "2159": "Ð°ÐµÑĤ",
  "4892": "Ġmeters",
  "282": "Ñĥ",
  "2848": "ÑĥÐ´ÐµÐ½ÑĤ",
  "1140": "line",
  "1930": "Ð¸ÑĩÐµÑģÐº",
  "4335": "cks",
  "3937": "Ð¸Ð·Ð²ÐµÐ´",
  "8226": "Ð»ÐµÐ½Ð½ÑĭÐ¹",
  "5678": "cc",
  "6177": "Ġminute",
  "2368": "create",
  "4432": "cope",
  "4547": "ts",
  "294": "Ġ/",
  "4052": "attery",
  "6987": "Ð°ÑĢÐ¿Ð»Ð°ÑĤÐ°",
  "8978": "sday",
  "4134": "uel",
  "643": "name",
  "2048": "uthor",
  "271": "ge",
  "2050": "Ġ42",
  "6026": "jug",
  "2417": "Ġpriority",
  "2316": "main",
  "4263": "Ð»Ð¾Ð¶",
  "6836": "Ð¾Ð¶Ð´ÐµÐ½Ð¸Ñı",
  "317": "Ġfor",
  "47": "L",
  "6389": "Ð¸Ð°Ð¿Ð°Ð·Ð¾Ð½",
  "535": "ÐºÐ°",
  "8258": "SearchTree",
  "5581": "Ð¡ÑĤÐµÐº",
  "6292": "Subject",
  "3650": "Ð¾Ð´Ð¸ÑĦÐ¸Ðº",
  "1363": "EN",
  "1130": "sc",
  "1226": "word",
  "92": "y",
  "3174": "Ġprefix",
  "9258": "<\\",
  "3438": "okenType",
  "1243": "Ġpair",
  "3111": "Ġblocks",
  "8588": "ople",
  "5586": "ĠColleague",
  "3618": "climits",
  "122": "»",
  "8970": "big",
  "8545": "Ġtmp",
  "9726": "Movable",
  "430": "nt",
  "133": "×",
  "2568": "any",
  "9499": "pped",
  "5901": "ĠÐ¿ÐµÑĢÐµÐ¼ÐµÐ½Ð½Ð¾Ð¹",
  "2309": "Ġemail",
  "2157": "Packet",
  "1498": "gistr",
  "4639": "Suffix",
  "2194": "ĠĠĠĠĠĠĠĠĠĠĠĠĠ",
  "2019": "DE",
  "8722": "ĠÐ·Ð°ÑħÐ²Ð°ÑĤÐ¸Ð»",
  "5595": "Ġrecommendations",
  "2893": "hash",
  "5551": "ĠÑģÐ±",
  "8196": "ÐĶÐµÐ»ÐµÐ½Ð¸Ðµ",
  "2835": "ĠÑĦÑĥÐ½Ðº",
  "5781": "Ġ||\\",
  "6941": "EDIUM",
  "5499": "ĠptrTo",
  "7771": "tyEntities",
  "3104": "Ð²ÑĢÐ°Ñī",
  "7852": "hosts",
  "4101": "Ġiter",
  "1841": "ram",
  "290": "us",
  "6988": "ĠÐ¼ÐµÐ½ÑĮÑĪÐµ",
  "1719": "ĠData",
  "991": "Ġlock",
  "6001": "ĠÐ³ÑĢÐ°Ð´ÑĥÑģ",
  "480": "Ð¿",
  "2063": "ĠÐĹ",
  "4653": "ĠPRO",
  "9457": "aurant",
  "5836": "seq",
  "3450": "stat",
  "3635": "/(",
  "2384": "ĠÐ¼ÐµÑĤÐ¾Ð´",
  "8383": "ĠDOUBLE",
  "6118": "Ġ\\\"âľĹ",
  "5967": "Ġ1000000",
  "1810": "from",
  "5568": "ĠtotalSeconds",
  "2094": "Ð¸ÑĢÑĥ",
  "3845": "Ð¾Ð²Ð°ÑĢ",
  "7037": "...(",
  "3350": "nÐŁÐ¾ÑģÐ»Ðµ",
  "7473": "StateA",
  "3184": "dx",
  "9869": "Ġspaces",
  "399": "il",
  "1410": "Ġ'\\\"",
  "6607": "ÑİÑĤÑģÑı",
  "5094": "ĠPluginManager",
  "2944": "ertices",
  "2259": "Ġ15",
  "2664": "ĠÐ¼Ð°ÑĤÑĢÐ¸ÑĨ",
  "5003": "ncpy",
  "775": "ÐµÑģÑĤ",
  "7518": "ributes",
  "3907": "Copyable",
  "1845": "ĠÐ±Ð°Ð¹ÑĤ",
  "3182": "ĠBankAccount",
  "9236": "ĠNoThrow",
  "7791": "ĠcountIn",
  "5636": "ĠElement",
  "1858": "Ġ{'",
  "1724": "ĠType",
  "9374": "ĠnextId",
  "1449": "la",
  "8427": "ĠÐ»ÑİÐ±",
  "2437": "Level",
  "8786": "Ġ(...)",
  "1843": "emplace",
  "7448": "ĠÐºÐ¾Ð»Ð¸ÑĩÐµÑģÑĤÐ²",
  "1957": "ide",
  "6187": "events",
  "757": "Ġtype",
  "6530": "ÐŁÑĢÐ¸Ð²ÐµÑĤ",
  "5054": "enqueue",
  "5697": "Ð¾Ð²ÑĭÑħ",
  "8364": "Ġconstants",
  "1210": "oc",
  "6281": "Ð¾Ð¶Ð½Ð¾",
  "428": "ĠÐ´",
  "8784": "ÑĤÑĥ",
  "9124": "Ġdirected",
  "3998": "ĠÐ¾Ð¿ÑĢÐµÐ´ÐµÐ»",
  "8992": "covery",
  "9832": ",-",
  "8049": "Ð¸ÑĩÐµÑģÐºÐ¸Ñħ",
  "5723": "shot",
  "4772": "addEdge",
  "7604": "\\\",\\\"",
  "203": "()",
  "3748": "Ð¡ÑĤÑĢÐ¾ÐºÐ°",
  "6602": "Setting",
  "622": "ial",
  "2247": "$\\\"",
  "296": "te",
  "5357": "ĠĠĠĠĠĠĠĠĠĠĠĠĠĠĠĠĠĠ",
  "326": "lo",
  "2812": "dp",
  "5362": "ĠNew",
  "3723": "encies",
  "9218": "ÑĢÑĥÐ¶ÐµÑģÑĤÐ²ÐµÐ½Ð½Ð°Ñı",
  "5185": "Ġadvance",
  "4540": "ÑĢÐ°Ð½Ð¸ÑĨ",
  "9758": "ÐľÐ¸Ð½Ð¸Ð¼ÑĥÐ¼",
  "3496": "<<(",
  "8286": "ĠdirtyEntities",
  "1116": "ÑĥÐ¼",
  "1142": "----",
  "607": "of",
  "8154": "lope",
  "3783": "Op",
  "975": "Ð»ÐµÐ¼ÐµÐ½ÑĤ",
  "8112": "bo",
  "9080": "printAlgebraic",
  "8024": "Ð¸ÑĢÐ¾Ð²Ð°Ð½Ð½ÑĭÐ¹",
  "1318": "Ġuser",
  "5425": "ÐµÐºÑĥÑĢÑģ",
  "8865": "ĠÐŁÑĢÐ¾",
  "6234": "rical",
  "8077": "ĠÐ¯Ð²",
  "6060": "imed",
  "6451": "Stage",
  "6411": "Form",
  "1633": "uc",
  "9815": "Ġ\\\"---\\\"",
  "7928": "Other",
  "1109": "ÐĲ",
  "3346": "ĠComplexNumber",
  "8919": "ĠÑĥÑģÑĤÐ°Ð½Ð¾Ð²Ð»ÐµÐ½Ð°",
  "3544": "__",
  "9703": "funcName",
  "6098": "ACC",
  "6886": "choice",
  "7417": "Ġcsv",
  "5939": "ÑıÑİÑī",
  "1378": "Ġat",
  "2189": "Ġ\\\\\\\"\\\"",
  "1322": "Ġ30",
  "9811": "MouseEvent",
  "8603": "charValue",
  "8124": "nÐľÐµÑĤÐ¾Ð´",
  "6119": "soleLogger",
  "4948": "ensive",
  "2024": "ĠÐ´Ð¾",
  "4730": "ubble",
  "3886": "maining",
  "9963": "Ġwindows",
  "7588": "Ð¸ÐµÑģÑı",
  "3659": "gregate",
  "4524": "Prototype",
  "3171": "Ġfs",
  "6754": "Ġphi",
  "9265": "Dest",
  "4795": "encrypted",
  "5074": "Ġ',",
  "3701": "Ġexplicit",
  "6792": "Ġbuilder",
  "730": "cle",
  "6769": "Fail",
  "1929": "ÑĥÐ¼Ð¼Ð°",
  "9982": "ĠAddress",
  "7815": "allocations",
  "7964": "ĠÑģÐ²",
  "3259": "rer",
  "3851": "ĠBinary",
  "2572": "operator",
  "6851": "ĠÐ¾Ð¶Ð¸Ð´",
  "2380": "di",
  "1713": "Item",
  "3865": "bug",
  "3938": "ĠÑįÐ»ÐµÐ¼ÐµÐ½ÑĤÐ°",
  "1870": "ĠÑĤÑĢ",
  "7886": "ĠÑĩÑĤÐµÐ½Ð¸Ñı",
  "7472": "ĠkeyMap",
  "8090": "HO",
  "2488": "Ð¾ÑıÐ½",
  "4303": "Ð¸Ð²Ð°Ð½Ð¸Ðµ",
  "2489": "Ġcontinue",
  "9627": "ĠÐ¾ÑĤÐ½Ð¾Ñģ",
  "1293": "&)",
  "2120": "lay",
  "5869": "Ð¾Ð½ÐµÐ½ÑĤ",
  "9177": "ĠCustomPtr",
  "2054": "ÐĿÐµ",
  "2875": "av",
  "9861": "cted",
  "3395": "ĠEn",
  "6679": "ÐµÐ´Ð°ÑĩÐ°",
  "6276": "Ġexit",
  "5008": "ÐºÐ¾Ð¼",
  "2204": "hic",
  "4798": "Socket",
  "9198": "Ġ{})",
  "5477": "Ð¥",
  "9444": "ĠÐ²Ð²Ð¾Ð´Ð°",
  "2391": "Ġheap",
  "9267": "DGRAM",
  "3475": "Ġvertices",
  "4386": ">())",
  "1737": "alind",
  "5747": "ĠÐłÐ°Ð±Ð¾ÑĤÐ°",
  "304": "uble",
  "948": "Ġleft",
  "7196": "Ð½Ð¾ÑģÑĤÐ¾ÑĢÐ¾Ð½",
  "916": "ĠÐ½Ðµ",
  "81": "n",
  "6779": "hs",
  "7182": "1010",
  "8052": "ĠÐ²ÐµÑĢÑģÐ¸Ñı",
  "3878": "INT",
  "7444": ">([](",
  "1067": "lugin",
  "1529": "Ġ\\\"===",
  "8557": "Ġmass",
  "5753": "Author",
  "9637": "ERATE",
  "7650": "complete",
  "4678": "Part",
  "8799": "ÐºÐ°ÑĤ",
  "3876": "Ġgroup",
  "7922": "EW",
  "6132": "ĠÐ¿Ð¾Ð·Ð¸ÑĨÐ¸ÑıÑħ",
  "2148": "tra",
  "3534": "Ġ1024",
  "9373": "Delete",
  "4671": "ĠNonCopyable",
  "4295": "001",
  "1510": "ener",
  "1371": "ÐµÑĪ",
  "9093": "ĠRight",
  "990": "ĠSt",
  "2037": "Ġcode",
  "3666": "vg",
  "8657": "MPLOY",
  "6082": "Ð¸ÑĢÐ¾Ð²Ð°Ð½Ð°",
  "7940": "ĠÏ",
  "3322": "isValid",
  "7952": "alty",
  "1307": "Ġwith",
  "7887": "ĠConstantType",
  "2727": "roll",
  "1440": "Ð¼Ð°",
  "7038": "Ġtimeval",
  "4009": ">>(",
  "4971": "ĠÐ¼Ð°ÐºÑģÐ¸Ð¼Ð°Ð»ÑĮ",
  "4203": "Ġinfo",
  "2737": "Ġsm",
  "4013": "ake",
  "8441": "expression",
  "1554": "Char",
  "8573": "Real",
  "7892": "ULT",
  "1915": "long",
  "7916": "REUSEADDR",
  "2852": "status",
  "4420": "Items",
  "8063": "Ð¢ÐµÐºÑĥÑīÐµÐµ",
  "4018": "integral",
  "1726": "Date",
  "1799": ">();\\",
  "9403": "ĠÐĹÐ°Ð¿Ð¸ÑģÑĮ",
  "5392": "orary",
  "9693": "allet",
  "8670": "ĠfuncName",
  "2856": "imeter",
  "5898": "ĠÐ¾Ð±ÑĬÐµÐºÑĤÐ¾Ð²",
  "7686": "ÐµÑģÐºÐ¾Ð½ÐµÑĩ",
  "7803": "Ġ75",
  "8668": "ĠEventSystem",
  "2410": "Ð»ÑıÐµÐ¼",
  "334": "ata",
  "4947": "init",
  "5269": "ĠÐ¿ÑĢÐ¸ÑģÐ²Ð°",
  "7163": "aylor",
  "208": "Ġ\\",
  "7618": "Ð¹ÑĤÐµ",
  "5116": "conn",
  "4590": "nel",
  "9118": "newData",
  "4717": "ECT",
  "8768": "]+",
  "2788": "area",
  "1197": "ÑĢÐµÐ´",
  "2807": "Strategy",
  "1806": "ĠShape",
  "6798": "Ġ'('",
  "1182": "Ġq",
  "9161": "ĠÐ¿ÑĢÐ¾Ð¸Ð·Ð²Ð¾Ð´",
  "3428": "ĠÐ¾Ñģ",
  "231": "on",
  "3555": "ĠÑĦÐ¾ÑĢÐ¼",
  "9096": "Ð¾Ð¹ÐºÐ¸",
  "6585": "ĠÐ±Ð»Ð¾Ðº",
  "8510": "Flying",
  "468": "uct",
  "2229": "az",
  "6421": "lvalue",
  "7426": "Ġweek",
  "7582": "Ġ\\\"...\\\"",
  "4354": "opecks",
  "4381": "holds",
  "5934": "Ġreport",
  "9477": "Purpose",
  "3893": "entry",
  "9297": "Ġamt",
  "6867": "}});\\",
  "6094": "SSL",
  "4863": "Ġ!(*",
  "4045": "ĠÐ¿Ð°Ð¼",
  "562": "Ġvector",
  "618": "Ġpro",
  "9774": "ĠÐ¾ÑĩÐµÑĢÐµÐ´Ð¸",
  "5543": "Ġmoney",
  "247": "Ġn",
  "3405": "section",
  "2677": "22",
  "1327": "ĠÑĤÐ¸Ð¿",
  "8395": "ÑīÐµ",
  "6649": "Ġlower",
  "4390": "PO",
  "9331": "Ð°ÑĤÐµÐ¼",
  "3674": "ÐºÐ¾Ð¹",
  "2786": "Ġ_",
  "4655": "ĠmaxSize",
  "1160": "Ð°ÑĤÐµÐ»ÑĮ",
  "6706": "Ġuow",
  "9557": "Ġlaptop",
  "5188": "Ð¾Ð¿ÑĢÐµÐ´ÐµÐ»",
  "9532": "Ġcircumference",
  "5194": "prev",
  "5690": "Ġve",
  "7696": ">,\\",
  "1239": "Ġout",
  "7439": "ĠÐ´Ð¸Ð°Ð³",
  "6593": "ÑģÑĤÑĢÐ¾ÐºÐ°",
  "3226": "nÐŁÑĢ",
  "6340": "osthenes",
  "1022": "Ġgraph",
  "4280": "ÐµÐ¼Ð¿ÐµÑĢÐ°ÑĤ",
  "9348": "ĠÐ±ÑĥÑĦÐµÑĢ",
  "4610": "Ð¸Ð²Ð½ÑĭÐ¹",
  "1677": "ĠĠĠĠĠĠĠĠĠĠĠĠĠĠĠĠĠĠĠĠ",
  "6441": "ulus",
  "4092": "Average",
  "6445": "ĠScopeGuard",
  "2345": "Ġconnect",
  "1436": "ĠResource",
  "9954": "ĠÐ¿Ð¾Ð´ÑħÐ¾Ð´",
  "5863": "term",
  "5540": "Ð¬",
  "8823": "ntype",
  "4323": "TY",
  "3398": "tasks",
  "4119": "Ġ99",
  "322": "iostream",
  "5825": "WR",
  "1973": "stdex",
  "2239": "no",
  "3613": "show",
  "8515": "Upper",
  "5449": "ĠÐ°ÑĢÐ¸ÑĦÐ¼ÐµÑĤ",
  "5254": "Users",
  "6979": "ĠÐ¶Ðµ",
  "8793": "Ġsy",
  "4316": "ĠÐ¿Ð¾Ð²ÑĤÐ¾ÑĢ",
  "8853": "Ġclick",
  "7363": "aptop",
  "1587": "ÑĢÐµÐ¼",
  "5801": "ĠÑĤÐµÐºÑĥÑī",
  "2980": "ĠÐ¿Ð¾Ð»ÑĮÐ·Ð¾Ð²",
  "8477": "ĠÑģÐ»Ð¾Ð¶ÐµÐ½Ð¸Ñı",
  "3440": "ĠÐ£Ð´Ð°Ð»",
  "7462": "ĠaddTo",
  "3730": "square",
  "9023": "ÑıÐ¶",
  "1853": "--------",
  "1285": "date",
  "3310": "Ġfactory",
  "7437": "ĠÐ½ÐµÑģ",
  "7997": "ĠÐ¿ÑĢÐ¾Ð³ÑĢÐµÑģÑģ",
  "634": "Ġfalse",
  "8305": "Ġapproved",
  "5447": "ÑĥÐ±Ð»Ð¸Ðº",
  "7102": "Pay",
  "1683": "Ð¾Ð±Ð°Ð²",
  "2314": "input",
  "2184": "Ġap",
  "8341": "]{",
  "6608": "ÐŃÑĤÐ¾",
  "4838": "Ð¸Ð½Ð°Ð»ÑĮ",
  "8017": "ĠÑĢÐ°Ð·Ð½ÑĭÐµ",
  "5470": "ccur",
  "1771": "ax",
  "2421": "Ġparse",
  "4189": "Helper",
  "9834": "CHECK",
  "3766": "Ð¾Ð´ÐµÑĢÐ¶",
  "3677": "(),\\",
  "7195": "ERT",
  "798": "utex",
  "6780": "jk",
  "2991": "ml",
  "8621": "press",
  "6103": "Ġdocs",
  "8399": "Ġtoupper",
  "1817": "antity",
  "9942": "Ġchecking",
  "2153": "Ġcalculate",
  "2051": "alculator",
  "3875": "Ġgrid",
  "735": "Ð²ÐµÐ´",
  "736": "ullptr",
  "4104": "icro",
  "2900": "Ġcm",
  "6804": "Ð¡Ð¾Ð²",
  "2480": "Ġplugin",
  "6716": "rolled",
  "5284": "fcntl",
  "3919": "send",
  "1635": "ÑĢÐ°ÑĤ",
  "4732": "ison",
  "7941": "ĠExpected",
  "1175": "ÐŁÐ¾ÑģÐ»Ðµ",
  "2080": "ĠÐ¼Ð¾Ð¶",
  "9756": "ĠbestCost",
  "4186": "ĠÐ¸Ð·Ð¼ÐµÐ½ÐµÐ½Ð¸Ñı",
  "8605": "ĠÑĥÐ´Ð°",
  "3630": "days",
  "1041": "ugin",
  "6642": "bound",
  "2683": "Ð»Ð°ÑģÑģ",
  "8887": "Ġ4096",
  "3158": "tex",
  "2753": "Invalid",
  "4188": "Ð¸Ð·Ð²ÐµÐ´ÐµÐ½Ð¸Ðµ",
  "8143": "Ġvolatile",
  "525": "));\\",
  "2440": "Palindrome",
  "1599": "numbers",
  "814": "Ð¸Ð¹",
  "7398": "ng",
  "9618": "ĠÑĢÐ°Ñģ",
  "1304": "sin",
  "1632": "ield",
  "619": "data",
  "31": "<",
  "8583": "ared",
  "4588": "calculate",
  "5789": "ĠÑĢÐµÐ³Ð¸ÑģÑĤÑĢ",
  "7616": "addItem",
  "6906": "append",
  "2620": "Buffer",
  "8300": "ÑĦÐ¾ÑĢÐ¼Ð°ÑĨÐ¸Ñı",
  "1689": "Que",
  "4807": "cores",
  "7495": "456",
  "6820": "Ġperfect",
  "8737": "IGNMENT",
  "8178": "ĠDown",
  "5534": "GS",
  "2377": "imits",
  "7684": "ĠÐ²ÑĭÐ·Ð¾Ð²Ð°",
  "8798": "loaded",
  "5138": "timeout",
  "5627": "ĠnewData",
  "505": "count",
  "3376": "Ġboolalpha",
  "7162": "ayThrow",
  "9049": "ĠÐ´Ð¾ÐºÑĥÐ¼ÐµÐ½ÑĤ",
  "2160": "Ġperror",
  "8489": "ĠÑģÑĤÐµÐ¿ÐµÐ½Ð¸",
  "8787": "season",
  "3068": "apple",
  "3232": "Ġdec",
  "3370": "Colleague",
  "3504": "Ð½ÑĥÑĤ",
  "3652": "Ð¾Ð±ÑĭÑĤ",
  "2606": "uf",
  "6436": "ube",
  "4755": "SO",
  "8966": "Used",
  "7683": "Difference",
  "2319": "Year",
  "6348": "off",
  "8580": "Ġ'<",
  "6626": "Ġcallback",
  "6274": "Ð¡Ð¾",
  "4262": "come",
  "851": "log",
  "7189": "filesystem",
  "2215": "uint",
  "3582": "ÑĥÐ½Ð´",
  "7555": "Insertions",
  "212": "Ð¸",
  "9919": "ÑģÑĤÑĢÐ¾Ð¹",
  "6924": "Ġalice",
  "6163": "Ġltm",
  "8294": "Ġneurons",
  "553": "ÐµÐ½Ð¸Ðµ",
  "532": "rent",
  "114": "³",
  "9044": "Ġhero",
  "8189": "phi",
  "1801": "Ġper",
  "7911": "Ð¾Ð·Ð¸ÑĨÐ¸Ñı",
  "278": "Ġ1",
  "6639": "Rot",
  "4733": "Ð²Ð¾Ð±",
  "8525": "spherical",
  "1390": "Ð¸ÑĩÐµÑģ",
  "1196": "valid",
  "7251": "Locator",
  "5182": "Ð·Ð²Ð»",
  "2111": "eek",
  "2011": "No",
  "6297": "255",
  "7548": "ĠÐŀÐ¿ÐµÑĢÐ°ÑĤÐ¾ÑĢ",
  "9056": "Stopped",
  "8735": "Factories",
  "6262": ">(*",
  "9330": "perties",
  "7603": "Rec",
  "8520": "hi",
  "5988": "Ð¸ÑģÑĤÐµÐ¼Ð°",
  "8965": "UP",
  "5370": "Allocated",
  "9298": "Ġ\\\"\\\"",
  "4056": "Entry",
  "378": "ĠS",
  "7090": ")];\\",
  "3152": "quire",
  "1970": "Ð¡ÑĤ",
  "8185": "Ð¸Ð¼Ð¾ÑĢÑĦ",
  "421": "per",
  "638": "el",
  "7859": "ĠcardNumber",
  "6803": ">>;\\",
  "6097": "Ġroute",
  "8285": "ĠÐ¿Ð¾Ð²ÑĤÐ¾ÑĢÑıÑİÑī",
  "9878": "Ġ-\\",
  "7202": "ĠuserService",
  "3589": "Custom",
  "6756": "ĠÐ¡Ð¿ÐµÑĨÐ¸",
  "1931": "Wrapper",
  "6404": "Ġquotient",
  "983": "ĠÐ¿ÐµÑĢ",
  "9180": "ĠREPEAT",
  "7109": "blue",
  "6733": "aves",
  "6907": "Ġprotected",
  "2911": "ĠÐ²ÑĢÐµÐ¼Ñı",
  "8758": "BN",
  "9269": "HOLD",
  "166": "ĸ",
  "5816": "firm",
  "6272": "Ġproject",
  "8508": "DVD",
  "211": "cout",
  "8764": "NEW",
  "2654": "Ġsecond",
  "6242": "Ð½Ð¸Ñĩ",
  "8815": "ĠTCP",
  "7129": "ĠÐ¯",
  "5237": "ĠPar",
  "2794": "Print",
  "8665": "ĠÐĹÐ°Ð³",
  "5239": "aged",
  "2577": "Ġpage",
  "8810": "ĠCy",
  "9512": "receive",
  "312": "it",
  "2761": "gram",
  "1162": "array",
  "8483": "normalize",
  "3229": "verse",
  "5933": "atis",
  "1438": "=\\\"",
  "7976": "ĠgetCounter",
  "3246": "Ġavailable",
  "7872": "ĠundoStack",
  "1203": "now",
  "9688": "ĠInformation",
  "8592": "ĠnewEntities",
  "7276": "ZER",
  "3622": "ĠgetType",
  "130": "Ï",
  "3402": "Over",
  "3274": "uda",
  "863": "Ġstart",
  "6091": "greater",
  "846": "atch",
  "6813": "Ð¸ÑĤÐµÐ»ÑĮÐ½Ð°Ñı",
  "9611": "Ġcompens",
  "5163": "ĠÐµÑģÐ»Ð¸",
  "5630": "Ð¸Ð½Ð³",
  "4311": "Ġdispatch",
  "5243": "achine",
  "1785": "Ġnot",
  "6587": "ÐĺÐ·Ð²Ð»ÐµÑĩ",
  "743": "atri",
  "125": "¾",
  "9364": "Ġtimes",
  "6976": "ĠSystemConfig",
  "9410": "accumulate",
  "35": "@",
  "1386": "Event",
  "3236": "ĠAny",
  "3452": "sic",
  "4969": "ctionary",
  "4965": "pter",
  "1688": "Ġshape",
  "6938": "Ð¸ÑģÑĤÐºÐ°",
  "1477": "Ġclient",
  "6222": "PS",
  "5631": "ĠVec",
  "3848": "++;",
  "357": "Ġ2",
  "4200": "Ġ24",
  "396": "ther",
  "3290": "Ð°Ð±Ð»Ð¾Ð½",
  "6039": "ÑĥÐµÐ¼",
  "6192": "ĠÑģÐ¾ÐµÐ´Ð¸Ð½",
  "7972": "strncpy",
  "7978": "ĠPA",
  "3705": "Posit",
  "8239": "ÐµÑĩÐ°ÑĤ",
  "3363": "ÐµÐ»ÑĮÐ·Ñı",
  "8717": "ĠgoodSuffix",
  "635": "ph",
  "4662": "ĠÐĺÐ·Ð¼ÐµÐ½",
  "3954": "Ġstarted",
  "2352": "requ",
  "7238": "ĠMemento",
  "5081": "ĠcacheList",
  "1302": "ÑĥÐ½Ðº",
  "9069": "ÐĴÐ°ÑĪ",
  "4357": "Password",
  "4407": "address",
  "2851": "Â°",
  "8667": "abcabc",
  "9145": "TestClass",
  "2114": "Ð½Ð¸Ð¹",
  "1110": "fig",
  "3764": "Ð¾ÑĢÐ´Ð¸Ð½",
  "1213": "Hello",
  "65": "^",
  "9187": "domain",
  "7969": "ĠÐ²Ð²ÐµÐ»",
  "1502": "ĠCircle",
  "7536": "Ð°ÐºÑĤÐ¸Ð²",
  "9796": "ĠMovie",
  "5528": "Ġcalled",
  "7864": "ÐľÐ°ÐºÑģÐ¸Ð¼Ð°Ð»ÑĮÐ½Ð¾Ðµ",
  "9340": "Ġconjugate",
  "6475": "ĠÐ¡ÑĤÐ°ÑĤÐ¸ÑģÑĤÐ¸ÐºÐ°",
  "5951": "percent",
  "5961": "ÐŀÑĩ",
  "3505": "Ġreceived",
  "1977": "stdexcept",
  "3167": "Json",
  "5493": "ĠMiddle",
  "1334": "uration",
  "6509": "Ð½Ð¾Ð¶ÐµÑģÑĤÐ²",
  "6927": "ĠComplexMatrix",
  "9154": "Ġconfigure",
  "5774": "Ġguard",
  "8491": "ĠDiscount",
  "891": "ook",
  "2449": "Ð¸ÑĢÐ¾Ð²Ð°Ð½Ð¸Ðµ",
  "6657": "depend",
  "76": "i",
  "934": "bool",
  "4384": "ĠÐ¡ÑģÑĭÐ»ÐºÐ°",
  "438": "ke",
  "440": "ff",
  "1278": "RE",
  "5191": "ĠÐ¡ÑĢÐ°Ð²Ð½ÐµÐ½Ð¸Ðµ",
  "5575": "Ġreader",
  "2125": "ier",
  "1472": "Ð¾ÑĢÑĤ",
  "7753": "ĠCAP",
  "8662": "Ġmapping",
  "875": "Ġac",
  "6895": "ĠÐ²ÑģÑĤÐ°Ð²",
  "6047": "Ġdeposit",
  "993": "ib",
  "3453": "Ġ16",
  "2593": "Ġ/=",
  "1416": "what",
  "7602": "paces",
  "4747": "criminant",
  "6155": "Ġpost",
  "1669": "Ð²Ð¾Ð»",
  "8475": "ĠDECLARE",
  "4036": "(\\",
  "3371": "cstdlib",
  "8206": "ĠÐĴÐ°ÑĢÐ¸Ð°Ð½ÑĤ",
  "6465": "ather",
  "7069": "Ġuniform",
  "8838": "ĠÐŁÐŀ",
  "6495": "ARGS",
  "7779": "ĠAd",
  "5640": "ĠÑįÑĤÐ¾",
  "1274": "ÑĥÑİ",
  "2131": "own",
  "5170": "Ġcarry",
  "7721": "Ġrollback",
  "9509": "inv",
  "445": "Ġnum",
  "2888": "Ġfixed",
  "3550": "isor",
  "2353": "assword",
  "2313": "float",
  "4594": "Ð¸Ð½Ñĭ",
  "9953": "ĠinstanceCount",
  "8423": "Than",
  "5721": "originator",
  "3230": "Ġlibrary",
  "5099": "31",
  "8963": "TER",
  "1457": "ĠIN",
  "7960": "isOpen",
  "9976": "genre",
  "1090": "node",
  "3141": "nstring",
  "2293": "ats",
  "6863": "sensor",
  "7900": "Ð²Ð°ÑĢÐ¸ÑĤÐµÐ»ÑĮ",
  "7173": "ĠisEven",
  "6973": "ĠÐ¿ÑĢÐ¾ÑĨÐµÑģÑģ",
  "4279": "Ð¾Ð¿ÑĭÑĤÐºÐ°",
  "7033": "ÐľÐ°ÐºÑģÐ¸Ð¼ÑĥÐ¼",
  "241": "ct",
  "15": ",",
  "1675": "Ġposit",
  "4672": "265",
  "29": ":",
  "9646": "ĠÑģÑĤÐ°Ð²",
  "5321": "ÑĤÐµÑĢÐ½",
  "2130": "ndouble",
  "419": "arr",
  "6136": "jugate",
  "113": "²",
  "2411": "Available",
  "7077": "Ġdemonstrate",
  "4490": "Ġstrlen",
  "9459": ">{}",
  "8625": "ÐµÐ²Ð¾Ð´",
  "7049": "Results",
  "6261": "aretaker",
  "8160": "ota",
  "6735": "Ġasync",
  "3189": "ĠÐ¿Ð°Ð»Ð¸Ð½Ð´ÑĢÐ¾Ð¼",
  "479": "Ġvalue",
  "700": "ÐµÐ½ÑĤ",
  "6020": "RAII",
  "1422": "Ġstate",
  "2805": "face",
  "8422": "Debug",
  "1890": "corator",
  "3328": "ĠÐĹÐ°Ð¿",
  "5508": "ĠÐ»ÐµÑĤ",
  "3658": "Ð¾Ð½ÑģÑĤÑĢÑĥÐºÑĤÐ¾ÑĢ",
  "8715": "Ġ'\\\\\\\"'",
  "8183": "ĠnewSize",
  "3648": "Ġ31",
  "5259": "Ġready",
  "9420": "NonCopyable",
  "8125": "nÐ¨Ð°Ð³",
  "1126": "udent",
  "8062": "Ð¢ÐµÐºÑĥÑīÐ¸Ð¹",
  "9244": "cipal",
  "9564": "setfill",
  "3161": "ĠÐ³Ð¾Ð´",
  "7478": "ĠOper",
  "7184": "ĠcurrentNode",
  "6214": "ĠÐµÑīÐµ",
  "612": "ment",
  "3179": "ifstream",
  "5119": "Ð»Ð¸Ðº",
  "3846": "ÐµÑĢÐµÐ²",
  "4321": "Hour",
  "1749": "ailed",
  "5416": "ffic",
  "9117": "ĠGLBuffer",
  "5830": "ump",
  "4342": "Ġrun",
  "8307": "Ġverify",
  "2897": "cmp",
  "3560": "RI",
  "4015": "steady",
  "7533": "ĠObjectTracker",
  "3657": "Ġposition",
  "941": "========",
  "7356": "FINE",
  "4110": "aren",
  "569": "sit",
  "8360": "Ġdocument",
  "33": ">",
  "2056": "AT",
  "9141": "Ġperform",
  "5584": "weights",
  "734": "pr",
  "8368": "isupper",
  "6494": "ShapeVisitor",
  "8137": "default",
  "521": "ĠÐ¸",
  "3706": "Perm",
  "2878": "ĠÐ¼Ð¸Ð½",
  "1781": "Ġfound",
  "6200": "ĠÐ¿ÑĢÐµÐ´ÑģÑĤÐ°Ð²",
  "6694": "ĠÑĤÐ°Ðº",
  "3607": "ÑĢÑĥÑĪ",
  "157": "į",
  "707": "ary",
  "2390": "child",
  "9450": "ĠPartialOrderDerived",
  "3400": ")\\\");\\",
  "5764": "sity",
  "7299": "Coeffs",
  "7001": "timer",
  "151": "ĩ",
  "4551": "ÑĤÐµ",
  "7074": "Ġtags",
  "7719": "uge",
  "7159": "Ġdecompressed",
  "7539": "Ġattendance",
  "6989": "'))",
  "9417": "vanced",
  "626": "be",
  "7910": "ĠÑģÑĥÑĦÑĦÐ¸ÐºÑģ",
  "695": "fd",
  "6744": "caten",
  "7844": "OUT",
  "6678": "Ġrvalue",
  "8957": "Neighbor",
  "854": "Ġbreak",
  "7345": "ĠÐ§ÑĤÐµÐ½Ð¸Ðµ",
  "8363": "Ġ+\\",
  "9462": "Both",
  "4865": "ĠAp",
  "815": "Ð¸Ðº",
  "7409": "ÑģÐ°",
  "2530": "Ġ\\\"/",
  "2755": "numeric",
  "513": "age",
  "3904": "pecification",
  "4399": "Ġren",
  "7963": "++()",
  "7611": "ĠBLOCK",
  "2814": "ĠÑĢÑĥ",
  "9617": "ĠprocessObject",
  "8891": "ROM",
  "3950": "ealth",
  "9321": "robot",
  "4753": "Category",
  "8702": "Accessor",
  "5649": "Ġtopolog",
  "7352": "COMPLETED",
  "4611": "ants",
  "9195": "Ġcurrency",
  "4951": "aly",
  "5336": "Machine",
  "704": "Ġ===",
  "8298": "ĠActorRef",
  "5629": "ÑĦÐ¾ÑĢÐ¼",
  "810": "Data",
  "4825": "Ġtoday",
  "3357": "ÑĥÐ±",
  "8207": "ĠbufferSize",
  "3320": "reset",
  "2816": "Ġdigits",
  "376": "ator",
  "5027": "ÑĢÐµÐ¼Ñı",
  "7908": "ĠÑĥÐ½Ð¸ÐºÐ°Ð»ÑĮ",
  "627": "oint",
  "3642": "used",
  "8731": "ĠÐºÑĢÑĥÐ³Ð°",
  "4785": "apab",
  "9295": "ties",
  "6223": "PLAY",
  "7758": "ĠSERIAL",
  "6013": "Frequent",
  "476": "Ġy",
  "9316": "Ġdz",
  "3913": "CS",
  "9897": "ĠgetKey",
  "6837": "Ġdemonstration",
  "5572": "ĠStorage",
  "6038": "the",
  "8598": "Ġadvice",
  "8060": "SIGINT",
  "6044": "very",
  "4253": "ĠÑģÐµÐºÑĥÐ½Ð´",
  "1441": "Ġtypeid",
  "56": "U",
  "9764": "ĠBitComputations",
  "7955": "Ġvertex",
  "8845": "ÐĿÐµÐºÐ¾ÑĢÑĢÐµÐºÑĤ",
  "7712": "global",
  "1148": "ÑĪÐ¸Ð±",
  "1315": "ry",
  "1183": "Ġsock",
  "4348": "ĠaccountNumber",
  "8218": "ĠeventType",
  "1563": "true",
  "4424": ":%",
  "1391": "ency",
  "2678": "AI",
  "5307": "printable",
  "4143": "ĠÐĶÐ»Ñı",
  "5374": "chedule",
  "7178": "Ġprototype",
  "8874": "ÑĥÑģÐº",
  "6972": "ĠÐ¿ÑĢÐ¾ÑĨÐµÐ½ÑĤ",
  "2282": "Ġ#",
  "3085": "Ġshow",
  "4030": "Ġ255",
  "9179": "Ġtriple",
  "7605": "ĠÐ½Ð¸Ð¶",
  "5371": "Interval",
  "7285": "Ð½ÐµÐµ",
  "6144": "Speed",
  "6206": "ĠSerializable",
  "3986": "enderer",
  "442": "\\\");\\",
  "1621": "ĠÐŁÑĢÐ¾Ð²ÐµÑĢÐºÐ°",
  "8224": "ĠcheckType",
  "460": "Ġr",
  "7128": "relaxed",
  "2762": "net",
  "5757": "UN",
  "4690": "Ġ36",
  "9435": "ifiable",
  "9783": "ĠreservationId",
  "1664": "bs",
  "3108": "ĠState",
  "7256": "Ð°Ð½Ð´Ð°ÑĢÑĤ",
  "4818": "Ġ'+",
  "7139": "Ġcandidate",
  "2569": "ÑĥÐ»",
  "2741": "Cont",
  "8760": "Host",
  "2842": "ssage",
  "9689": "ĠemailToId",
  "8998": "delt",
  "2473": "hone",
  "6782": "Ġturn",
  "9349": "Contains",
  "4915": "ĠÑĥÐ¼",
  "7034": "ÐļÐ°Ðº",
  "2465": "ĠÑĪ",
  "5195": "ĠfindMax",
  "1012": "queue",
  "1323": "enominator",
  "2578": "ĠCom",
  "82": "o",
  "64": "]",
  "7008": ">\\\\",
  "7300": "abel",
  "4220": "Ġpages",
  "3896": "ĠSet",
  "9592": "ĠÑĤÐ¾Ð¿",
  "6785": "ond",
  "3073": "ti",
  "5993": "Ġdecimal",
  "5242": "Ġextra",
  "6747": "ĠLineSegment",
  "6880": "Ġcalculator",
  "7136": "Ġvacation",
  "8238": "aterial",
  "5450": "Position",
  "2445": "orted",
  "1258": "order",
  "4252": "ĠÐ¿ÑĢÐ¾ÑĨ",
  "2565": "Ð°ÐºÑģÐ¸Ð¼Ð°Ð»ÑĮ",
  "7403": "Ġerr",
  "6687": "Ġoverdue",
  "6588": "rend",
  "7740": "Ġpay",
  "394": "sult",
  "4675": "CON",
  "7792": "Ð¸Ð½ÑħÑĢÐ¾Ð½",
  "841": "gor",
  "4042": "Ġfuture",
  "3966": "uplic",
  "4289": "Ġsave",
  "7210": "short",
  "1415": "ÑĢÐ¸ÑĨ",
  "4051": "acy",
  "3640": "board",
  "1328": "Ġindex",
  "193": "Ġ{",
  "7581": "Ġ\\\"<",
  "7919": "03",
  "6612": "ĠÐºÐ¾ÑĢÐµÐ½ÑĮ",
  "4917": "ÐľÐµÑĤÐ¾Ð´",
  "7177": "Ġprogress",
  "3869": "Ġdot",
  "4168": "Ġ32",
  "7584": "Ð°ÑĨÐ¸Ñİ",
  "9184": "Transfer",
  "9311": "convert",
  "301": "um",
  "8217": "ÐŁÑĢÑıÐ¼Ð¾ÑĥÐ³Ð¾Ð»ÑĮÐ½Ð¸Ðº",
  "1831": "Element",
  "8461": "Ġ^=",
  "7793": "ĠROW",
  "4267": "Ġrank",
  "5878": "ToId",
  "8575": "Ġhandling",
  "8150": "amel",
  "1887": "ĠgetName",
  "263": "ue",
  "4147": "ĠInter",
  "828": "gle",
  "2941": "Ð»Ð¾Ñī",
  "7813": "ByType",
  "4017": "copy",
  "6111": "Ġfsm",
  "9669": "Ġactiv",
  "6363": "exist",
  "7316": "LED",
  "7764": "Ġholder",
  "7119": "pImpl",
  "9994": "ĠÑģÐ¾ÑģÑĤÐ¾ÑıÐ½Ð¸Ñı",
  "1312": "ansaction",
  "2031": "Ġdynamic",
  "8645": "ĠÐľÐ¾Ð¶Ð½Ð¾",
  "1418": "ies",
  "302": "ate",
  "8504": "75",
  "5132": "ĠÑĤÐ¾Ð»ÑĮÐºÐ¾",
  "7281": "Ġut",
  "4761": "atures",
  "6": "#",
  "5161": "Pol",
  "106": "©",
  "6877": "amt",
  "3725": "RUCache",
  "8899": "Printable",
  "2700": "ĠÐ¿ÐµÑĢÐµÐ¼ÐµÐ½",
  "11": "(",
  "9078": "Ð¡ÑĤÐ°ÑĤ",
  "7506": "Ġbacktrack",
  "239": "turn",
  "3868": "ould",
  "6910": "ĠÐ±Ð¾Ð»ÐµÐµ",
  "5313": "roman",
  "8547": "Ġpe",
  "4199": "Ð²ÐµÑģÑĤ",
  "8800": "ÐºÐ¸Ð¹",
  "1971": "erature",
  "5588": "Ġsuccessful",
  "8756": "300",
  "9416": "ĠĠĠĠĠĠĠĠĠĠĠĠĠĠĠĠĠĠĠĠĠĠĠĠĠĠĠĠĠĠĠĠĠĠ",
  "2271": "uilder",
  "9894": "ĠÐ´ÐµÑģÑĤÑĢÑĥÐºÑĤÐ¾ÑĢ",
  "5539": "pn",
  "9805": "ĠmoreNumbers",
  "5923": "Ratio",
  "9884": "Ġcoin",
  "5717": "ĠÑĢÐµÐ±",
  "3930": "Ġborrow",
  "2455": "Func",
  "6858": "Volume",
  "4257": "Range",
  "9947": "ĠHTTP",
  "9517": "leap",
  "5996": "ĠÐ¾ÑģÐ½Ð¾Ð²",
  "7929": "Sorter",
  "4008": "55",
  "6280": "tempts",
  "59": "X",
  "9957": "ĠinitialBalance",
  "1535": "Account",
  "6140": "Flags",
  "7279": "rute",
  "4366": "Ġhour",
  "1518": "Ġnext",
  "8123": "neuron",
  "8015": "STR",
  "8669": "Intern",
  "5064": "ĠÐ¿ÑĥÑĤ",
  "1098": "yte",
  "6130": "promise",
  "371": "ig",
  "1997": "Ġthreads",
  "4778": "ÐłÐĲ",
  "5712": "ĠÐ¼ÐµÐ½",
  "966": "Ġ8",
  "9590": "ÑīÐµÐ¼",
  "5974": "Ġclosed",
  "4489": "Ġrand",
  "5423": "Ð¸Ð¼ÑĥÐ»Ñı",
  "879": "Ġit",
  "3123": "ÑĢÐ°Ð±Ð¾ÑĤÐºÐ°",
  "356": "ir",
  "6760": "ÑĤÐµÑĢÐ½Ð°ÑĤ",
  "9540": "Ġobstacle",
  "4499": "Ð¸ÑĦÐ¼ÐµÑĤ",
  "945": "one",
  "5910": "ĠÑģÐ¾Ð±ÑĭÑĤÐ¸Ð¹",
  "2749": "coeffs",
  "3335": "âľ",
  "5811": "ÐµÑģÑıÑĨ",
  "3443": "ĠÐ´Ð°Ð½Ð½ÑĭÑħ",
  "5937": "Ġblue",
  "3058": "19",
  "3062": "gen",
  "9559": "Ġdeclval",
  "5413": "Ġxml",
  "2862": "Ð½Ð¾Ð¼",
  "5294": "ÐµÐ½Ð½ÑĭÑħ",
  "9678": "Template",
  "4955": "Ġprivate",
  "6538": "DB",
  "108": "¬",
  "2808": "ĠArray",
  "895": "tem",
  "4431": "inish",
  "9838": "ND",
  "2557": "Ent",
  "1200": "ÐµÐ³",
  "3449": "sp",
  "3946": "At",
  "2004": "Max",
  "673": "Ġto",
  "2168": "cstd",
  "7537": "FINAE",
  "7158": "ĠTuple",
  "7660": "ÑıÐ¼Ð¸",
  "2254": "FF",
  "6180": "ible",
  "3356": "Ġcategory",
  "7559": "Wheels",
  "3437": "Ð¸ÑĨÐ°",
  "4211": "ĠÑĥÑģÐ¿ÐµÑĪ",
  "7124": "yer",
  "4007": "33",
  "9975": "1984",
  "1641": "imag",
  "2843": "message",
  "1044": "ĠÑĦ",
  "7685": "enabled",
  "6233": "nx",
  "7866": "USD",
  "6958": "ĠÐ´ÐµÐ»ÐµÐ½Ð¸Ñı",
  "6808": "Ġsec",
  "6330": "ĠProcessing",
  "8986": "{});\\",
  "1540": "Ð¸Ñı",
  "2729": "ÐµÐ¼Ð¾Ð½ÑģÑĤÑĢÐ°ÑĨÐ¸Ñı",
  "6141": "Guest",
  "1666": "Ð£",
  "8270": "ĠXML",
  "1482": "ÑĢÐ°Ð²Ð½",
  "1500": "ĠĠĠĠĠĠĠĠĠĠĠĠĠĠĠĠĠ",
  "409": "ptr",
  "2089": "Ġsqrt",
  "8244": "ickSort",
  "6334": "ĠÂµs",
  "7044": "ONE",
  "5029": "ÐŀÐ±ÑĢÐ°Ð±Ð¾ÑĤÐºÐ°",
  "2653": "ures",
  "2084": "rand",
  "4871": "ÐłÐŀ",
  "6921": "Ġcompany",
  "8386": "ÐĴÐĲ",
  "5905": "ĠÐ¿ÐµÑĢÐµÐ¼ÐµÑīÐµÐ½Ð¸Ñı",
  "8593": "ÐĴÐ¾Ð¹",
  "1039": "ĠÐŀ",
  "2374": "Ġchild",
  "9871": "rough",
  "5897": "ĠÐºÐ¾ÑĢÑĢÐµÐºÑĤ",
  "3647": "Ð°Ð½Ñģ",
  "9655": "ĠstateNames",
  "4020": "container",
  "4821": "ĠÐºÐ¾Ð´",
  "7156": "ĠShared",
  "1671": "Ġadj",
  "4632": "ĠÑģÐ¾Ð²Ð¿Ð°Ð´",
  "2638": "nÐŁ",
  "5439": "ĠÑģÐ¸Ð¼Ð²Ð¾Ð»Ñĭ",
  "2929": "Numbers",
  "1712": "ĠAr",
  "4394": "header",
  "9120": "Composite",
  "8809": "ĠÑģÑĢÐ°Ð²Ð½",
  "4347": "ÑĥÐºÑĤ",
  "4217": "Ġtransform",
  "7663": "ACH",
  "6150": "delete",
  "7393": "gth",
  "4088": "ĠÐ¾Ð´Ð¸Ð½",
  "9065": "addEmployee",
  "2582": "Ð§Ð¸ÑģÐ»",
  "1292": "ÑĪÐ¸Ð±ÐºÐ°",
  "4673": "ACT",
  "1242": "ĠJ",
  "825": "reak",
  "1064": "ĠComplex",
  "1769": "ÐŀÑĪÐ¸Ð±ÐºÐ°",
  "3275": "requency",
  "6771": "METH",
  "2135": "ansit",
  "9097": "ÐĶÐ»Ñı",
  "8243": "Ġdifferent",
  "6468": "ĠFlyweight",
  "9735": "DoorEvent",
  "658": "Ġprint",
  "1549": "arch",
  "4058": "points",
  "5391": "orph",
  "9429": "Connected",
  "6841": "Duplicates",
  "8888": "ĠInvalid",
  "7525": "ĠÑģÑĤÑĢÐ°Ð½Ð¸ÑĨ",
  "1180": "der",
  "8805": "isLeap",
  "8073": "Ġcalculations",
  "4962": "ĠÑģÐ¾Ð´ÐµÑĢÐ¶",
  "7950": "Ð¸Ð»Ð¸",
  "3165": "Holder",
  "8794": "Ġshare",
  "5279": "Renderer",
  "119": "¸",
  "2641": "unsigned",
  "2002": "ĠÑĩÐ¸ÑģÐµÐ»",
  "4135": "ges",
  "3757": "union",
  "5820": "Mana",
  "5814": "ĠClient",
  "5992": "ĠÑĢÐµÑĪÐµÐ½Ð¸Ð¹",
  "1637": "Ð°Ð¹ÑĤ",
  "9798": "ĠhuffmanCode",
  "8730": "ĠcaesarCipher",
  "8292": "ĠusageOrder",
  "5426": "database",
  "763": "nvoid",
  "4949": "ÑĤÑĮ",
  "565": "row",
  "5293": "unch",
  "2100": "ick",
  "4612": "ĠÐ²ÑĭÑģ",
  "4738": "ÐĴÑĤÐ¾ÑĢ",
  "8026": "eventType",
  "5718": "ĠÐ¾Ð±Ñī",
  "8969": "ause",
  "818": "Ðĺ",
  "2219": "terator",
  "6312": "ĠDatabaseConnection",
  "3651": "\\\");",
  "7787": "ÐµÐºÐ°",
  "9918": "clean",
  "1720": "ingleton",
  "8837": "\\\").",
  "9786": "Boundary",
  "5367": "ĠÐ³ÑĢÐ°Ð½Ð¸ÑĨ",
  "6719": "ÐłÐ°Ð·Ð½Ð¸ÑĨÐ°",
  "385": "uto",
  "1918": "ĠÐ´Ð¾Ð»Ð¶",
  "861": "Ġk",
  "8397": "charPtr",
  "8778": "Ġ\\\"$\\\"",
  "8442": "ugh",
  "3942": "ĠÐ¸Ð¼Ðµ",
  "9285": "ef",
  "4756": "Triangle",
  "6932": "laxed",
  "406": "ool",
  "3780": "Height",
  "5252": "ÐĲÐ½",
  "4746": "Ð¤Ð°Ð¹Ð»",
  "8306": "PLAYERS",
  "717": "hare",
  "6185": "ĠsideB",
  "6930": "ResourceWrapper",
  "542": "tu",
  "2015": "Ġvisit",
  "7812": "ĠÐ¼Ð°ÑģÑģÐ¸Ð²Ð¾Ð²",
  "571": "Ġchar",
  "321": "Ġmain",
  "5079": "ĠÐ¾Ð±ÑħÐ¾Ð´",
  "5677": "Source",
  "3499": "World",
  "7311": "Ġself",
  "3981": "hex",
  "1659": "ution",
  "5304": "Ð¸ÑĤÐµÑĢ",
  "6940": "ÐµÐ¿Ð¾ÑĩÐºÐ°",
  "644": "Ġvirtual",
  "8620": "iprocal",
  "5983": "ĠStringWrapper",
  "7546": "ĠÐ³ÑĢÐ°ÑĦÐ°",
  "1087": "ÑĢÐ°Ð²",
  "5710": "backup",
  "9073": "[])",
  "9696": "ĠwindowCount",
  "5480": "deallocate",
  "1002": "ĠÐĶ",
  "7134": "onment",
  "593": "err",
  "755": "source",
  "6502": "IGH",
  "8079": "acade",
  "7750": "ader",
  "2147": "ĠÑĨ",
  "6139": "Far",
  "972": "Ð¢",
  "3829": "egral",
  "1459": "ront",
  "7825": "ĠTypeChecker",
  "5727": "ĠComponent",
  "2937": "nÐ¡",
  "9032": "Ġwarning",
  "5358": "abled",
  "6592": "Ð°Ð»ÑĮÐ½Ð¾Ðµ",
  "9734": "NOT",
  "8877": "ÐµÑīÐµÑģÑĤÐ²",
  "2477": ">,",
  "3086": "ĠDatabase",
  "3714": "()>",
  "6324": "Modified",
  "9106": "Ð°ÑĢÑĮ",
  "7280": "volume",
  "6566": "Ġsleep",
  "2318": ">()",
  "2857": "istics",
  "4178": "subscribe",
  "9119": "isible",
  "1079": "ello",
  "7491": "Quantity",
  "9601": "ĠsetAbsolute",
  "7847": "Percentage",
  "580": "ride",
  "1948": "update",
  "8849": "ÐĶÐ°ÑĤÐ°",
  "4543": "123456789",
  "1738": "Ġpool",
  "6125": "Ġlayers",
  "6838": "ĠÐŁÐ¾Ð´ÑģÑĩÐµÑĤ",
  "5793": "Ð»ÑİÐ´",
  "672": "ĠÑĤ",
  "8617": "Ð¢Ð¾Ð²Ð°ÑĢ",
  "4067": "Ġobs",
  "6218": "Be",
  "3036": "ines",
  "5475": "rbegin",
  "677": "begin",
  "7479": "ĠtimeOfDay",
  "6107": "ÑĢÑĥÐ¶ÐµÑģÑĤÐ²",
  "4906": "Ġvehicle",
  "8158": "Ġwstring",
  "5501": "Ġcloned",
  "3536": "ĠÑĥÑģÑĤÐ°Ð½Ð¾Ð²",
  "4281": "Len",
  "684": "();",
  "7466": "ĠEWOU",
  "5033": "ĠÐºÐ¾ÑįÑĦÑĦÐ¸ÑĨÐ¸ÐµÐ½ÑĤ",
  "7966": "Ġ};",
  "909": "Ġval",
  "4089": "ĠÐºÐ¾Ð¾ÑĢÐ´Ð¸Ð½Ð°ÑĤ",
  "3066": "versal",
  "6911": "ĠÑĥÐ½Ð¸Ðº",
  "8626": "ĠÐ¸Ð·Ð±",
  "3695": "Ġoffset",
  "2498": "Factory",
  "1976": "Check",
  "488": "Ð½Ð°",
  "8445": "Ð°Ð±Ð»Ð¾Ðº",
  "1873": "front",
  "921": "Id",
  "1875": "ÐµÑī",
  "7230": "initializer",
  "8753": "DELETE",
  "3131": "ĠCh",
  "1991": "runtime",
  "4107": "Ġwarehouse",
  "4713": ")(",
  "6373": "ĠÐ¸ÑģÑħÐ¾Ð´",
  "4254": "winPrimes",
  "8544": "Ġfinished",
  "5713": "Ġextract",
  "7086": "Ġholds",
  "3615": "ming",
  "2124": "Ġserver",
  "3353": "Ġmust",
  "2732": "Act",
  "611": "ap",
  "8431": "Ġ'\\\\\\\\",
  "7597": "getAccount",
  "8076": "Ð°ÐºÑĤÐ¾ÑĢÐ¸Ð°Ð»",
  "459": "Ġ'",
  "3425": "pi",
  "1581": "igits",
  "8550": "idual",
  "6474": "ĠtextHash",
  "4997": "ĠÑĦÐ¾ÑĢÐ¼Ð°ÑĤ",
  "4621": "ĠÑģÐ»Ð¾Ð¶",
  "9729": "ĠSubsystem",
  "8996": "ernel",
  "8511": "GPA",
  "2450": "Ġprime",
  "2983": "ĠÐ¾ÑĤÑĢÐ¸ÑĨÐ°ÑĤÐµÐ»ÑĮ",
  "7373": "BooleanExpression",
  "492": "ÑĢÐ°Ð",
  "6576": "ĠButton",
  "899": "Ġse",
  "6695": "Conver",
  "985": "ĠÐ²Ñĭ",
  "5263": "Codes",
  "4266": "Ġheader",
  "7445": "ĠstrData",
  "2834": "Ð½Ð°ÑĩÐµÐ½Ð¸Ðµ",
  "2298": "Ġrect",
  "32": "=",
  "1193": "eg",
  "6189": "ÑĭÐ²Ð°ÐµÑĤ",
  "1469": "Ð¾Ð»Ð¸ÑĩÐµÑģÑĤÐ²",
  "5478": "ĠÐ°Ð½",
  "2300": "Ġhours",
  "3977": "500",
  "6301": "connections",
  "9751": "FieldAccessor",
  "4768": "arry",
  "2404": "vert",
  "250": "Ġt",
  "5443": "Reading",
  "9278": "TCP",
  "6063": "Ð¸Ð²Ð°Ð½Ð¸Ñı",
  "2826": "packet",
  "5815": "ĠÐ·Ð°ÑħÐ²Ð°ÑĤ",
  "872": "cre",
  "3877": "ĠisValid",
  "2949": "with",
  "1361": "Expression",
  "1414": "99",
  "4843": "Active",
  "5903": "Ġneighbors",
  "3121": "imen",
  "6660": "ÑĢÐ¾Ð½",
  "670": "Ð¾Ð¼",
  "6811": "Ġmore",
  "1730": "Valid",
  "4572": "Ġpointer",
  "664": "length",
  "8136": "encoded",
  "4831": "Ġreading",
  "3774": "Ġpercent",
  "5382": "UL",
  "3760": "ÐµÑĢÑĮ",
  "9856": "Ġ\\\"\\\",\\",
  "4667": "Ġconnected",
  "1680": "Tr",
  "205": "or",
  "8335": "Obj",
  "381": "Ġ\\\"\\\\",
  "4899": "och",
  "599": "Ð¾Ðº",
  "8880": "ÑĩÐ¸ÑģÐ»ÐµÐ½Ð¸Ðµ",
  "6394": "192",
  "5257": "ĠÑģÑģÑĭÐ»ÐºÐµ",
  "9318": "Ġpatch",
  "1803": "123",
  "1594": "ĠH",
  "6422": "ns",
  "2422": "Hash",
  "9723": "Ġsigaction",
  "5924": "Sm",
  "6525": "enuItem",
  "836": "fo",
  "9438": "ÐĺÐ·Ð²Ð»ÐµÑĩÐµÐ½",
  "9254": "(...)",
  "2311": "ĠMoney",
  "1431": "form",
  "8004": "Progress",
  "8719": "ĠSuffixTreeNode",
  "6868": "Ñĳ",
  "184": "in",
  "2485": "Ġresponse",
  "2872": "ĠÑĢÑĥÐ±",
  "4475": "dir",
  "6759": "ĠÐ²Ð¸ÑģÐ¾ÐºÐ¾ÑģÐ½ÑĭÐ¹",
  "2743": "ÑĢÐ°Ñī",
  "7551": "ĠÐŀÐ±Ð½Ð¾Ð²Ð»ÑıÐµÐ¼",
  "7947": "ints",
  "9488": "card",
  "3979": "AS",
  "2624": "Ġupdate",
  "1152": "!\\\"",
  "2415": "Ð¿Ð¾Ð»Ð½",
  "642": "Ġmax",
  "9967": "Ġgenre",
  "4576": "connected",
  "5108": "normal",
  "2512": "ending",
  "9516": "Ġio",
  "6121": "Ġdispatcher",
  "9226": "Decimal",
  "603": "type",
  "7326": "ĠdistanceTo",
  "1647": "loy",
  "6162": "ĠÑģÑĢÐµÐ´Ð½",
  "6148": "null",
  "3282": "clval",
  "8268": "ĠGameCharacter",
  "1691": "Ġcreate",
  "6104": "ĠÐºÐ¾ÑĢÐ½Ñı",
  "2556": "ĠÐ¾Ð±ÑĬÐµÐºÑĤ",
  "7636": "ĠRest",
  "5862": "ĠAudio",
  "6983": "small",
  "5634": "Ġtypes",
  "9997": "Ġalignment",
  "7308": "ĠÐ¿ÑĢÐµÑĦÐ¸ÐºÑģ",
  "9576": "ĠDoe",
  "8417": "ResourceHolder",
  "4388": "Network",
  "5743": "ĠPaymentRequest",
  "2459": "ÐºÐµ",
  "573": "Ð¾ÑĤ",
  "1115": "ĠVector",
  "6265": "Ġgpa",
  "724": "ĠÐ¿ÑĢ",
  "1854": "ÑĥÑĢ",
  "1805": "rome",
  "5604": "Segment",
  "9418": "model",
  "2217": "Ġstatus",
  "9353": "Ð¾Ð»ÑĮÐºÐ¸Ñħ",
  "1054": "erator",
  "60": "Y",
  "6068": "antType",
  "2765": "Ġconstruct",
  "5646": "ĠÐºÐ¾Ð½ÑģÑĤÑĢÑĥÐºÑĤÐ¾ÑĢ",
  "3699": "...);\\",
  "1124": "String",
  "3936": "ĠObject",
  "886": "ĠRe",
  "2093": "Ð°ÑģÑĤ",
  "5234": "strong",
  "5141": "displayInfo",
  "2939": "register",
  "2831": "Ġneighbor",
  "3899": "Ġ500",
  "8320": "ristmas",
  "1383": "rot",
  "3849": "ĠÑģÐ¸ÑģÑĤÐµÐ¼",
  "9012": "constRef",
  "6777": "fut",
  "6534": "Ð½Ð¸ÑĩÑĤÐ¾Ð¶",
  "4800": "bot",
  "2536": "Ð¿ÐµÑĢ",
  "4708": "implExample",
  "415": "ĠÐ²",
  "6110": "ĠÐ¢ÐµÑģÑĤÐ¸ÑĢÐ¾Ð²Ð°Ð½Ð¸Ðµ",
  "418": "set",
  "3419": "swap",
  "5120": "Ġare",
  "4278": "degree",
  "6302": "Ġintersection",
  "8516": "Vacation",
  "7743": "three",
  "3975": "Ð°ÑģÑģÑĤÐ¾ÑıÐ½Ð¸Ðµ",
  "6726": "1111",
  "2196": "ÑĢÐ°Ð²Ð½ÐµÐ½Ð¸Ðµ",
  "7286": "aligned",
  "8315": "ĠÑĥÐ±ÑĭÐ²Ð°Ð½Ð¸Ñİ",
  "3170": "orrow",
  "7501": "ĠRationalMatrix",
  "3890": "Bob",
  "6236": "taker",
  "6904": "ĠcharCount",
  "2656": "arge",
  "1827": "ÑĥÑī",
  "9441": "ÐµÑģÐµÑĩÐµÐ½Ð¸Ðµ",
  "4994": "Ġcleaned",
  "6408": "Bonus",
  "4403": "ane",
  "424": "\\\",",
  "379": "ot",
  "1467": "Ð¾Ð»Ð¸Ñĩ",
  "2576": "Ð¾Ð½Ð°",
  "5023": "ĠÐ¿ÑĢÐµÐ¾Ð±ÑĢÐ°Ð·Ð¾Ð²",
  "7145": "ÑĥÑĦÐµÑĢ",
  "6658": "atted",
  "9341": "ĠÐ¼Ð°Ð»",
  "5441": "ĠSOL",
  "2295": "Ġ40",
  "2953": "Ġmem",
  "2033": "loyee",
  "7408": "deposit",
  "5854": "Repe",
  "4582": "CLA",
  "7664": "positions",
  "5552": "Reload",
  "8843": "Extended",
  "3670": "arted",
  "5532": "FL",
  "6738": "ĠÐ¿ÑĥÑģÑĤÐ°",
  "2381": "Ġfib",
  "5187": "ĠÐ¿ÑĢÐ¸Ð¼ÐµÑĢ",
  "7003": "Ġ...);\\",
  "5213": "olatile",
  "746": "atrix",
  "251": "Ġd",
  "6431": "secret",
  "8074": "ĠÐŁÐ°ÑĢÐ°Ð»Ð»ÐµÐ»ÑĮ",
  "3418": "ĠColor",
  "528": "In",
  "1757": "eigh",
  "5414": "ĠÐ½ÐµÐ´",
  "8151": "Ġspherical",
  "6069": "Ġaligned",
  "5521": "ĠÐ¿ÑĢÐ¾Ð±ÐµÐ»",
  "4385": "atermark",
  "9684": "Ġapi",
  "2877": "Ġcalc",
  "9421": "ĠÑĢÐµÑģÑĥÑĢÑģÐ¾Ð²",
  "3943": "Unique",
  "4908": "Ð¾Ð»ÐµÐµ",
  "1300": "Ð°Ñı",
  "876": "ÑĢÑĥ",
  "7711": "fra",
  "2091": "ĠÑĦÐ°Ð¹Ð»",
  "2890": "tesian",
  "1589": "mmand",
  "7324": "Truck",
  "77": "j",
  "9388": "Ġopened",
  "5553": "etch",
  "3277": "Person",
  "7004": "desc",
  "7609": "ĠgetAll",
  "3562": "down",
  "9841": "]);",
  "5972": "ĠOther",
  "3989": "Ġ},",
  "9585": "ÐĴÐµÑĢÑĪÐ¸Ð½Ð°",
  "1246": "Ġof",
  "1268": "eff",
  "5977": "The",
  "4328": "Ġraw",
  "3420": "Digit",
  "3740": "Ð¾Ð¿ÑĭÑĤ",
  "6761": "ĠÐĺÐ½Ð¸ÑĨÐ¸Ð°Ð»Ð¸Ð·Ð°ÑĨÐ¸Ñı",
  "6492": "Ð°Ð±ÑĢ",
  "2432": "sstream",
  "7223": "ĠSingletonLogger",
  "5286": "prom",
  "8131": "stma",
  "4256": "BU",
  "3738": "mplement",
  "7824": "','.','.','",
  "2066": "clear",
  "6113": "discriminant",
  "3798": "ÐŁÐ»Ð¾ÑīÐ°Ð´ÑĮ",
  "9025": "==\\\"",
  "5271": "ĠÐºÐ¾Ð¾ÑĢÐ´Ð¸Ð½Ð°ÑĤÑĭ",
  "9039": "ĠSTR",
  "2806": "refix",
  "6526": "ÐĹÐ°Ð´Ð°ÑĩÐ°",
  "1903": "ower",
  "7387": "Sw",
  "5288": "ĠÐ¥",
  "4898": "ilog",
  "2801": "Ġ')",
  "1146": "ÑģÑĭÐ»",
  "5098": "ĠÑĥÐ¼Ð¾Ð»ÑĩÐ°Ð½Ð¸Ñİ",
  "2802": "ÑģÐ»Ð¸",
  "8851": "ÐłÐµÑĪÐµÐ½Ð¸Ðµ",
  "6928": "ERIAL",
  "9332": "keep",
  "2133": "same",
  "1380": "ĠĠĠĠĠĠĠĠĠĠĠĠĠĠĠĠĠĠĠĠĠĠĠ",
  "7005": "Ð½ÐµÐ¼",
  "9568": "Ġchannel",
  "3804": "Ġclear",
  "2": "<BOS>",
  "5799": "isspace",
  "1068": "Ġhas",
  "4341": "ĠÐ´ÐµÑĢÐµÐ²",
  "7027": "[]>",
  "5746": "ĠÐ´Ð¸Ð°Ð¿Ð°Ð·Ð¾Ð½Ðµ",
  "4161": "tric",
  "5892": "OfDay",
  "1273": "onent",
  "9658": "ĠProgress",
  "2005": "Temp",
  "4900": "oole",
  "3019": "cache",
  "5050": "uce",
  "7694": "&&)",
  "1952": "preci",
  "7322": "ORT",
  "3809": "35",
  "9754": "Modern",
  "1807": "alindrome",
  "6387": "Ġbackend",
  "473": "ab",
  "7346": "ultiple",
  "3835": "FIELD",
  "7111": "dices",
  "3092": "Dep",
  "6400": "ĠdotProduct",
  "5059": "Ġca",
  "6314": "ĠGameState",
  "4864": "owner",
  "4916": "ĠLight",
  "500": "ft",
  "9852": "ĠÐ°Ðº",
  "8228": "shtein",
  "2047": "tings",
  "4846": "Ġiterations",
  "9844": "frequency",
  "6998": "gcd",
  "5011": "Ġdelta",
  "8726": "ĠÐ¸Ð½Ð¸ÑĨÐ¸Ð°Ð»Ð¸Ð·",
  "7953": "select",
  "5661": "ĠÐ²ÐµÑĢÑħ",
  "6070": "ĠÑįÐº",
  "7271": "ILE",
  "4506": "observer",
  "4961": "olve",
  "2144": "ĠTime",
  "2434": "mount",
  "5126": "Ġcomm",
  "91": "x",
  "9523": "Ġmm",
  "6263": "Ð¿Ð¾",
  "3013": "ĠMy",
  "9697": "bitda",
  "4544": ")->",
  "2062": "opt",
  "9613": "ÐļÐ¾ÑįÑĦÑĦÐ¸ÑĨÐ¸ÐµÐ½ÑĤ",
  "4026": "chars",
  "8035": "Checkbox",
  "215": "Ð½",
  "1617": "pan",
  "7868": "ĠÑģÐ¾ÑģÑĤÐ¾ÑıÐ½Ð¸Ðµ",
  "5343": "Ġup",
  "6654": "rever",
  "6816": "ization",
  "2628": "ansition",
  "9972": "890",
  "134": "Ø",
  "3654": "Ġexpression",
  "7503": "ExprNode",
  "8324": ")*",
  "138": "ä",
  "1857": "Ġ\\\"]",
  "8037": "ATA",
  "7720": "volatile",
  "4645": "ens",
  "3212": "Ġpid",
  "8249": "Ġinterpreter",
  "5516": "Ġentries",
  "7547": "ĠÑĤÐ°Ð¹Ð¼Ð°ÑĥÑĤ",
  "3698": "ĠSort",
  "3261": "ÑĢÐ°Ð½Ð¸",
  "4477": "vin",
  "7024": "Ð¾ÑĢÑĦ",
  "2119": "An",
  "2847": "Ð¸ÑĢÐ¾Ð²Ð°Ð½Ð¸Ñı",
  "1112": "memory",
  "9683": "Ð²ÐµÑĢÑĮ",
  "1514": "mpl",
  "9398": "Ð¼Ð½Ð¾Ð¶ÐµÐ½Ð¸Ðµ",
  "3672": "Ġsa",
  "8056": "Notification",
  "2611": "func",
  "598": "lete",
  "1982": "ĠFile",
  "4218": "ĠÐ´Ð°Ð½Ð½ÑĭÐµ",
  "7809": "subtract",
  "3627": "Idx",
  "375": "ĠC",
  "7047": "formation",
  "6543": "Pass",
  "1727": "Ġelement",
  "8781": "Ð½Ð¸",
  "3944": "ÑĤÐµÐ³ÑĢ",
  "361": "Ġ>",
  "9813": "ĠOperations",
  "8362": "undex",
  "5147": "Checked",
  "2167": "Ġsource",
  "6990": "70",
  "3427": "ĠÑģÑĤÑĢ",
  "8910": "Ġ8080",
  "3044": "[]()",
  "8044": "ĠbinarySearch",
  "5763": "Ġfilter",
  "283": "Ñı",
  "5361": "ĠprintAll",
  "3616": "osi",
  "7056": "green",
  "6545": "Sign",
  "5034": "Ġmemset",
  "8939": "Ð±ÐµÑĢÐ¸ÑĤÐµ",
  "7323": "Ð°Ð¹ÑĤÐ¸",
  "6378": "Ð°ÑĢÐ¸Ð°Ð½ÑĤ",
  "1512": "ĠÐ»",
  "8058": "ĠFixedVector",
  "2860": "pattern",
  "8541": "amma",
  "5954": "Ġrd",
  "6043": "Ġwill",
  "9094": "ĠcurrentChar",
  "5180": "opping",
  "8132": "Ġ\\\"...",
  "3689": "div",
  "5306": "ĠÐ·Ð°ÑħÐ²",
  "2759": "PI",
  "4890": "Ð°Ð¶Ð´",
  "4513": "Ð¾Ð²ÑĭÐµ",
  "8470": "Ġconversion",
  "2527": "ĠÑıÐ²Ð»Ñı",
  "8295": "ÑĢÐ°ÐºÑĤ",
  "602": "Ġoperator",
  "4292": "Ð¾Ð²Ð°Ñı",
  "8796": "riter",
  "4735": "Ġinet",
  "9369": "cise",
  "4437": "Ġbst",
  "2149": "ĠRational",
  "4376": "Ġ\\\"':",
  "6088": "ÐµÐ¿Ð¾Ð»Ð½",
  "6131": "MPLETED",
  "4331": "arning",
  "5768": "ĠCO",
  "8804": "lick",
  "2180": "80",
  "3750": "ral",
  "6606": "ĠÑĦÐ°Ð¹Ð»Ð¾Ð²",
  "2162": "pec",
  "5172": "pable",
  "8240": "Withdraw",
  "7763": "002",
  "6555": "ĠName",
  "1709": "orm",
  "5240": "ĠisOpen",
  "1437": "nullptr",
  "4628": "MyClass",
  "9478": "RGB",
  "8405": "ĠLCS",
  "4986": "Validator",
  "5658": "Ġfutures",
  "2226": "cord",
  "8549": "Ġpublisher",
  "9720": "ĠcenterX",
  "4822": "ĠÐºÐ²Ð°Ð´ÑĢÐ°ÑĤ",
  "1332": "pos",
  "8390": "ĠÐŁÑĢÐ°Ð²",
  "9250": "ĠSTRING",
  "8952": "FD",
  "3028": "AG",
  "5433": "ĠÐŀÑģ",
  "5926": "db",
  "7385": "RA",
  "918": "ÑĤÐ¾ÑĢ",
  "9046": "setNext",
  "8955": "IFactory",
  "7072": "Ð¸ÑĤÐµÐ»Ñı",
  "2644": "Ġlongest",
  "5576": "Ġ\\\"-\\\"",
  "8870": "Ġchecked",
  "9413": "Ġrestock",
  "8330": "Emulator",
  "1932": "cent",
  "9567": "ĠÐ´ÑĢÐ¾Ð±ÑĮ",
  "7638": "Ð°ÑĢÐ°",
  "8649": "ĠÐ¸Ð½Ð²",
  "1351": "Ĳâķ",
  "3795": "ultip",
  "816": "xt",
  "2288": "eader",
  "907": "time",
  "7399": "sym",
  "5073": "Ð¾ÑĢÐ¾",
  "6894": "Ð¾Ð»Ñı",
  "6174": "ĠÑĤÐµÐ¿ÐµÑĢÑĮ",
  "6257": "serve",
  "2850": "ift",
  "575": "Ð¾Ð±",
  "36": "A",
  "6231": "lind",
  "1333": "ĠÐĿ",
  "2340": "Map",
  "4893": "ÐµÐ¼Ð¿ÐµÑĢÐ°ÑĤÑĥÑĢÐ°",
  "4853": "_(",
  "8393": "rong",
  "4398": "inserter",
  "3160": "minant",
  "4350": "Server",
  "9842": "battery",
  "8104": "Paused",
  "2209": "Ġback",
  "9300": "Ġstrerror",
  "144": "Ģ",
  "5047": "erent",
  "9007": "Ġneed",
  "8759": "BST",
  "7494": "Ð¸ÑĩÐµÑģÐºÐ¾Ð³Ð¾",
  "9792": "Ġveth",
  "6663": "Ð»Ð°Ð³",
  "1629": "sum",
  "7496": "Checksum",
  "7975": "Ġincrease",
  "3470": "buf",
  "894": "ĠCon",
  "7989": "Ð¾ÐºÐ¸Ð¹",
  "7589": "Ð½ÐµÑģ",
  "5285": "heap",
  "3143": "level",
  "6484": "LEN",
  "2969": "ĠÐ½Ð°Ñĩ",
  "101": "¤",
  "4337": "Ð¼Ñı",
  "8343": "call",
  "8412": "ĠCont",
  "7197": "prod",
  "7115": "lor",
  "8260": "ĠÑĩÐ°ÑģÑĤÐ¾ÑĤ",
  "1025": "ception",
  "3340": "ĠÐĽ",
  "9210": "Application",
  "1586": "Error",
  "3365": "STRE",
  "7370": "*\\\"",
  "7441": "ĠPurchase",
  "7522": "ĠAnyCallable",
  "3307": "Ġinterest",
  "28": "9",
  "6480": "Ġenable",
  "6464": "Ġexecuted",
  "3385": "cat",
  "1602": "ÐµÐ·ÑĥÐ»ÑĮÑĤÐ°ÑĤ",
  "4999": "bservable",
  "1995": "Ġruntime",
  "9777": "Ġpromise",
  "8661": "Checkpoint",
  "7512": "ĠNetworkException",
  "1951": "ÑıÐ¼",
  "3166": "It",
  "2365": "ĠÑıÐ²",
  "8844": "Ð°ÑģÑĭ",
  "6875": "Ġrequired",
  "6709": "preter",
  "209": "}\\",
  "3531": "Ġhandlers",
  "2185": "oll",
  "9753": "ÐµÑĢÐµÐ´Ð¸",
  "5729": "abcdef",
  "9636": "ĠÐĺÐ²Ð°Ð½Ð¾Ð²",
  "1432": "illiseconds",
  "2711": "ĠÐºÐ¾Ð½ÑģÑĤÐ°Ð½ÑĤ",
  "9243": "ĠHandleWrapper",
  "6285": "rivial",
  "4097": "equal",
  "6152": "Ġfinal",
  "344": "Ġdouble",
  "1372": "Ð½Ð¾Ð³Ð¾",
  "703": "Ġwhile",
  "645": "est",
  "8579": "Ġelapsed",
  "7250": "ĠÐ¿Ð°ÑĢÐ°Ð¼ÐµÑĤÑĢ",
  "8435": "ĠÐ¿Ð¾Ð´Ð¼Ð°ÑģÑģÐ¸Ð²",
  "5241": "ĠÑĩÑĤ",
  "9108": "Ġalias",
  "4523": "acation",
  "2817": "rigin",
  "5778": "Ð¾ÐºÐ°Ð·",
  "7131": "ÑĢÐ¾Ð¶Ð´ÐµÐ½",
  "5671": "Cart",
  "5258": "ĠÑģÑĤÐ¾Ð¸Ð¼Ð¾ÑģÑĤÑĮ",
  "1744": "Ð°Ð¹Ð»",
  "9259": "<=(",
  "6343": "IAL",
  "75": "h",
  "7192": "ĠOK",
  "6477": "Ġacquire",
  "9674": "Ġsendto",
  "6460": "ĠÐ¼Ð°ÐºÑģÐ¸Ð¼ÑĥÐ¼",
  "874": "od",
  "636": "key",
  "188": "Ġ\\\"",
  "1613": "rest",
  "8481": "ĠÐ¿ÑĢÐµÐ¾Ð±ÑĢÐ°Ð·Ð¾Ð²Ð°Ð½Ð¸Ñı",
  "156": "Į",
  "2617": "process",
  "7748": "ÑıÐµÑĤ",
  "586": "unique",
  "338": "ed",
  "3911": "osite",
  "5682": "run",
  "7405": "Ġorders",
  "7510": "edges",
  "8907": "cycle",
  "4998": "ĠÐ´ÐµÐ¹ÑģÑĤÐ²Ð¸ÑĤÐµÐ»ÑĮ",
  "5734": "ĠQuaternion",
  "4095": "SET",
  "6160": "Ġ2000",
  "6062": "ÐĿÐ°Ñĩ",
  "1622": "ox",
  "7778": "Ġ>>=",
  "4946": "stBuilder",
  "3525": "totype",
  "1711": "Ð°Ð³",
  "1451": "rapper",
  "9596": "actual",
  "3567": "anana",
  "5761": "Ġregistered",
  "1271": "Ġtarget",
  "8602": "ĠprintTypeInfo",
  "3227": "patch",
  "3127": "reinterpret",
  "1384": "pper",
  "7334": "ÑĥÐ»Ð°",
  "118": "·",
  "3548": "ÑĤÐ¾Ð¼",
  "5058": "Ġneuron",
  "773": "Ð¾Ð·",
  "9385": "ĠÐ¿ÐµÑĢÐ²Ð¾Ð¹",
  "6442": "Ġescape",
  "9359": "unds",
  "8974": "mass",
  "2169": "total",
  "7681": "ĠÐ¿ÑĢÐ¾ÑģÑĤÐ¾Ðµ",
  "8066": "flush",
  "3565": "utable",
  "3633": "ÑĥÑģÐºÐ°ÐµÐ¼",
  "9352": "===\\\"",
  "3422": "FS",
  "9823": "ÑģÐ»ÐµÐ´Ð¾Ð²",
  "8466": "Ġsaved",
  "7382": "Man",
  "5020": "ĠÐ·Ð°",
  "8372": "raft",
  "7287": "urses",
  "8513": "Sunroof",
  "5839": "Ð»Ð¾",
  "8711": "ĠÐ½ÑĥÐ»ÐµÐ²Ð¾Ð¹",
  "6372": "ÐŁÑĢÐµÐ´",
  "4996": "ĠSubject",
  "1732": "txt",
  "6818": "ÐĺÑģÑħÐ¾Ð´Ð½Ð¾Ðµ",
  "5247": "ĠConst",
  "4661": "ĠÐŀÑĤ",
  "6620": "Customer",
  "9140": "ÐµÑĢÑĪÐ¸Ð½Ð°",
  "5189": "ÐłÐķ",
  "4991": "ĠBigInteger",
  "9021": "Ġsz",
  "8533": "Ġ\\\");\\",
  "6077": "ĠÑĢÐ°Ð·Ð½ÑĭÐ¼Ð¸",
  "8200": "epoch",
  "2240": "ios",
  "1310": "ON",
  "4638": "Power",
  "6586": "Ð¾Ð¿ÑĥÑģÑĤ",
  "4173": "Ġoverflow",
  "2987": "Ð°Ð»Ð¸Ð½Ð´ÑĢÐ¾Ð¼",
  "7002": "Ġra",
  "6245": "ÑĢÐµÐ·",
  "1284": "Ġcont",
  "1294": "(*",
  "3997": "cryption",
  "979": "sed",
  "3598": "Ð½Ñı",
  "2490": "Ð¸Ð°Ð¿Ð°Ð·",
  "3393": "ached",
  "6298": "ACE",
  "3854": "ocket",
  "8729": "ĠÑģÐºÐ¾ÑĢÐ¾ÑģÑĤÑĮ",
  "6557": "Ġreinterpret",
  "8181": "ÑħÐ¾Ð¶Ð´ÐµÐ½Ð¸Ñı",
  "7083": "celeration",
  "8078": "Ġprototypes",
  "9164": "ĠÑĢÐ°Ð±Ð¾ÑĤÐ°ÐµÑĤ",
  "6558": "align",
  "6002": "ircumference",
  "6409": "Flag",
  "5455": "ĠÐ´ÐµÐ¼Ð¾Ð½ÑģÑĤÑĢÐ°ÑĨÐ¸Ð¸",
  "6015": "ML",
  "7888": "ĠÐ°ÑĢÐ³ÑĥÐ¼ÐµÐ½ÑĤÐ¾Ð²",
  "1575": "Ġvisited",
  "8565": "ĠÑģÐ¾Ðº",
  "9238": "ĠCopyOnWrite",
  "6491": "Character",
  "2960": "children",
  "9225": "Ġemergency",
  "4237": "Ġrecomm",
  "5025": "Ð³ÑĥÐ¼ÐµÐ½ÑĤ",
  "8055": "CSV",
  "3202": "Dist",
  "3156": "xy",
  "150": "Ĩ",
  "956": "Ð°ÑģÑģ",
  "767": "up",
  "9452": "Ġcalibr",
  "6279": "ĠRoman",
  "8071": "ĠDepend",
  "7442": "pton",
  "8601": "ĠprintTree",
  "5012": "Ð°Ð½Ð½ÑĭÐ¹",
  "2278": "ffset",
  "5228": "anc",
  "7493": "Ġmodulus",
  "3833": "ELD",
  "2769": "arithmetic",
  "3575": "--)",
  "2799": "Ġscore",
  "5273": "Ġcharacters",
  "9699": "Ð¸ÑĢÑĤÑĥ",
  "2718": "ĠQu",
  "3117": "cont",
  "5567": "Ġ10000",
  "6978": "ĠÐĴÐ¾Ð·Ð²ÑĢÐ°Ñī",
  "3964": "ully",
  "9075": "ÐµÐºÑĨÐ¸Ñı",
  "7682": "ÑĭÐ¼Ð¸",
  "2163": "Ġinitial",
  "5210": "Ð²ÐµÐ»Ð¸Ñĩ",
  "230": "am",
  "856": "Ð¸ÑĢÐ¾Ð²",
  "1722": "nprotected",
  "3484": "ĠÐ¡ÑģÑĭÐ»",
  "3235": "ĠÑĢÐ°Ð´",
  "5165": "Ġmismatch",
  "9466": "GL",
  "4832": "Ġfactories",
  "23": "4",
  "4782": "ĠÐŁÑĢÐ¾Ð¿ÑĥÑģÐºÐ°ÐµÐ¼",
  "5458": "ÑĥÐ±Ð»Ð¸ÐºÐ°ÑĤ",
  "6697": "ĠÐ¿ÑĢÑıÐ¼Ð¾ÑĥÐ³Ð¾Ð»ÑĮÐ½Ð¸Ðº",
  "1987": "ÑģÑĤÐ²",
  "5127": "Ġcourse",
  "6535": "ĠPRIME",
  "5289": "Ð½Ð¸Ð¼",
  "7700": "Large",
  "6669": "Ð¾Ð²Ð°",
  "2310": "execute",
  "2275": "ÑĤÐ¾",
  "2216": "coded",
  "3389": "ĠÐĵ",
  "4765": "adj",
  "1028": "unordered",
  "3137": "Price",
  "4504": "Free",
  "5927": "eed",
  "4425": "SIG",
  "1938": "45",
  "4599": "Ġbox",
  "3818": "Ġtri",
  "8995": "utting",
  "2439": "ĠThread",
  "5292": "ctx",
  "6797": "ĠÐ½Ð¾",
  "8897": "SystemNode",
  "2364": "RO",
  "1409": "Ð½Ð¾Ð¹",
  "6681": "Ġstrs",
  "9014": "ĠintVec",
  "4416": "Ġencrypted",
  "2505": "Decorator",
  "104": "§",
  "234": "Ġ0",
  "8859": "StateB",
  "7018": "pages",
  "9664": "Ð£ÑĢÐ°Ð²Ð½ÐµÐ½Ð¸Ðµ",
  "5511": "ÐºÑĢÐµÑĤ",
  "7231": "ĠÑĩÐ°ÑģÑĤÐ¸",
  "7351": "ÐŁÑĢÐ¾Ð¸Ð·Ð²ÐµÐ´ÐµÐ½Ð¸Ðµ",
  "8416": "Compress",
  "148": "Ħ",
  "9706": "ĠNetworkProtocol",
  "4564": "Ð¸ÐºÐ»",
  "2820": "ĠÐºÐ¾",
  "6358": "Ġbob",
  "8357": "()),\\",
  "621": "sion",
  "9986": "books",
  "3455": "boolalpha",
  "1891": "Mutex",
  "808": "])",
  "5251": "Ġ[\\\"",
  "2235": "ĠÑĥÐ´Ð°Ð»",
  "7598": "isalnum",
  "3789": "declval",
  "5938": "Ġ120",
  "937": "adius",
  "6882": "Ġscores",
  "6793": "ullo",
  "8561": "entic",
  "1347": "apa",
  "6459": "ĠÐ¼ÐµÐ½ÑĮ",
  "6727": "Ġstoppable",
  "6594": "words",
  "7407": "ĠÐĸ",
  "4897": "Score",
  "154": "Ĭ",
  "650": "cept",
  "6680": "ĠProt",
  "4700": "Throw",
  "4064": "my",
  "3435": "values",
  "1151": "min",
  "490": "Ġarr",
  "5569": "Ġselect",
  "8921": "ĠglobalCounter",
  "4450": "Ġ400",
  "9333": "Ð¾ÑĢÐ°",
  "6544": "Playing",
  "8714": "ĠÐ¸Ð½ÑĤÐµÐ³ÑĢÐ°Ð»",
  "4269": "Ð¾Ð³ÑĢ",
  "5601": "NON",
  "4072": "ĠÑģÑĥÐ¼Ð¼",
  "6142": "Mass",
  "1888": "Ð°ÑĨÐ¸Ð¸",
  "6540": "Input",
  "7146": "ÑıÐµÑĤÑģÑı",
  "4011": "View",
  "9013": "Ġcaretaker",
  "2773": "\\\"));\\",
  "3015": "andlers",
  "6435": "sid",
  "7893": "Ð¸Ð¼ÑĥÐ»ÑıÑĨÐ¸Ñı",
  "6425": "wd",
  "4445": "Ð°Ð½Ð¾",
  "5352": "ĠPer",
  "6518": "ĠÐ½ÑĥÐ¶",
  "1295": "Time",
  "3263": "Ġ18",
  "8615": "Ġcomparison",
  "5589": "cartesian",
  "44": "I",
  "1992": "code",
  "7527": "Ð¸ÑĦÑĢÐ¾Ð²Ð°Ð½Ð½ÑĭÐ¹",
  "8991": "inite",
  "1682": "alary",
  "6683": "ĠMediator",
  "4066": "nT",
  "8964": "Trivial",
  "7627": "Ð¾Ð½Ð¸Ð¼",
  "2389": "Ġpacket",
  "8378": "ĠÐ²Ð½Ðµ",
  "9563": "ĠÐ²ÑģÑĤÑĢÐµÑĩÐ°ÐµÑĤÑģÑı",
  "5340": "success",
  "8118": "ian",
  "3378": "ĠNon",
  "7397": "mise",
  "2476": "Ġold",
  "6674": "ĠTra",
  "422": "Ġx",
  "6327": "Ġrender",
  "3399": "##",
  "2589": "metic",
  "8698": "ĠevenCount",
  "6929": "egacy",
  "7029": "ÐŀÐł",
  "9818": "ÐľÐ½Ð¾Ð³Ð¾ÑĩÐ»ÐµÐ½",
  "3099": "ÑĢÐ¾Ñģ",
  "6357": "Ġcalcul",
  "1465": "Ġaddr",
  "1381": "ÑģÑĤÐ°Ð½",
  "8006": "Ġcomposite",
  "7410": "Ġmana",
  "9877": "ÑĮÑĤÐµ",
  "2495": "resolution",
  "9625": "Ġendpoint",
  "9148": "ĠÑĦÐ°Ð¹Ð»Ñĭ",
  "7788": "ÑİÐ±",
  "8537": "Ġstk",
  "129": "Î",
  "8040": "Perimeter",
  "286": "ri",
  "13": "*",
  "9103": "Ð°Ð²ÐµÑĢÑĪ",
  "7534": "Ð¼ÐµÑģÑĤÐ¸Ð¼",
  "2615": "ĠPri",
  "3861": "Diff",
  "9873": "ÐµÐ½Ñĥ",
  "5409": "ĠSh",
  "2839": "ote",
  "4902": "ĠÐ¾Ñĩ",
  "4048": "ĠisPrime",
  "2719": "ination",
  "3501": "nvector",
  "3281": "utation",
  "2290": "Guard",
  "2324": "ĠPolynomial",
  "2043": "ategy",
  "2039": "arent",
  "8014": "Ġanaly",
  "4417": "RES",
  "8333": "HIGH",
  "3360": "ÐµÑĤÑĢ",
  "2249": "Ġunordered",
  "2532": "Ġop",
  "6333": "ÐĿÐµÐ´Ð¾ÑģÑĤÐ°ÑĤÐ¾ÑĩÐ½Ð¾",
  "9824": "DUCT",
  "3387": "ood",
  "819": "},",
  "6313": "ĠÐ¾ÑĪÐ¸Ð±Ð¾Ðº",
  "8546": "Ð»Ð³Ð¾ÑĢÐ¸ÑĤÐ¼",
  "3312": "*>(&",
  "1953": "Ð½Ð¾ÑģÑĤÐ¸",
  "4034": "ĠÑģÐ¾ÑĢÑĤÐ¸ÑĢÐ¾Ð²ÐºÐ¸",
  "1765": "alculate",
  "9469": "LPS",
  "6986": "Ð°ÐºÑĤÐ¾ÑĢÐ¸",
  "5688": "Ð°ÑĨÐ¸Ð¹",
  "6528": "ĠtopologicalSort",
  "8636": "Events",
  "9116": "128",
  "5255": "ĠÐ³Ð»",
  "7475": "ĠStream",
  "3181": "ADD",
  "1257": "afe",
  "2776": "++)\\",
  "4680": "cal",
  "2347": "ĠÐ¿ÐµÑĢÐ²",
  "3905": "Ð¸ÑĨÐ¸ÐµÐ½ÑĤ",
  "2289": "ĠProduct",
  "5153": "Ġforwarding",
  "5253": "ĠlogFile",
  "2073": "check",
  "6084": "ĠcheckOut",
  "139": "å",
  "9570": "ĠrGraph",
  "7401": "zer",
  "1428": "vec",
  "8839": "ĠÐŁÐ¾ÐºÐ°Ð·",
  "270": "an",
  "6397": "ĠquickSort",
  "6395": "ĠÐ²ÑĤÐ¾ÑĢÐ¾Ð¹",
  "291": "ion",
  "2335": "ÑģÐ¿Ð¾Ð»ÑĮÐ·Ð¾Ð²Ð°Ð½Ð¸Ðµ",
  "9671": "Objects",
  "4012": "aa",
  "2023": "ĠSIZE",
  "8053": "ĠÐ²Ð¾Ð·ÑĢÐ°ÑģÑĤÐ°Ð½Ð¸Ñİ",
  "6943": "Testing",
  "478": ">(",
  "7274": "RD",
  "7452": "Ġexact",
  "5151": "content",
  "1353": "14",
  "6379": "ĠÑĢÐµÐ¶Ð¸Ð¼",
  "7330": "Ġrobot",
  "2141": "ÐłÐ°Ð·Ð¼ÐµÑĢ",
  "5227": "Ð»Ð°Ð´",
  "4872": "Ð³Ð¾Ð»",
  "7577": "}\\\";\\",
  "3303": "getValue",
  "8928": "Ġfoo",
  "1989": "uffix",
  "7497": "ĠÐ´Ð¾ÑħÐ¾Ð´",
  "7835": "ĠDecorator",
  "2433": "ĠUser",
  "7543": "viction",
  "4679": "Variable",
  "2178": "ĠConcrete",
  "5089": "ÑıÐ¼Ð±",
  "5519": "ĠÐ¾Ð±ÑĢÐ°Ð±Ð¾ÑĤÐºÐ¸",
  "4165": "ÐµÑĢÐµÐ´",
  "8707": "ĠLibraryItem",
  "4983": "Ġparser",
  "6337": "lindrical",
  "3273": "----------------",
  "7851": "ĠArrayView",
  "7469": "Ġits",
  "8776": "sump",
  "4937": "Group",
  "9268": "Filename",
  "8912": "Ġborrowed",
  "566": "Ġis",
  "7186": "Ð¶Ð°ÑĤ",
  "6778": "ful",
  "307": "Ð¸Ð",
  "7028": "ÑĦÐ¸Ð³",
  "6711": "Expensive",
  "9916": "ÐĿÐµÐ²ÐµÑĢ",
  "8370": "page",
  "7355": "ĠÑģÐµÑĢÐ²ÐµÑĢ",
  "3823": "Recursive",
  "7505": "maton",
  "7885": "interest",
  "2283": "Ġcar",
  "9612": "ÐļÐ¾ÑĢ",
  "5474": "pq",
  "6089": "Ġmemo",
  "5385": "Ðĸ",
  "365": "std",
  "2863": "Ġcustom",
  "8479": "ĠÐļÐ¾Ð½ÑģÑĤÐ°Ð½ÑĤÐ½Ð°Ñı",
  "8356": "erred",
  "9752": "Ð»ÐµÐºÑģÐ½Ð¾Ðµ",
  "4082": "found",
  "6507": "ĠÐ¼ÐµÑĤÐ¾Ð´Ð¾Ð²",
  "8528": "watch",
  "2166": "Ġfloat",
  "6996": "Radians",
  "7391": "dq",
  "8415": "displayAll",
  "6228": "grid",
  "604": "ag",
  "813": "Ġ100",
  "3483": "},{",
  "3048": "Ġ[&",
  "7575": "public",
  "5681": "nap",
  "8861": "ĠIO",
  "7249": "ĠLazyValue",
  "1536": "tx",
  "2499": "\\\"\\",
  "2634": "assert",
  "4820": "()))",
  "5775": "ĠisPalindrome",
  "1650": "Ġuint",
  "519": "ext",
  "9501": "sBy",
  "531": "(),",
  "8008": "Ġ85",
  "4860": "ĠCl",
  "2008": "Ġinsert",
  "3436": "ĠÑĢÐµÐ·ÑĥÐ»ÑĮÑĤÐ°ÑĤ",
  "7806": "ĠhasDigit",
  "7133": "amage",
  "4306": "Ð¢Ð¾ÑĩÐºÐ°",
  "4227": "bits",
  "4118": "Files",
  "8968": "_[",
  "6753": "ĠÐºÐ¾Ð½ÑĤÐµÐ¹Ð½ÐµÑĢ",
  "4371": "Ð¾Ð¿ÑĥÑģÐºÐ°ÐµÐ¼",
  "4569": "ÑĤÐ°ÑĤÐ¸ÑģÑĤÐ¸ÐºÐ°",
  "7630": "ÐŀÐ¶Ð¸Ð´",
  "3228": "Ġcenter",
  "624": "Type",
  "9343": "ÑĦÑĥÐ½ÐºÑĨÐ¸Ñı",
  "3716": "Ġmag",
  "9772": "ĠChecking",
  "8850": "ÐłÐ°ÑģÑĪ",
  "893": "Pro",
  "3962": "aps",
  "6167": "ÐµÐ»ÐµÐ½Ð¸Ðµ",
  "823": "Ñį",
  "8684": "ĠmergeSort",
  "8742": "Ð¢ÑĢÐµÑĥÐ³Ð¾Ð»ÑĮÐ½Ð¸Ðº",
  "7576": "power",
  "663": "pename",
  "7101": "NET",
  "7729": "ors",
  "4870": "ĠVirtualBase",
  "8284": "ĠÐ·Ð°Ð¿Ð¸ÑģÐ¸",
  "5444": "ĠÐ·Ð°Ð²Ð¸Ñģ",
  "1935": "old",
  "3304": "lication",
  "88": "u",
  "7895": "ĠÐŀÑĩÐ¸ÑģÑĤÐºÐ°",
  "8233": "Orders",
  "7786": "aprekar",
  "1941": "Ġexpr",
  "6556": "ĠInteger",
  "2698": "ĠÑĥÐºÐ°Ð·Ð°ÑĤÐµÐ»ÑĮ",
  "5570": "Ġused",
  "8586": "][\\\"",
  "1121": "ÐµÐ²",
  "9801": "ĠÑģÑĤÑĢÑĥÐºÑĤÑĥÑĢÑĭ",
  "1033": "Size",
  "7357": "ĠÐ²ÑĭÑģÐ¾ÑĤÑĥ",
  "7009": "Ġmalloc",
  "1490": "Ġaccount",
  "1702": "Ð¸Ð¼Ð²Ð¾Ð»",
  "8642": "currency",
  "7191": "ĠÐ¿ÐµÑĢÐµÐ¿Ð¾Ð»Ð½",
  "4093": "Card",
  "1520": "Ġalloc",
  "1998": "unning",
  "8105": "Pipeline",
  "9843": "eof",
  "2914": "atistics",
  "9895": "Ġradians",
  "4812": "Ġdog",
  "578": "qu",
  "1731": "dist",
  "8672": "ÐĴÑĭÑĢÐ°Ð²Ð½Ð¸Ð²Ð°Ð½Ð¸Ðµ",
  "9721": "ĠcenterY",
  "6677": "Ġindegree",
  "9261": ">=(",
  "3583": "ĠÐĺÑģÐ¿Ð¾Ð»ÑĮÐ·ÑĥÐµÐ¼",
  "9579": "ĠMixed",
  "4617": "CKET",
  "4526": "ĠIterator",
  "7971": "asure",
  "5092": "Model",
  "2372": "ÐµÐ±",
  "8529": "xml",
  "3242": "Ġ.",
  "7883": "ĠApp",
  "5018": "Ġcontains",
  "7305": "Ġproxy",
  "9860": "ÑĢÐ¸ÑĦÐ¼ÐµÑĤ",
  "7088": "ĠÑģÑĤÐ¾ÑĢÐ¾Ð½Ñĭ",
  "9887": "ĠTracked",
  "3982": "lue",
  "9156": "Ġdenied",
  "7500": "Ð½Ð¾Ð²Ð½Ð¾Ð¹",
  "7289": "Ġva",
  "5236": "Ð¸ÑĤÐ°ÑĨÐ¸Ñı",
  "4907": "Ġbound",
  "3305": "Ð°Ð»Ð»",
  "7508": "Threads",
  "6965": "ÐľÐ°ÐºÑģÐ¸Ð¼Ð°Ð»ÑĮÐ½Ð°Ñı",
  "9743": "Ð°ÑİÑĤÑģÑı",
  "7404": "Ġupper",
  "1201": "ld",
  "7035": "oneable",
  "4529": "Ð°Ð»ÑĮÐ½ÑĭÐµ",
  "688": "ĠÑĥ",
  "4722": "gcount",
  "6814": "ĠÐĿÐ°",
  "3149": "types",
  "4387": "Non",
  "387": "ase",
  "448": "Ġin",
  "3736": "Ġlarge",
  "5890": "Ġmonthly",
  "2296": "Ġhash",
  "7716": "tag",
  "9037": "ĠCHECK",
  "962": "rivate",
  "9314": "Ġfruits",
  "6879": "ced",
  "9962": "packed",
  "1297": "Pri",
  "1145": "Ð¾Ð·Ð´",
  "5420": "ĠDFS",
  "2583": "Ġvalidate",
  "4505": "UM",
  "5739": "decimal",
  "382": "nclass",
  "7205": "ĠbaseSalary",
  "6517": "Ġsessions",
  "4779": "ĠÐ¡Ð¿",
  "4345": "Ð¾ÑģÑĤÐ°ÑĤ",
  "7211": "ĠswapValues",
  "5748": "ĠBUFFER",
  "136": "â",
  "7105": "Vertices",
  "7988": "ecure",
  "8924": "Ġ'[')",
  "2950": "Ġ\\\"\\\";\\",
  "6081": "ABABC",
  "1547": "Ġstudent",
  "9785": "ĠÐ½ÐµÐ´ÐµÐ»",
  "4634": "Erased",
  "1325": "start",
  "6573": "Ð°ÑĤÐ¾Ðº",
  "8523": "rame",
  "102": "¥",
  "4319": "&>(",
  "8266": "nÐĶÐµÐ¼Ð¾Ð½ÑģÑĤÑĢÐ°ÑĨÐ¸Ñı",
  "9048": "strs",
  "9109": "ĠObservable",
  "3855": "app",
  "9453": "Ð°Ð¼ÐµÐ½Ð°ÑĤÐµÐ»ÑĮ",
  "3432": "mask",
  "3976": "ĠÑĨÐ¸ÑĦÑĢ",
  "1954": "ÑĢÐµÐ´ÐµÐ»",
  "6087": "LOW",
  "4828": "ĠCoffee",
  "9981": "ĠÑĢÐµÑĪÐµÐ½Ð¸Ðµ",
  "6452": "ĠÐºÑĢÑĥÐ³",
  "917": "ant",
  "5689": "contains",
  "2917": "ĠÑģÐµÐº",
  "6790": "Ġcent",
  "9036": "ĠCOUNT",
  "1828": "Ġwork",
  "4589": "microseconds",
  "5267": "ĠÐ°ÑĢÐ³ÑĥÐ¼ÐµÐ½ÑĤ",
  "5115": "oned",
  "3467": "VAL",
  "6391": "ĠÐ¾Ð¿ÐµÑĢÐ°ÑĨÐ¸Ð¸",
  "8630": "LEVEL",
  "9855": "Ġ\\\"',",
  "1427": "Ġread",
  "1447": "point",
  "2622": "den",
  "5060": "Ġbind",
  "4260": "ratio",
  "4856": "lab",
  "8842": "Ġtoo",
  "5957": "ÐŁÐ¾Ð»",
  "2901": "gex",
  "9640": "UserById",
  "698": "ived",
  "7132": "ÑģÐ¾Ð»",
  "9008": "Ġtracker",
  "1168": "low",
  "1872": "Min",
  "5128": "ĠÐ²Ð°Ð»Ð¸Ð´",
  "3870": "Ġcat",
  "5625": "Ġrw",
  "4939": "Simple",
  "1301": "Ġfilename",
  "6789": "Ð»ÐµÑĤ",
  "7617": "Ð¸Ð¼Ð¸",
  "7270": "History",
  "3914": "Line",
  "1725": "Queue",
  "5557": "Ġoperations",
  "5580": "Ġmodify",
  "131": "Ð",
  "9111": "NumberOf",
  "5129": "ÑĢÐ°Ðº",
  "9780": "Steps",
  "5309": "tolower",
  "3196": "Ġaddress",
  "2504": "cols",
  "8792": "Ġcrc",
  "2191": "\\\"};\\",
  "9797": "Ġplane",
  "4471": "AA",
  "6244": "ÑĢÐµ",
  "3144": "Ġmtx",
  "1923": "ĠÐ¿ÐµÑĢÐµÐ¼",
  "2612": "state",
  "4950": "alf",
  "3308": "balance",
  "9146": "Note",
  "466": "ĠP",
  "9110": "Ð°Ð¼ÑıÑĤÑĮ",
  "5040": "199",
  "3815": "ule",
  "1207": "ust",
  "9400": "Ġreleased",
  "261": "Ġendl",
  "4225": "Equal",
  "6933": "Ġleak",
  "5696": "iod",
  "3355": "Ġperm",
  "8633": "Encode",
  "510": "op",
  "3480": "ĠÐºÐ»Ð°ÑģÑģ",
  "6948": "checks",
  "2266": "annot",
  "4626": "vertices",
  "4583": "Era",
  "3898": "Ġdatabase",
  "7756": "ĠSIG",
  "770": "ient",
  "5587": "Ġmerged",
  "1965": "Block",
  "5720": "ÐµÑĪÐµÐ½Ð¸Ðµ",
  "8227": "Ð¸Ð´Ð°",
  "3116": "Ġreset",
  "2697": "earch",
  "2686": "istory",
  "210": "at",
  "4933": "oolean",
  "3249": "escri",
  "577": "pl",
  "4219": "allest",
  "3401": "For",
  "6962": "Ġsteps",
  "2998": "ĠMult",
  "9335": "Ġrub",
  "606": "ĠÑĩ",
  "2942": "ÐµÐ½Ð½ÑĭÐ¹",
  "588": "mo",
  "355": "ult",
  "9255": "27",
  "4193": "optional",
  "7415": "Ġpack",
  "6260": "ĠPRI",
  "2379": "LA",
  "2540": "igned",
  "6572": "ĠÐ´Ð»Ð¸Ð½Ð°",
  "8454": "ĠÐ¿Ð¾ÑĤÐ¾ÐºÐ°",
  "3510": "ĠÐ¸ÑģÐ¿Ð¾Ð»ÑĮÐ·Ð¾Ð²",
  "1240": "untime",
  "2145": "ÐłÐµÐ·ÑĥÐ»ÑĮÑĤÐ°ÑĤ",
  "6493": "ĠÐ¤Ð¾ÑĢÐ¼",
  "1980": "Ġ*=",
  "1291": "emory",
  "7626": "Ð¾Ð¼Ð±",
  "5504": "ĠÐŀÑĩ",
  "3605": "Ð°ÑĤÐ°",
  "1350": "wh",
  "9026": "chan",
  "4654": "ÑĦÐµÑĢ",
  "1773": "ED",
  "6194": "ĠÐ·Ð°Ð¿ÑĢÐ¾Ñģ",
  "3041": "ical",
  "6208": "ĠÐ¾Ð±ÑĢÐ°ÑĤÐ½Ð¾Ð¼",
  "739": "mple",
  "7160": "ĠÐ´Ð½ÐµÐ¹",
  "625": "ask",
  "9985": "Force",
  "5929": "nÐĴÑĭ",
  "660": "vent",
  "2494": "ĠÐºÐ¾ÑĢ",
  "4911": "Ð¸Ð¼ÐµÐ½",
  "2458": "Ð°Ñħ",
  "5726": "Ġdistances",
  "5366": "Ġtimestamp",
  "8591": "ĠnewChar",
  "6100": "ĠÑĥÐ´Ð°Ð»ÐµÐ½",
  "4112": "ĠÑĩÐ»ÐµÐ½",
  "9339": "ĠÐ¸Ð¼ÐµÐ½",
  "9864": "Ġtimed",
  "5118": "Ġtriangle",
  "7677": "ĠÐ¾ÑģÐ²Ð¾Ð±",
  "9519": "Ġreservations",
  "5619": "room",
  "1452": "Ġfactor",
  "24": "5",
  "7913": "ĠCopy",
  "9510": "Ġstage",
  "5969": "ĠRegistry",
  "4455": "ĠÐ¿ÑĢÐ¸Ð²",
  "1009": "nprivate",
  "1862": "ĠComp",
  "6190": "script",
  "1015": "onth",
  "8941": "sumption",
  "2328": "ĠÐĳ",
  "838": "Ġ~",
  "3960": "ÐĴÐµÐºÑĤÐ¾ÑĢ",
  "1657": "edi",
  "9092": "ÐĿÐ¾Ð²Ð¾Ðµ",
  "487": "())",
  "662": "ull",
  "8208": "Ð°Ð¼ÐµÐ½",
  "9409": "Ð²ÐµÑĢÑĤÐ°ÑĨÐ¸Ñı",
  "9474": "Multiplier",
  "9608": "ÑĢÑĥÐ´",
  "8700": "ĠdiscountRate",
  "388": "Ð¼",
  "2405": "ĠÐŀÐ±",
  "3897": "ĠÐ½Ð¾Ð²",
  "7666": "ĠÐ¿Ð¾Ð»Ð¾Ð¶Ð¸ÑĤÐµÐ»ÑĮÐ½Ð¾Ð¹",
  "6157": "Ġsr",
  "6175": "ĠVariant",
  "2989": "+(",
  "2798": "ÑĢÐµÐºÑĤ",
  "6055": "ÑħÑĢÐ°Ð½",
  "68": "a",
  "8560": "Ġeat",
  "8832": "ĠMedi",
  "3969": "ĠÐ¾ÑĤÐºÑĢ",
  "2332": "0000",
  "6721": "Minute",
  "5510": "Ð¡ÑĤÑĥÐ´ÐµÐ½ÑĤ",
  "8339": "Sending",
  "5533": "Five",
  "5802": "Ġmemcpy",
  "4003": "ĠÐ¿Ð¾Ð»ÑĮÐ·Ð¾Ð²Ð°ÑĤÐµÐ»",
  "2609": "racker",
  "2244": "Ġsort",
  "1446": "Task",
  "9765": "ĠusernameToId",
  "9001": "Ġistream",
  "7675": "ĠÑģÐ¾ÑĢÑĤÐ¸ÑĢÐ¾Ð²ÐºÐ°",
  "1865": "ample",
  "7099": "Hits",
  "3330": "65",
  "8597": "ĠÐŁÐ¾Ð»ÑĮÐ·Ð¾Ð²Ð°ÑĤÐµÐ»ÑĮ",
  "17": ".",
  "4577": "Ð§Ð¸ÑģÐ»Ð°",
  "3541": "Ġresources",
  "2413": "Ġsystem",
  "6786": "Ġdim",
  "9315": "Ġnc",
  "6619": "ĠÑĩÐµÑĤÐ½ÑĭÑħ",
  "9043": "ilities",
  "1023": "isitor",
  "1251": "Ð´ÐµÐ½",
  "1534": "ynamic",
  "6549": "cb",
  "8140": "Ġfil",
  "7073": "ĠÐ¾ÐºÑĢÑĥÐ¶",
  "384": "Ġstring",
  "4806": "inf",
  "3980": "RT",
  "6629": "ĠÑģÑĤÑĢÑĥÐºÑĤÑĥÑĢ",
  "6828": "Ð¾ÑģÐ»ÐµÐ´Ð¾Ð²Ð°ÑĤÐµÐ»ÑĮ",
  "5800": "ĠÑħÐµÑĪ",
  "7921": "As",
  "6303": "ĠÐ¼ÐµÑĤÐ¾Ð´Ð°",
  "6850": "ĠRTTI",
  "6611": "ĠÑĪÐ°Ð±Ð»Ð¾Ð½",
  "7411": "Ġdf",
  "6216": "Ax",
  "2882": "ÐµÐ²ÐµÑĢ",
  "1341": "\\\";",
  "4514": "ĠCache",
  "5467": "Ident",
  "1375": "indow",
  "4620": "Ġproducts",
  "8987": "Ġ[]",
  "3195": "Ġsettings",
  "5298": "igen",
  "4083": "Ġcompressed",
  "6862": "li",
  "9886": "ĠSpeed",
  "5635": "ÐµÑģÑĤÑĮ",
  "5714": "Ð°ÐºÐ°Ð·",
  "9719": "Append",
  "9289": "ned",
  "8404": "Ġsetfill",
  "1461": "\\\"\\\"",
  "439": "ation",
  "3910": "ĠAccount",
  "5872": "ĠtotalArea",
  "5326": "ĠÑģÑĤÑĢÑĥÐºÑĤ",
  "444": "Ð¾ÑĢ",
  "7545": "igenere",
  "9958": "totalSeconds",
  "5476": "wrapper",
  "168": "ĺ",
  "3150": "ĠID",
  "4024": "Ġht",
  "7075": "ĠloadedPlugins",
  "4944": "nÐļ",
  "4466": "roller",
  "887": "Ð³",
  "5959": "agonal",
  "1021": "sert",
  "926": "ount",
  "7676": "ĠinterestRate",
  "7560": "roadcast",
  "6454": "Insert",
  "9454": "98765432",
  "8291": "ĠDoubleCheckedLocking",
  "6287": "ipient",
  "617": "es",
  "5648": "Client",
  "1672": ":\\\";\\",
  "4886": "Ð¸Ð¼Ð¾ÑģÑĤÐ¸",
  "1538": "Result",
  "5232": "ĠÐ½ÐµÐ²",
  "1743": "Message",
  "1532": "igit",
  "2255": "IG",
  "977": "ĠÑĢ",
  "4436": "Ġcart",
  "1849": "50",
  "2262": "ĠEvent",
  "4005": "-(",
  "9252": "ĠÐ»ÑıÐ¼Ð±Ð´",
  "4925": "Ġusage",
  "2508": "bit",
  "3808": "01",
  "9936": "ĠGre",
  "1008": "Ð°Ð´",
  "696": "ÐµÐ»ÑĮ",
  "2158": "Sum",
  "9174": "Ð°ÑİÑīÐµÐ¹",
  "481": "ĠB",
  "1823": "Ġfriend",
  "628": "Ġ?",
  "4970": "ĠAstBuilder",
  "2956": "Ð¾ÑĢÑıÐ´",
  "8852": "ÐµÐ·Ð¾Ð½",
  "6701": "ÐµÑģÐµÑĩ",
  "9915": "redits",
  "8718": "ircuitBreak",
  "9866": "Ġprin",
  "3891": "rec",
  "6723": "OfFive",
  "4762": "led",
  "2491": "atomic",
  "4027": "ÐµÐ·Ð¾Ð¿Ð°Ñģ",
  "2712": "Ġargs",
  "5354": "()));\\",
  "8168": "Ġ34",
  "6561": "Ġman",
  "7268": "Cast",
  "3020": "last",
  "50": "O",
  "2487": "Ġshapes",
  "9054": "ĠPolar",
  "3063": "Ġmatch",
  "3778": "Ð¾ÑĢÐ´Ð¸Ð½Ð°ÑĤ",
  "9853": "stacle",
  "2357": "unistd",
  "8120": "longest",
  "3345": "ĠÐ·Ð°Ð´Ð°Ñĩ",
  "2640": "Ġport",
  "5653": "ĠÐ¿ÐµÑĢÐµÐ¼ÐµÐ½Ð½ÑĥÑİ",
  "5144": "compressed",
  "5669": "Ġtopological",
  "749": "ard",
  "1138": "side",
  "380": "Ġl",
  "5611": "ĠUn",
  "9932": "Ġprio",
  "39": "D",
  "7610": "ĠgetBalance",
  "2967": "---",
  "7737": "Ġnaive",
  "8011": "ĠOpen",
  "9630": "memoryPool",
  "7117": "nDE",
  "6845": "ÐļÐ½Ð¸Ð³Ð°",
  "1234": "20",
  "8145": "sident",
  "9159": "Constants",
  "6278": "ĠÐ¿ÑĢÐ¸Ð½",
  "45": "J",
  "1760": "effs",
  "8690": "ĠzeroCount",
  "5949": "ĠÐ²Ð¸Ð´",
  "7026": "Ð½Ð¾Ñģ",
  "8713": "ENDING",
  "5887": "ĠÐ»Ð¾Ð³",
  "5875": "ĠIs",
  "403": "pace",
  "5143": "ĠÐĿÐµ",
  "9614": "ĠrightConst",
  "8164": "Ġstrings",
  "5670": "Cy",
  "5235": "Ġ'[",
  "4442": "Ġcoefficients",
  "8931": "Failure",
  "9060": "ĠBasic",
  "1663": "ÐŀÐ±",
  "8953": "Fuel",
  "6718": "prime",
  "5465": "Full",
  "9160": "ĠÐ´Ð²Ð¾",
  "4057": "ĠÐłÐ°Ð·",
  "3827": "ĠRE",
  "3744": "Ð°ÑĤÑĢÐ¸ÑĨÐ°",
  "9407": "ĠXOR",
  "5590": "ĲâķĲâķĲâķĲâķĲâķĲâķĲâķĲâķĲâķĲâķĲâķĲâķĲâķĲâķĲâķĲâķ",
  "633": "ource",
  "3763": "ptrTo",
  "9882": "ĠCity",
  "2222": "sius",
  "6318": "ĠÐ´Ð»Ð¸Ð½Ñĥ",
  "6065": "Ð°ÐºÑĤÐ¾ÑĢ",
  "7608": "Ġ');\\",
  "1046": "first",
  "7070": "Ġfailure",
  "1660": "Ġblock",
  "6364": "race",
  "7421": "cherry",
  "7670": "Ð¾ÑĢÑĤÐ¸ÑĢÐ¾Ð²ÐºÐ°",
  "3678": "Ġthe",
  "4556": "ĠÐºÐ½Ð¸Ð³",
  "8829": "Ġ!(",
  "5454": "ilograms",
  "1050": "Ġpri",
  "679": "ize",
  "5238": "ĠPattern",
  "4839": "Books",
  "5822": "Pre",
  "9927": "ĠImpl",
  "8871": "Ġcheckbox",
  "3194": "uffman",
  "3113": "Origin",
  "6417": "Scheduler",
  "2395": ">;\\",
  "1099": "display",
  "3284": "Ġgcd",
  "9066": "Inventory",
  "6623": "Ð¾Ð³ÑĢÐµÑĪ",
  "5065": "example",
  "5283": "category",
  "9908": "Ġext",
  "1382": "clock",
  "4988": "Ð¸Ð½Ð°ÑĢ",
  "781": "Ð¸ÑģÐ»",
  "2756": "ÐŀÑĤ",
  "8283": "OWN",
  "3573": "Ġresults",
  "1717": "ference",
  "9638": "Ġsubstring",
  "2651": "ole",
  "3391": "ĠMe",
  "1993": "itch",
  "8705": "Ð½ÐµÑĢÐ³",
  "8935": "Automaton",
  "5736": "Created",
  "9514": "delta",
  "6634": "Action",
  "472": "Ġ5",
  "7054": "bined",
  "835": ")\\\"",
  "7380": "ITION",
  "9201": "LIENT",
  "7977": "ĠgetIs",
  "964": "angle",
  "1224": "Info",
  "2916": "rib",
  "19": "0",
  "2192": "ÑĥÐ´",
  "1814": "Or",
  "5055": "ÑĢÐµÑģ",
  "4061": "ĠÐķÑģÐ»Ð¸",
  "3710": "house",
  "523": ":\\\"",
  "928": "amount",
  "6865": "week",
  "7": "$",
  "7082": "fficLight",
  "1651": "ÑĥÐ½ÐºÑĨÐ¸Ñı",
  "7943": "inner",
  "3785": "Room",
  "3581": "STNode",
  "8155": "getAmount",
  "9147": "ĠDeferred",
  "7307": "INE",
  "1573": "Ġage",
  "8402": "Executing",
  "1419": "ĠDate",
  "5803": "ĠÐ²ÑĭÐ¿Ð¾Ð»Ð½ÐµÐ½Ð¸Ñı",
  "2891": "Ð·Ð¾Ð²",
  "7425": "expen",
  "2586": "Function",
  "2146": "ME",
  "5555": "owels",
  "94": "{",
  "5780": "ĠFinal",
  "786": "ÐĴÐ²ÐµÐ´Ð¸ÑĤÐµ",
  "2936": "da",
  "6201": "Ġtokens",
  "3917": "field",
  "709": "Ð¾Ð»ÑĮ",
  "5157": "84",
  "3814": "Sh",
  "9849": "obs",
  "5145": "formance",
  "3255": "uck",
  "4365": "Ġcos",
  "4614": "Ġmoved",
  "2117": "Connection",
  "6590": "username",
  "7857": "blocks",
  "5608": "rink",
  "8113": "ders",
  "5706": "ÑĢÐ°Ð±",
  "8773": "merge",
  "5912": "CLARE",
  "9202": "ĠRAIIFile",
  "5979": "Ð°Ð±Ð»ÑİÐ´",
  "9978": "xyz",
  "3533": "ivot",
  "4557": "Types",
  "9274": "OVER",
  "5719": "ĠÐ³ÑĢÐ°ÑĦ",
  "9172": "ĠÐĽÑıÐ¼Ð±Ð´Ð°",
  "7303": "Ġisbn",
  "2519": "Ġ1000",
  "3216": "Ð´ÐµÐ»",
  "3100": "ars",
  "8456": "Controller",
  "9802": "Rotate",
  "5395": "Ġremainder",
  "2101": "ĠTh",
  "366": "ile",
  "5657": "ĠAlloc",
  "6888": "isOverdue",
  "8476": "ĠÐ¾Ð¿ÐµÑĢÐ°ÑĤÐ¾ÑĢÐ°",
  "8682": "permission",
  "5114": "alternative",
  "1038": "Ð¾Ð»ÑĮÐ·",
  "5021": "Connect",
  "7046": "Ġ\\\"[\\\";\\",
  "4542": "cases",
  "9412": "ÑĢÐ¾ÑģÑĭ",
  "85": "r",
  "3173": "Ð»Ð¸Ð½",
  "543": "Ġ{}\\",
  "8043": "Ð¸Ð°Ð½Ð°",
  "860": "Ar",
  "5104": "Image",
  "8898": "ĠÐŁÐµÑĢÐµÐ³ÑĢÑĥÐ·ÐºÐ°",
  "6108": "Ġdomain",
  "6952": "Ġnormalized",
  "2736": "Search",
  "1630": "gistry",
  "482": "Ġ!",
  "745": "erived",
  "4123": "ĠÐ¸Ð½Ð´ÐµÐºÑģ",
  "5829": "rin",
  "167": "Ĺ",
  "8503": "66",
  "5400": "Ġfact",
  "8350": "stl",
  "3466": "Month",
  "6306": "euristic",
  "3097": "Ð¸Ñħ",
  "1047": "user",
  "8003": "finder",
  "1861": "Ð°ÑĤÐµÐ»",
  "5722": "Ġemployees",
  "1340": "ost",
  "6742": "ĠMyClass",
  "4234": "Ġ\\\".\\\"",
  "4212": "Names",
  "9239": "ĠALIGNMENT",
  "3653": "ÑĥÐ¼ÐµÐ½ÑĤ",
  "1329": "ĠÑģÑĤ",
  "1321": "ĠÐ¿Ð¾Ð»",
  "331": "get",
  "1836": "uth",
  "7470": "Promise",
  "6799": "counts",
  "4302": "Ð°Ð½Ð¸ÐµÐ¼",
  "9310": "Ġ($\\\"",
  "1832": "Ð°Ñĩ",
  "7801": "ÐºÐ¸Ñħ",
  "6953": "ĠÑģÐ¿Ð¸ÑģÐ¾Ðº",
  "5461": "90",
  "5380": "Down",
  "6092": "Ġstopped",
  "2373": "ana",
  "1585": "try",
  "8401": "ÐŀÑĢÐ¸Ð³",
  "3002": "Ġactive",
  "6036": "ern",
  "9074": "typeIdx",
  "3547": "ĠEx",
  "1668": "bor",
  "2932": "ĠÑĥÐºÐ°Ð·Ð°ÑĤÐµÐ»",
  "8169": "Ð´Ð»Ñı",
  "3590": "Calculator",
  "2388": "Ġ{};\\",
  "4346": "Child",
  "5605": "hour",
  "3122": "ĠNum",
  "1191": "lag",
  "1170": "Ġnums",
  "7217": "ĠÐ¿Ð¾Ð´Ð¼Ð½Ð¾Ð¶",
  "7359": "ĠÐ´ÐµÐ¹ÑģÑĤÐ²Ð¸ÑĤÐµÐ»ÑĮÐ½ÑĭÑħ",
  "1627": "Ġvalid",
  "311": "();\\",
  "3624": "ĠĠĠĠĠĠĠĠĠĠĠĠĠĠĠĠĠĠĠĠĠĠĠĠĠĠĠ",
  "2418": "OU",
  "2164": "MAX",
  "4176": "Ġalign",
  "7797": "Ð¸ÑĩÐ½Ð¾Ð¹",
  "343": "Ð¾Ð²",
  "5941": "peek",
  "4194": "onus",
  "1705": "ĠÐŁÑĢÐ¸Ð¼ÐµÑĢ",
  "1949": "nconst",
  "3800": "ÑĥÐ¼Ð¼",
  "7840": "azine",
  "5958": "Ð¾ÑĤÑĥ",
  "4665": "Points",
  "4508": "Ġ\\\"\\",
  "5043": "Failed",
  "276": "ect",
  "784": "Ġtext",
  "3052": "notify",
  "1283": "Ð¸Ð¼ÐµÑĢ",
  "177": "Ń",
  "9859": "ÑĢÑĭÐ²",
  "8381": "ĠPower",
  "1674": "ps",
  "7203": "Enabled",
  "7741": "Ġcallable",
  "1966": "ward",
  "8248": "ACHE",
  "3924": "Ġrest",
  "8127": "tl",
  "2121": "Ġro",
  "1163": "ervice",
  "6227": "eve",
  "7831": "ĠComposite",
  "8173": "Ġ'(",
  "298": "mp",
  "6821": "Blocked",
  "6704": "Ð¸ÑĢÐ¾Ð²ÐºÐ°",
  "9812": "ĠÐ¸ÑģÑĤÐ¾ÑĢ",
  "2423": "Ġ\\\":\\\"",
  "6197": "ĠÐŀÐ±Ð½Ð¾Ð²",
  "1829": "eap",
  "1186": "quare",
  "5490": "Ġdegrees",
  "7030": "temperature",
  "132": "Ñ",
  "6822": "ĠÐĴÑĭÐ·Ð¾Ð²",
  "6350": "Ġerrno",
  "9676": "ÑģÑĤÐ²Ð¾",
  "2659": "Ġcopy",
  "1114": "Ð¸ÑĨ",
  "9580": "addDecorator",
  "6758": "ĠEncryptionSystem",
  "1539": "Plugin",
  "6524": "ÐĲÐ½Ð½Ð°",
  "7948": "()];\\",
  "9504": "}\\\",\\",
  "7023": "ĠÐ´Ð»Ð¸",
  "3444": "Ġdestroyed",
  "8440": "8080",
  "9217": "Ġanimals",
  "5402": "ĠtwinPrimes",
  "7455": "Ġtolower",
  "5906": "Permutations",
  "7954": "Ġmonitor",
  "1578": ").",
  "4294": "ĠCategory",
  "255": "Ġp",
  "1400": "itial",
  "2426": "Ġobject",
  "1567": "&&",
  "2297": "ÑģÐ¿Ð¾Ð»ÑĮÐ·Ñĥ",
  "5333": "85",
  "2414": "ĠTest",
  "8426": "ĠsideA",
  "6176": "Ġtemperature",
  "4251": "Ġdifference",
  "2059": "riangle",
  "2346": "Config",
  "9212": "Ġrecords",
  "8681": "PriorityHandler",
  "8308": "ĠÐļÐ¾Ð½ÐºÑĢÐµÑĤÐ½ÑĭÐµ",
  "4525": "epoll",
  "8869": "Ġchecker",
  "9091": "ÐĿÐ¾Ð²Ð°Ñı",
  "6414": "Health",
  "437": "rint",
  "801": "server",
  "5782": "locity",
  "2681": "request",
  "2176": "static",
  "1211": "rade",
  "9432": "ÑĢÐ¸Ð³Ð¾ÑĢ",
  "4550": "Ġiterator",
  "2269": "Ð¾Ð¶Ð¸ÑĤÐµÐ»ÑĮ",
  "9181": "ĠBinaryNumber",
  "2065": "Ġdet",
  "8821": "Ð¾Ð»Ð¾Ð²",
  "2392": "ĠÐ´Ð²",
  "2693": "free",
  "7290": "Ġdollars",
  "8255": "ĠlongestCommon",
  "8102": "Prefix",
  "5000": "':\\",
  "9529": "Ġpm",
  "9367": "ĠGe",
  "1209": "ogger",
  "1914": ">>&",
  "9": "&",
  "6725": "racked",
  "2562": "getline",
  "858": "its",
  "3423": "bst",
  "3746": "Employee",
  "4571": "Ġletter",
  "2876": "part",
  "8660": "idean",
  "3770": "ĠÑĢÐ°Ð·ÑĢÑĥÑĪ",
  "6840": "ĠÑģÑĥÑīÐµÑģÑĤÐ²ÑĥÐµÑĤ",
  "5767": "versity",
  "5121": "Ġbutton",
  "7980": "ĠDist",
  "8803": "getDescription",
  "4619": "Tasks",
  "2502": "Ġwindow",
  "7839": "ĠTaskScheduler",
  "2137": "Ġlist",
  "7150": "ÐºÐ¾ÑģÑĤÑĮ",
  "822": ")\\",
  "6253": "cho",
  "6128": "Ġcommit",
  "5536": "head",
  "2214": "ug",
  "9539": "Ġops",
  "9481": "Week",
  "2702": "AM",
  "1524": "dge",
  "6552": "ny",
  "7659": "Elements",
  "4587": "UR",
  "5554": "Ġguest",
  "486": "Ġstr",
  "4413": "ĠÐ¿ÑĢÐ¾Ð±",
  "6512": "ĠÐ·Ð°ÐºÑĢÑĭÑĤ",
  "3067": "Ð¼ÐµÑĤ",
  "7689": "Ð¸Ð½Ð°Ð»ÑĮÐ½Ð¾Ðµ",
  "7873": "ĠÑģÑĥÐ¼Ð¼Ñĭ",
  "5921": "Ca",
  "2621": "Mode",
  "2614": "Ġdiv",
  "8875": "Ð´Ð°Ð»ÐµÐ½",
  "5735": "ĠÐ¼Ð¸Ð½Ð¸Ð¼ÑĥÐ¼",
  "4686": "Ġfill",
  "6359": "Ġ17",
  "6366": "Ġlvalue",
  "8375": "Ġlamp",
  "4710": "Depend",
  "1778": "sor",
  "737": "hared",
  "697": "===",
  "2230": "cct",
  "9806": "ÐļÐ¾Ð¼Ð¿Ð»ÐµÐºÑģÐ½Ð¾Ðµ",
  "2110": "omic",
  "7631": "ĠFunction",
  "5989": "ÐŃÐ»ÐµÐ¼ÐµÐ½ÑĤÑĭ",
  "1834": "oex",
  "8411": "creasing",
  "3213": "Ġbit",
  "4271": "ÐľÐ¸Ð½",
  "517": "ÐŁ",
  "2781": "Left",
  "4159": "Ġavg",
  "337": "Ġvoid",
  "1076": "arget",
  "3139": "Ġ\\\"/\\\"",
  "2657": "Ġnormal",
  "582": "ÑĢÐ¾Ð²",
  "6156": "ged",
  "8720": "ĠÐ·Ð°Ð²Ð¸ÑģÐ¸Ð¼Ð¾ÑģÑĤ",
  "7661": "ÑıÐ¼Ð¾Ð¹",
  "7313": "Ġmoving",
  "7863": "Ġepoll",
  "7587": "Ð¸Ð¾ÑĢÐ¸ÑĤÐµÑĤ",
  "5274": "Ġ3600",
  "9336": "ĠgetAccess",
  "3264": "itor",
  "8121": "md",
  "6457": "ĠisS",
  "8638": "ÐĹÐ°ÑĪ",
  "8030": "Ð°Ð»Ð¸Ð·Ð¾Ð²",
  "7261": "ĠSerializationRegistry",
  "9988": "ĠÐ´Ð¾Ð±Ð°Ð²Ð¸ÑĤÑĮ",
  "7907": "ĠTRANSITION",
  "9027": "getState",
  "4793": "ĠÐºÐ¾Ð¿Ð¸ÑĢÐ¾Ð²Ð°Ð½Ð¸Ñı",
  "1962": "Ġobserver",
  "1855": "Ġsetw",
  "4851": "IC",
  "8577": "ĠÐ²ÐºÐ»ÑİÑĩ",
  "2906": "plier",
  "9515": "Ð½Ð¾ÑĢ",
  "6651": "ined",
  "653": "right",
  "7695": "='",
  "4840": "Temperature",
  "1093": "Ð»ÑĮ",
  "6300": "position",
  "1425": "ÑĭÑĤÑĮ",
  "7079": "ĠÑģÐºÐ¸Ð´ÐºÐ°",
  "8465": "CalculatorPlugin",
  "686": "Ex",
  "3952": "ĠÐ¾Ðº",
  "8439": "Ð¾ÑıÐ½Ð¸Ð¹",
  "3637": "Right",
  "1218": "Ð¾Ðµ",
  "9928": "Ð½Ð°ÑĩÐµÐ½Ð¸Ñı",
  "9911": "ĠprintStats",
  "340": "lic",
  "2725": "Registry",
  "5169": "Ġcross",
  "6631": "ostgreSQL",
  "5190": "ÐłÐ°ÑģÑģÑĤÐ¾ÑıÐ½Ð¸Ðµ",
  "7715": "sent",
  "6122": "POLL",
  "5406": "ÑĮÑİÑĤ",
  "7648": "ĠGPU",
  "8990": "stim",
  "721": "ÐĿ",
  "1344": "En",
  "5577": "Ġpositive",
  "3796": "ĠCON",
  "5214": "ĠDemonstration",
  "8841": "Ġexecuting",
  "5888": "ĠJsonObject",
  "5376": "ĠÐĺÐ½Ð¸ÑĨÐ¸",
  "9328": "ĠÑģÑħÐ¾Ð´",
  "9714": "ĠÐ·Ð°Ð²ÐµÑĢÑĪÐµÐ½Ð°",
  "2525": "ĠÐ¿ÑĢÐ¸",
  "6541": "John",
  "393": "ÐµÐ¼",
  "2560": "Ġrow",
  "1031": "Ġend",
  "3076": "Ġdo",
  "1592": "Ġ->",
  "1149": "Ð°Ð»ÑĮ",
  "8272": "ĠÐ¿ÑĢÐ¾ÑģÑĤÑĭÑħ",
  "4887": "ĠÑĢÐ°Ð±Ð¾ÑĤÑĭ",
  "9087": "ĠÑĥÑĢÐ°Ð²Ð½ÐµÐ½Ð¸Ð¹",
  "3327": "Ð¡ÑĤÑĢÐ¾Ðº",
  "9865": "Ġput",
  "2086": "Ġtasks",
  "3894": "context",
  "4201": "ĠÐ½ÐµÐ»ÑĮÐ·Ñı",
  "6715": "pointer",
  "3503": "ĠÐ°ÑĢ",
  "797": "ÑĨÐ¸Ñı",
  "9863": "Ġteam",
  "6488": "Ġdictionary",
  "1085": "fault",
  "6506": "Words",
  "3601": "Ġspeed",
  "7649": "Comparison",
  "9634": "Ð°Ð»ÑĮÐ½Ð¾Ð³Ð¾",
  "8749": "Ð°ÑĢÐ°ÐºÑĤÐµÑĢ",
  "6308": "Serializ",
  "9695": "ĠÐ¿Ð¾Ð»Ð¾Ð¶Ð¸ÑĤÐµÐ»ÑĮÐ½ÑĭÑħ",
  "3694": "Ġpassword",
  "9839": "Runtime",
  "4829": "Ġtests",
  "83": "p",
  "2483": "ĠĠĠĠĠĠĠĠĠĠĠĠĠĠĠĠĠĠĠĠĠĠĠĠ",
  "4362": "Ð½ÐµÐ¹",
  "1487": "sleep",
  "3934": "Ġses",
  "821": "Ð°Ðº",
  "7767": "Core",
  "1212": "isi",
  "3819": "Ġpow",
  "8797": "ÐµÐ½Ð°Ð¿ÑĢÐ°Ð²",
  "9896": "ĠgetB",
  "8497": "ĠÐĲÐ²ÑĤÐ¾Ð¼Ð°ÑĤ",
  "2430": "Day",
  "5035": "ĠÑģÑĩÐµÑĤÑĩÐ¸Ðº",
  "6061": "Ġ===\\\\",
  "9262": "CPU",
  "5621": "Ġworld",
  "4479": "Ġ::",
  "2172": "lease",
  "8451": "ĠÐ¸Ð·Ð¼ÐµÐ½ÐµÐ½",
  "5876": "ĠItem",
  "5909": "ĠÐ¿Ð¾Ð»ÑĮÐ·Ð¾Ð²Ð°ÑĤÐµÐ»Ñı",
  "3289": "ĠÑģÑĤÑĢÐ¾ÐºÐ°",
  "457": "ÐµÐ»",
  "7519": "ĠÑĤÐ¾ÑĩÐºÐ¸",
  "3352": "Ġlocal",
  "9446": "cellent",
  "2635": "Ð°Ð´Ð°Ñĩ",
  "4979": "Ð°Ð²Ð»",
  "710": "++;\\",
  "9909": "ĠprintContainer",
  "5077": "ĠmaxCount",
  "2706": "Ġsignal",
  "796": "Ðł",
  "3720": "ĠÐ±ÑĥÐº",
  "2333": "Const",
  "5135": "ĠNot",
  "6773": "Sample",
  "1628": "LO",
  "7365": "METHOD",
  "5973": "LECT",
  "2790": "ĠCount",
  "172": "ľ",
  "7726": "rekar",
  "3293": "Ð¾Ð»ÑĮÐºÐ¾",
  "5233": "strate",
  "1523": "32",
  "4770": "ĠgetInstance",
  "9253": "!\\\\",
  "8947": "Bad",
  "4565": "Ġprocessing",
  "6614": "ĠÐ¾ÑĤÑĢÐ¸ÑĨÐ°ÑĤÐµÐ»ÑĮÐ½ÑĭÐ¼",
  "9993": "ĠÑģÐ¾ÑģÑĤÐ¾",
  "27": "8",
  "7348": "ĠÐ¿Ð¾Ð»ÑĮÐ·Ð¾Ð²Ð°ÑĤÐµÐ»ÐµÐ¹",
  "140": "ç",
  "708": "Ð±",
  "4190": "Ð³Ð¾ÑĢÐ¸ÑĤÐ¼",
  "3822": "Ġdescription",
  "8563": "ĠvoidPtr",
  "3901": "ÑįÑĦÑĦ",
  "426": "Ð½Ñĭ",
  "8407": "Ġtexture",
  "2257": "connect",
  "6731": "LACK",
  "5985": "ĠÐ¼Ð¸Ð½Ð¸Ð¼Ð°Ð»ÑĮ",
  "955": "ure",
  "6399": "ĠÑģÐ¸ÑģÑĤÐµÐ¼Ñĭ",
  "1824": "Ðĳ",
  "8467": "ĠownerName",
  "7591": "Ġnetwork",
  "1058": "ÑģÐ¿",
  "5155": "ptrToPtr",
  "5579": "ĠÐ¾ÑĪÐ¸Ð±ÐºÐ°",
  "3311": "setprecision",
  "2679": "Car",
  "2824": "Ġpoints",
  "6672": "Ġcoeff",
  "2986": "ĠÐºÐ¾Ð¼Ð¿Ð¸Ð»Ñı",
  "153": "ī",
  "235": "ar",
  "3279": "ered",
  "6897": "ĠÐ½Ð¾Ð²ÑĭÐ¹",
  "4630": "ĠÑĥÑģÑĤÐ°Ð½Ð¾Ð²Ð»ÐµÐ½",
  "6182": "Ġshutdown",
  "1794": "INET",
  "1956": "\\\",\\",
  "8765": "Run",
  "1818": "Ġswap",
  "4976": "ÐĺÐ¼Ñı",
  "7333": "OUBLE",
  "9903": "extent",
  "477": "ĠD",
  "4584": "FIN",
  "8976": "nType",
  "5220": "Ste",
  "447": "ÐµÑĤ",
  "5401": "Ġfcntl",
  "8736": "ĠÐ¡Ð¾ÑħÑĢÐ°Ð½",
  "5990": "Ð¸Ð°Ð½ÑĤ",
  "3147": "ĠMessage",
  "1389": "acket",
  "7986": "ĠisEqual",
  "9313": "sem",
  "3570": "ÑĩÐ¸Ðº",
  "8540": "leg",
  "9762": "ĠÐŁÐ¾Ð´Ð´",
  "9136": "Ġleast",
  "7757": "ĠSocket",
  "3614": "Ġscale",
  "7291": "Ġcipher",
  "1101": "cmath",
  "9173": "pipe",
  "2642": "ÑıÐ´",
  "9491": "lb",
  "1379": "client",
  "6283": "Algebra",
  "537": "Ð¸Ð¼",
  "7880": "ĠÐºÑįÑĪÐ°",
  "5300": "Ġdecorator",
  "8050": "Ġrooms",
  "9137": "loadState",
  "654": "ĠÐ·",
  "5664": "Ġrotate",
  "1483": "Ġside",
  "8727": "ĠAlignedBase",
  "7460": "ĠLimited",
  "4157": "Ð»ÐµÐºÑģ",
  "6951": "Ġabsolute",
  "9622": "ĠÐĶÑĢÑĥÐ¶ÐµÑģÑĤÐ²ÐµÐ½Ð½Ð°Ñı",
  "997": "ĠNode",
  "6453": "ĠÐ¸ÑģÐºÐ»ÑİÑĩ",
  "4745": "ĠÑģÐºÐ¸Ð´",
  "7488": "ÑĢÐ°Ð²Ð½ÐµÐ½Ð¸Ð¹",
  "9520": "ÑĤÑģÑı",
  "8257": "Ġ{{\\\"",
  "8186": "\\\"))",
  "9632": "scall",
  "8590": "addition",
  "4464": "Ġplugins",
  "3507": "ĠCalculator",
  "6040": "trics",
  "6596": "Ġunion",
  "5335": "Header",
  "8744": "FAULT",
  "6781": "nan",
  "1790": "Ġrequest",
  "4910": "ÐŁÑĢÐ¾Ð²ÐµÑĢÐºÐ°",
  "1385": "Ð¼ÐµÑĢ",
  "8890": "Ġparts",
  "8327": "987",
  "3939": "Ð¼ÐµÐ½Ð°",
  "7937": "oe",
  "8999": "ature",
  "9175": "sicState",
  "4563": "structor",
  "7025": "Ġrsa",
  "568": "ĠÐ¼",
  "8019": "ally",
  "712": "Ġfile",
  "3017": "ÐŁÐµÑĢÐ²",
  "1736": "bin",
  "1402": "Point",
  "3485": "ĠÑĢÐ°Ð²",
  "538": "om",
  "6427": "Ġoriginator",
  "9479": "Tri",
  "9100": "ĠminValue",
  "8176": "eter",
  "3258": "student",
  "9950": "ÐĺÑģÑħÐ¾Ð´Ð½ÑĭÐµ",
  "4926": "Reader",
  "6610": "ĠÐĳÐµÐ·Ð¾Ð¿Ð°Ñģ",
  "9394": "ĠArrayWrapper",
  "9231": "asSizeMethod",
  "3838": "Radius",
  "676": "Con",
  "220": "ÑĤ",
  "7903": "ĠAsyncTask",
  "8572": "Rep",
  "9645": "ĠÐ¿Ð¾Ð»Ð¾Ð²",
  "226": "ÑĢ",
  "1859": "olyn",
  "1495": "ÐºÐ°Ð·",
  "9971": "items",
  "7781": "Ð·Ð°Ðº",
  "6124": "ĠBitSet",
  "885": "eck",
  "2554": "Ġwords",
  "7709": "XX",
  "9685": "exponent",
  "2515": "ctime",
  "1761": "eighbor",
  "1237": "ead",
  "5184": "esar",
  "1636": "gest",
  "762": "Ð¸ÑĤÐµ",
  "6652": "coped",
  "2342": "Ġparent",
  "9624": "ĠOPEN",
  "9016": "Ġbn",
  "6455": "ĠAsync",
  "9828": "Ġntohs",
  "8380": "Ġindices",
  "3429": "Ġcard",
  "2274": "Ð½ÑĥÑİ",
  "2351": "ied",
  "5852": "Ġcom",
  "8771": "eat",
  "6266": "ĠÐºÐ¾ÑĤÐ¾ÑĢ",
  "4182": "Ð¸ÑĩÐµÑģÐºÐ°Ñı",
  "2398": "icient",
  "3266": "ĠSer",
  "1686": "ÐłÐ°Ð·",
  "7905": "Ġpredi",
  "5654": "ĠÑĥÐºÐ°Ð·Ð°ÑĤÐµÐ»ÐµÐ¹",
  "4120": "Ġanother",
  "12": ")",
  "3084": "refCount",
  "8493": "Ð¡Ð¿Ð¸ÑģÐ¾Ðº",
  "1059": "Ġ20",
  "1305": "ci",
  "8311": "ĠÐ²Ð¼ÐµÑģÑĤÐ¾",
  "4769": "ĠinUse",
  "7965": "Ġdep",
  "7645": "Ð°Ð¿ÑĢÐ°Ð²",
  "3091": "Current",
  "4270": "Ð¾Ð¶Ð´",
  "8556": "Ġol",
  "5730": "ĠTesting",
  "8165": "ÐµÐ¼Ð°",
  "1560": "oken",
  "1851": "inter",
  "3696": "Ġowner",
  "4600": "ismatch",
  "6624": "ĠÐ´ÐµÑĢÐµÐ²Ð°",
  "9185": "ĠÐºÐ»ÑİÑĩÐ°",
  "2154": "Ġminutes",
  "640": "ron",
  "4725": "ĠÐµÐ´Ð¸Ð½",
  "1401": "Ġlength",
  "9788": "ĠÐ°Ð½Ð°Ð³ÑĢÐ°Ð¼",
  "8610": "ÐłÐ°Ð´",
  "1944": "ater",
  "1897": "ud",
  "2104": "define",
  "5296": "getData",
  "9536": "Ġbudget",
  "7314": "ÐĲÐ²",
  "8623": "Ġ{\\\"\\\",",
  "3200": "Color",
  "9152": "Ġaccumulate",
  "9291": "nCreating",
  "3540": "TreeNode",
  "1202": "Ġnumbers",
  "1060": "...",
  "5541": "command",
  "2881": "Ġcompleted",
  "4429": "ving",
  "2545": "ÑĢÐ¸ÑĨÐ°ÑĤÐµÐ»ÑĮ",
  "6406": "432",
  "3595": "we",
  "1086": "igh",
  "1362": "De",
  "7612": "Ġgame",
  "9486": "_##",
  "411": "Ġ3",
  "9716": "ĠÐ´ÐµÐ»Ð¸ÑĤÐµÐ»",
  "5017": "ÑĢÐ°Ð´",
  "600": "uff",
  "8174": "ĠgetC",
  "1800": "ĠÐ¾",
  "5183": "terminant",
  "9081": "ĠÑĤÐµÐ¼Ð¿ÐµÑĢÐ°ÑĤÑĥÑĢÐ°",
  "7642": "ToRemove",
  "7295": "Ġ**",
  "8180": "ĠÐºÐ¾ÑĢÑĤ",
  "6751": "Ġ12345",
  "4004": "STRUCT",
  "5071": "setState",
  "9573": "ĠgetRadius",
  "1692": "AR",
  "3518": "Ġdestination",
  "4369": "Statistics",
  "1756": "Se",
  "1306": "ĠÐ¼Ð°ÑģÑģÐ¸Ð²",
  "2946": "Ð»Ð¾ÑīÐ°Ð´",
  "383": "ĠT",
  "3887": "Content",
  "7850": "Ġconstructed",
  "4660": "Ġenum",
  "699": "ach",
  "8072": "Before",
  "7674": "Substrings",
  "3715": "ĠÐ§",
  "7554": "Ġtxn",
  "4531": "compare",
  "6114": "BinaryOp",
  "5518": "ĠÐ²ÐµÑĢÑĪÐ¸Ð½Ñĭ",
  "8214": "prover",
  "4044": "ĠÐ¿Ð°",
  "2699": "Ġworker",
  "2520": "IT",
  "947": "fe",
  "6014": "GET",
  "1423": "ĠÐł",
  "3600": "Ġpi",
  "8162": "Ġlambda",
  "182": "Ġ<",
  "189": "co",
  "4699": "Computations",
  "7665": "Ġintern",
  "4484": "iddle",
  "5469": "Smart",
  "3641": "ipher",
  "5222": "bn",
  "2823": "14159",
  "3197": "ÐľÐ°ÑģÑģÐ¸Ð²",
  "2818": "ĠÐ¿ÑĥÑģÑĤ",
  "3397": "Ġquery",
  "6064": "ĠcurrentTemp",
  "7982": "Ġtruck",
  "5063": "ÑĩÐ°Ð½Ð¸Ñİ",
  "3611": "ĠÑģÑģÑĭÐ»ÐºÐ°",
  "7201": "ĠtargetTemp",
  "8643": "eventData",
  "9565": "arrPtr",
  "5833": "inanc",
  "817": ".\\\"",
  "7841": "Ġtransfer",
  "9506": "Ġarrival",
  "3299": "nÐĶ",
  "6307": "Ġgenerator",
  "584": "Ġ&&",
  "1515": "event",
  "1014": "attern",
  "5097": "Ð¾ÑģÑĤÐ°ÑĤÐ¾ÑĩÐ½Ð¾",
  "1433": "Index",
  "9009": "Ð»Ð¾Ð²",
  "6617": "mulate",
  "289": "size",
  "7450": "ĠÐ¸ÑģÑĤ",
  "1822": "nums",
  "3014": "ĠValid",
  "5460": "-%",
  "3945": ")>",
  "6382": "150",
  "1542": "Ġpoint",
  "8971": "cross",
  "2710": "Ð¸ÐºÐ°",
  "9652": "Dele",
  "2438": "Ð°Ð»Ð¸Ð·Ð°ÑĨÐ¸Ñı",
  "5639": "ÐļÐĲ",
  "4501": "ribution",
  "2210": "exp",
  "6471": "ÐĿÐ«",
  "2095": "Ġweight",
  "6202": "Ð¿ÑĢÐ¾Ñī",
  "1830": "Process",
  "5261": "Ġcodes",
  "9302": "ense",
  "7957": "theta",
  "4400": "Ġreference",
  "4604": "Ġ300",
  "6546": "Virtual",
  "3070": "undo",
  "1336": "ÐŁÑĢ",
  "1261": "isited",
  "9904": "rown",
  "1357": "Ġdisplay",
  "1852": "Ġact",
  "2403": "Ġus",
  "2661": "Ġmemory",
  "5668": "Ð¸ÑĤÐµÑĢÐ°Ð»",
  "4754": "Rating",
  "7252": "ĠCoffeeDecorator",
  "6255": "ĠCOL",
  "5142": "ÐµÐ²Ð¾Ð¹",
  "888": "ĠĠĠĠĠĠĠĠĠĠĠĠ",
  "3512": "Ð±Ð¾ÑĢ",
  "8782": "Ġistringstream",
  "1177": "Exp",
  "1921": "ÑĥÐ³Ð¾Ð»ÑĮ",
  "659": "char",
  "470": "are",
  "4242": "Ġlcs",
  "6439": "Ġsound",
  "352": "ĠÐ¿",
  "5181": "addable",
  "4651": "velo",
  "7789": "best",
  "9485": "^(-",
  "6527": "SoFar",
  "534": "ÐĴ",
  "9077": "ĠmaxDigit",
  "3380": "Ð°ÑĢÑĤ",
  "2025": "Ð¾ÑĢÐ¼",
  "259": "Ġc",
  "7995": "ĠÐ¿ÑĢÐ¾Ð¼",
  "7367": "ÑĦÐ¸Ð³ÑĥÑĢÐ°",
  "8960": "Press",
  "5231": "ĠSuffix",
  "2591": "ĠÐĶÐ¾Ð±Ð°Ð²",
  "8471": "ĠÐ¾ÑĤÐºÑĢÑĭÑĤÑĮ",
  "9607": "ĠÐ¡Ð¸Ð¼ÑĥÐ»ÑıÑĨÐ¸Ñı",
  "9931": "Arrays",
  "89": "v",
  "7098": "EY",
  "2575": "remove",
  "7571": "Wait",
  "3790": "att",
  "7833": "DEBUG",
  "8789": "Ġvs",
  "8982": "vars",
  "7447": "ĠÐºÐ¾Ð»",
  "8774": "nG",
  "5473": "oth",
  "9543": "streampos",
  "7662": "cstdio",
  "1496": "ixed",
  "5057": "Ġmultiplier",
  "7782": "Ġconfirm",
  "7371": "44",
  "7816": "Indexed",
  "2006": "ĠU",
  "3588": "CC",
  "2923": "OL",
  "7032": "Ġcompile",
  "1541": "ÑĭÐ²",
  "1252": "sock",
  "9390": "ĠÐ¸Ð·Ð¼ÐµÐ½ÐµÐ½Ð¸Ð¹",
  "8543": "Ġfraction",
  "8146": "Ġcal",
  "7723": "Ġ\\\"\\\");\\",
  "8831": "ĠMin",
  "2580": "Start",
  "9705": "ĠNetworkConnection",
  "4758": "safe",
  "8728": "Ġdependencies",
  "8725": "Ð¾Ð½ÐµÐ½ÑĤÑĭ",
  "4481": "Ġmedi",
  "6848": "atisfied",
  "6178": "Algorithm",
  "1185": "Ġlog",
  "6696": "Ð±ÑĭÐ²",
  "6870": "stoi",
  "7209": "loadPlugin",
  "3788": "\\\"},",
  "2655": "Ġremove",
  "3802": "ĠÑģÑĤÑĢÐ¾ÐºÐ¸",
  "6221": "ISS",
  "3578": "ÑįÑĪ",
  "8325": ")++;\\",
  "3871": "olute",
  "3417": "Ġusers",
  "5377": "ÐµÑĢÐµÐ´ÑĮ",
  "9733": "BLOCKS",
  "7614": "ĠMIN",
  "3207": "Ġlo",
  "2596": "Rate",
  "10": "'",
  "6699": "ĠRatio",
  "1228": "Ð»Ð¸",
  "4705": "ansitions",
  "8788": "Ġmileage",
  "3373": "STREAM",
  "2242": "42",
  "6296": "Tests",
  "8524": "srand",
  "9221": "Ð¸Ð½ÐµÐ¹Ð½Ð¾Ðµ",
  "2553": "ĠConfig",
  "1936": "setw",
  "452": "Co",
  "6900": "ĠgetRegistry",
  "7454": "ĠÑĤÐ°Ð±Ð»",
  "2393": "ediator",
  "475": "St",
  "7180": "ĠÑĥÑĢÐ°Ð²Ð½ÐµÐ½Ð¸Ñı",
  "4023": "Ġlight",
  "9511": "Ġstrip",
  "9134": "ĠÐ»ÑıÐ¼Ð±",
  "3902": "Ġ80",
  "5466": "Factorial",
  "6571": "Ð´ÐµÐ¼",
  "1164": "Ġdp",
  "7440": "html",
  "2682": "Ġtra",
  "4894": "Ð¾ÑģÑĤÐ°ÑĤÐ¾Ñĩ",
  "2898": "hold",
  "2649": "ĠÐ¾Ð¿ÐµÑĢ",
  "4130": "Iterator",
  "9672": "ĠÐ¿Ð¾Ð´Ð¿Ð¾ÑģÐ»ÐµÐ´Ð¾Ð²Ð°ÑĤÐµÐ»ÑĮ",
  "4050": "Ð¸ÑģÐºÐ°",
  "9214": "Ġinverted",
  "2907": "account",
  "7471": "rength",
  "6553": "nlong",
  "1985": "Ġstop",
  "9926": "ÐļÐĺ",
  "6351": "Ġ{-",
  "2579": "Ġinvalid",
  "2751": "Ġ200",
  "249": "Ġcout",
  "4796": "!=(",
  "5856": "ĠÐ½Ð¾Ð¼ÐµÑĢ",
  "4835": "&&...",
  "6412": "Generic",
  "7678": "detailed",
  "4059": "Primes",
  "744": "Ġid",
  "9004": "ÑĤÐ¸Ð¼",
  "9742": "Shelf",
  "2460": "ÐºÐ»ÑİÑĩ",
  "4000": "ĠÐ¼Ð¾Ð¶Ð½Ð¾",
  "5771": "Ġinner",
  "6083": "Ð¸ÑĢÐ¾Ð²Ð°Ð½Ð½Ð°Ñı",
  "4649": "Ġoptional",
  "4286": "regex",
  "1835": "oper",
  "3217": "Ð°ÑģÑģÑĤ",
  "4196": "Ġmet",
  "7418": "Ġsingle",
  "5140": "Ð¢ÐµÑģÑĤ",
  "1990": "Circle",
  "4077": "andid",
  "2165": "fs",
  "1100": "Ð°ÑģÑģÐ¸Ð²",
  "5125": "itions",
  "9524": "Ġmultiplication",
  "7884": "Closed",
  "7728": "()->",
  "9396": "ĠÐ·Ð°Ð²ÐµÑĢÑĪÐµÐ½",
  "5842": "ritical",
  "6326": "Coordinate",
  "7240": "ĠreceivedData",
  "4301": "mento",
  "2256": "posit",
  "8595": "ĠÐ¼Ð½Ð¾Ð¶ÐµÑģÑĤÐ²",
  "1697": "filename",
  "9101": "ĠminRight",
  "6198": "allel",
  "3961": "Ġconvert",
  "1471": "man",
  "5360": "rightness",
  "8860": "Ġallow",
  "3300": "dec",
  "5026": "fail",
  "9599": "Execute",
  "391": "npublic",
  "2770": "];",
  "9939": "ĠÑģÑĤÐ°Ð½Ð´Ð°ÑĢÑĤ",
  "906": "tainer",
  "7981": "ĠÐºÑĢÐ°ÑĤ",
  "9755": "Equals",
  "4373": "Ġnodes",
  "3909": "ĠSerializ",
  "3095": "Ġ\\\"(\\\"",
  "8379": "ĠÐ½Ð¾ÑĢÐ¼",
  "5009": "Ġweak",
  "1468": "apacity",
  "1430": "iseconds",
  "4192": "TH",
  "1091": "ill",
  "1789": "AN",
  "4575": "Checker",
  "5248": "Ġsequence",
  "5246": "ody",
  "5683": "share",
  "940": "rom",
  "2431": "]++;\\",
  "9449": "='\\\"",
  "3270": "Ġzero",
  "2362": "30",
  "8177": "Stock",
  "8777": "tcp",
  "8833": "ÑģÐ»ÐµÐ´",
  "2378": "ÐĶÐ¾",
  "6766": "reversed",
  "929": "Ch",
  "2601": "ENT",
  "3461": "heit",
  "3042": "Ð¼Ð½Ð¾Ð¶",
  "1150": "')",
  "5976": "ÐŁÑĢÐ¸Ð²",
  "6316": "ĠÐ¸ÑģÐ¿Ð¾Ð»ÑĮÐ·Ð¾Ð²Ð°Ð½Ð¸Ñı",
  "5053": "recursive",
  "3860": "Ġallocate",
  "1653": "orld",
  "6913": "ĠÑĥÐ±ÑĭÐ²",
  "5675": "Msg",
  "4126": "ÐµÐ²ÐµÑĢÐ½ÑĭÐ¹",
  "5908": "ĠÑĤÑĢÐµÑĥÐ³Ð¾Ð»ÑĮÐ½Ð¸ÐºÐ°",
  "8989": "Ġeratosthenes",
  "4959": "Ġodd",
  "3718": "ĠService",
  "9325": "Ð²ÑĢÐ°ÑĤ",
  "6563": "construct",
  "8054": "Shift",
  "4055": "2024",
  "4197": "Ġmutable",
  "5418": "indent",
  "8001": "Ġkopecks",
  "9105": "ĠReference",
  "3267": "ĠSquare",
  "7153": "isAvailable",
  "2955": "irc",
  "46": "K",
  "5277": "Fahrenheit",
  "3164": "ĠTransaction",
  "1908": "Ġcapacity",
  "2513": "Ð½Ð¾Ð¶",
  "4339": "Ġhistory",
  "5626": "ĠBuffer",
  "8033": "ĠÑĤÑĢÐµÐ±",
  "9347": "ĠprintStatus",
  "3872": "Ð²ÐµÑĤ",
  "1037": "ange",
  "8916": "ĠÑĢÐµÑģÑĥÑĢÑģÐ°",
  "1638": "Pool",
  "5489": "nput",
  "9759": "ĠsaveResult",
  "1879": "ĠStudent",
  "3693": "Ġfail",
  "1011": "cm",
  "8032": "lying",
  "6685": "ÐĴÑĢÐµÐ¼Ñı",
  "2717": "ĠÑħ",
  "7742": "Ġcube",
  "7768": "Counted",
  "8211": "ĠWeak",
  "1139": "Ġdefault",
  "1596": "utes",
  "3268": "ecut",
  "9256": "5000",
  "6329": "apability",
  "6893": "utoff",
  "3850": "Ð¸ÑĤÐµÐ»",
  "769": "bj",
  "3163": "ĠÑĤÑĢÐµ",
  "7999": "ÐłÐµÑģÑĥÑĢÑģ",
  "1161": "Ġ\\\":",
  "3018": "ÐŃÐ»ÐµÐ¼ÐµÐ½ÑĤ",
  "1776": "lags",
  "71": "d",
  "5549": "Ġostream",
  "8517": "VECTOR",
  "2053": "Ð¾Ñī",
  "1681": "Un",
  "1926": "Ġsc",
  "9923": "Provider",
  "4750": "ĠÐ²ÑĭÑĩÐ¸ÑģÐ»ÐµÐ½Ð¸Ñı",
  "1462": "Ġser",
  "7784": "ÑĢÐ¾Ð²ÐµÐ½ÑĮ",
  "4734": "Ġdepth",
  "5659": "Ġfields",
  "8651": "scribers",
  "8558": "ÑĥÐµÑĤÑģÑı",
  "5919": "ĠÐ¼Ð¾Ð´Ð¸ÑĦÐ¸ÐºÐ°ÑĨÐ¸Ð¸",
  "5200": "Addr",
  "4152": "Not",
  "7738": "Ġvariable",
  "576": "Ð»Ñı",
  "8894": "TRANS",
  "1097": "100",
  "6801": "Ð·Ð½Ð°Ñĩ",
  "9194": "ĠÐºÐ½Ð¸Ð³Ð°",
  "2072": "Ġtree",
  "6702": "today",
  "4701": "rected",
  "3685": "Ġserialize",
  "1525": "ÑĥÑĤ",
  "4664": "Ġatt",
  "4121": "ÐŁÑĢÐ¾",
  "7204": "topIndex",
  "279": "Ġma",
  "6213": "ÐĴÐ¾Ð·ÑĢÐ°ÑģÑĤ",
  "4185": "ĠÐ²Ð¾Ð·Ð²ÑĢÐ°Ñī",
  "2478": "denominator",
  "4497": "ĠResourceHolder",
  "8354": "cost",
  "9135": "nextId",
  "3596": "Ġuni",
  "2827": "ĠÑıÐ²Ð»ÑıÐµÑĤÑģÑı",
  "9890": "ÐµÐ¼Ð¿",
  "9495": "natomic",
  "507": "ow",
  "6129": "Ð·Ð²Ð»ÐµÑĩ",
  "2387": "Ð¤",
  "5044": "OP",
  "3734": "Ġfront",
  "3700": "1000",
  "4985": "Ġ'\\\\\\\"",
  "7549": "inancialAccount",
  "6059": "printStatus",
  "5486": "ĠĠĠĠĠĠĠĠĠĠ",
  "9131": "Ġcheckpoint",
  "4608": "Example",
  "4358": "Tag",
  "7970": "setValue",
  "3056": "Seconds",
  "6970": "ĠÐ·Ð°ÐºÐ°Ð·Ð¾Ð²",
  "4264": "ries",
  "8927": "Cyclic",
  "1165": "ER",
  "4100": "Ð½ÐµÑĢ",
  "7123": "xor",
  "7141": "Ġaggregate",
  "5148": "Ġpartition",
  "9619": "ToPtr",
  "4033": "ĠÐ¿Ð¾Ð»Ð¾Ð¶Ð¸ÑĤÐµÐ»ÑĮÐ½ÑĭÐ¼",
  "5931": "ĠÂ",
  "8587": "ĠMODE",
  "5515": "AGE",
  "6193": "ĠÑĥÐ´Ð°Ð»Ð¾ÑģÑĮ",
  "6183": "ĠÐłÐķ",
  "9825": "ÐµÐ»ÐµÑĦÐ¾Ð½",
  "4592": "Ġstream",
  "5351": "Ġindent",
  "4415": "ĠÑĢÐµÑģÑĥÑĢÑģ",
  "7579": "Ġ\\\"!",
  "782": "Ġ6",
  "9203": "strongRefs",
  "325": "pe",
  "204": "Ð°",
  "2208": "ĠÐĲ",
  "8459": "ĠÐ·Ð°Ð²ÐµÑĢÑĪÐ¸Ð»",
  "1516": "next",
  "5962": "acter",
  "3309": "Ġ\\\"================",
  "192": "::",
  "213": "end",
  "9591": "Ġexchange",
  "9781": "FILENO",
  "1120": "Ð°ÑĨÐ¸Ñı",
  "9219": "BinaryOpNode",
  "9086": "oscow",
  "1919": "Inte",
  "194": "en",
  "3807": "nÐŁÑĢÐ¸Ð¼ÐµÑĢ",
  "6009": "Cipher",
  "3985": "ĠHandler",
  "2879": "Ð¾Ð±Ñī",
  "9960": "localhost",
  "651": "Ġ<=",
  "3323": "ĠÐ¿Ð¾ÑĢÑıÐ´",
  "7459": "ĠLength",
  "410": "nusing",
  "9402": "ĠÐ¿Ð¾ÑĢÑıÐ´ÐºÐ°",
  "5": "\"",
  "3155": "oice",
  "1639": "Ġshared",
  "8770": "dst",
  "7113": "eels",
  "6241": "rees",
  "9190": "NetworkPacket",
  "6944": "ĠÐ´Ð¾Ð»Ð¶Ð½Ñĭ",
  "5206": "itespace",
  "8304": "ĠAudioSample",
  "489": "Ġg",
  "7340": "ĠÐ·Ð°Ð²ÐµÑĢÑĪÐµÐ½Ð¸Ñı",
  "5001": "Lo",
  "7909": "ĠPermissionSet",
  "9816": "ÐĳÐµÐ·Ð¾Ð¿Ð°ÑģÐ½Ð¾Ðµ",
  "6748": "Ġcatal",
  "2126": "Ð½Ð¾Ð²",
  "2685": "Ġss",
  "2429": "ification",
  "9740": "ĠÑĢÐµÐ°Ð»Ð¸Ð·Ð°ÑĨÐ¸Ð¸",
  "2547": "Ð¾Ð¸ÑģÐº",
  "4307": "ĠÐ¾ÑĤÑģÐ¾ÑĢÑĤÐ¸ÑĢÐ¾Ð²Ð°Ð½",
  "2555": "Ð½ÑĭÐ¼Ð¸",
  "6601": "ÑĥÐ³Ð¾Ð»ÑĮÐ½ÑĭÐ¹",
  "6605": "ĠÐ²Ð¾Ð·Ð¼Ð¾Ð¶",
  "987": "ĠÐĴ",
  "4635": "City",
  "7640": "fahrenheit",
  "6866": "xed",
  "6745": "ÐľÐ°ÐºÑģÐ¸Ð¼Ð°Ð»ÑĮÐ½ÑĭÐ¹",
  "3218": "Ð¾Ð¿Ð°Ñģ",
  "6772": "Pow",
  "5784": "Ġ64",
  "882": "nect",
  "8250": "ĠÐ¼ÐµÑĤÐ¾Ð´Ð¾Ð¼",
  "2524": "getName",
  "4258": "bad",
  "5331": "02",
  "5978": "ĠResourcePool",
  "7222": "ĠInventory",
  "7849": "Control",
  "2358": "Counter",
  "2237": "ÑĥÐ³Ð¾Ð»ÑĮÐ½Ð¸Ðº",
  "5840": "Ġbin",
  "6012": "Filter",
  "3755": "Ġdoor",
  "6659": "clic",
  "2692": "Out",
  "8754": "ircuitBreaker",
  "171": "Ľ",
  "1265": "Int",
  "7773": ">('",
  "7152": "ÑģÑĤÐ¾Ð¹",
  "5733": "nÐŁÑĢÐ¾Ð²ÐµÑĢÐºÐ°",
  "5603": "So",
  "2594": "ĠCar",
  "7318": "RED",
  "8709": "Ġcreators",
  "984": "text",
  "3024": "ĠÑĤÐ¸Ð¿Ð°",
  "9404": "ĠMetrics",
  "1269": "ded",
  "3301": "uest",
  "497": "and",
  "7877": "Ð»Ð¾Ð¶ÐµÐ½Ð¸Ðµ",
  "6498": "conditional",
  "5004": "vi",
  "1377": "All",
  "6489": "ariance",
  "3602": "getInstance",
  "8474": "ÐŁÑĢÐ¾ÑĨ",
  "5776": "ĠisLeap",
  "3777": "1234567",
  "5616": "Ġbig",
  "3993": "ĠLog",
  "2840": "par",
  "7690": "ĠÐ¿ÑĥÑĤÐ¸",
  "7830": "eratosthenes",
  "5884": "Ġatomic",
  "1233": "Ġsw",
  "1983": "pted",
  "7456": "ĠField",
  "8611": "ĠminInsertions",
  "2526": "nconstexpr",
  "3406": "Ġperson",
  "995": "Ġroot",
  "1481": "andle",
  "8152": "ristma",
  "5314": "ĠIP",
  "349": "ÐµÑĢ",
  "1531": "ĠÐľ",
  "8692": "Ð´Ð²Ð¾",
  "601": "able",
  "9795": "ĠdocsBy",
  "5770": "Ġhealth",
  "3211": "arm",
  "6919": "ĠtestData",
  "9822": "ĠÐ¡Ð¾ÑħÑĢÐ°Ð½ÑıÐµÐ¼",
  "4330": "arri",
  "2903": "method",
  "1141": "Base",
  "4729": "Ġtimer",
  "2707": "Ġ{{",
  "3321": "Ġdigit",
  "4875": "ERROR",
  "2924": "ULL",
  "9804": "Ġcatalan",
  "9442": "Ð¦ÐĺÐ¯",
  "4942": "limit",
  "3219": "Ð¾ÑĩÐºÐ°",
  "127": "Â",
  "3826": "typeinfo",
  "9363": "ĠhasNext",
  "761": "Name",
  "8340": "Session",
  "360": "->",
  "229": "ing",
  "8828": "abb",
  "512": "Ð°Ð»",
  "4867": "apply",
  "8432": "ĠÑģÐ¾Ð·Ð´Ð°Ð½Ð¸Ñı",
  "5759": "fir",
  "1792": "ĠÐ½Ð°Ð¹Ð´ÐµÐ½",
  "367": "ra",
  "5100": "ASE",
  "5365": "ĠOperation",
  "7245": "uleOfFive",
  "5895": "ollars",
  "274": "ze",
  "96": "}",
  "2292": "Ġ\\\"*",
  "6963": "bstraction",
  "4790": "diff",
  "1598": "ÐµÑĤÐ¾Ð´",
  "4844": "ÐŁÐµÑĢÐ²ÑĭÐ¹",
  "1752": "ence",
  "8193": "Ð¾Ð¼ÐµÑĤÑĢ",
  "1838": "uccess",
  "6102": "ĠdaysInMonth",
  "5174": "strcpy",
  "4209": "ĠDocument",
  "5408": "Ġ23",
  "9537": "Ġsolve",
  "2643": "ÑĭÑħ",
  "8485": "ĠÑĩÑĤÐ¾Ð±Ñĭ",
  "8128": "vable",
  "1084": "Ġ[",
  "6554": "ostringstream",
  "7848": "ĠÐŁÐµÑĢÐµÐ´Ð°ÑĩÐ°",
  "1878": "Ð°Ð¼Ð¸",
  "2334": "Ð°Ð±Ð»",
  "7016": "admin",
  "4318": "!\\\";\\",
  "5491": "Ð°Ð½Ð½ÑĭÐµ",
  "2585": "*)&",
  "3145": "ĠTree",
  "9445": "ĠÐ¿Ð¾Ð»ÑĮÐ·Ð¾Ð²Ð°ÑĤÐµÐ»ÑĮÑģÐºÐ¸Ð¼",
  "6703": "Ð¾ÑģÑĤÐ¸",
  "4310": "crypt",
  "6514": "ĠÐ¨Ð°Ð³",
  "4221": "Overdue",
  "3532": "Ġchange",
  "7540": "ECTOR",
  "5607": "olog",
  "9830": "ĠMechanic",
  "5832": "ĠÐµÑģÑĤÑĮ",
  "6169": "Ġ50000",
  "3292": "ĠNumber",
  "2758": "My",
  "3": "<EOS>",
  "7646": "Ð¸ÑĤÐµÐ»ÑĮÐ½Ð¾",
  "4715": ".\\\\",
  "9784": "secting",
  "6946": "racket",
  "1774": "TI",
  "6186": "ĠsideC",
  "5610": "tom",
  "1413": "alloc",
  "2720": "\\\"},\\",
  "4857": "nion",
  "8082": "ĠÐ²Ð²ÐµÐ»Ð¸",
  "8683": "cacheList",
  "7364": "ĠTrafficLight",
  "7974": "Ġnumeric",
  "3094": "block",
  "2990": "89",
  "3782": "OD",
  "6707": "',\\",
  "314": "Ġe",
  "2082": "league",
  "8741": "ĠPasswordManager",
  "3408": "ates",
  "4677": "NT",
  "7097": "Dec",
  "7570": "Sensor",
  "3005": "**",
  "4208": "ĠDog",
  "8302": "adratic",
  "4749": "Ġ\\\"================================",
  "923": "mplex",
  "3863": "';",
  "4797": "Final",
  "1156": "stance",
  "3177": "Record",
  "6109": "Interests",
  "3645": "Ġssize",
  "6787": "Ġdummy",
  "1619": "Ġ\\\"-",
  "4338": "Ġdemon",
  "5205": "ircuit",
  "6210": "ĠPrinter",
  "2085": "Ġseconds",
  "3415": "ÑıÑĤÑĮ",
  "1439": "mail",
  "6539": "HTTP",
  "2871": "ĠĠĠĠĠĠĠĠĠĠĠĠĠĠĠĠĠĠĠĠĠ",
  "9414": "ĠObjectPool",
  "112": "±",
  "2782": "ÑģÑĤÐ°Ð½Ð¾Ð²",
  "7578": "Ġctime",
  "6446": "Ġ\\\"\\\\\\\\",
  "5134": "ĠRAII",
  "7266": "ĠÐ¿Ð¾Ð´Ð¼Ð½Ð¾Ð¶ÐµÑģÑĤÐ²",
  "5051": "view",
  "1172": "12",
  "1010": "ET",
  "811": "isit",
  "78": "k",
  "7366": "ĠHashTable",
  "1326": "Ġsh",
  "3649": "Ġincrement",
  "2627": "ÑĥÑĢÑģ",
  "9528": "Ġdamage",
  "5111": "ÐĻ",
  "1579": "Sub",
  "9653": "ENERATE",
  "2913": "item",
  "4116": "ÐĺÐ½",
  "5124": "tell",
  "7283": "intPtr",
  "869": "ans",
  "7933": "fg",
  "7012": "thing",
  "5424": "plit",
  "8027": "ĠProxy",
  "3759": "olar",
  "4": "!",
  "8107": "]]++;\\",
  "5068": "Ġcoffee",
  "8398": "Ð°Ð½Ð¸Ð¸",
  "1940": "Ġresource",
  "4597": "Ġcur",
  "4694": "tern",
  "8012": "prefix",
  "8930": "ĠÐŁÑĢÐ¾ÑģÑĤÐ°Ñı",
  "5870": "ĠÑĥÑģÐ»Ð¾Ð²",
  "190": "Ġst",
  "5368": "And",
  "4741": "ĠÐ²ÑĭÐ²Ð¾Ð´",
  "3193": "Ġgre",
  "9556": "Ġlis",
  "1655": "ÑĥÐ¿",
  "9383": "ĠÑĨÐµÐ¿",
  "6413": "Heap",
  "7968": "Ġheuristic",
  "7946": "replace",
  "5850": "ĠÑģÐ´Ð²Ð¸Ð³",
  "9657": "curity",
  "9712": "ĠcomputeLPS",
  "1456": "not",
  "7284": "endif",
  "6712": "Ġsocklen",
  "2280": "After",
  "9965": "ĠangleRadians",
  "7057": "cents",
  "432": "ht",
  "8644": "Ġlearning",
  "1106": "ST",
  "9910": "ĠprintMatrix",
  "2902": "Ġsorted",
  "974": "Ð¾ÑģÐ»Ðµ",
  "9286": "eather",
  "9052": "employee",
  "877": "sign",
  "8048": "ĠÐĶÐ¾Ð¿Ð¾Ð»Ð½Ð¸ÑĤÐµÐ»ÑĮÐ½Ð°Ñı",
  "5960": "response",
  "973": "cin",
  "8762": "MenuItem",
  "3754": "Ġversion",
  "605": "cess",
  "9090": "location",
  "4163": "Ġ--",
  "4172": "Ġ45",
  "2323": "ĠÐ´Ð°Ð½",
  "8688": "ĠÐ²ÑĤÐ¾ÑĢÐ¾Ðµ",
  "1684": "Ð¾ÑĤÐ¾Ðº",
  "373": "(\\\"",
  "9704": "Ġdividend",
  "8997": "()/",
  "3974": "ĠÐ¿Ð¾Ð·Ð¸ÑĨÐ¸Ð¸",
  "1219": "ateg",
  "2523": "ÐµÐ½Ð¾",
  "9468": "Lay",
  "2013": "Ġpq",
  "3379": "Ð¸ÐºÑģ",
  "3971": "ÑĭÐ²Ð°ÐµÐ¼",
  "6419": "^\\\"",
  "7566": "Head",
  "7499": "Ð¸ÑĢÑĥÑİÑī",
  "6806": "ĠÑĥÐ³Ð¾Ð»",
  "9263": "Click",
  "1231": "Ac",
  "520": "Ġtr",
  "8867": "compress",
  "7961": "ĠÐ¿Ð°ÑĤ",
  "5028": "Ġbooks",
  "2618": "ptional",
  "2355": "Ð¾Ð²ÑĭÐ¹",
  "87": "t",
  "9639": "UserService",
  "8988": "ĠÂ°",
  "1609": "Logger",
  "8109": "_;\\",
  "5398": "Ġ(-",
  "2775": "ĠÐ¿Ð¾Ð²",
  "3384": "Det",
  "7699": "LBuffer",
  "2768": "ĠÐ·Ð½Ð°ÑĩÐµÐ½Ð¸Ñı",
  "5545": "sis",
  "465": "Ġget",
  "3682": "nown",
  "4288": "Ġcannot",
  "5223": "json",
  "518": "ction",
  "3908": "Original",
  "4636": "DP",
  "6437": "Ġparen",
  "273": "ic",
  "3772": "Subsets",
  "2626": "Ġprev",
  "9475": "Middle",
  "6497": "ElementB",
  "3828": "sides",
  "7531": "ĠÑĢÐ°Ð·ÑĢÑĥÑĪÐµÐ½Ð°",
  "178": "ĠĠ",
  "5070": "Ð¾Ð»ÑĩÐ°Ð½Ð¸Ñİ",
  "2376": "typeid",
  "949": "Ð½Ð¾Ðµ",
  "3612": "ĠINF",
  "7020": "Ġdecrement",
  "6235": "tected",
  "2687": "accept",
  "9769": "Ġ'.'",
  "3921": "Ġ\"",
  "345": "is",
  "8251": "ĠÐ¿Ð¾Ð»Ð¾Ð¶Ð¸ÑĤÐµÐ»ÑĮÐ½ÑĭÐ¼Ð¸",
  "7643": "Ð¸Ð±Ð¾Ð»ÑĮÑĪ",
  "3753": "ĠÐŃ",
  "9560": "Ġdeveloper",
  "5986": "ĠSmartArray",
  "2500": "utton",
  "1698": "year",
  "5329": "ÐľÐ¸Ð½Ð¸Ð¼Ð°Ð»ÑĮ",
  "944": "nstruct",
  "3490": "scribe",
  "323": "\\\\",
  "7170": "Ð°Ð»Ð¾",
  "6872": "ÐµÑģÑĤÑĢÑĥÐºÑĤÐ¾ÑĢ",
  "9427": "Ġwriter",
  "6855": "IUM",
  "9434": "ĠÐ½ÐµÑģÐºÐ¾Ð»ÑĮÐºÐ¸Ñħ",
  "6835": "ĠÐ°Ð²ÑĤÐ¾ÑĢ",
  "9123": "Ġcontact",
  "3394": "ified",
  "8559": "rocal",
  "7060": "Ġsquares",
  "9610": "Ġcompression",
  "2866": "ĠÑĩÐ°ÑģÑĤ",
  "4952": "ÑģÐºÐ»ÑİÑĩ",
  "716": "loc",
  "904": "ute",
  "3775": "Ġ#\\\"",
  "3574": "ĠMath",
  "6032": "ured",
  "1398": "itle",
  "4075": "Common",
  "4566": "Ð»Ð¸ÐµÐ½ÑĤ",
  "946": "Ġ};\\",
  "8594": "ĠisNegative",
  "8433": "Ġdisconnected",
  "608": "ight",
  "222": "ĠĠĠĠĠĠĠĠĠĠĠ",
  "7007": "connection",
  "2018": "precision",
  "5795": "ĠÐ¸Ð½ÑĤÐµÑĢ",
  "8245": "Any",
  "84": "q",
  "3847": "ĠÐ¿ÑĢÐ¾Ð²ÐµÑĢ",
  "8678": "ĠabsB",
  "8973": "ior",
  "7438": "ĠÐ½ÐµÐºÐ¾ÑĢÑĢÐµÐºÑĤ",
  "753": "ers",
  "372": "ĠÑģ",
  "8712": "Ġ\\\"{\\\\\\\"",
  "8679": "ĠmyList",
  "2090": "ĠDe",
  "5497": "ĠÐ·Ð°Ð¼",
  "5260": "Ð°Ð»Ð¸Ð·Ð°ÑĨÐ¸Ð¸",
  "2933": "ĠÐ¿Ð¾Ð·Ð¸",
  "7822": "sumer",
  "7121": "smart",
  "3302": "Ġbuild",
  "720": "cast",
  "4103": "Ġremo",
  "639": "rig",
  "3442": "Allocator",
  "4297": "ĠÐ½ÐµÑĤ",
  "902": "ork",
  "6377": "andling",
  "8901": "ĠÑĤÑĢÐµÑħ",
  "3958": "Ð°Ð»Ð°Ð½Ñģ",
  "7169": "Store",
  "3133": "Ð´Ð¸Ð½",
  "3192": "ĠÐ´Ð¾ÑģÑĤÑĥÐ¿",
  "3188": "Ġsrc",
  "6101": "pository",
  "5922": "Oper",
  "3741": "Ð¶Ðµ",
  "9980": "ĠTransactional",
  "8222": "allocated",
  "431": "Ġauto",
  "3215": "ĠÐ²ÑĤÐ¾ÑĢ",
  "2223": "ume",
  "5513": "ĠÐ´Ð²Ñĥ",
  "3543": "NO",
  "3584": "Ġstudents",
  "3608": "Ð¢ÐµÐº",
  "5173": "ĠSSL",
  "8801": "getCount",
  "5902": "Ġ__",
  "5468": "Multiply",
  "3319": "tv",
  "2453": "Ġelements",
  "657": "ine",
  "1735": "Qu",
  "3431": "ĠSub",
  "7155": "(\\\".",
  "3457": "ĠOr",
  "1687": "ner",
  "8646": "ĠstudentId",
  "3821": "uld",
  "2510": "Ð¦",
  "8629": "Ð¾ÑĩÐ¸ÑģÐ»",
  "9150": "ickness",
  "2636": "ĠÑįÐ»ÐµÐ¼ÐµÐ½ÑĤÐ¾Ð²",
  "9068": "ÐĴÐ¾Ñģ",
  "3906": "Ð¸Ð¼Ð¾ÑģÑĤÑĮ",
  "850": "duct",
  "74": "g",
  "5738": "Ġreduce",
  "722": "if",
  "8455": "ĠÐ¿Ð¾ÑĤÐ¾ÐºÐ¸",
  "6807": "Ð¸Ð½Ð¾Ð¼",
  "8847": "ĠcurrentPath",
  "3691": "wo",
  "7354": "Ð¾Ð³ÑĢÐµÑģÑģ",
  "1894": "Ġoriginal",
  "6146": "build",
  "221": "al",
  "1125": "sub",
  "3586": "Ġedges",
  "6597": "ostgre",
  "2156": "Ġswitch",
  "610": "void",
  "3280": "mul",
  "9996": "Ġgroups",
  "7416": "Ġpolar",
  "1909": "ING",
  "8639": "ĠÐłÐµÐ³Ð¸ÑģÑĤÑĢ",
  "1972": "11",
  "8747": "ĠWeakPtr",
  "8825": "ÐµÐ´Ð¸Ð°Ð½Ð°",
  "1588": "ĠÑĩÐµÑĢÐµÐ·",
  "7320": "formatted",
  "5918": "urchase",
  "4367": "Coord",
  "8746": "quantifier",
  "4706": "inputs",
  "9787": "datedUser",
  "2067": "Memory",
  "4277": "ĠÐ±ÑĥÐºÐ²",
  "9944": "gistration",
  "978": "ÐºÐ¸",
  "6362": "isEmpty",
  "2482": "Ġopen",
  "8495": "ostgreSQLDatabase",
  "4721": "dy",
  "8673": "directed",
  "2501": "pack",
  "4140": "Ġgetline",
  "449": "emp",
  "9654": "Ð¸ÑĢÐ¾Ð²Ð°Ð½Ð¾",
  "1187": "signed",
  "9738": "commit",
  "5787": "timestamp",
  "9615": "argo",
  "1": "<UNK>",
  "6116": "ĠCONFIG",
  "8093": "Lower",
  "2861": "visited",
  "4932": "veloper",
  "9899": "Ð°Ð»ÐµÐ½Ð´",
  "3003": "Integer",
  "3245": "Ġrelease",
  "7347": "Transform",
  "4360": "increment",
  "6027": "lish",
  "9382": "ÑĢÐ°Ð¼Ð¸",
  "2744": "worker",
  "4001": "ĠÐ·Ð°ÐºÐ°Ð·",
  "6937": "ĠHash",
  "2521": "cs",
  "5644": "ĠÑģÑĤÐ°ÑĢ",
  "678": "Ðŀ",
  "1856": "ÐĽ",
  "7871": "ĠÐ¿ÑĢÐ¸ÑģÐ²Ð¾",
  "6384": "999",
  "4656": "Ġcomponent",
  "685": "os",
  "7637": "ĠReport",
  "3481": "ĠmaxVal",
  "4060": "Ġloaded",
  "7260": "sidual",
  "4817": "ĠÐ½ÑĥÐ»",
  "1494": "ert",
  "5422": "ÐŁÐ¾Ð¸ÑģÐº",
  "3883": "Ġallocator",
  "702": "ray",
  "1783": "ĠÐ¾Ð¿",
  "8929": "suffixes",
  "7000": "spec",
  "8498": "ÐľÐ°ÑĢÐ¸Ñı",
  "8384": "addGrade",
  "8733": "ĠÐĴÑĭÐ·Ð¾Ð²ÐµÑĤ",
  "6974": "ĠÐ½Ð°ÑĩÐ°Ð»Ð¾",
  "8462": "Ð°ÑĢÑĤÐ°",
  "5311": "Protocol",
  "7569": "SH",
  "6521": "ĠPROT",
  "8355": "uted",
  "3314": "ĠÐ¾ÑĪÐ¸Ð±",
  "2945": "Transaction",
  "4245": "Ð¾ÑĤÐ°",
  "8069": "ĠÐ³Ð»ÑĥÐ±",
  "7511": "Starting",
  "164": "Ķ",
  "2819": "ĠPerson",
  "2869": "Ġoutput",
  "1277": "rite",
  "5546": "Ġpas",
  "1105": "ĠÑįÐ»ÐµÐ¼ÐµÐ½ÑĤ",
  "6385": "joinable",
  "9959": "ĠÐĲÐ»Ð³Ð¾ÑĢÐ¸ÑĤÐ¼",
  "1530": "Ġle",
  "8827": "ĠPixel",
  "6852": "ullopt",
  "7633": "ÐĺÐ¡",
  "5564": "ĠÐ¿ÑĢÐ¾Ð´",
  "1569": "ingle",
  "1643": "Ġlast",
  "4848": "*,",
  "2571": "Args",
  "4127": "Ġsuccessfully",
  "4767": "ĠÑģÑĥÑīÐµÑģÑĤÐ²",
  "6997": "]--;\\",
  "4108": "Ġcommand",
  "7236": "grades",
  "2566": "<(",
  "3514": "ĠÐĶÐ¾Ð¿Ð¾Ð»Ð½Ð¸ÑĤÐµÐ»ÑĮ",
  "4405": "Ð¾Ð²Ð¾Ðµ",
  "1750": "ÑĬ",
  "6204": "Ġepsilon",
  "1676": "Ð°Ð»Ð¸Ð·",
  "5159": "CP",
  "5512": "Ġfibonacci",
  "1486": "Ġemp",
  "9606": "ĠError",
  "5687": "rection",
  "4957": "icy",
  "8500": "ĠÐ°Ð±ÑģÐ¾Ð»ÑİÑĤ",
  "5498": "ĠÐ±Ð°Ð»Ð°Ð½Ñģ",
  "8658": "Ð¸ÑĩÐµÑģÐºÐ¸Ð¼",
  "581": "Ġoverride",
  "4396": "ĠK",
  "7265": "Ð½Ð¾ÑģÑĤÐ¾ÑĢÐ¾Ð½Ð½Ð¸Ð¹",
  "567": "second",
  "1330": "ress",
  "1075": "Ġ{\\\"",
  "9710": "Ġoutputs",
  "7368": "ĠGREEN",
  "787": "Ġ>=",
  "9898": "ĠParent",
  "2832": "ÐµÑĢÐ¶",
  "4065": "mode",
  "4419": "ÐµÐ¶Ð¸Ð¼",
  "1026": "orde",
  "6085": "Ð¼Ð°ÑĥÑĤ",
  "2061": "ÑģÑĤÐ°Ð½ÑĤ",
  "9293": "pies",
  "2281": "Impl",
  "5149": "ÐºÐ»ÑİÑĩÐµÐ½",
  "9207": "Ġdecorators",
  "5052": "complex",
  "5016": "ÐµÐ´ÑĥÑİÑī",
  "6463": "Ð¡Ð¸Ð¼Ð²Ð¾Ð»",
  "1978": "Ġrever",
  "3016": "forward",
  "3638": "Us",
  "5396": "ÑĢÐ¸Ð³",
  "5451": "ĠallocatedBlocks",
  "5198": "ĠÑĤÑĢÐ¸",
  "4141": "ĠVisitor",
  "8119": "lack",
  "6057": "ĠÐ¼Ð¸ÑĢ",
  "7296": "ract",
  "9307": "ÑĢÐµÑĤ",
  "1912": "stack",
  "2511": "Ð¸ÑĢ",
  "7828": "ĠÐ£Ð¿ÑĢÐ¾Ñī",
  "908": "):",
  "4078": "[],",
  "595": "ock",
  "7653": "Ġattempts",
  "8166": "Ġdeserialize",
  "8654": "ĠShapeRegistry",
  "5744": "ĠÐ°Ð»Ð³Ð¾ÑĢÐ¸ÑĤÐ¼",
  "7925": "IDatabase",
  "1417": "rr",
  "7861": "ĠThreadSafeFile",
  "6181": "ERS",
  "6407": "87",
  "1320": "ari",
  "726": "ok",
  "2896": "efficients",
  "5103": "Handle",
  "4804": "oot",
  "4842": "ĠÐĳÐ°Ð·",
  "723": "ĠV",
  "3853": "Ð·Ð¼ÐµÐ½",
  "3053": "ÑĭÐ²Ð¾Ð´",
  "3580": "Ġtimeout",
  "5849": "ĠÑģÑĢÐ°Ð²Ð½ÐµÐ½Ð¸Ñı",
  "295": "ÐµÐ½",
  "6246": "Ġmst",
  "9463": "Can",
  "862": "Ġ(!",
  "5179": "Ġgood",
  "6199": "ĠÐ¿ÑĢÐ¾Ð¸Ð·Ð²ÐµÐ´ÐµÐ½Ð¸Ðµ",
  "8259": "ĠÐŁÐµÑĢÐµÐ¼",
  "2452": "Ð»Ð¸Ð½Ð°",
  "5495": "query",
  "8884": "ĠTruck",
  "6016": "Mem",
  "3124": "Ð¾ÑĢÐ¸ÑĤÐµÑĤ",
  "629": "rea",
  "4904": "reverse",
  "9368": "Computer",
  "8958": "Offset",
  "843": "gorithm",
  "4359": "Vehicle",
  "3631": "allable",
  "3256": "Ð«",
  "9079": "Ð¡Ð¸ÑģÑĤÐµÐ¼Ð°",
  "965": "Ð»ÐµÐ¼",
  "1511": "ify",
  "4522": "toString",
  "3482": "ÐµÑģÑĥÑĢÑģ",
  "2821": "ĠÐ¸Ð¼",
  "3231": "Ġ\\\"\\\\\\\"\\\"",
  "9083": "ĠÐ±ÐµÑģÐºÐ¾Ð½ÐµÑĩ",
  "2265": "ero",
  "5704": "ÐµÑĤÐ°",
  "135": "Ù",
  "395": "Ġde",
  "7361": "ĠLOG",
  "8081": "ÑĢÑĥÐ¿Ð¿",
  "4412": "Ġfiles",
  "5694": "Ġ14",
  "8428": "ĠHandle",
  "7704": "QU",
  "6339": "Algebraic",
  "4878": "Ġ\\\")\\\";\\",
  "248": "Ġv",
  "4876": "sockopt",
  "7657": "Ð°Ð³ÑĢÐ°Ð¼",
  "8452": "Ð¾ÑģÐ»ÐµÐ´Ð½Ð¸Ð¹",
  "4562": "Ð¾Ð³ÑĢÐ°Ð¼",
  "3103": "ities",
  "7125": "});",
  "4837": "ANY",
  "8501": "ĠSignal",
  "8299": "OTAL",
  "8449": "ĠÑĪÐ¸ÑĢ",
  "5323": "MPLET",
  "6784": "description",
  "2996": "Ġdx",
  "1614": "ÑģÑħÐ¾Ð´",
  "6195": "floating",
  "4392": "bol",
  "9643": "TimeString",
  "3148": "Ġconnection",
  "5560": "ĠÐ±Ð°Ð»Ð»",
  "2666": "ĠNetwork",
  "9273": "Old",
  "2496": "Ð¡ÑĥÐ¼Ð¼Ð°",
  "3332": "ere",
  "6762": "Ð°Ð·Ð²Ð°Ð½Ð¸Ðµ",
  "3368": "ĠÐ¼Ð°ÑģÑģÐ¸Ð²Ð°",
  "3448": "ome",
  "3625": "active",
  "3758": "==(",
  "4457": "Ġsection",
  "4914": "Ð¾Ð¼ÐµÑĢ",
  "2231": "ĠÐ²ÑģÐµ",
  "300": "Ġ:",
  "2979": "ish",
  "9405": "pii",
  "5438": "ĠÐ½Ð°Ð¹Ð´ÐµÐ½Ð°",
  "1896": "('",
  "9731": "ĠÐ¿ÐµÑĢÐµÐ¼ÐµÑīÐµÐ½Ð¸Ðµ",
  "5762": "Ġflist",
  "3508": "ĠÐ´Ð¾Ð±Ð°Ð²",
  "2007": "info",
  "1764": "Ġbe",
  "9287": "gn",
  "7465": "ĠEAG",
  "8262": "parts",
  "260": "Ġint",
  "4285": "ored",
  "6007": "Abs",
  "2186": "Ġgener",
  "8051": "ĠExtended",
  "1906": "Ġmod",
  "6220": "Fibonacci",
  "8005": "Ġsell",
  "6179": "Ġsegment",
  "9744": "ĠÑģÐ¸ÑģÑĤÐµÐ¼Ðµ",
  "6977": "Ð¾Ð³ÑĢÐ°Ð¼Ð¼Ð°",
  "9234": "ĠSERIALIZABLE",
  "4586": "PRO",
  "1808": "Col",
  "1959": "ÑıÐ²",
  "2306": "Order",
  "3288": "color",
  "9667": "Clas",
  "6648": "world",
  "3126": "ES",
  "8937": "getAccountNumber",
  "4349": "rectory",
  "4236": "orter",
  "8413": "ĠÐŀÑģÑĤ",
  "9546": "\\\\\\\"\\\"",
  "137": "ã",
  "1042": "ÐµÐ¹",
  "9548": "getX",
  "1453": "Ġarea",
  "7996": "ĠÐ¿ÑĢÐ¸Ð±",
  "1262": "enom",
  "5256": "ĠÑģÑģÑĭÐ»Ð¾Ðº",
  "4493": "Ġsecret",
  "3329": "eekday",
  "3680": "acc",
  "9937": "ÐµÐ³Ð´Ð°",
  "4137": "Ġlazy",
  "8473": "ĠÑĩÐ»ÐµÐ½Ð¾Ð²",
  "2610": "azy",
  "2724": "Ð²Ð¾Ð´",
  "930": "make",
  "4880": "loyees",
  "8133": "cow",
  "3154": "Var",
  "9691": "ELLOW",
  "3639": "Widget",
  "1600": "ÐµÐ·ÑĥÐ»ÑĮ",
  "5809": "ĠÐĴÑĭÑĩÐ¸ÑģÐ»ÑıÐµÐ¼",
  "3441": "Ġweights",
  "8506": "Back",
  "4668": "cheduler",
  "9555": "ĠSalary",
  "6890": "Ġ28",
  "5751": "'\\",
  "8085": "CESS",
  "8391": "ufficient",
  "2541": "lect",
  "5156": "Ġmedian",
  "5880": "Ġ70",
  "7429": "ĠCat",
  "9581": "ÐŁÐ¾Ð·Ð¸ÑĨÐ¸Ñı",
  "7422": "isNegative",
  "1176": "Handler",
  "8972": "ho",
  "503": "art",
  "1545": "CT",
  "4802": "hn",
  "3771": "Ġaccounts",
  "2748": "sw",
  "5006": "config",
  "1645": "close",
  "6802": "ters",
  "9933": "ÐµÐ²Ð°Ñı",
  "4150": "Button",
  "5207": "Ġpermutations",
  "1615": "Shape",
  "1693": "ÑģÐµ",
  "5107": "multiply",
  "1556": "vail",
  "4239": "ÐµÐ½Ñĭ",
  "2087": "mart",
  "9327": "mean",
  "5350": "Rest",
  "9166": "ÐµÑĢÐ¶ÐºÐ°",
  "3735": "Ġ*(",
  "2045": "msg",
  "5130": "reading",
  "4536": "Ġservices",
  "7783": "ĠĠĠĠĠĠĠĠĠĠĠĠĠĠĠĠĠĠĠĠĠĠĠĠĠĠĠĠĠ",
  "6430": "Ð¸Ñİ",
  "6713": "Ġpairs",
  "8301": "Ġvelocity",
  "6158": "ummy",
  "9471": "Mon",
  "8171": "ntypename",
  "6424": "two",
  "2892": "ĠÐŀÑĪÐ¸Ð±ÐºÐ°",
  "9692": "createShape",
  "1360": "Ġstruct",
  "540": "our",
  "8199": "Ġseen",
  "6123": "ĠÐ¨Ð°Ð±Ð»Ð¾Ð½Ð½Ð°Ñı",
  "9724": "udaError",
  "7867": "ĠServiceLocator",
  "9508": "stats",
  "793": "Ġ%",
  "6048": "Ġdepend",
  "6438": "Ġbrand",
  "6564": "Ġcmp",
  "6105": "ĠwindowSize",
  "9983": "ĠÐĹÐ°Ð¿ÑĥÑģÐºÐ°ÐµÐ¼",
  "4849": "</",
  "3324": "mage",
  "5453": "SOCKET",
  "6161": "++];\\",
  "5847": "vertex",
  "8002": "odd",
  "8889": "Ġinterval",
  "2963": "alar",
  "6917": "Ġ65",
  "5970": "ĠContext",
  "3285": "Ð°Ð»Ð¸Ð´",
  "9906": "api",
  "5484": "Ġcap",
  "8816": "Ð¼ÐµÐ½ÑĤ",
  "4105": "oly",
  "665": "print",
  "3486": "Ġcomponents",
  "3334": "ten",
  "1167": "ority",
  "54": "S",
  "1924": "Key",
  "5032": "Ġrectangle",
  "4558": "Ð¡Ð¢",
  "7573": "istringstream",
  "557": "Node",
  "3445": "40",
  "2597": "Text",
  "9955": "ÐŁÐµÑĢÐ¸Ð¼ÐµÑĤÑĢ",
  "4731": "ÐºÐ¾Ð´",
  "6632": ")...",
  "7242": "Ġuniversity",
  "9907": "ĠÐ·Ð°Ð±Ð»Ð¾Ðº",
  "9892": "Ð°Ð½Ð½Ð¾Ðµ",
  "1777": "Length",
  "4427": "ia",
  "8236": "OnWrite",
  "7739": "Ð»Ð°Ñģ",
  "8198": "ĠtotalWeight",
  "3491": "ĠÑģÐ¸Ð¼Ð²Ð¾Ð»Ð¾Ð²",
  "1939": "Set",
  "3349": "gress",
  "48": "M",
  "9594": "ÐŀÑģ",
  "6003": "ĠERROR",
  "509": "ename",
  "691": "Ġ||",
  "794": "map",
  "3474": "det",
  "2783": "Ð¾ÑĢÑĤÐ¸ÑĢÐ¾Ð²",
  "5002": "Zero",
  "9042": "veal",
  "8710": "Ð²Ð¾Ð±Ð¾Ð´",
  "5750": "napshot",
  "9476": "Pal",
  "9319": "icmp",
  "3824": "stration",
  "597": "====",
  "4492": "ĠtoString",
  "266": "Ġa",
  "1811": "ĠÐ£",
  "2329": "Ġ(*",
  "4139": "person",
  "4873": "cmd",
  "8279": "ÐĺÐ½Ð´ÐµÐºÑģ",
  "2079": "ĠMAX",
  "6559": "arable",
  "2291": "ehicle",
  "5373": "ĠConnectionPool",
  "4830": "ĠJSON",
  "8167": "Ð°Ð½Ñĭ",
  "7176": "esc",
  "7761": "ĠTreapNode",
  "4826": "ĠFD",
  "9552": "Ġwstr",
  "8419": "rying",
  "7200": "orderLevel",
  "5456": "ermostat",
  "6562": "Ġno",
  "9648": "ĠÐĿÐŀÐĶ",
  "4422": "256",
  "915": "seconds",
  "958": "expr",
  "9186": "ĠÐ²Ð¾Ð·Ð²ÑĢÐ°ÑīÐ°ÐµÑĤ",
  "1850": "binary",
  "8366": "getBalance",
  "5221": "Weight",
  "8369": "isinf",
  "1846": "Ġcols",
  "8883": "ĠcalculateAverage",
  "2193": "ĠSimple",
  "6240": "reap",
  "7321": "ÑĢÐ°Ð²Ð½Ð¸Ð²Ð°Ð½Ð¸Ðµ",
  "2000": "pret",
  "7862": "Months",
  "4451": "ÐĴÑģÐµÐ³Ð¾",
  "7331": "Address",
  "8535": "Ġ\\\"âķ",
  "7341": "Deposit",
  "6522": "Pages",
  "4144": "ÐĲÐ´ÑĢÐµÑģ",
  "1656": "ÐµÐ¶",
  "4090": "Description",
  "3812": "Graph",
  "9868": "Ġsync",
  "5096": ".','.','",
  "6315": "Ð°ÑİÑīÐ°Ñı",
  "7639": "Ð°ÑĢÑı",
  "7339": "Ð¾Ð±ÑīÐµÐ½Ð¸Ðµ",
  "5994": "ferred",
  "7395": "large",
  "8814": "ĠSecret",
  "4149": "icroseconds",
  "5891": "ĠTypeErased",
  "5548": "Ġspan",
  "484": "Ð¾Ð´",
  "2116": "ÑĢÐ°Ð¼",
  "2301": "Ġmode",
  "201": "Ð¾",
  "864": "Ð°Ð²",
  "1820": "Ġon",
  "6740": "perms",
  "5991": "Ð¨Ð°Ð³",
  "8029": "Ġadjust",
  "9694": "ĠExpressionParser",
  "324": "Ġ//",
  "1255": "rows",
  "6548": "bies",
  "4527": "ĠÐ¿ÐµÑĢÐµÐ´",
  "2639": "Ġfunction",
  "3157": "ÑģÐº",
  "4356": "Mediator",
  "8231": "Ġbefore",
  "8453": "ĠÐ¿ÑĢÐµÐ´ÐµÐ»",
  "1864": "false",
  "637": "Ġ10",
  "9408": "ĠÑĥÑģÑĤÐ°Ð½Ð¾Ð²ÐºÐ¸",
  "5700": "ĠÐ²Ð¾",
  "7641": "ĠÑĢÐ°ÑģÑģÑĤÐ¾ÑıÐ½Ð¸Ðµ",
  "9992": "ĠÐŃÑĤÐ¾",
  "3509": "Ð¾ÑĢÑĢÐµÐºÑĤ",
  "1508": "Ð¸Ð³",
  "9589": "ĠmaxLen",
  "4453": "ĠÐŁÐ¾Ð´",
  "1507": "ÑĥÐ»ÑĮ",
  "7774": "ÑħÑĢÐ¾Ð½",
  "9133": "ĠÐºÐ¾Ð½ÐµÑĨ",
  "4293": "isalpha",
  "8950": "DU",
  "7378": "Ed",
  "8": "%",
  "3347": "ÐĹÐ½Ð°ÑĩÐµÐ½Ð¸Ðµ",
  "2041": "ĠÐĴÑĭ",
  "3072": "Pos",
  "4637": "LD",
  "8834": "Ð°Ð»Ð¸",
  "9951": "Ġonline",
  "2299": "Ġfunc",
  "7140": "ĠintValue",
  "7596": "mport",
  "1463": "Ġproduct",
  "8981": "twinPrimes",
  "7248": "ĠListNode",
  "3831": "lyweight",
  "579": "ĠÐŁ",
  "5434": "ĠÑĢÐ°Ð·Ð½ÑĭÑħ",
  "6547": "]();\\",
  "6461": "ĠÐŁÐ°ÑĢ",
  "1345": "Ð¼ÐµÐ½",
  "9603": "Ġptrace",
  "3856": "ĠÐ±Ð¸ÑĤ",
  "6575": "ĠPerm",
  "8936": "(\\\"./",
  "5315": "ÐµÐ¹Ð½ÐµÑĢ",
  "2471": "Ġaccept",
  "7613": "ĠÐºÐ°ÑĤ",
  "4340": "ĠÐ´ÐµÐ¹ÑģÑĤÐ²",
  "8256": "ĠÐ¿ÐµÑĢÐµÐ¼ÐµÐ½Ð½ÑĭÑħ",
  "8323": "ĠskipWhitespace",
  "1869": "ÑıÑĤ",
  "4855": "ias",
  "1745": "scri",
  "9722": "Ġdecay",
  "8436": "Temporary",
  "2992": "visit",
  "2957": "ĠÐºÐ¾Ð¿",
  "8494": "Ġtransposed",
  "5290": "Ġremaining",
  "7710": "ding",
  "5647": "Charlie",
  "9393": "ĠÐŁÐµÑĢÐ²",
  "971": "ĠÑį",
  "3033": "sal",
  "6191": "Select",
  "2739": "sions",
  "1913": "Ġtop",
  "6763": "Ġlegacy",
  "377": "Ġco",
  "5245": "crease",
  "8822": "ĠÐ²Ñģ",
  "315": "==",
  "1899": "ĠÑĩÐ¸ÑģÐ»Ð°",
  "4439": "olat",
  "5330": "ÑģÑĤÐ°Ð½Ð°Ð²Ð»Ð¸Ð²Ð°ÐµÐ¼",
  "8161": "Ġlib",
  "3296": "Case",
  "5230": "ÐºÐ°Ð¼Ð¸",
  "7990": "ĠÐ·Ð°Ð½",
  "3080": "ĠAF",
  "6041": "peak",
  "8918": "Ð¾Ð³ÑĢÐ°Ð¼Ð¼",
  "8246": "Directory",
  "3134": "Ð¾Ð»ÑĮÐº",
  "2669": "duration",
  "2479": "Ð¸Ð°Ð¿",
  "8585": "Ð½Ð°ÑĢÑĥÐ¶",
  "1934": "ÑĩÐ¸ÑģÐ»",
  "3568": "ÑĥÐ»Ñı",
  "3708": "US",
  "9569": "ĠnumVertices",
  "6096": "celer",
  "3403": "link",
  "5463": "Capacity",
  "8254": "ĠangleDeg",
  "1649": "etwork",
  "7010": "Ġmark",
  "319": "ector",
  "2074": "ĠÐ²Ð¾Ð·",
  "5162": "acle",
  "3081": "ĠprintArray",
  "6367": "Ġlargest",
  "7820": "Subsequence",
  "7183": "ĠRenderer",
  "1308": "rence",
  "8526": "ucl",
  "2036": "valu",
  "4215": "Ġshort",
  "2506": "Second",
  "4380": "Ġtraversal",
  "5628": "ivity",
  "6396": "ÐķÐĿÐĺÐķ",
  "9968": "hostname",
  "6832": "--------------------------------",
  "1608": "Ġtypename",
  "254": "ub",
  "9144": "Only",
  "5297": "Ð²Ð¾",
  "4071": "ĠÑģÐ¾Ð±ÑĭÑĤ",
  "4881": "izer",
  "4744": "tical",
  "7325": "ĠÐ¾ÑĨÐµÐ½",
  "3794": "ĠÐ¿ÑĢÐ°Ð²",
  "6078": "results",
  "4920": "ĠÐłÐ°Ð±Ð¾ÑĤ",
  "4080": "Ġ\\\",\\\"",
  "6294": "Transition",
  "6627": "ÐŀÐ±ÑĬÐµÐ¼",
  "9376": "ĠTypes",
  "1766": ">(\\\"",
  "4148": "ĠValidation",
  "4618": "ĠDateTime",
  "146": "Ĥ",
  "8866": "newValue",
  "4780": "Ġcolleague",
  "3247": "Cost",
  "4993": "ĠÐĶÐ¾Ð±Ð°Ð²Ð»ÐµÐ½Ð¸Ðµ",
  "9372": "ĠdisplayAll",
  "8956": "Kar",
  "9794": "ĠRegistryKey",
  "2938": "stop",
  "8115": "fund",
  "7267": "BLE",
  "3662": "layer",
  "7984": "ĠAL",
  "2864": "unk",
  "7259": "anguage",
  "8539": "Ð½Ð¸Ðµ",
  "7702": "NAME",
  "912": "Ð¶",
  "3839": "Ut",
  "2206": "rid",
  "5860": "ĠÐºÐ»Ð¸ÐµÐ½ÑĤ",
  "6574": "ÐµÑĤÑĢÐ¾Ð²",
  "147": "ĥ",
  "9346": "INTR",
  "9492": "moid",
  "9973": "Create",
  "1036": "mm",
  "4433": "coefficients",
  "4943": "mary",
  "8153": "ubles",
  "981": "ĠÐ¾Ð±",
  "6871": "income",
  "6675": "ĠÐ²Ð¼ÐµÑģÑĤ",
  "8275": "ĠCONTRACT",
  "8914": "ĠÐ¸Ð½Ð´ÐµÐºÑģÑĥ",
  "392": "00",
  "982": "To",
  "7011": "Ġplayer",
  "4298": "ĠÐ´ÑĢÑĥÐ³",
  "2774": "Ð¸Ð»Ñı",
  "1190": "action",
  "5208": "divide",
  "560": "value",
  "1066": "osit",
  "3609": "ĠÐ¾Ð±ÑĢÐ°Ð±Ð¾ÑĤ",
  "9757": "transactions",
  "4923": "requent",
  "2988": "([",
  "2604": "ostream",
  "5106": "Operation",
  "7476": "ĠtaskDependencies",
  "8280": "ĠInterval",
  "8190": "rigger",
  "5943": "Ð²Ð°ÑĢ",
  "3655": "Ġshift",
  "9356": "ĠEINTR",
  "7904": "Ð°Ð»ÑıÑĢÐ½Ð¾Ðµ",
  "9728": "ĠÐ¾ÑģÐ¸",
  "1537": "Ð»Ñİ",
  "2276": "peed",
  "4854": "ees",
  "6271": "ĠÐ¼ÐµÑģÑıÑĨ",
  "3644": "Ġphone",
  "8282": "Ġdifferences",
  "1399": "],",
  "1910": "Test",
  "1343": "By",
  "9240": "ĠDownloadState",
  "9763": "ĠassertEquals",
  "159": "ı",
  "8632": "ĠÐ¿Ð¾Ð»Ð¸Ð½Ð¾Ð¼",
  "4421": "Processing",
  "9525": "Ġfreed",
  "4623": "ĠÐ²ÑĢÐµÐ¼ÐµÐ½Ð¸",
  "2662": "Copy",
  "7680": "ĠÑĤÐµÐºÑģÑĤÐ°",
  "9379": "Ġprecise",
  "8424": "ĠÐłÐµ",
  "7621": "Ġcharge",
  "4739": "Ġprod",
  "5344": "ins",
  "2908": "Alice",
  "1804": "Manager",
  "3407": "Ð°Ð¶",
  "6375": "printAll",
  "4037": "Span",
  "4538": "ĠÐ´Ð¸Ð°Ð¿Ð°Ð·Ð¾Ð½Ð°",
  "6741": "Ġprocessors",
  "4291": "ulation",
  "9935": "ĠÐĺÑĤÐµÑĢ",
  "9326": "Ð²Ð°Ð½Ð¾Ð²",
  "7015": "rip",
  "6710": "ĠÑĢÐ°Ð·Ð±",
  "7431": "ottom",
  "9766": "PROGRE",
  "8689": "ĠServer",
  "2442": "fabs",
  "1741": "ÐĺÑģÑħÐ¾Ð´",
  "9970": "ÐµÐ²ÐµÑĢÐ½ÑĥÑĤ",
  "3928": "Ġtable",
  "4240": "transaction",
  "1877": "ĠStu",
  "8886": "ĠÐ·Ð°Ð¿ÑĥÑī",
  "5614": "Ġrecord",
  "9249": "ÑĤÐ¸Ð¼Ð¸Ð·",
  "2672": "ÑģÐ¾ÑĢÑĤ",
  "7031": "ĠtotalSize",
  "7014": "Ġostringstream",
  "8521": "mday",
  "1392": "vel",
  "6095": "ĠÑģÐºÐ¾ÑĢ",
  "2605": "oard",
  "2978": "Ġdraw",
  "9837": "Mid",
  "8269": "4096",
  "2034": "tic",
  "2103": "ariable",
  "8613": "ĠReal",
  "8858": "files",
  "4125": "Ġworkers",
  "1812": "Ġme",
  "5824": "SV",
  "5945": "exit",
  "6188": "ĠJsonArray",
  "2652": "oom",
  "1004": "Ġbuffer",
  "3114": "Table",
  "2022": "ÑĭÐµ",
  "1421": "Ġqu",
  "1527": "ypename",
  "1034": "Number",
  "6005": ".\\\";\\",
  "7126": "Ġrisky",
  "6513": "ĠÑĦÑĥÐ½ÐºÑĨÐ¸Ñİ",
  "6662": "Ġnorm",
  "9275": "Ro",
  "1551": "Ġwidth",
  "427": "str",
  "3205": "matrix",
  "7752": "irth",
  "7927": "NS",
  "8596": "ĠÐŁÐłÐŀ",
  "6380": "ĠÐŁÑĢÐµÐ´",
  "303": "Ġconst",
  "1968": "ÐµÐ½Ð¸Ð¹",
  "8309": "ĠtopologicalSortUtil",
  "9337": "ÑĪÐ°Ñı",
  "3410": "ĠÐ²ÐµÑĢÑĪ",
  "6447": "Ġdev",
  "8576": "oolType",
  "4704": "Ġmean",
  "2350": "Processor",
  "2887": "search",
  "5904": "Creating",
  "3967": "Ð³Ð¾ÑĢÐ¸ÑĤ",
  "2809": "Ġ\\\"%\\\"",
  "8267": "ĠÐĵÐµÐ½ÐµÑĢ",
  "2574": "Next",
  "6226": "budget",
  "7926": "Mag",
  "9707": "ĠgenerateCodes",
  "1194": "all",
  "6920": "ĠÐ½ÐµÑĩÐµÑĤ",
  "1356": "AX",
  "1287": "Ġdi",
  "6833": "bstacle",
  "7807": "Ð»ÑĮÑĤÐµÑĢÐ½Ð°ÑĤ",
  "4491": "Values",
  "9115": "subdir",
  "4975": "ÐĺÐķ",
  "5212": "copeGuard",
  "3265": "ĠÑģÑĩÐµÑĤ",
  "498": "cond",
  "1442": "ÑĥÐº",
  "2327": "draw",
  "5459": "*()",
  "1604": "rect",
  "225": "ur",
  "6309": "partition",
  "3199": "ABC",
  "5871": "signment",
  "5885": "ÐºÐ°Ð·Ð°ÑĤÐµÐ»ÑĮ",
  "8446": "ĠÐ¿ÐµÑĢÐ²Ð¾Ðµ",
  "5117": "Ġtv",
  "5431": "Ð¸ÑģÑĮ",
  "1867": "ibr",
  "9063": "ĠMayThrow",
  "2493": "ffee",
  "7827": "ĠÐ£ÐºÐ°Ð·Ð°ÑĤÐµÐ»ÑĮ",
  "3561": "cy",
  "1272": "(&",
  "9162": "Ġ\\\"\\\\\\\":",
  "8334": "ION",
  "6106": "ĠfreeList",
  "1839": "oexcept",
  "358": "ass",
  "8769": "cv",
  "6025": "eam",
  "4327": "Ġâ",
  "5868": "ĠÑĤÐ°Ð¹",
  "3973": "ĠÐ¼Ð°ÑĤÑĢÐ¸ÑĨÑĭ",
  "609": "Ġ|",
  "8514": "Trig",
  "9496": "nÐŀÐ±ÑĢÐ°Ð±Ð¾ÑĤÐºÐ°",
  "903": "essage",
  "5624": "Ġinver",
  "8925": "Ġpascal",
  "7594": "rit",
  "3528": "alth",
  "2503": "Ð¾Ð»ÑĮÐ·Ð¾Ð²",
  "1874": "imple",
  "6637": "ILogger",
  "9053": "ÐµÐ»ÐµÑĦ",
  "3413": "cret",
  "6956": "ircular",
  "2484": "acency",
  "3464": "hrenheit",
  "4136": "Ġwait",
  "8627": "linear",
  "1443": "abs",
  "5083": "Ġquot",
  "3225": "lib",
  "5349": "ĠSpecification",
  "3521": "Ð¸ÑĩÐµÑģÐºÐ¾Ðµ",
  "7043": "READ",
  "3690": "pose",
  "3569": "Ġelem",
  "3208": "instance",
  "8686": "ĠinorderHelper",
  "5037": "Using",
  "4995": "ĠEncryption",
  "1279": "Ġz",
  "1035": "air",
  "967": "State",
  "142": "ð",
  "22": "3",
  "3999": "Ġgrades",
  "530": "Ġ!=",
  "3430": "ular",
  "8430": "Unexpected",
  "6609": "ĠÐºÐ¾Ð¼Ð¿Ð»ÐµÐºÑģ",
  "9761": "bye",
  "7435": "Ð¾Ð»ÑģÑĤÐ¾Ð¹",
  "5154": "mplementation",
  "7226": "ĠNetworkPacket",
  "3337": "Ġsi",
  "8696": "},{'",
  "4423": "ĠQuantity",
  "8394": "Ð¡Ð¾Ð·Ð´",
  "8274": "Positions",
  "4537": "otes",
  "2441": "ble",
  "3120": "Ð°Ð½Ð¸Ñİ",
  "253": "Ð»",
  "9876": "getContent",
  "6349": "suffix",
  "4689": "Ġlay",
  "9848": "nPer",
  "9998": "ĠÐ¸Ð·Ð¼ÐµÐ½Ð¸Ð»",
  "8802": "getRadius",
  "5278": "Library",
  "9030": "iry",
  "8263": "ÐŁÐµÑĢÐ²ÑĭÐµ",
  "2286": "Ġtrans",
  "115": "´",
  "5851": "ĠCSV",
  "6653": "Ġsteady",
  "3381": "ĠÐ²ÑĭÑĩÐ¸ÑģÐ»",
  "4393": "gular",
  "5084": "({\\\"",
  "6074": "ĠÐŀÐ¿ÑĢÐµÐ´ÐµÐ»ÐµÐ½Ð¸Ðµ",
  "5955": "ĠgetData",
  "8332": "GRE",
  "2205": "iew",
  "719": "10",
  "8548": "Ġpthread",
  "1062": "ÑģÑĭ",
  "9628": "ĠfindK",
  "554": "--",
  "5982": "Ġappro",
  "4692": "Ġglobal",
  "474": "ind",
  "446": "Ġresult",
  "2446": "Ġnow",
  "7172": "locked",
  "4470": "ĠÐ¨Ð°Ð±Ð»Ð¾Ð½",
  "7064": "ĠinorderTraversal",
  "3523": "BLOCK",
  "3433": "Ð´Ð²",
  "4928": "Ġcustomer",
  "7282": "ĠĠĠĠĠ",
  "6049": "Reservation",
  "1127": "Ð½ÑĭÑħ",
  "558": "Ġoper",
  "3458": "ĠWidget",
  "6676": "ĠnumStr",
  "1568": "uild",
  "9679": "ĠstackSize",
  "5651": "OUNT",
  "7263": "ĠPrototype",
  "5075": "oman",
  "1072": "py",
  "1032": "ÑĢÐ¾Ð²ÐµÑĢ",
  "8487": "ĠÐ¿ÑĢÐ¸ÑģÐ²Ð°Ð¸Ð²Ð°Ð½Ð¸Ñı",
  "5679": "history",
  "6135": "ĠÐĺÐ¼Ð¸ÑĤÐ°ÑĨÐ¸Ñı",
  "244": "clude",
  "9670": "Ð¸Ð½Ð°Ð»",
  "5526": "SQL",
  "4561": "Ð¾Ð¿Ð¸ÑĢÐ¾Ð²Ð°Ð½",
  "6052": "ĠPool",
  "4518": "ÐµÐºÐ¾ÑĢÑĢÐµÐºÑĤ",
  "3240": "fer",
  "1576": "Ð´Ð°Ð»",
  "8761": "Iter",
  "5707": "ĠÐºÐ°Ð¶Ð´",
  "7310": "Proxy",
  "8148": "unro",
  "2201": "Alloc",
  "9666": "Validation",
  "1238": "Ġmatrix",
  "6093": "Ġinsertions",
  "2152": "Di",
  "1181": "ĠG",
  "4698": "Expected",
  "3801": "ById",
  "711": "eight",
  "8767": "WARNING",
  "2497": "crypted",
  "40": "E",
  "3927": "sec",
  "8944": "49",
  "4874": "Ð°Ð»ÑĮÐ½ÑĭÐ¹",
  "347": "pa",
  "8948": "Big",
  "9232": "ĠFieldType",
  "1420": ":\\\\",
  "7309": "aca",
  "596": "))",
  "4720": "af",
  "1863": "olynomial",
  "1612": "pri",
  "502": "ber",
  "7179": "ĠprintValue",
  "9309": "ÑģÐ¸Ð¸",
  "3317": "graph",
  "3793": "Ð¸Ð¶",
  "318": "ent",
  "8101": "Observable",
  "6508": "TRACE",
  "7220": "ACITY",
  "936": "riv",
  "2128": "ocument",
  "3138": "servation",
  "3046": "ĠConnection",
  "868": "algorithm",
  "7052": "ĠTypeInfo",
  "927": "yn",
  "8261": "Pairs",
  "3043": "Ġdecltype",
  "1967": "Ġcle",
  "4549": "ĠÐ¦",
  "6449": "asing",
  "2625": "ĠÐ¿ÑĢÐµÐ´",
  "9230": "ĠShoppingCart",
  "1844": "ialize",
  "4598": "ueDate",
  "7253": "Ġvehicles",
  "1055": "IZ",
  "3037": "lem",
  "219": "endl",
  "5544": "Ġtuple",
  "3344": "--\\\"",
  "2704": "iss",
  "9139": "True",
  "9489": "capability",
  "2243": "ark",
  "6347": "gb",
  "7384": "PimplExample",
  "8785": "ÑĢÐ¾Ñĩ",
  "1061": "anager",
  "1387": "Ġ(\\\"",
  "2731": "onacci",
  "5387": "Ġ\\\"//",
  "7521": "Ġgreater",
  "8648": "LOY",
  "682": "ĠF",
  "8905": "Descript",
  "7388": "VD",
  "6583": "Ð¡ÑĢÐµÐ´",
  "350": ":\\",
  "8353": "Ġ\\\"--------------------------------",
  "5773": "ĠDi",
  "5556": "ÐĴÐ¾Ð·",
  "7956": "Ġpeek",
  "4516": "ĠBit",
  "1974": "Ġsend",
  "2507": ">)",
  "2616": "resource",
  "7116": "non",
  "6264": "ĠBSTNode",
  "1118": "ations",
  "4272": "Ġstates",
  "1584": "Ð§",
  "706": "ted",
  "2198": "ersion",
  "1475": "...\\\"",
  "1296": "cor",
  "6291": "osthen",
  "3342": "Ġhost",
  "4627": "Actor",
  "5623": "ĠÐ½Ð¾Ð»ÑĮ",
  "330": "Ñĩ",
  "3269": "printInfo",
  "7215": "ÐµÑīÐ°ÐµÐ¼",
  "4074": "ĠTriangle",
  "8566": "ĠCipher",
  "9460": "API",
  "587": "num",
  "4228": "cp",
  "8018": "ĠÑĢÐ°Ð·Ð»Ð¸Ñĩ",
  "6876": "ÑĤÐ¾Ð³",
  "5547": "another",
  "4229": "do",
  "7360": "Step",
  "7736": "Ġflyweight",
  "9357": "ÑĢÑĥÐµÐ¼",
  "3159": "Ð¿ÑĢ",
  "6237": "µs",
  "7275": "UT",
  "4154": "known",
  "3558": "MIN",
  "4512": "Ġassert",
  "8791": "simulate",
  "341": "Ġ*",
  "9961": "Ġcontents",
  "1358": "Ġunique",
  "6809": "Ð¶Ð¸Ð´",
  "5975": "ĠÑĤÐ¸Ð¿Ñĭ",
  "1847": "gre",
  "2263": "Inter",
  "218": "Ġre",
  "469": "ty",
  "1763": "req",
  "4454": "ĠÑĥÐ¼Ð½Ð¾Ð¶",
  "3087": "ĠAnimal",
  "5987": "ĠAligned",
  "414": "ack",
  "8488": "Identifier",
  "7731": "Ġreceive",
  "656": "Count",
  "1964": "ific",
  "5419": "ĠDynamic",
  "7992": "ÐŀÐľ",
  "6336": "Adapter",
  "6752": "Ġtransformed",
  "8331": "Game",
  "6750": "ĠÑĨÐ¸ÑĦÑĢÑĭ",
  "6794": "chunk",
  "2232": "Ð¾ÑĢÐ¸ÑĤ",
  "8463": "ĠÑĢÐµÐ·ÑĥÐ»ÑĮÑĤÐ°ÑĤÐ¾Ð²",
  "1928": "ĠÐ¡Ð¾Ð·Ð´",
  "8108": "^(",
  "7962": "exchange",
  "4084": "Ð¾ÑģÑĮ",
  "4402": "Ġdimen",
  "3862": "Util",
  "4652": "Remove",
  "3426": "Â²",
  "2767": "Ġoperation",
  "8126": "rpn",
  "7523": "decay",
  "6473": "ĠtypeStr",
  "905": "File",
  "8092": "KEY",
  "7959": "round",
  "8750": "ÐĴÐ¾Ð¹Ð½Ð°",
  "1001": "sg",
  "5339": "ohn",
  "7708": "Weekday",
  "3254": "fixed",
  "4086": "Ġobjects",
  "2658": "ĠÐ¿Ð¾ÑĤÐ¾Ðº",
  "8945": "Abstraction",
  "2810": "ĠComm",
  "7050": "LOS",
  "5698": "Ġ27",
  "9071": "ĠAbstract",
  "4372": "adians",
  "4953": "Ġfa",
  "3142": "Ġorder",
  "8482": "ĠÐ¿ÑĥÑĤÑĮ",
  "5299": "ĠÑģÑĢÐµÐ´",
  "5765": "Ġbattery",
  "3339": "resize",
  "772": "typename",
  "4723": "hours",
  "4903": "Ġ\\\"{",
  "515": "ush",
  "3805": "Ġprimes",
  "2099": "cel",
  "4548": "ret",
  "8755": "'}\\",
  "2109": "open",
  "9329": "ĠÑģÐ»Ð¸",
  "2564": "ÐĿÐµÑĤ",
  "3140": "ek",
  "4642": "fill",
  "9746": "Ġrestore",
  "1770": "lace",
  "3065": "ched",
  "4073": "ĠTotal",
  "9431": "Ġadvanced",
  "8157": "metric",
  "6290": "ĠuserManager",
  "3206": "width",
  "3035": "ĠÑĨÐ¸",
  "7171": "ĠnewValue",
  "2645": "Ð¾Ð»ÑĮÑĪ",
  "3577": "ÐµÑģÑģ",
  "4145": "ĠÐļÐ¾Ð½ÑģÑĤÑĢÑĥÐºÑĤÐ¾ÑĢ",
  "5819": "Math",
  "7550": "ÑĥÐ¿ÑĢÐµÐ¶Ð´ÐµÐ½Ð¸Ðµ",
  "2559": "mon",
  "6478": "Ġlocked",
  "6520": "ÐµÑĦÐ¸ÐºÑģ",
  "727": "root",
  "1616": "ning",
  "6774": "Wh",
  "919": "Ġ\\\\\\",
  "6137": ")/",
  "400": "Ġ}",
  "6966": "Ġpercentage",
  "8110": "_\\\"",
  "7654": "hasNext",
  "5928": "nÐ£",
  "1078": "Ġcin",
  "1979": "ongest",
  "197": "Ġ=",
  "223": "cl",
  "401": "\\\";\\",
  "7135": "Ġfull",
  "2522": "ceived",
  "4314": "Ġapply",
  "66": "_",
  "9451": "ĠÐ½ÐµÐ²Ð°Ð»Ð¸Ð´Ð½ÑĭÐ¹",
  "9248": "deltas",
  "3626": "imum",
  "3978": "88",
  "3745": "Ð´ÑĢÐµÑģ",
  "5686": "common",
  "2326": "ID",
  "238": "tur",
  "4579": "Ð¸ÑģÐ¾ÐºÐ¾Ñģ",
  "2010": "Ġcounter",
  "1083": "]);\\",
  "9642": "ĠexpTaylor",
  "5086": "ARY",
  "9171": "65432",
  "4834": "Ġclients",
  "9513": "Ð¾ÑĥÑĤ",
  "8067": "ĠNotification",
  "1153": "Ð¾Ñĩ",
  "2948": "Open",
  "3751": "variant",
  "8817": "Ġdemo",
  "8530": "zA",
  "5264": "Ð°ÑħÐ²",
  "3704": "Gen",
  "2475": "Ðĵ",
  "2046": "condition",
  "2416": "ÑĢÐ°Ð·",
  "5442": "Ġchildren",
  "4641": "fix",
  "6613": "ĠConfiguration",
  "160": "Ĳ",
  "1905": "ved",
  "9323": "ÑĩÐµÑĢÐµÐ·",
  "8879": "One",
  "1192": "max",
  "1842": "ash",
  "8701": "EXPENSE",
  "4709": "ÐĿÐ°Ð¹Ð´ÐµÐ½Ð¾",
  "8225": "Ġchecksum",
  "1557": "Ġ[](",
  "8065": "ĠÐ²ÑĭÐ²Ð¾Ð´Ð°",
  "2261": "local",
  "5166": "sil",
  "55": "T",
  "9925": "ÐľÐµÐ´Ð¸Ð°Ð½Ð°",
  "671": "otal",
  "9334": "Ġ'>",
  "6783": "ĠÐ¾Ð¶",
  "3348": "Mo",
  "7190": "ĠprocessData",
  "4956": "Ġcast",
  "8376": "Ġhalf",
  "4115": "ĠLRUCache",
  "3252": "Empty",
  "7065": "ĠÐ¾ÑĪÐ¸Ð±ÐºÐ¸",
  "3707": "UE",
  "2551": "ĠBank",
  "6510": "ĠÐ¼Ð°ÑĤÑĢÐ¸ÑĨÐ°",
  "529": "Ġnew",
  "6625": "Ġdimensions",
  "9279": "VAR",
  "1017": "Ġen",
  "6127": "tellg",
  "80": "m",
  "7212": "ÐĳÐµÐ·",
  "2173": "iterator",
  "8377": "Ġ35",
  "1003": "mag",
  "5853": "ĠStr",
  "6050": "ket",
  "5598": "19937",
  "6599": "Minutes",
  "9342": "ÑĦÐµÐ¹",
  "3421": "Even",
  "333": "ÑĮ",
  "2202": "valuate",
  "2075": "functional",
  "4364": "++]",
  "1706": "Ġunsigned",
  "1303": "qr",
  "4736": "Ġ5000",
  "3511": "ofstream",
  "3051": "ĠÑģÑĤÑĢÐ¾ÐºÑĥ",
  "7644": "ĠwordCount",
  "6693": "ession",
  "4094": "LET",
  "3106": "ĠEmp",
  "7656": "ÐŀÐ±ÑĢÐ°ÑĤ",
  "1695": "ÐµÐºÑĤÐ¾ÑĢ",
  "1751": "Ġclass",
  "6737": "MyResource",
  "5199": "Another",
  "4449": "ĠÐºÑįÑĪ",
  "8095": "MST",
  "5488": "ulate",
  "8614": "ĠReverse",
  "9727": "ĠMechan",
  "8237": "ĠmodPow",
  "7938": "scores",
  "6915": "ÐĿÐĲ",
  "5725": "Sequence",
  "5192": "ĠRequest",
  "4170": "ĠgetValue",
  "5404": "Ġspec",
  "8680": "Memento",
  "574": "ast",
  "8862": "ĠÐĴÐ¾Ñģ",
  "8555": "Ġspeak",
  "7730": "deque",
  "3606": "Stats",
  "8808": "ileTime",
  "5592": "Ġsession",
  "855": "Num",
  "3057": "Ð¾Ð¿Ð¾Ð»Ð½Ð¸ÑĤÐµÐ»ÑĮ",
  "9304": "Ġicmp",
  "8872": "ports",
  "3892": "enable",
  "1171": "Ð½Ð¾ÑģÑĤ",
  "7580": "Ġ\\\"&",
  "9709": "ĠbadRef",
  "9964": "ĠCommon",
  "564": "val",
  "6770": "Front",
  "4085": "Ð°ÐºÑģÐ¸Ð¼ÑĥÐ¼",
  "7428": "ĠÑģÑĥÑĦÑĦ",
  "1667": "ĠÑĥÐºÐ°Ð·",
  "4025": "ĠÐºÐ»ÑİÑĩ",
  "499": "ÑĪ",
  "4019": "ÑģÐµÐ³Ð¾",
  "7902": "ISSET",
  "9121": "ĠÐ³Ð¾ÑĤÐ¾Ð²",
  "2177": "Ð²ÐµÑĢ",
  "1131": "enc",
  "7987": "Ð¾Ð±Ñĭ",
  "4622": "udget",
  "7727": "env",
  "451": "ime",
  "185": "\\\"",
  "7273": "OK",
  "1102": "Ġmo",
  "3233": "Ð´ÐµÐºÑģ",
  "233": "con",
  "2241": "abc",
  "8674": "ÑĢÐ°Ð·ÐµÑĨ",
  "3000": "Ġquantity",
  "9854": "Ġ\\\"),",
  "4912": "quantity",
  "7219": "ÑģÑĤÐ²Ð°",
  "3996": "STRU",
  "9739": "Ð½ÑıÑı",
  "5645": "launch",
  "6964": "ĠÐ¾ÑģÑĤÐ°Ð½Ð¾Ð²",
  "5337": "SA",
  "9663": "ÐŀÐ±ÑĢÐ°Ð·ÐµÑĨ",
  "4482": "Ġdir",
  "539": "..",
  "109": "®",
  "7392": "factor",
  "3816": "ĠÐ°Ð²",
  "953": "Ġprocess",
  "4954": "Ð»Ð¸Ð·",
  "4069": "getId",
  "6170": "ĠMo",
  "3030": "ision",
  "6028": "nÐĴÐ²ÐµÐ´Ð¸ÑĤÐµ",
  "2534": "ĠCol",
  "1816": "Cache",
  "8010": "ĠÐ²ÑĭÑĪÐµ",
  "5731": "ĠExpressionException",
  "9125": "ĠÑģÑģÑĭÐ»ÐºÐ¾Ð¹",
  "8022": "whitespace",
  "6825": "Ð¦Ðĺ",
  "1603": "Ġerror",
  "8893": "ĠÐ¼ÐµÑĤÐ¾Ð´Ñĭ",
  "2797": "decltype",
  "5346": "Ġ(&",
  "7381": "Low",
  "7552": "ĠCOLS",
  "3524": "cnt",
  "9586": "Ġcontract",
  "7717": "tree",
  "9641": "buffers",
  "5464": "Drawing",
  "9977": "ÑĢÐ¾ÑģÐ°",
  "7668": "ĠÐ¿ÑĢÐµÐ´Ð¼ÐµÑĤ",
  "4509": "ÐµÑĨÐ¸",
  "9389": "Ġexceptions",
  "6269": "Ġthreshold",
  "2603": "dle",
  "9033": "verity",
  "4534": "FFER",
  "9833": "Bits",
  "2339": "ĠÐ²ÐµÐºÑĤÐ¾ÑĢ",
  "1364": "Th",
  "3517": "Ð¸ÑĩÐµÑģÐºÐ¸",
  "545": "lock",
  "7542": "ĠoddCount",
  "7765": "ĠÐ²Ð½ÑĥÑĤÑĢÐ¸",
  "3664": "AII",
  "986": "Ð½Ð°Ñĩ",
  "6887": "ÐºÐ»",
  "2221": "bytes",
  "2118": "signal",
  "3841": "win",
  "105": "¨",
  "7199": "currentState",
  "740": "ĠR",
  "3629": "ĠÑĢÐµ",
  "5105": "LI",
  "6615": "ĠÐ¿Ð¾Ð»ÑĥÑĩÐ¸ÑĤÑĮ",
  "1426": "orig",
  "6511": "rollback",
  "8854": "ÐĺÐ·Ð¼ÐµÐ½",
  "8409": "ÑįÐ»ÐµÐ¼ÐµÐ½ÑĤ",
  "6856": "Largest",
  "3463": "Ġcmd",
  "3576": "ĠÑĩÐµÑĤ",
  "6698": "ĠsetValue",
  "4774": "Ġtransition",
  "6935": "ORY",
  "7089": "([]()",
  "3592": "ace",
  "3414": "ĠÐĶÐµÐ¼Ð¾Ð½ÑģÑĤÑĢÐ°ÑĨÐ¸Ñı",
  "2224": "verage",
  "6791": "ider",
  "6570": "Report",
  "4574": "Ð¸ÑĩÐµÑģÐºÐ¸Ð¹",
  "968": "Ġal",
  "9189": "ĠDoorState",
  "9264": "DF",
  "7110": "dot",
  "7239": "ĠusersById",
  "1503": "cur",
  "351": "Ð²",
  "9673": "BlockHeader",
  "6243": "ÑĤÐ¾Ð¶",
  "4714": ")\\\";\\",
  "3571": "ĠÐ²ÐµÑĢ",
  "5858": "Ġrating",
  "732": "Ġptr",
  "1782": "Sort",
  "6926": "ĠfindLongest",
  "4259": "can",
  "5136": "access",
  "1708": "iz",
  "2663": "ÐµÐ´Ð¸Ð½",
  "5857": "Ð¾ÑĢÐ¾Ð´",
  "4480": "ĠKey",
  "6874": "Ġrecursive",
  "9465": "Flyweight",
  "2448": "ĠTemp",
  "4308": "Ġany",
  "9686": "ĠEventHandler",
  "9588": "appro",
  "7336": "Outer",
  "186": "Ġ<<",
  "2548": "Ð¸Ð»",
  "6299": "Ġbackup",
  "2443": "tm",
  "6273": "TypeInfo",
  "9989": "Ġexpressions",
  "2516": "older",
  "8631": "ÐķÐĽ",
  "8028": "borrow",
  "859": "other",
  "7254": "Ġbounds",
  "374": "class",
  "5421": "ops",
  "7722": "storage",
  "5920": ")-",
  "2012": "With",
  "2921": "Ġprocessor",
  "5015": "Ġ'{",
  "7154": "ironment",
  "7572": "aive",
  "756": "Ġtemp",
  "5359": "Ð¡ÑĩÐµÑĤ",
  "8954": "Gap",
  "9558": "Ġdeps",
  "461": "ist",
  "7766": "ÐµÐ½Ð¸Ñİ",
  "1374": "Ð¸ÑĢÐ¾Ð²Ð°Ð½",
  "9229": "reditCard",
  "90": "w",
  "3495": "ĠÑĤÐµÐºÑģÑĤ",
  "8772": "latch",
  "4539": "control",
  "9480": "UEL",
  "2284": "\\\\\\\"",
  "2009": "ÑĢÐ°Ð±Ð¾ÑĤ",
  "8276": "PENSE",
  "6416": "SharedPtr",
  "3178": "Ġinorder",
  "5944": "ĠÐ¿ÑĢÐ¾Ð²ÐµÑĢÐºÐ°",
  "1270": "Ġmessage",
  "6636": "Hours",
  "524": "Ð½Ð¾",
  "7599": "ĠÐ¿Ð¾Ð¼",
  "1095": "ression",
  "5769": "ĠSensor",
  "3476": "ÑģÑĤÐ°Ð²",
  "1491": "istr",
  "3110": "Ġ\\\"'\\\"",
  "932": "unction",
  "8552": "Ġbridges",
  "4389": "PA",
  "8296": "Ġcylindrical",
  "8505": "ASTNode",
  "5320": "Ġ256",
  "771": "rono",
  "4261": "Ġ\\\"+",
  "9196": "Ġlayer",
  "7561": "ĠEAGAIN",
  "7235": "CurrentState",
  "1214": "Ġdist",
  "4644": "window",
  "6984": "ĠFibonacciGenerator",
  "826": "andl",
  "1089": "bserver",
  "9350": "ĠFloat",
  "4631": "ÑĤÐ¾Ð¼Ð°ÑĤ",
  "4326": "ope",
  "1173": "uard",
  "9819": "ĠÐºÐ¾ÑĢÑĤÐµÐ¶Ð°",
  "9149": "ĠÑģÐ¾Ð·Ð´Ð°Ð½Ð¾",
  "9820": "herit",
  "9183": "ĠÐ±Ð¸ÑĤÐ¾Ð²",
  "4740": "fore",
  "8655": "Ġmetric",
  "2028": "ĠRectangle",
  "2567": "pid",
  "2912": "Is",
  "4520": "ĠprintInfo",
  "5197": "ÑıÑĤÐ¸",
  "368": "Ġw",
  "4813": "track",
  "6667": "tein",
  "3527": "Ð¸ÑĥÑģ",
  "3361": "Ġ'-",
  "6075": "Ġanimal",
  "8064": "overflow",
  "1937": "ÐŁÐµÑĢ",
  "6664": "ublish",
  "6472": "ĠLe",
  "4885": "ĠÐŀÐ±ÑĢÐ°Ð±Ð¾ÑĤÐºÐ°",
  "7458": "ĠVariable",
  "2052": "Matrix",
  "1000": "Ð¾Ð³Ð¾",
  "1786": "rc",
  "661": "ath",
  "6729": "OrderDerived",
  "6961": "Ġgreet",
  "3306": "ÑĥÑİÑī",
  "5915": "Policy",
  "668": "ong",
  "7294": "ious",
  "7490": "ART",
  "4456": "ĠResult",
  "9602": "Ð¸Ð²Ð½Ð°Ñı",
  "310": "ul",
  "49": "N",
  "4175": "Ð¾ÑģÑĤÑĮ",
  "4265": "ÐµÐ¼Ð¿ÐµÑĢ",
  "648": "Ñī",
  "3169": "pow",
  "4430": "Ġrot",
  "7055": "TICAL",
  "9650": "ĠeventTime",
  "3621": "Ġinv",
  "2203": "Path",
  "1521": "ting",
  "9914": "ÐŀÐ¿ÐµÑĢ",
  "1352": "Ġline",
  "6361": "lot",
  "8855": "Ð¾ÑģÑĤÐ¸Ð³",
  "1368": "Ġitem",
  "3112": ">());\\",
  "873": "hape",
  "2136": "ped",
  "8083": "Bit",
  "2071": "*(",
  "4702": "Ġmiddle",
  "3752": "};",
  "1543": "load",
  "4888": "ĠTransactionType",
  "3553": "ĠMemory",
  "5749": "orphic",
  "1259": "Ġexp",
  "5479": "Ġstorage",
  "6536": "ĠRomanNumber",
  "6079": "ĠÐļÐ¾Ð¿",
  "485": "gin",
  "9038": "Ġcore",
  "3447": "hren",
  "9299": "Ġstock",
  "6458": "ĠÐ¼Ð¾Ð³",
  "6671": "Ġ29",
  "6670": "ĠÐ¿Ð°Ðº",
  "3286": "ĠAdd",
  "1081": "base",
  "3210": "Ġred",
  "7486": "This",
  "9530": "Ġpy",
  "9790": "AggregateId",
  "5796": "ElementA",
  "4174": "ÐµÑģÑı",
  "2076": "ormal",
  "9675": "ĠFileRAII",
  "5805": "Ð°Ð»Ð»ÐµÐ»ÑĮ",
  "783": "Ð¾Ð¹",
  "6945": "ĠÐ¿Ð¾Ð´Ð´",
  "5889": "ĠÐľÐ¾Ð´Ð¸ÑĦÐ¸ÐºÐ°ÑĨÐ¸Ñı",
  "1570": "Ġmanager",
  "3214": "Ð²Ð°",
  "4313": "ĠÑĨÐµÐ»",
  "3454": "threads",
  "8396": "Ġprinter",
  "8096": "Multiplication",
  "4395": "sync",
  "6117": "ASK",
  "1707": "rotected",
  "1458": "Ġtemplate",
  "2027": "ices",
  "8373": "Ġcor",
  "297": "stream",
  "2356": "Ġrange",
  "9748": "RTTI",
  "3341": "Ġ11",
  "180": "ĠĠĠ",
  "7693": "mportant",
  "7402": "Ġge",
  "1593": "fter",
  "3250": "ultiplier",
  "8840": "elvin",
  "1721": "fstream",
  "1840": "Observer",
  "6531": "Absolute",
  "9464": "CRITICAL",
  "1548": "ative",
  "7958": "Ġbonus",
  "4035": "ĠOrder",
  "8460": "Divide",
  "5369": "Ġinitialize",
  "3888": "ÐµÐ¶Ð´Ñĥ",
  "8388": "ĠÐ¼Ð¾Ð´",
  "1961": "Ġcircle",
  "998": "index",
  "1359": "comp",
  "1220": "ĠÐ·Ð½Ð°Ñĩ",
  "463": "Ð¸ÑĤ",
  "692": "uffer",
  "7157": "Ġlink",
  "1263": "Ġpattern",
  "7985": "Ġconcaten",
  "6166": "Ð¾ÑĢÐ¾Ð½",
  "3537": "haredPtr",
  "8807": "ÐµÑĢÐ¸",
  "9040": "Ð¼ÑĥÐ»Ñı",
  "748": "ĠL",
  "3446": "Version",
  "6076": "scape",
  "7762": "Ð¼Ð¸Ð½",
  "9847": "lambda",
  "9211": "Ġpassed",
  "3203": "aded",
  "2407": "Ġpositions",
  "436": "++)",
  "3333": "flags",
  "5788": "ĠÑįÑĤ",
  "9062": "ĠMASK",
  "9665": "ĠinputFile",
  "4287": "Ġpush",
  "3472": "case",
  "8666": "Diagonal",
  "308": "};\\",
  "7414": "Ġpb",
  "7400": "ux",
  "4789": "Settings",
  "7735": "ctet",
  "5571": "Ġalarm",
  "2115": "Ġios",
  "1620": "thod",
  "8139": "Ġimplementation",
  "4032": "Interface",
  "121": "º",
  "3498": "ROR",
  "1051": "pre",
  "7319": "9999",
  "8232": "Ġperf",
  "4757": "sl",
  "4742": "rawing",
  "4676": "Loc",
  "2092": "ĠÑģÐ¾Ð·Ð´Ð°Ð½",
  "2139": "serv",
  "1244": "ument",
  "522": "ength",
  "3004": "ĠPriority",
  "2684": "Ġas",
  "9952": "OnCommand",
  "6505": "ThreadSafe",
  "7805": "IZABLE",
  "2466": "ses",
  "1958": "sk",
  "7344": "ĠÑĢÐµÐ°Ð»Ð¸Ð·Ð°ÑĨÐ¸Ñı",
  "6824": "ĠTaskStatus",
  "4650": "Ð²Ð°Ð½",
  "799": "Ð¸Ñģ",
  "5685": "inate",
  "2549": "Ġservice",
  "6304": "ĠConfigException",
  "5650": "ught",
  "3034": "Ġent",
  "1528": "amic",
  "1646": "','",
  "5224": "step",
  "792": "addr",
  "4669": "ecuting",
  "8241": "ĠBookStatus",
  "1311": "col",
  "8745": "Ġ'(')",
  "4552": "Ġderived",
  "9749": "encrypt",
  "693": "em",
  "7434": "Ġ})\\",
  "267": "ÐµÐ",
  "613": "irtu",
  "3733": "deg",
  "7585": "dequeue",
  "5531": "Celsius",
  "9681": "Analy",
  "8047": "mulator",
  "7394": "gion",
  "1316": "Ġclose",
  "9288": "gy",
  "4315": "ĠÐ·Ð°Ð¿Ð¸Ñģ",
  "834": "tain",
  "7826": "Ġclassname",
  "4511": "Ġcall",
  "5609": "speed",
  "4275": "Printer",
  "5427": "resent",
  "701": "Ġdelete",
  "2598": "Ġdy",
  "1135": "bject",
  "8013": "ĠÐ¾ÑĤÐ´",
  "9598": "Ġwhere",
  "7896": "CAPACITY",
  "9366": "Ð°Ð»ÑĮÐ½Ð¾Ð¹",
  "2042": "ÐµÐ³Ð¾",
  "7468": "Ð¸ÑĢÐ¾Ð²Ð°ÑĤÑĮ",
  "8075": "ÑģÑĤÑĢÐµÑĩÐ°ÐµÑĤÑģÑı",
  "3806": "ĠÑĤÑĢÐµÑĥÐ³Ð¾Ð»ÑĮÐ½Ð¸Ðº",
  "8312": "Ð¼ÐµÐ½ÑĮÑĪ",
  "4663": "Completed",
  "7376": "DD",
  "7067": "VALID",
  "7725": "recurring",
  "2846": "ĠÐŁÑĢÐ¾Ð²ÐµÑĢ",
  "214": "Ġ}\\",
  "8318": "HOST",
  "8864": "ĠÐ¾ÑĤÐ¿ÑĢÐ°Ð²",
  "389": "Ġsize",
  "9308": "ÑģÐ¾Ð²",
  "493": "ĠÐº",
  "7669": "Windows",
  "8932": "futures",
  "3557": "Door",
  "5448": "ĠÑĢÐ°Ð²Ð½Ñĭ",
  "7467": "ĠÐ¡Ð¾",
  "9929": "Ð¸Ð±Ð»Ð¸",
  "938": "ĠBase",
  "5364": "Chain",
  "3599": "sequence",
  "6914": "Ð¸Ð½Ð°Ð¼",
  "4187": "ĠÑĢÐ°Ð´Ð¸ÑĥÑģ",
  "3676": "Ġrate",
  "3237": "Ġconstructor",
  "4519": "INF",
  "3984": "tter",
  "8348": "palindrome",
  "3492": "ĠÐ¿ÐµÑĢÐµÐ¼ÐµÑī",
  "8221": "ÐĹÐ°ÐºÐ°Ð·",
  "3781": "Light",
  "2701": "ĠÐ¡Ð¾Ð·Ð´Ð°ÐµÐ¼",
  "1644": "task",
  "7213": "interval",
  "5133": "Ð°ÑģÑĪ",
  "8635": "outer",
  "9401": "ucket",
  "8779": "Ġ\\\"][\\\"",
  "1768": "ours",
  "9276": "Sa",
  "3552": "sets",
  "8637": "ĠbaseSpeed",
  "1113": "ail",
  "7936": "mission",
  "2740": "ĠÐ·Ð°Ðº",
  "9551": "rapped",
  "7655": "Ġmonths",
  "6429": "()>>",
  "8385": "backend",
  "9850": "sch",
  "3079": "ĠÐ´ÐµÐ»",
  "2935": "Salary",
  "9949": "ĠÐ¸Ð½ÑĦÐ¾ÑĢÐ¼Ð°",
  "6682": "ĠÐºÐ¼",
  "6732": "Ġheapify",
  "8721": "ĠÑĢÐµÐ±ÑĢÐ°",
  "9059": "Ð¿Ð¾ÑģÐ»ÐµÐ´Ð¾Ð²Ð°ÑĤÐµÐ»ÑĮ",
  "4375": "Refs",
  "4002": "gramming",
  "6705": "Ġkilograms",
  "1597": "Ð°Ð±",
  "4022": "Ġpivot",
  "3542": "cntl",
  "328": "ch",
  "2195": "Ġsearch",
  "3604": "ĠÑģÐ¾Ð²",
  "6270": "ĠÐ¼Ð½Ð¾Ð³Ð¾",
  "8917": "ĠÐ¨Ð°Ð±Ð»Ð¾Ð½Ð½ÑĭÐ¹",
  "7258": "ĠÐ¿Ð¾Ð»ÑĮÐ·Ð¾Ð²Ð°ÑĤÐµÐ»ÑĮÑģÐº",
  "7292": "Ġbyte",
  "9717": "imensions",
  "9562": "Registrar",
  "1045": "Array",
  "881": "ive",
  "3500": "lt",
  "3025": "price",
  "6369": "Ġhuffman",
  "6846": "Caught",
  "5303": "Ġ'/",
  "1519": "ign",
  "4836": "Ġargument",
  "8365": "trl",
  "1473": "ustom",
  "878": "Ð¾ÑģÐ»",
  "7207": "ĠÐºÐ¾Ð½ÑĨ",
  "2904": "ĠSmart",
  "7632": "Ġwheels",
  "6293": "rectangle",
  "3769": "irtualBase",
  "9200": "ÑģÑĤÑĢÐ¾ÐµÐ½Ð¸Ðµ",
  "5952": "ÐµÑĤÑĮ",
  "9447": "ĠÐ¿Ð¾Ð¼Ð¾Ñī",
  "100": "£",
  "407": "Ð°Ð½",
  "9690": ">()>",
  "9483": "YAxis",
  "5899": "Ġdivide",
  "3874": "Complex",
  "6325": "ĠÐ±ÑĥÐºÐ²Ñĭ",
  "5372": "Students",
  "6992": "Get",
  "925": "Ġkey",
  "4476": "nauto",
  "1266": "test",
  "8170": "perimeter",
  "8387": "Ð¸Ð¼Ð¾Ðµ",
  "6810": "Ġenv",
  "1802": "ĠFraction",
  "4607": "ĠÐ±Ñĭ",
  "2791": "Ġsubject",
  "5846": "->()",
  "7374": "Critical",
  "5048": "fl",
  "7181": "redit",
  "4231": "ms",
  "5956": "());",
  "6755": "ÐŁÐ¾Ð´ÑģÑĤÑĢÐ¾ÐºÐ°",
  "2784": "ĠÐ¼Ð¾Ð¶ÐµÑĤ",
  "7865": "Ġquicksort",
  "1969": "ility",
  "252": "si",
  "1882": "Ġpath",
  "3743": "Ġdiscount",
  "7846": "ĠÑıÐ²Ð»ÑıÑİÑĤÑģÑı",
  "7878": "Ð¾Ð¶Ð´ÐµÐ½Ð¸Ðµ",
  "7802": "ĠÐ²ÑĭÑħÐ¾Ð´",
  "4877": "Ġdict",
  "152": "Ī",
  "9782": "Ð¡ÑĩÐµÑĤÑĩÐ¸Ðº",
  "7161": "Ġinc",
  "776": "ĠN",
  "8656": "uthentic",
  "7606": "ĠÐ½Ð°Ð±Ð»ÑİÐ´",
  "7406": "Ð¾ÑįÑĦÑĦÐ¸ÑĨÐ¸ÐµÐ½ÑĤ",
  "5397": "ÑģÑĩÐµÑĤ",
  "5046": "TTP",
  "2248": "he",
  "1565": "ak",
  "5437": "Ġserializer",
  "9005": "Ġft",
  "884": "Ġsum",
  "3488": "ĠÐľÐµÑĤÐ¾Ð´",
  "9715": "ĠÐ¾ÑĤÑĢÐ¸ÑĨÐ°ÑĤÐµÐ»ÑĮÐ½ÑĭÑħ",
  "6991": "ATION",
  "6485": "ĠÐļÐ»Ð°ÑģÑģ",
  "3948": "Hel",
  "5042": "Callable",
  "1094": "Ġcache",
  "897": "ix",
  "6376": "ĠRT",
  "1703": "Product",
  "9107": "Ġudp",
  "8818": "Ġdebug",
  "5483": "ctl",
  "3722": "ĠÑįÐ»ÐµÐ¼ÐµÐ½ÑĤÑĭ",
  "6757": "ĠÑģÐ¾Ð´ÐµÑĢÐ¶Ð¸ÑĤ",
  "1331": "Str",
  "5591": "ĠÐ´Ð¾Ð±Ð°Ð²Ð»ÐµÐ½Ð¸Ñı",
  "6171": "ÑĦÐ¾ÑĢ",
  "3187": "Ġdq",
  "4992": "LAY",
  "8392": "typeindex",
  "3953": "Ġ\\\"Â°",
  "9362": "ĠÑĦÐ»Ð°Ð³",
  "9247": "Karp",
  "4016": "\\\"),",
  "5291": "onitor",
  "7754": "ĠCircular",
  "4166": "ĠÑģÑĥÐ¼Ð¼Ð°",
  "7705": "SALARY",
  "1314": "±Ð¾ÑĤ",
  "9494": "nÐŁÐµÑĢ",
  "9880": "Ġwin",
  "4960": "risk",
  "9386": "Ð¤Ð°ÐºÑĤÐ¾ÑĢÐ¸Ð°Ð»",
  "1544": "Ð°Ð½Ð¸Ñı",
  "4658": "ĠÐ¾Ð±Ð¼ÐµÐ½Ð°",
  "6934": "CTX",
  "2035": "ational",
  "6902": "ĠPacket",
  "9789": "ĠStoragePolicy",
  "4167": "Ð¼Ð¾Ð¶",
  "2676": ")),",
  "7423": "ĠÐ¿Ð»",
  "5935": "urpose",
  "413": "Ġnamespace",
  "1553": "gs",
  "9245": "ÐłÐ°Ð´Ð¸ÑĥÑģ",
  "8564": "ĠÐ¿Ð»Ð¾ÑīÐ°Ð´ÑĮ",
  "9208": "ĠCompareBy",
  "7532": "ĠÐ½Ð¾Ð²Ð¾Ð³Ð¾",
  "52": "Q",
  "8699": "mplementor",
  "9128": "ĠÑĤÐ¸Ð¿Ð°Ð¼Ð¸",
  "2220": "ĠINT",
  "6883": "ÑĥÐ¶",
  "2926": "Ġcv",
  "1013": "Ð¸Ð±",
  "9507": "ĠUniquePtr",
  "257": "ce",
  "4852": "Success",
  "9490": "ii",
  "3471": "car",
  "9064": "Ð°Ð»Ð¾ÑģÑĮ",
  "9095": "Ð¸ÑĩÐ½Ð°Ñı",
  "2954": "Ð²Ð°Ð´",
  "5643": "ĠfindMin",
  "8740": "fragment",
  "2974": "nenum",
  "6479": "magnitude",
  "3545": "bind",
  "9419": "ĠâĪ",
  "6434": "ĠdueDate",
  "1662": "Container",
  "9984": "ĠMethod",
  "4507": "vie",
  "5565": "Ġsetsockopt",
  "4815": "Ġwri",
  "4397": "ĠÐ°Ð»",
  "5785": "Ġ%=",
  "3162": "ĠÐ¢ÐµÑģÑĤ",
  "6630": "NONBLOCK",
  "7558": "ĠÐ¾ÐºÑĢÑĥÐ¶Ð½Ð¾ÑģÑĤÐ¸",
  "7538": "LDBLOCK",
  "8059": "Vehicles",
  "2016": "Ġmap",
  "6031": "triangle",
  "8322": "ĠangleDegrees",
  "4972": "ecret",
  "5072": "Ġxor",
  "3529": "Ð»ÐµÐ½Ð¸Ñı",
  "4670": "tended",
  "8578": "ĠÐ´Ð½Ñı",
  "4924": "ĠÐ´Ð²Ð°",
  "4895": "1415926535",
  "3369": "ÑĥÑģÐºÐ°",
  "6673": "otReload",
  "9209": "ĠÐ°ÑĢÐ¸ÑĦÐ¼ÐµÑĤÐ¸ÑĩÐµÑģÐºÐ¾Ðµ",
  "5574": "ÐĹÐ°Ð´Ð°Ñĩ",
  "2754": "Ð¸Ð¼ÑĥÐ¼",
  "9711": "ĠValueType",
  "3768": "Ġconver",
  "4184": "rector",
  "6071": "ĠÐ¾Ð±Ð½Ð¾Ð²",
  "9616": "ĠprocessValue",
  "2343": "Ġsquare",
  "2647": "efficient",
  "4304": "ĠLibrary",
  "9006": "Ġny",
  "2535": "ayment",
  "4554": "ÑĭÑĩ",
  "3859": "ĠÑģÑĤÑĥÐ´ÐµÐ½ÑĤ",
  "6903": "ĠPimplExample",
  "7144": "ÑĥÑĦÑĦ",
  "7297": "ĠSH",
  "1155": "ound",
  "8142": "Ġvm",
  "837": "ĠE",
  "3088": "Ð¾ÑıÐ½Ð¸Ðµ",
  "4207": "ĠDE",
  "1129": "ple",
  "3554": "ĠÐ¿ÑĢÐ¾ÑģÑĤ",
  "6035": "Ġstats",
  "9999": "doWork",
  "5637": "Ġsem",
  "5524": "ĠÐ·Ð½Ð°Ðº",
  "8182": "doubleValue",
  "103": "¦",
  "9857": "Ġstoi",
  "6486": "Acc",
  "3679": "emon",
  "1618": "ÐµÐºÑĤ",
  "8321": "ĠÐºÐ¾ÑĢÑĤÐµÐ¶",
  "9102": "ĠÐ¡Ðº",
  "2757": "ĠWorld",
  "280": "ĠĠĠĠĠĠĠĠ",
  "5310": "ĠEmail",
  "1445": "ĠMatrix",
  "4585": "Pin",
  "5440": "Ġinstances",
  "8581": "ĠPAGE",
  "4014": "Ġundo",
  "9505": "Ġalgorithm",
  "3990": "async",
  "1056": "Ġ9",
  "5932": "Ġ...",
  "803": "ache",
  "7122": "uage",
  "1411": "Ġpos",
  "6734": "ĠÐ¿Ð¾ÑĤÐ¾ÐºÐ¾Ð²",
  "9129": "Ġlinear",
  "7315": "progress",
  "9531": "Ġcaps",
  "8895": "ĠpageCount",
  "158": "İ",
  "2529": "obj",
  "3884": "ĠĠĠĠĠĠĠĠĠĠĠĠĠĠĠĠĠĠĠĠĠĠ",
  "2752": "Ġtransaction",
  "2270": "Ġcolor",
  "5378": "<>\\",
  "8568": "Ġlcm",
  "4603": "ĠTokenType",
  "2587": "]()",
  "7658": "Cloneable",
  "3920": "var",
  "8336": "Public",
  "3366": "product",
  "4498": "Ġallocations",
  "2690": "lower",
  "3176": "sizeof",
  "4624": "quired",
  "8942": "(__",
  "1366": "len",
  "6469": "ĠÑĥÐ²ÐµÐ»Ð¸Ñĩ",
  "0": "<PAD>",
  "9242": "Ð¾ÑĤÐ²ÐµÑĤÑģÑĤÐ²",
  "1476": "ĠÐ±ÑĭÑĤÑĮ",
  "9296": "uy",
  "9698": "Ð¦Ð²ÐµÑĤ",
  "3991": "ĠĠĠĠĠĠĠĠĠĠĠĠĠĠĠĠĠĠĠĠĠĠĠĠĠĠĠĠĠĠĠĠ",
  "795": "());\\",
  "7935": "good",
  "8273": "ĠcudaSuccess",
  "6746": "ĠSorting",
  "7424": "ĠÐ¿Ð¾Ñģ",
  "5907": "Parser",
  "386": "ma",
  "2742": "Ð¾Ð¿Ð¾Ð»Ð½",
  "1927": "ĠÐ¿Ð¾Ð´",
  "2909": "ÑĢÐµÐ´Ð½",
  "4195": "seek",
  "5150": "ĠSmartPointer",
  "4891": "ultiplication",
  "7147": "Ġequal",
  "1901": "Object",
  "6993": "IO",
  "5745": "INFO",
  "8915": "ĠFixedPoint",
  "1559": "ÐµÑĤÑģÑı",
  "9428": "14159265358979",
  "8450": "ÐĵÐ¾Ð´",
  "8347": "nTotal",
  "3594": "ness",
  "2020": "sqrt",
  "4560": "ĠLazy",
  "3836": "Generator",
  "3010": "Ġterm",
  "9862": "Ġtcp",
  "4411": "ĠÑĥÐ¶Ðµ",
  "8410": "ÑįÐ´ÑĢÐ°",
  "9659": "ÑĭÐ²Ð°ÑĤÑĮ",
  "354": "np",
  "3968": "ĠÐ¾Ð±ÑĢÐ°ÑĤ",
  "9809": "BankAccount",
  "4752": "ÐŀÑĤÑģÐ¾ÑĢÑĤÐ¸ÑĢÐ¾Ð²Ð°Ð½Ð½ÑĭÐ¹",
  "5342": "table",
  "3719": "strlen",
  "1119": ">::",
  "7498": "ĠÑģÐºÐ¾Ð±",
  "5031": "Ġnotify",
  "6224": "TokenType",
  "8447": "Balanced",
  "2726": "numerator",
  "7293": "Ġbrute",
  "2836": "*>",
  "4981": "ÑģÑĤÐ°Ð½Ð°Ð²Ð»",
  "8438": "ĠÑģÐºÐ»Ð°Ð´",
  "6834": "ĠÑģÐ»Ð¾Ð²Ð¾",
  "6581": "ÐµÐºÐ¾Ð¼",
  "8400": "ÐŀÑĨÐµÐ½ÐºÐ°",
  "5953": "Ġ'}",
  "6641": "USE",
  "8046": "Ġbitset",
  "4010": "Dis",
  "313": "nint",
  "2425": "Ġdoc",
  "8959": "Occurrence",
  "6577": "Ð°Ð»ÑıÑĢ",
  "3646": "Ġsuffix",
  "37": "B",
  "8042": "ÐŁÐµÑĢÐ²Ð¾Ðµ",
  "3012": "ĠÐ´Ð¸Ð°Ð¿Ð°Ð·",
  "9035": "ĠÑģÐ²Ð¾Ð±Ð¾Ð´",
  "4494": "Ġ999",
  "9130": "Ð¸ÑĢÐ¾Ð²Ð°Ð½Ð½ÑĭÐµ",
  "1346": "ption",
  "5244": "Aligned",
  "7528": "ĠMathError",
  "1063": "Ġheight",
  "5102": "GIN",
  "2341": "Ġpart",
  "2245": "Ġedge",
  "7143": "Ġsup",
  "2723": "stringstream",
  "4068": "ross",
  "2558": "digits",
  "3539": "Ġsides",
  "7834": "Ġdetach",
  "9770": "Dependency",
  "9370": "ĠÐĿÐµÐ»ÑĮÐ·Ñı",
  "3686": "ĠÑģÐ»Ð¾Ð²",
  "7703": "PR",
  "8967": "]];\\",
  "5386": "Ġor",
  "8135": "reservation",
  "4866": "ĠÐŁÐ¾Ð¿ÑĭÑĤÐºÐ°",
  "4862": "ĠDouble",
  "7412": "Ġderiv",
  "6776": "cap",
  "5481": "Ġregex",
  "1136": "ĠÑĢÐ°Ð·",
  "7420": "road",
  "7760": "ĠTensor",
  "5766": "Ġbetween",
  "8751": "ĠÑĥÐ´Ð°ÑģÑĤÑģÑı",
  "5160": "II",
  "6826": "ITY",
  "7769": "Ġ'_",
  "6250": "gebra",
  "833": "Ð¾ÑģÑĤ",
  "1480": "Ġdest",
  "2382": "Ġwrite",
  "8606": "ĠÐ¿ÑĢÐµÐ²",
  "9577": "ĠBLACK",
  "4284": "banana",
  "6058": "Ġchars",
  "4223": "etween",
  "8414": "ĠfindS",
  "2436": "mmon",
  "5684": "store",
  "8087": "Echo",
  "1710": "Ð¾Ð»Ð¶",
  "5226": "ingHere",
  "4884": "laying",
  "1558": "Ð¸Ð´",
  "8223": "ĠÐłÐ°Ñģ",
  "7427": "ĠÑģÐ¼",
  "4879": "ĠProcess",
  "3386": "hello",
  "4777": "Context",
  "4659": "ĠÐ²ÑĭÐ±Ð¾ÑĢ",
  "687": "Ġpublic",
  "8443": "positive",
  "5828": "gency",
  "5783": "ĠRGB",
  "9391": "Ġprevious",
  "2336": "EL",
  "5841": "strings",
  "6346": "apt",
  "7565": "Call",
  "288": "Ñĭ",
  "3271": "ABLE",
  "8097": "MORY",
  "4206": "etwe",
  "4164": "isdigit",
  "6646": "rank",
  "2854": "Ġinte",
  "2528": "Square",
  "3656": "Ġevents",
  "4982": "venue",
  "8909": "INTER",
  "3918": "ru",
  "1758": "Ġrows",
  "4378": "Ġ\\\"]\\\"",
  "7912": "ĠÐ¿Ð¾Ð²ÐµÑĢÑħÐ½Ð¾ÑģÑĤÐ¸",
  "4379": "ĠÐ´Ð¾Ð»Ð¶ÐµÐ½",
  "5225": "inte",
  "7257": "ĠDynamicArray",
  "1208": "ĠÐļ",
  "6578": "Ġtransitions",
  "1825": "ÐµÐµ",
  "7165": "ĠgetD",
  "9829": "ĠÐĽÐ¸ÑĤÐµÑĢÐ°Ð»Ñĭ",
  "2069": "ĠÑģÐº",
  "3667": "ÐµÐ¾Ð±",
  "5772": "istic",
  "8468": "ĠSortStrategy",
  "2964": "Ġauthor",
  "6947": "Maximum",
  "5893": "center",
  "8188": "mouse",
  "9922": "Ġacceleration",
  "8522": "nc",
  "4727": "ĠÐ¶",
  "4404": "ssert",
  "7993": "Ð±ÐµÑĢ",
  "6692": "Ð¾ÐºÑĥÐ¼ÐµÐ½ÑĤ",
  "4687": "Ġcb",
  "3090": "Ġhtons",
  "1848": "Ġ50",
  "6126": "ÑĥÐ¿ÑĢÐµÐ¶Ð´",
  "2014": "Ġoss",
  "2481": "Ġcerr",
  "6415": "Paren",
  "5946": "Ġwater",
  "4081": "ÑģÑĤÑĢÑĥÐºÑĤÐ¾ÑĢ",
  "1248": "inator",
  "9158": "ĠInjection",
  "5087": "ANG",
  "7042": "Compression",
  "9889": "Ð¼Ð°Ð½Ð°",
  "1405": "pair",
  "5507": "ĠÐ³ÑĢÐ°Ð´",
  "3409": "lobal",
  "9151": "Ġrotr",
  "8993": "Ġstrength",
  "9138": "Ð£Ð³Ð¾Ð»",
  "2238": "cctype",
  "5741": "transform",
  "21": "2",
  "4049": "1024",
  "9437": "ÐµÐºÐ¾Ð¼ÐµÐ½Ð´",
  "8444": "ThreadPool",
  "6700": "ÑģÑĤÑĢÐµÑĩ",
  "5356": "Initial",
  "4633": "ĠÐ¿ÑĢÐ¾Ð²ÐµÑĢÐºÐ¸",
  "9609": "ĠtotalAmount",
  "6209": "ĠÐ¾Ð´Ð¸Ð½Ð°Ðº",
  "1221": "(!",
  "4160": "Ð°Ð±Ð¾ÑĤ",
  "8706": "ĠSTATE",
  "7949": "debug",
  "5110": "sm",
  "7811": "Ġdiag",
  "3830": "output",
  "9467": "Kelvin",
  "7706": "Taylor",
  "764": "Ġadd",
  "9793": "Ġforest",
  "9169": "ĠreverseArray",
  "6665": "Ġpred",
  "5472": "group",
  "2735": "Safe",
  "6764": "ĠÐ¼ÑĮÑİÑĤÐµÐºÑģ",
  "7187": "Ġcompress",
  "5085": "ÑĥÐ¿ÑĢ",
  "2105": "ponse",
  "3673": "Ġforward",
  "2533": "npos",
  "3372": "ĠÑĨÐ¸ÑĦ",
  "243": "Ġm",
  "4711": "ÑıÐ¼Ð¾ÑĥÐ³Ð¾Ð»ÑĮÐ½Ð¸Ðº",
  "1517": "ĠJson",
  "3424": "negative",
  "9771": "Ð¸Ð½Ð°Ð»ÑĮÐ½ÑĭÐ¹",
  "9076": "TypeErased",
  "674": "Ð¾Ð½",
  "3842": "Ð°ÑİÑĤ",
  "8949": "CRE",
  "6219": "Dir",
  "8984": "wind",
  "1464": "milliseconds",
  "53": "R",
  "8922": "ÐĴÑĤÐ¾ÑĢÐ¾Ð¹",
  "6994": "IV",
  "6889": "Ġ21",
  "1444": "Ġ\\\")",
  "5322": "ĠCompare",
  "9604": "Ġtyped",
  "141": "ï",
  "6959": "imension",
  "4054": "encry",
  "714": "Ġ===\\\"",
  "7167": "ĠgetNext",
  "2304": "ĠLogger",
  "2325": "(-",
  "3643": "clone",
  "9974": "Ġ[&]()",
  "1249": "ÑģÐ¿Ð¾Ð»ÑĮÐ·",
  "4300": "mod",
  "583": "alse",
  "7114": "kopecks",
  "7620": "Nodes",
  "2322": "Ġmat",
  "6931": "Ġwithdraw",
  "5345": "return",
  "7823": "ucer",
  "9521": "urther",
  "8512": "HuffmanNode",
  "5325": "ĠÐ¿Ð¾Ð·Ð¸ÑĨÐ¸Ñı",
  "41": "F",
  "8122": "nRe",
  "5201": "Ġ\\\"*\\\"",
  "6254": "ileage",
  "7507": "IGN",
  "2454": "Amount",
  "8716": "ĠÐ¿ÑĢÐµÐ¾Ð±ÑĢÐ°Ð·Ð¾Ð²Ð°Ð½Ð¸Ðµ",
  "3992": "ĠÐŁÐ¾Ð¸ÑģÐº",
  "3295": "AP",
  "7562": "ĠEWOULDBLOCK",
  "7881": "Local",
  "1658": "nstd",
  "7513": "Ġsmallest",
  "4850": "Duplic",
  "8191": "ĠmaxMana",
  "2822": "159",
  "1880": "Ð¸Ð½Ð°",
  "3201": "ĠTemperature",
  "3803": "ÑıÐ¼Ð¾",
  "1714": "ly",
  "163": "ĵ",
  "4683": "lection",
  "3412": "errno",
  "1798": "uture",
  "5202": "bitset",
  "8616": "ĠBaseException",
  "3903": "egment",
  "8215": "ĠÐļÐ¾ÑĢÑĢÐµÐºÑĤ",
  "910": "und",
  "2077": "mtx",
  "8358": "attr",
  "1088": "ÑĢÐ°",
  "4283": "VER",
  "4158": "Ġpalindrome",
  "2279": "interpret",
  "6354": "leter",
  "1733": "ÑĩÐµÑĤ",
  "7062": "ĠÐºÐ¾Ð½ÑģÑĤÐ°Ð½ÑĤÐ½ÑĥÑİ",
  "2078": "leag",
  "4964": "Coffee",
  "4521": "ĠRoom",
  "9448": "ĠÐ±ÑĥÐ´ÐµÑĤ",
  "1652": "guard",
  "5808": "ĠÐĴÑĭÑĩÐ¸ÑģÐ»ÐµÐ½Ð¸Ðµ",
  "7751": "edy",
  "2828": "pth",
  "9713": "Locked",
  "3636": "First",
  "1029": "Ġword",
  "9680": "valuation",
  "780": "empty",
  "9191": "ĠsectionPair",
  "7798": "ÐĶÑĢÐ¾Ð±ÑĮ",
  "93": "z",
  "5229": "Ġsensor",
  "591": "dex",
  "6321": "ĠInterface",
  "2138": "Ð°ÑĤÐ¾ÑĢ",
  "5792": "Ġleg",
  "2868": "ÐĶÐ°",
  "364": "me",
  "7206": "ĠcheckIn",
  "5265": "EndingHere",
  "1016": "mem",
  "2976": "()(",
  "5482": "onal",
  "7991": "Ġtoggle",
  "2068": "ob",
  "4929": "ĠÐļÐ¾Ð½ÑģÑĤÐ°Ð½ÑĤ",
  "4102": "Ġrear",
  "5530": "21",
  "6432": "Ġtx",
  "2815": "initial",
  "5538": "ited",
  "2246": "ÐµÐ¼Ð¾Ð½ÑģÑĤÑĢ",
  "5837": "Ġfo",
  "3551": "ĠCustom",
  "3632": "ĠÐĶÐ¾Ð±Ð°Ð²Ð»ÑıÐµÐ¼",
  "1227": "Ġ\\\")\\\"",
  "4593": "Ð¾Ð¸Ð¼Ð¾ÑģÑĤÑĮ",
  "9500": "radians",
  "1071": "ystem",
  "3487": "ibonacci",
  "1943": "egative",
  "2600": "Ġentry",
  "1550": "Ġfrom",
  "9956": "obstacle",
  "6482": "Ġansw",
  "4317": "Ð´Ð²Ð¸Ð³",
  "6331": "ooleanExpression",
  "2070": "Ð°ÑĤÑĮ",
  "9010": "Ġpin",
  "8509": "EST",
  "434": "),",
  "5049": "mark",
  "3136": "ĠÑĢÐ°Ð·Ð¼ÐµÑĢ",
  "7048": "Ġyears",
  "4775": "place",
  "6839": "Ġletters",
  "1685": "substr",
  "62": "[",
  "3362": "Ð·Ñı",
  "6515": "ĠÑĢÐ°Ð´Ð¸Ð°Ð½",
  "6724": "centage",
  "3820": "Ġsin",
  "9938": "functions",
  "2088": "pon",
  "6584": "Ġexist",
  "8519": "cip",
  "4771": "Stream",
  "1809": "ait",
  "7747": "ÑĥÐ·",
  "8507": "Dot",
  "2492": "roy",
  "1276": "Derived",
  "1236": "inal",
  "6423": "nAfter",
  "1189": "actor",
  "4602": "Ġlines",
  "4591": "cos",
  "4091": "'},\\",
  "2315": "ÐºÑĢ",
  "3049": "ĠÐ¿Ð¾Ð»ÑĥÑĩ",
  "4488": "Ġcomplex",
  "4533": "expected",
  "3784": "Par",
  "2273": "');\\",
  "4473": "Port",
  "890": "Ð°ÑĢ",
  "4440": "pass",
  "3008": "alid",
  "5995": "Ð¿ÑĢÐµÐ´ÐµÐ»Ð¸ÑĤÐµÐ»ÑĮ",
  "9251": "ĠReferenceCounted",
  "2738": "ĠÐŁÐµÑĢ",
  "6443": "ĠdoubleValue",
  "4833": "ĠINADDR",
  "4882": "udio",
  "7544": "CheckedLocking",
  "6352": "Ð¸Ð°Ð³",
  "1488": "ys",
  "8896": "ĠÐºÐ¾Ð½ÑģÑĤÐ°Ð½ÑĤÑĥ",
  "2670": "height",
  "2233": "ĠÐºÐ¾Ð¼Ð¿",
  "6033": "ĠÐµÑī",
  "8551": "Ġborder",
  "1253": "Ġcatch",
  "1043": "ee",
  "6532": "ABABCABAB",
  "4553": "Ġboard",
  "2268": "ĠÐ·Ð°Ð¿",
  "8317": "ĠPurchaseRequest",
  "9322": "ÐµÐ½Ð½Ð¾Ð¹",
  "2696": "Ġgen",
  "8205": "ToConst",
  "5186": "ell",
  "8743": "ĠÐ¿ÑĢÐ¾Ð¼ÐµÐ¶ÑĥÑĤ",
  "5500": "ÐµÑģÑĮ",
  "9526": "Ġnto",
  "931": "put",
  "5660": "ÑģÐºÐ¸Ð¹",
  "9541": "ÑĥÑĪ",
  "7087": "ĠÐ´Ð»Ð¸Ð½Ñĭ",
  "5196": "Ð¾ÑģÐ¾Ð±",
  "2064": "ÑĥÑģÑĤ",
  "1566": "sh",
  "2225": "ĠÑģÐ¾",
  "5758": "bra",
  "5405": "ential",
  "1216": "ÑĭÐ¹",
  "8469": "Traits",
  "1911": "ale",
  "6196": "ĠÐ¿ÐµÑĢÐ²ÑĭÐ¹",
  "7041": "Compare",
  "6898": "Ġnuma",
  "6286": "Ġenergy",
  "1065": "Ð°Ð¿",
  "3416": "ĠÐ´Ð¾Ð»Ð¶Ð½Ð¾",
  "6691": "quential",
  "5446": "Move",
  "8316": "expenses",
  "4845": "ĠCheck",
  "1562": "Ġos",
  "1605": "ĠÐ¤",
  "467": "et",
  "7085": "Ð¾Ð¿ÑĥÑģÑĤÐ¸Ð¼",
  "2349": "cursive",
  "555": "ord",
  "3168": "erence",
  "8876": "Ġ\\\"]\\\";\\",
  "8675": "SELECT",
  "6618": "Ġpopulation",
  "99": "¢",
  "980": "son",
  "3684": "Ġquick",
  "145": "ģ",
  "9197": "apabilities",
  "9089": "aryOps",
  "4235": "release",
  "9872": "users",
  "9188": "BUFFER",
  "8038": "Ð¦ÐµÐ½Ð°",
  "7672": "ĠÑĩÐ°ÑģÑĤÑĮ",
  "9732": "ĠÐĶÐ¾Ð¿Ð¾Ð»Ð½Ð¸ÑĤÐµÐ»ÑĮÐ½ÑĭÐ¹",
  "6684": "ĠMOD",
  "6922": "Choice",
  "7796": "ĠNo",
  "1096": "ÑģÑı",
  "9028": "isS",
  "8036": "ĠÐĴÑĭÐ±Ð¾ÑĢ",
  "9228": "Ġsql",
  "1497": "AL",
  "7464": "ĠEdge",
  "4441": "Ð²Ð»",
  "6258": "ĠgetMax",
  "8913": "ÐµÐ¾Ð±ÑĢÐ°Ð·Ð¾Ð²Ð°Ð½Ð¸Ðµ",
  "3297": "IP",
  "9587": "ĠisBlocked",
  "3668": "Ð°ÐµÑĤÑģÑı",
  "1607": "sys",
  "2187": "Ġconfig",
  "9312": "aring",
  "306": "io",
  "6310": "elements",
  "4222": "lta",
  "725": "Ġset",
  "5562": "ĠÑĥÐ·",
  "5056": "ÑĢÑĭÑĤ",
  "1922": "oor",
  "7749": "streamsize",
  "1479": "raction",
  "8448": "ÑĢÐ°Ð·Ð¼ÐµÑĢ",
  "4646": "ÐµÑĦ",
  "4106": "Ġnames",
  "6248": "Ġpoly",
  "9237": "Ð¸Ð·ÑĥÐ°Ð»Ð¸Ð·Ð°ÑĨÐ¸Ñı",
  "5535": "derived",
  "9213": "Ġslice",
  "405": "Ġh",
  "8144": "Ġvariance",
  "6645": "nÐł",
  "1337": "Ġthread",
  "3593": "box",
  "9283": "aur",
  "9163": "Ġfactorials",
  "4760": "()),",
  "2619": "allocate",
  "7343": "ĠÑĢÐ°Ð²ÐµÐ½",
  "4299": "ĠDoor",
  "7492": "Ġmodified",
  "4070": "Ð²ÐµÐ»",
  "9893": "Ð´Ð¾Ð»Ð¶",
  "5428": "pheric",
  "9620": "ĠÐ¿ÐµÑĢÐµÑģ",
  "2951": "urse",
  "8940": "amelCase",
  "1898": "parent",
  "1960": "rack",
  "9966": "ĠgeneratePermutations",
  "1583": "ven",
  "1893": "system",
  "1489": "ank",
  "9433": "Ġspecific",
  "2044": "manip",
  "9534": "Ġbo",
  "852": "Al",
  "2543": "Ġhandle",
  "5942": "isPrime",
  "3873": "ĠTrieNode",
  "6884": "Ġem",
  "1143": "ÑĥÐ½",
  "2366": "ensor",
  "8187": "quant",
  "5523": "Ġrandom",
  "3243": "Ġsig",
  "4751": "ĠÑĥÑģÐ¿ÐµÑĪÐ½Ð¾",
  "943": "Ġright",
  "2190": "\\\"]",
  "6305": "Entity",
  "240": "Ġreturn",
  "8846": "ÐµÑģÑıÑĤ",
  "2406": "ariant",
  "3915": "PEN",
  "6800": "Inside",
  "4567": "Ġusername",
  "5302": "ĠÐ²Ð¸ÑģÐ¾ÐºÐ¾Ñģ",
  "2038": "ĠÐ²ÑĢÐµÐ¼",
  "501": "read",
  "5209": "Discount",
  "4202": "Ġchunk",
  "9224": "ĠÐ¿Ð°ÐºÐµÑĤ",
  "788": "play",
  "1005": "Ġnode",
  "6165": "Ġdeallocate",
  "161": "ĳ",
  "1571": "ÑĥÑģ",
  "7081": "BEGIN",
  "4230": "email",
  "2886": "ĠValue",
  "5877": "ĠIMPLEMENT",
  "1092": "IZE",
  "1826": "Ð¾Ð¼Ð¿",
  "7100": "MODE",
  "8873": "Chars",
  "3970": "Struct",
  "4171": "ĠPayment",
  "5492": "andard",
  "6901": "ĠgetField",
  "8923": "customer",
  "1403": "city",
  "70": "c",
  "6968": "ruits",
  "705": "Ð°Ñģ",
  "2212": "Ð¾ÑģÑĤÑĥÐ¿",
  "8903": "nÐĶÐ¾ÑģÑĤÑĥÐ¿",
  "9223": "dependency",
  "6251": "ection",
  "2550": "Ġchrono",
  "3747": "Ð§Ð¸ÑģÐ»Ð¾",
  "3119": "ĠÐºÐ°Ðº",
  "1365": "=(",
  "8738": "victionStrategy",
  "6370": "service",
  "8659": "ideo",
  "2469": "Ġcontext",
  "3294": "23",
  "2959": "Ð¸ÑģÐ¾Ðº",
  "6995": "Last",
  "9535": "Ġbv",
  "3603": "licit",
  "1883": "ÑĥÐ³",
  "5327": "ergy",
  "4748": "ĠÐ´Ð¸Ð°Ð¿Ð°Ð·Ð¾Ð½",
  "8337": "Polynomial",
  "7524": "Ġsieve",
  "2708": "erge",
  "4640": "even",
  "7819": "ORD",
  "2252": "ĠÐ¤ÑĥÐ½ÐºÑĨÐ¸Ñı",
  "9070": "Ð¸Ð¼ÐµÐ½ÑĮ",
  "3857": "ĠLine",
  "2175": "AC",
  "747": "ÐµÐ½Ð¸Ñı",
  "14": "+",
  "1335": "Ġmsg",
  "2320": "](",
  "8806": "pay",
  "6268": "Ð°Ð»Ð°",
  "8281": "ÐŀÐ±ÑīÐ¸Ð¹",
  "5674": "LU",
  "4811": "Ġview",
  "8628": "Ð°Ð»ÑĮÐ½Ð°Ñı",
  "7746": "Ġsample",
  "2337": "eak",
  "2397": "Vector",
  "8213": "Ġsubscribe",
  "4977": "ÐĺÐ²Ð°Ð½",
  "7592": "Ġasc",
  "1767": "ÐµÑĢÑĪ",
  "8885": "ĠÐ·Ð°Ð¿Ð¾Ð»Ð½",
  "183": "st",
  "954": "',",
  "9778": "ĠÐ²ÐµÑĢÑĪÐ¸Ð½Ñĥ",
  "7432": "mac",
  "4343": "ĠFixed",
  "7607": "Ð¾ÑĢÐ¾Ð²",
  "5268": "ĠÐ±Ð¾Ð»ÑĮÑĪÐµ",
  "7228": "issing",
  "2399": "qual",
  "265": "id",
  "4249": "ÐŀÐ±Ñī",
  "4978": "ĠÐ¡ÑĤ",
  "2424": "utations",
  "5578": "Ġinputs",
  "5041": "CAL",
  "9840": "Timer",
  "614": "irtual",
  "4568": "Engine",
  "3858": "ÐľÐ°ÑĤÑĢÐ¸ÑĨÐ°",
  "9246": "ĠÐ¸Ð·Ð±ÐµÐ¶",
  "3916": "SL",
  "615": "ÐµÐº",
  "5980": "ĠÐ¸Ð½Ð¸ÑĨÐ¸",
  "6857": "PTRACE",
  "2211": "ĠTask",
  "2307": "ĠIn",
  "9803": "generate",
  "844": "ape",
  "7785": "agram",
  "4296": "ĠÐ½Ñĥ",
  "9629": "STD",
  "1762": "Ġusing",
  "4465": "Entities",
  "5844": "Ġed",
  "4827": "ÐĿÐ°",
  "1103": "ÑħÐ¾Ð´",
  "5177": "ĠPair",
  "1348": "out",
  "5900": "ĠmemoryPool",
  "9544": "trin",
  "3032": "rate",
  "7821": "Ġvalidator",
  "9807": "Ð¸ÑģÑĤÐ¸ÐºÐ¸",
  "1661": "Ġbook",
  "9153": "PacketHandler",
  "5007": "\\\\\\\\",
  "7463": "Ð¾Ð·Ð¸",
  "3175": "Ġsp",
  "3844": "ÐµÐ½Ð½Ð¾Ðµ",
  "3994": "ĠminVal",
  "7071": "ĠÐ¿ÑĢÐ°Ð²Ð¸Ð»ÑĮ",
  "802": "Ð¾Ð¶",
  "9881": "ĠCH",
  "3731": "visitor",
  "4737": "ready",
  "3526": "ĠÐ¾ÑģÑĤ",
  "8979": "schedule",
  "1942": "Ð°ÐºÑģ",
  "6051": "Ġ']",
  "3619": "trans",
  "202": "int",
  "1247": "ĠPoint",
  "8951": "DFS",
  "7166": "ĠgetState",
  "6969": "ergency",
  "5417": "Ġ'*",
  "6466": "ĠÐ±Ð°Ð·",
  "9351": "ĠÑĥÐ´",
  "149": "ħ",
  "9324": "ÐµÑĢÐ°",
  "8192": "ĠmaxHealth",
  "5914": "ĠÐ°Ð´ÑĢÐµÑģ",
  "2581": "Ġfactorial",
  "2552": "Ð¸Ð¼Ð¾ÑģÑĤ",
  "8194": "ĠÐ±Ð¸Ð½Ð°ÑĢ",
  "5964": "locale",
  "9930": "Ġencrypt",
  "2943": "Ġcompute",
  "3538": "ÐķÐĿ",
  "246": "Ġf",
  "1367": "insert",
  "9572": "ĠgetSize",
  "2883": "ĠCommand",
  "631": "Ġ+=",
  "7691": "Ð¾Ð³ÑĢÐµÑĪÐ½Ð¾ÑģÑĤÑĮ",
  "67": "`",
  "6403": "adjacency",
  "1020": "Ð¸Ð·",
  "5005": "\\\"),\\",
  "9002": "Ġrepository",
  "6277": "imited",
  "647": "ort",
  "9879": "Ð²Ð¾ÑĢ",
  "7890": "ÐľÐ¸Ð½Ð¸Ð¼Ð°Ð»ÑĮÐ½ÑĭÐ¹",
  "3947": "HE",
  "1280": "15",
  "7889": "LibraryItem",
  "9542": "ÐµÐ½Ð½Ð¾Ð¼",
  "1784": "Ġfri",
  "5506": "ĠWindow",
  "3497": "Binary",
  "3047": "Ġuse",
  "2680": "Per",
  "2675": "((",
  "8329": "Denominator",
  "9456": "IRCLE",
  "3180": "Substring",
  "9358": "FileSystemNode",
  "4786": "ARD",
  "6053": "ĠDis",
  "9380": "ĠUN",
  "6080": "Ġcontroller",
  "9677": "DatabaseRecord",
  "9215": "ÐĽÐĺÐĹ",
  "7775": "ĠMultiplier",
  "7130": "Ð¸Ñī",
  "2509": "ll",
  "6560": "Ġmt",
  "871": "template",
  "9593": "ĠtoRemove",
  "7386": "Root",
  "4243": "Ð¼ÐµÑģÑĤ",
  "9099": "ÐĶÐ°Ð½Ð½ÑĭÐµ",
  "404": "Re",
  "143": "Ġ",
  "3556": "rieNode",
  "332": "ÑģÑĤ",
  "1611": "Ġbalance",
  "1070": "ĠDerived",
  "2668": "cd",
  "9397": "8979",
  "4666": "distribution",
  "6849": "ĠTRANS",
  "3709": "gment",
  "3326": "ĠÐŁÐ¾Ð»",
  "262": "un",
  "7247": "ĠÐ¿Ð°Ð¼ÑıÑĤÑĮ",
  "2032": "Ð´ÑĢ",
  "1552": "Ð¾Ð»Ð¸ÑĩÐµÑģÑĤÐ²Ð¾",
  "5737": "ĠÑĢÐµÑĪÐµÐ½Ð¸Ñı",
  "8361": "Ġcgroup",
  "4053": "Ġ90",
  "620": "left",
  "6172": "apsed",
  "227": "Ñģ",
  "3102": "Ġcan",
  "5308": "ĠÑĥÑĢÐ°Ð²Ð½ÐµÐ½Ð¸Ðµ",
  "1755": "ÐµÐ¿",
  "7446": "Ġstrncpy",
  "4006": "200",
  "2830": "ÑĢÐ¾Ðº",
  "9621": "ĠÐ²ÑĭÐ·",
  "2947": "Lock",
  "8724": "Repeated",
  "4038": "network",
  "4787": "grees",
  "6661": "Ġnull",
  "5095": "Ð¿ÑĢÐµÐ´ÐµÐ»ÐµÐ½Ð¸Ðµ",
  "1122": "ÐµÑģÑĤÐ²",
  "8783": "Ġresize",
  "5864": "ĠÐ¼Ð¾Ð´Ð¸ÑĦÐ¸Ðº",
  "4467": "Ġsmall",
  "5164": "ÑĢÐ¸",
  "9017": "Ġbar",
  "7208": "ALARY",
  "7227": "Ġtrain",
  "5066": "ĠCRC",
  "6960": "Ġgreen",
  "51": "P",
  "8117": "gable",
  "1484": "ÐµÑĢÐµÐ·",
  "9605": "ÐĶÐ²Ð°",
  "5882": "Ġsubtract",
  "1454": "Ġobj",
  "992": "alc",
  "9072": "ĠisAvailable",
  "5341": "tri",
  "667": "Ð½ÑĭÐ¹",
  "4131": "Ġ\\\"âľ",
  "3040": "Ġcity",
  "7808": "Ð¸ÑĨÑĭ",
  "7777": "uniform",
  "2142": "Ð¾Ñı",
  "6153": "Ġvia",
  "5347": "Ġcached",
  "6256": "ĠSegment",
  "3832": "operation",
  "5806": "ĠÐĶÐ¾Ð¿Ð¾Ð»Ð½Ð¸ÑĤÐµÐ»ÑĮÐ½ÑĭÐµ",
  "4580": "ĠÐ¿Ð°ÑĢÐ°Ð¼",
  "1999": "ĠÑĩÐ¸Ñģ",
  "3825": "\\\")\\",
  "6405": "Serializable",
  "9142": "Observers",
  "6023": "byte",
  "1288": "ĠÑģÑģÑĭÐ»",
  "3064": "Ġifstream",
  "2825": "ĠSOCK",
  "4919": "END",
  "173": "Ŀ",
  "5379": "Break",
  "4546": "lie",
  "3559": "MENT",
  "655": "Ġex",
  "6433": "Ġdst",
  "7918": "'},",
  "453": "ay",
  "4763": "ÑĤÐµÐ½Ð¸Ðµ",
  "8229": "ÐµÐ¶ÑĥÑĤ",
  "3026": "ÐµÐ¶Ð´",
  "9440": "ĠÐ¿ÑĢÑıÐ¼Ð¾ÑĥÐ³Ð¾Ð»ÑĮÐ½Ð¸ÐºÐ¾Ð²",
  "2994": "Ð¸Ð¸",
  "7362": "Operator",
  "5411": "Ġdecoded",
  "9538": "Ġschedule",
  "9773": "ĠApprover",
  "1746": "ĠÐ·Ð½Ð°ÑĩÐµÐ½Ð¸Ðµ",
  "6355": "Ġver",
  "7899": "ĠTypeErasedContainer",
  "316": "oid",
  "8830": "ÑĪÐºÐ¾Ð¼",
  "7502": "totalAmount",
  "5843": "transition",
  "3563": "gate",
  "3089": "ĠÐºÐ¾Ð¼Ð¿Ð¸Ð»ÑıÑĨÐ¸Ð¸",
  "754": "Ġcurrent",
  "6203": "VALUE",
  "3702": "random",
  "7951": "Ġrevenue",
  "9182": "ĠBinarySearchTree",
  "8961": "Sep",
  "4043": "Ġsym",
  "1117": "Ġamount",
  "1053": "anag",
  "7390": "Watermark",
  "5913": "Dependencies",
  "6311": "targets",
  "425": "ĠÐ½",
  "830": "Ptr",
  "8068": "ĠÐ½ÐµÐ²Ð°Ð»Ð¸Ð´",
  "5752": "AIN",
  "6418": "Term",
  "3712": "ping",
  "7879": "ĠÐ´ÐµÑĢÐµÐ²Ð¾",
  "2122": "orage",
  "3093": "Yes",
  "3477": "Ġlimit",
  "845": "chrono",
  "4461": "cstdint",
  "2940": "Ġregistry",
  "6967": "ĠÑģÑĤÑĥÐ´ÐµÐ½ÑĤÐ°",
  "1694": "Ġ'\\\\",
  "4352": "Division",
  "5709": "ĠÐ¸ÑģÐ¿Ð¾Ð»ÑĮÐ·Ð¾Ð²Ð°Ð½Ð¸Ðµ",
  "3727": "ÐµÐ¾Ð±ÑĢÐ°Ð·",
  "5620": "execution",
  "2874": "Pair",
  "6499": "Animal",
  "6622": "Ġ\\\"âľĵ",
  "589": "urrent",
  "2181": "mat",
  "3620": "ÑĨÐ¸Ð¹",
  "4087": "Days",
  "2435": "ĠÐ¿ÑĢÐ¾",
  "2747": "Rectangle",
  "2975": "com",
  "3663": "ĠÑģÐ¾Ð¾Ð±Ñī",
  "5175": "Ġchain",
  "348": "ublic",
  "7973": "ĠÐ´ÐµÐ½ÑĮ",
  "1159": "alcul",
  "4198": "Ġsk",
  "8303": "ĠStrategy",
  "2060": "Ġ-=",
  "2705": "pend",
  "6360": "usage",
  "6440": "Ġsplit",
  "9455": "Ð¼ÑĥÐ»ÑıÑĨÐ¸Ñı",
  "6640": "Specification",
  "9776": "ĠexampleGraph",
  "840": "ithm",
  "6908": "names",
  "3811": "From",
  "6338": "reapNode",
  "4226": "ahrenheit",
  "9527": "Ġvd",
  "5930": "nÐĶÐ¾",
  "8554": "Ġsb",
  "339": "ĠĠĠĠĠĠĠĠĠĠĠĠĠĠĠ",
  "6604": "obbies",
  "1158": "ĠÐĺ",
  "3972": "Ġrecv",
  "5561": "ĠFibonacci",
  "7039": "ĠGRE",
  "9482": "XAxis",
  "715": "red",
  "6356": "Ġpl",
  "4268": "ifier",
  "8297": "ĠÑģÑĢÐµÐ´ÑģÑĤÐ²",
  "4063": "circle",
  "2330": "Ġfailed",
  "2873": "Edge",
  "2771": "due",
  "1819": "[\\\"",
  "2722": "Ġbad",
  "7858": "Ġlocaltime",
  "9157": "localtime",
  "2763": "arith",
  "8429": "ĠerrorCode",
  "5667": "ĠÑĤÐ¾Ð²Ð°ÑĢÐ°",
  "7093": "Auto",
  "464": "];\\",
  "5363": "Ġcompare",
  "9867": "Ġbatch",
  "4681": "fect",
  "7216": "ĠtopNode",
  "5618": "Ġsl",
  "5131": "Ġprom",
  "9178": "USED",
  "2713": "ÑģÐ¿Ð¾Ð»ÑĮÐ·ÑĥÐµÐ¼",
  "6788": "sible",
  "8230": "ÐŀÐ±Ð½Ð¾Ð²",
  "3029": "Cre",
  "8795": "Ġscheduler",
  "8016": "ĠÑĢÐ°Ð·ÑĢ",
  "1198": "ytes",
  "2402": "cri",
  "6873": "eriv",
  "1349": "use",
  "5022": "ÐĿÐµÐ²ÐµÑĢÐ½ÑĭÐ¹",
  "9741": "Ġdoors",
  "952": "file",
  "7586": "decrypted",
  "3761": "ĠÐ¿Ð¾ÑģÐ»ÐµÐ´",
  "1716": "jo",
  "3244": "Ġload",
  "630": "Ġad",
  "1289": "ÑĢÐ¾Ð²ÐµÑĢÐºÐ°",
  "6537": "Ġanswers",
  "5917": "inancial",
  "9920": "ÐµÑģÑĤÐ¸",
  "9113": "ĠfindNumberOf",
  "2602": "Ð¸ÑĢÑĥÐµÐ¼",
  "5585": "ITE",
  "6444": "isOn",
  "2613": "Ġ((",
  "1406": "Ð¾Ð»Ð½",
  "1729": "pha",
  "2029": "path",
  "4241": "Ġlps",
  "2922": "':",
  "7372": "79",
  "2995": "Ġip",
  "1225": "function",
  "8420": "ÐŁÑĢÐ¾ÑģÑĤ",
  "4819": "ĠBlock",
  "3843": "Ð¸ÑģÑĤÑĢ",
  "2251": "ializ",
  "4213": "listen",
  "9682": "Addition",
  "731": "Ð¸Ð²",
  "8857": "Ð°ÑĢÐ°Ð½ÑĤ",
  "9233": "Ġflyweights",
  "1748": "aile",
  "5215": "MPLEMENT",
  "7860": "ometric",
  "2607": "Ġqueue",
  "5324": "FILE",
  "4759": "reference",
  "2715": "RC",
  "832": "ac",
  "8502": "18",
  "8599": "else",
  "4691": "Ġ'.",
  "4966": "ĠBU",
  "1245": "pop",
  "4098": "pool",
  "4238": "Ġbest",
  "8319": "unroof",
  "2058": "ore",
  "2258": "Ġden",
  "8763": "NECT",
  "4596": "Ð»Ð¸Ñĩ",
  "4805": "{}",
  "3628": "ÐľÐ°ÐºÑģÐ¸Ð¼Ð°Ð»ÑĮ",
  "1673": "Total",
  "2444": "weight",
  "4351": "ĠÑĦÑĥÐ½ÐºÑĨÐ¸Ð¸",
  "9649": "Encrypt",
  "9502": "tmp",
  "4111": "ÐĴÑģÐµ",
  "516": "add",
  "5655": "withdraw",
  "9917": "ĠVersion",
  "7818": "ignore",
  "8403": "ĠsetState",
  "9943": "ĠÐºÐ¾Ð½ÑĦÐ¸Ð³ÑĥÑĢÐ°",
  "9281": "Writer",
  "42": "G",
  "9015": "idend",
  "3172": "Ġdb",
  "237": "se",
  "1546": "OR",
  "4368": "serter",
  "7304": "plugin",
  "5874": "ÐļÐ½Ð¸Ð³",
  "3925": "Ġregister",
  "3692": "Ġiss",
  "7529": "CCESS",
  "2778": "Ġtoken",
  "5152": "ĠÐ²ÐµÑĢÑĪÐ¸Ð½",
  "2218": "Ð¸ÑĨÐ¸",
  "3222": "Ap",
  "6714": "Ð¼ÐµÐ½ÑĮ",
  "5848": "ĠÑģÑĢÐ°Ð²Ð½ÐµÐ½Ð¸Ðµ",
  "812": "Ġcl",
  "9241": "ĠÐĴÑĭÐ¿Ð¾Ð»Ð½ÑıÐµÐ¼",
  "6090": "Ð°ÑĩÐ°",
  "2040": "ĠContainer",
  "4276": "ĠÐ½Ð°ÑĩÐ°Ð»",
  "9700": "ĠBankCard",
  "3146": "ĠBox",
  "7939": "uper",
  "7882": "iteral",
  "9800": "ĠÐ½ÑĥÐ¶Ð½Ð¾",
  "2895": "distance",
  "9737": "ĠÑĩÐµÑĤÐ²ÐµÑĢÑĤ",
  "7635": "ĠsumOf",
  "8697": "ĠresourcesBy",
  "4718": "Found",
  "6542": "Off",
  "5831": "ĠExpr",
  "5090": "ĠÐ²ÐµÐºÑĤÐ¾ÑĢÐ°",
  "8676": "ĠoldChar",
  "4177": "Ġmost",
  "1780": "alpha",
  "1250": "buffer",
  "3223": "evaluate",
  "7842": "cerrno",
  "4181": "Ġcontrol",
  "6481": "ÑħÐ¾Ð´Ð¸Ð¼",
  "2106": "RU",
  "7979": "ĠPart",
  "5676": "Row",
  "1625": "eld",
  "3564": "Ġcelsius",
  "5963": "ĠFunc",
  "865": "Ġvec",
  "2952": "amil",
  "7302": "ĠArea",
  "1754": "Ġdis",
  "7983": "omorphic",
  "7567": "Money",
  "2463": "Area",
  "2811": "Age",
  "5332": "60",
  "3579": "ĠStatus",
  "4122": "components",
  "6133": "ĠÐ½Ð°Ð»Ð¸Ñĩ",
  "441": "Ġdata",
  "646": "Ð¡",
  "6647": "titude",
  "9020": "Ġsd",
  "1642": "Ġbytes",
  "5695": "ÑıÐ·",
  "3331": "bal",
  "1994": "Ð°ÑĤÑĢÐ¸ÑĨ",
  "4128": "ĠÐ£Ð´Ð°Ð»ÑıÐµÐ¼",
  "8464": "Ð¸ÑĦÑĢÐ¾Ð²Ð°Ð½Ð¸Ðµ",
  "5432": "):\\\";\\",
  "6905": "Ġ|=",
  "809": "struct",
  "8496": "cedence",
  "9750": "ĠÑĩÐ»ÐµÐ½Ñĭ",
  "1623": "Ġmid",
  "2965": "ission",
  "1509": "pen",
  "5702": "ĠÐ´ÑĥÐ±Ð»Ð¸ÐºÐ°ÑĤ",
  "7520": "ĠMultip",
  "58": "W",
  "6589": "memcpy",
  "2542": "ĠÐ¿Ð¾Ð·",
  "1886": "core",
  "1988": "Ġnumber",
  "8234": "ĠÑģÐ¸Ð¼Ð²Ð¾Ð»Ð°",
  "880": "find",
  "1505": "Ġmove",
  "1837": "erat",
  "5375": "ecuted",
  "8980": "slot",
  "455": "Ġel",
  "552": "Ġcon",
  "2083": "):\\\"",
  "8653": "Keys",
  "594": "ec",
  "4377": "TION",
  "390": "using",
  "1290": "erm",
  "2287": "ĠString",
  "8197": "ĠtotalValue",
  "1256": "work",
  "4643": "over",
  "572": "ĠĠĠĠĠĠĠĠĠĠĠĠĠĠĠĠ",
  "7647": "Ġsubset",
  "3462": "ĠThreadSafe",
  "4485": "uler",
  "3889": "ĠTreeNode",
  "4605": "ason",
  "4133": "Ġvar",
  "8134": "rear",
  "2098": "Ġduration",
  "6869": "Ġur",
  "7342": "bstract",
  "7218": "ĠFileHandler",
  "913": "fa",
  "7541": "ooter",
  "8826": "ĠgetVersion",
  "3238": "Ð»Ð¾ÑīÐ°Ð´ÑĮ",
  "1889": "Ġgrade",
  "2930": "ĠĠĠĠĠĠĠĠĠĠĠĠĠĠ",
  "2889": "sian",
  "4841": "Ġinitialized",
  "1394": "ecute",
  "4791": "Ġdivisor",
  "398": "ve",
  "3956": "Ġbits",
  "9127": "ĠuserAddr",
  "4246": "ÑĢÐ°ÑĦ",
  "4792": "otel",
  "1679": "Service",
  "5861": "ĠÐ¸ÑģÐ¿Ð¾Ð»ÑĮÐ·ÑĥÐµÐ¼",
  "549": "Ġth",
  "4363": "Ð¾Ð²Ð°ÑĤÐµÐ»ÑĮ",
  "1195": "ĠÐ¿Ð¾",
  "6428": "reserve",
  "7389": "WOU",
  "551": "Ð·",
  "4496": "ABAB",
  "8235": "OfTwo",
  "6072": "queueMutex",
  "8619": "Ġenqueue",
  "1981": "Ġlen",
  "2694": "Ġfree",
  "8288": "ĠskipWh",
  "8351": "inorder",
  "2401": "ave",
  "4510": "Ġnon",
  "8604": "ÐŀÐº",
  "5613": "\\\"});\\",
  "9578": "ĠMB",
  "1267": "Resource",
  "5319": "Ð¾Ð±Ð°Ð²Ð»ÐµÐ½",
  "4581": "37",
  "6476": "Alarm",
  "4515": "strcmp",
  "2984": "Ġadjacency",
  "2021": "eric",
  "9554": "Ġcow",
  "935": "Ð½Ð°Ñı",
  "4541": "Ġ'-')",
  "9266": "Doc",
  "8418": "Ġdirector",
  "1885": "Of",
  "8640": "gistrar",
  "3726": "euron",
  "4458": "ToString",
  "3465": "Descri",
  "9948": "restock",
  "2338": "Ð»ÐµÐ½Ð¸Ðµ",
  "8983": "wstring",
  "7932": "dynamic",
  "1450": "port",
  "26": "7",
  "4973": "Ġexample",
  "3272": "Ð¸ÑĦÐ¸Ðº",
  "2766": "itude",
  "3392": "ĠAc",
  "6892": "ĠToken",
  "9143": "corePtr",
  "1466": "def",
  "9430": "ĠÐ²Ð°Ð»Ð¸Ð´Ð½ÑĭÐ¹",
  "450": "ew",
  "1601": "vailable",
  "883": "ircle",
  "8527": "vd",
  "8695": "Workers",
  "759": "Ġsizeof",
  "8562": "ÑģÑĤÑģÑı",
  "20": "1",
  "4726": "uter",
  "7396": "lision",
  "4248": "ĠResourceWrapper",
  "2277": "ĠÐ¿Ð¾ÑģÐ»Ðµ",
  "3460": "ĠÐ²ÑģÐµÑħ",
  "3221": "Ġreverse",
  "7019": "ird",
  "8985": "yield",
  "7453": "Ð°Ð½Ð¸ÑĨ",
  "2055": "Ġdiff",
  "2026": "ĠBook",
  "9057": "ĠDiv",
  "6353": "less",
  "689": "ĠĠĠĠĠĠĠĠĠĠĠĠĠĠĠĠĠĠĠ",
  "9384": "ĠaccNum",
  "2102": "argument",
  "4606": "Ġratio",
  "57": "V",
  "9730": "ĠThreadSafeBuffer",
  "1740": "--;\\",
  "6690": "ĠisEmpty",
  "8677": "ĠÐ¾Ð±ÑĬÐµÐºÑĤÐ°",
  "7301": "ftime",
  "4788": "Ġactor",
  "9305": "Ġrep",
  "9406": "ĠÐºÐ»Ð°ÑģÑģÐ°",
  "8582": "etter",
  "6982": "ÑıÐ¼Ð±Ð´Ð°",
  "9132": "laz",
  "6688": "Ġconv",
  "217": "le",
  "3336": "Ġ^",
  "4719": "Up",
  "3951": "mit",
  "2841": "Ġsalary",
  "7327": "0001",
  "3669": "Ġreq",
  "1317": "ition",
  "3867": "nunion",
  "8824": "Ġrgb",
  "2179": "Prime",
  "4448": "Ð¿ÑĢÐ°Ð²",
  "3713": "Ġcondition",
  "6467": "ÐŀÐ¿ÑĢÐµÐ´ÐµÐ»Ð¸ÑĤÐµÐ»ÑĮ",
  "8039": "ĠmyCar",
  "4938": "Page",
  "5705": "Ġinline",
  "9747": "ĠÐ¾ÐºÐ½Ð°",
  "9360": "Ġenrolled",
  "6037": "Ġms",
  "5445": "ĠÐ´Ð¾ÑģÑĤÑĥÐ¿Ð°",
  "4325": "nÐłÐ°Ð·Ð¼ÐµÑĢ",
  "3390": "Ġeps",
  "2097": "LL",
  "8203": "Ð¢Ð¾Ñĩ",
  "6054": "ĠDep",
  "3434": "peration",
  "8902": "ABCD",
  "7667": "ĠÑĪÐ°Ð³",
  "3316": "PE",
  "1169": "Ġsub",
  "9522": "ones",
  "3866": "freq",
  "1355": "Ġevent",
  "4426": "[(",
  "3995": "ĠcacheMap",
  "1460": "rror",
  "3791": "argest",
  "5399": "sect",
  "9355": "ĠtempStart",
  "5760": "tion",
  "2595": "Ġangle",
  "5218": "Here",
  "1815": "Ġpre",
  "2081": "ÐµÐºÑģ",
  "1876": "ĠÑģÐ¸Ð¼Ð²Ð¾Ð»",
  "9583": "InUse",
  "7931": "csignal",
  "8326": ".*",
  "6666": "ÑĭÑĪ",
  "269": "Ġif",
  "1376": "Ð°Ð¹Ð´ÐµÐ½",
  "5911": "BUG",
  "6655": "received",
  "9969": "ĠoutputFile",
  "3987": "Ð°ÑĪ",
  "2779": "Ð¸Ð½Ð´ÑĢ",
  "3932": "ĠÐ¼ÐµÐ¶Ð´Ñĥ",
  "5835": "urch",
  "5703": "kelvin",
  "6864": "save",
  "1077": "Ġtime",
  "4578": "ĠÐ¾Ð¿ÐµÑĢÐ°ÑĤÐ¾ÑĢ",
  "3075": "ĠÐ¨",
  "4418": "ĠÐºÐ¾Ð½ÑĤ",
  "327": "unt",
  "3965": "ĠÐ¿ÑĢÐ¸Ñģ",
  "3988": "ÑĢÐ¾Ð±",
  "8034": "Ð½Ð¾ÑģÑĤÑĮÑİ",
  "1701": "Ġinput",
  "5250": "Ð¸Ð·Ð²ÐµÑģÑĤ",
  "5270": "andidate",
  "4129": "Field",
  "2474": "ual",
  "3489": "Ġ\\\\\\\"",
  "8147": "Ġcutoff",
  "3382": "sorted",
  "1434": "Ð½ÑĭÐ¼",
  "2648": "ĠÑģÑģÑĭÐ»ÐºÑĥ",
  "4688": "ĠSharedPtr",
  "38": "C",
  "8574": "Received",
  "5328": "Ġalignof",
  "7530": "Ð¢ÐµÐºÑģÑĤ",
  "7799": "ÑĢÑĥÐ¿",
  "3278": "Singleton",
  "6923": "ÐļÐ¾Ð¼Ð¿",
  "284": "ro",
  "3765": "arehouse",
  "3318": "ise",
  "4290": "Ġ19",
  "268": "Ġb",
  "2688": "ĠÑĢÐ°Ð±Ð¾ÑĤ",
  "1892": "On",
  "6402": "Ġ1900",
  "433": "que",
  "5638": "Ġcomplete",
  "5193": "memset",
  "1324": "loat",
  "1040": "ĠÑĩÐ¸ÑģÐ»",
  "5865": "ĠÐ¼ÑĮÑİÑĤ",
  "900": "ep",
  "3364": "Ð¸Ð²Ð°ÐµÐ¼",
  "4444": "mainder",
  "4545": "ESS",
  "9851": "vider",
  "9085": "ĠFROM",
  "2150": "Ð¸ÑģÐº",
  "7714": "sing",
  "1184": "list",
  "6259": "ĠPhone",
  "4905": "ÑģÐ¸Ñı",
  "8569": "ĠTOTAL",
  "6426": "Ġ)",
  "8242": "ĠÐĴÑĭÐ¿Ð¾Ð»Ð½",
  "7923": "FAI",
  "9651": "computation",
  "2331": "ĠSingleton",
  "4809": "ÐµÑģÐ»Ð¸",
  "5522": "ĠÑĥÐ¼Ð½Ð¾Ð¶ÐµÐ½Ð¸Ñı",
  "9029": "isActive",
  "8472": "ĠÑģÐ¾Ð±ÑĭÑĤÐ¸Ñı",
  "7856": "ĠMyString",
  "126": "¿",
  "3153": "Div",
  "2905": "ÐŁÐ¾ÑĤÐ¾Ðº",
  "7875": "ĠbestPath",
  "9392": "cesses",
  "3737": "Ġhex",
  "7244": "Permission",
  "4784": "ĠÑģÑĤÐ°ÑĤ",
  "9439": "Converter",
  "3248": "Ð¿ÑĢÐµÐ´ÐµÐ»",
  "9498": "oundex",
  "7335": "Ġassignment",
  "4930": "([&",
  "6000": "ccurrence",
  "4794": "Ġsymbol",
  "9644": "since",
  "5582": "ĠÑģÐºÐ¾Ð¿Ð¸ÑĢÐ¾Ð²Ð°Ð½",
  "4114": "ÐĿÐŀ",
  "3762": "ĠÑģÐ¾ÑģÑĤ",
  "6949": "ĠÐ¾Ð±ÑĬÑıÐ²",
  "9549": "getY",
  "2590": "Ġnumerator",
  "107": "«",
  "5821": "OS",
  "181": ";\\",
  "8567": "ĠSU",
  "2674": "ÑĢÐ°ÑģÑĤ",
  "758": "ree",
  "9381": "obot",
  "7413": "Ð»Ð¸Ð²",
  "2787": "idx",
  "9913": "ÐŀÐ´",
  "4781": "Ġheights",
  "6819": "ĠÐ¾ÑĨÐµÐ½ÐºÐ°",
  "342": "Ġ-",
  "2123": "Ð¸ÑĤÑĮ",
  "4305": "acquire",
  "3313": "gistered",
  "120": "¹",
  "766": "Ð¾Ð¿",
  "3587": "netinet",
  "4989": "ĠÑĦÐ°Ð¹Ð»Ð°",
  "6516": "ĠSerialization",
  "6284": "Ð°ÑĢÐ¿Ð»",
  "1728": "ĠAn",
  "5656": "ircum",
  "8100": "OPEN",
  "1759": "Ð¾Ð½ÑģÑĤÑĢ",
  "5817": "!\\\");\\",
  "3912": "ÑįÑĦÑĦÐ¸ÑĨÐ¸ÐµÐ½ÑĤ",
  "4320": "GB",
  "3473": "Ð¯",
  "6529": "ĠÐ¿ÐµÑĢÐµÑģÑĤÐ°Ð½Ð¾Ð²",
  "1747": "ÑģÐ¿Ð¾Ð»ÑĮÐ·Ð¾Ð²",
  "7127": "Ġ\\\"|",
  "5612": "ĠQueue",
  "7853": "param",
  "4629": "ĠÐ¿Ð¾ÑĢÑıÐ´ÐºÐµ",
  "7272": "Limit",
  "6720": "ARNING",
  "3506": "Ġep",
  "79": "l",
  "5203": "Enter",
  "5791": "ĠÐĺÐ¼",
  "4980": "ĠObserver",
  "9192": "observers",
  "8116": "gpa",
  "5316": "Strings",
  "2155": "Ġacc",
  "5786": "ĠER",
  "7006": "alnum",
  "7942": "ĠĠĠĠĠĠ",
  "8457": "ĠÑĦÑĥÐ½ÐºÑĨÐ¸Ð¹",
  "462": "ÐµÐ´",
  "2447": "Ġ\\\"\\\\\\\"",
  "3879": "ĠÐ²ÑĭÐ·Ð¾Ð²",
  "3128": "Ð½Ð¸Ð³",
  "4312": "ĠÐ½Ð°Ð¹Ð´ÐµÐ½Ð¾",
  "2716": "ouse",
  "7013": "Ġsame",
  "7059": "ĠTrans",
  "5742": "Ġconverter",
  "1595": "Ġ\\\";",
  "9791": "ĠSettingsManager",
  "1137": "Ġcre",
  "6765": "ÐŀÑĩÐµÑĢÐµÐ´ÑĮ",
  "2833": "ĠÐ±ÐµÐ·",
  "514": "eng",
  "6267": "ands",
  "5505": "Ð°Ð¿ÑĢ",
  "9104": "ĠRemo",
  "8289": "Ġsignatures",
  "4406": "ĠText",
  "4079": "Ġprocessed",
  "2207": "inet",
  "4204": "Ð¸ÑĤÑģÑı",
  "1338": "Ġday",
  "7383": "Mouse",
  "4255": "Ġrecommend",
  "7557": "ublisher",
  "1533": "erson",
  "7433": "Ð¼Ð¸",
  "7622": "Ð¾ÑĤÐ¾Ð²",
  "5997": "Ð½ÑĥÑĤÑĢÐ¸",
  "9831": "PROGRESS",
  "9176": "ĠroomNumber",
  "3151": "Interest",
  "1396": "ply",
  "8790": "Ġdenom",
  "1561": "Ġmonth",
  "6999": "score",
  "6504": "Ġinterpret",
  "2894": "Pointer",
  "5740": "DoorState",
  "3661": "ĠÐ²Ð¾Ð·ÑĢÐ°ÑģÑĤ",
  "4724": "Ġsign",
  "3732": "Ġ[]()",
  "4361": "aterm",
  "9320": "Ġoccurrence",
  "6795": "ilk",
  "2129": "Add",
  "9821": "Ġoldest",
  "6551": "malloc",
  "807": "isplay",
  "5146": "ĠÐ´Ð¾Ð»Ð¶Ð½Ð°",
  "2934": "17",
  "4716": "CRC",
  "8007": "============",
  "1665": "cry",
  "5823": "Pattern",
  "8434": "Minimum",
  "2428": "ĠÐ·Ð°Ð²",
  "8685": "ĠDatabaseRecord",
  "7838": "expired",
  "5701": "ĠÐ½ÐµÑģÐº",
  "1796": "ategory",
  "6212": "arrival",
  "8163": "Ġlabel",
  "6207": "HECK",
  "3031": "impl",
  "86": "s",
  "3375": "Ġpop",
  "1624": "ÑĥÑĩ",
  "9282": "]*(",
  "9584": "ÐĴÐĿ",
  "3298": "]]",
  "3513": "Arr",
  "7477": "Ð¸Ð±Ð¾",
  "3840": "offset",
  "2813": "host",
  "6205": "attach",
  "7193": "ÐµÐ¹ÑĤ",
  "8618": "ĠÐ¾Ð±ÑĭÑĩ",
  "2228": "AD",
  "2285": "Request",
  "6496": "ĠÑģÐ»ÐµÐ´ÑĥÑİÑī",
  "9725": "ĠÐĽÐ¸ÑĤÐµÑĢÐ°Ð»",
  "8172": "ĠnumThreads",
  "7379": "IS",
  "4808": "Ġ{}",
  "1678": "actory",
  "5216": "BO",
  "1397": "Ġ\\\"'",
  "6145": "asic",
  "5430": "ÐŀÐĶ",
  "950": "vice",
  "6184": "Ġ\\\"):\\\"",
  "7810": "REUSE",
  "669": "Ġ\\\",",
  "2563": "edge",
  "8345": "ging",
  "6388": "ĠThreadPool",
  "3494": "ĲâķĲâķĲâķĲâķĲâķĲâķĲâķĲâķ",
  "8080": "ĠÐĸÐ´ÐµÐ¼",
  "3478": "inder",
  "2514": "Ġrec",
  "1492": "ject",
  "8739": "ĠÐ½Ð°Ð±Ð»ÑİÐ´Ð°ÑĤÐµÐ»",
  "7419": "Ġoff",
  "9775": "ĠÐŁÐ¾Ð»ÑĥÑĩÐ°ÐµÐ¼",
  "2637": "digit",
  "3688": "ĠMultiton",
  "3591": "]))",
  "996": "Ġ7",
  "5078": "ÑģÑĤÑĢÐ¾",
  "806": "sig",
  "2599": "Ð¾ÑģÐ»ÐµÐ´",
  "9290": "nake",
  "8086": "CII",
  "2623": "radius",
  "2795": "mid",
  "8486": "ĠÐ¿ÑĢÐ¸ÑģÐ²Ð°Ð¸Ð²Ð°Ð½Ð¸Ðµ",
  "5606": "nÐĺ",
  "3546": "sa",
  "1485": "Visitor",
  "4901": "ĠÐ°Ð´",
  "5014": "Course",
  "9011": "Ġpending",
  "2363": "AF",
  "7174": "ĠĠĠĠĠĠĠĠĠĠĠĠĠĠĠĠĠĠĠĠĠĠĠĠĠĠĠĠĠĠĠĠĠĠĠĠĠĠ",
  "1298": "Ġtry",
  "5030": "Ġbegin",
  "1501": "Exception",
  "4414": "Ð°ÐºÑĤ",
  "1631": "Tree",
  "6708": "ĠImage",
  "6847": "ĠÐ³ÑĢÐ°Ð´ÑĥÑģÐ¾Ð²",
  "6854": "GPU",
  "1299": "CK",
  "1574": "Ġthis",
  "3383": "ADDR",
  "3078": "ilter",
  "3050": "ĠÑĤÐ¸Ð¿Ð¾Ð²",
  "1884": "Ð¸Ð¼Ð°Ð»ÑĮ",
  "408": "space",
  "5965": "ifi",
  "6842": "Changed",
  "7017": "isPalindrome",
  "7504": "ĠConcreteColleague",
  "2899": "Ġ\\\".",
  "892": "adi",
  "847": "Ġ++",
  "6149": "yes",
  "5855": "ĠÐ²Ð·",
  "3522": "Ġroom",
  "9050": "ĠresultSize",
  "1188": "pro",
  "4766": "Ġ22",
  "6567": "tered",
  "9870": "ÑıÐ´Ð°",
  "4151": "CO",
  "8848": "ÐĶÐ¾ÑģÑĤÑĥÐ¿",
  "8265": "ĠloadData",
  "7628": "Ð¾Ð½ÐµÑĩ",
  "2573": "67",
  "7092": "29",
  "1230": "Comp",
  "9945": "shift",
  "7701": "MS",
  "5093": "parse",
  "9167": "ĠCommandManager",
  "4816": "Ġdecrypted",
  "4847": "TYPE",
  "5088": "MPLE",
  "5597": "ĠRoomType",
  "789": "].",
  "750": "temp",
  "5593": "ĠÐ¾ÑĤÐºÑĢÑĭÑĤ",
  "4113": "ĠÑĩÑĤÐ¾",
  "2584": "ĠArgs",
  "6881": "unted",
  "7104": "Two",
  "6410": "Fraction",
  "3940": "ÑĥÑīÐµÑģÑĤÐ²",
  "1715": "Ġ25",
  "8179": "Ð½Ð°Ð»Ð¸Ð·",
  "765": "ĠCo",
  "8202": "ĠprocessReference",
  "4528": "ĠÐ²ÑĭÑĢÐ°Ð¶",
  "6500": "servations",
  "5971": "ĠÐĶÐ¾ÑģÑĤÑĥÐ¿",
  "7483": "ÐķÐ¢",
  "8216": "ĠÐĿÐ°Ð·Ð²Ð°Ð½Ð¸Ðµ",
  "5672": "CAP",
  "7277": "ai",
  "6936": "Ð§Ð°ÑģÑĤ",
  "8813": "ĠSorter",
  "124": "½",
  "3852": "ÐºÐ°Ñı",
  "9635": "Ð¾ÑĩÐ¸ÑĤ",
  "7897": "Ġ273",
  "8634": "Encryption",
  "5024": "ÑĢÑĥÐ·",
  "264": "th",
  "4183": "ÑĢÐ°Ð²Ð½ÐµÐ½Ð¸Ñı",
  "3239": "dis",
  "5178": "eta",
  "4517": "Ġgap",
  "6335": "Axis",
  "6980": "ĠÐĳÐ°Ð·Ð¾Ð²ÑĭÐ¹",
  "9055": "abra",
  "3006": "Cannot",
  "4712": "Ġskip",
  "2408": "ruct",
  "4530": "ĠrefCount",
  "8704": "ĠÐ·Ð°ÐºÐ°Ð·Ð°",
  "4502": "Ð¢ÐµÐºÑĥÑī",
  "5123": "ÐµÐ½Ð´",
  "6393": "ĠÐļÐ¾Ð½ÐºÑĢÐµÑĤ",
  "3660": "ĠÐĴÑĭÑĩÐ¸ÑģÐ»",
  "1775": "Ġprice",
  "8103": "Player",
  "5282": "bb",
  "2227": "64",
  "7817": "Ð¾ÑĢÑĤÐ¸ÑĢÑĥÐµÐ¼",
  "2544": "ĠÐ¸Ð·Ð¼ÐµÐ½",
  "6010": "EE",
  "1082": "alance",
  "9257": "81",
  "8624": "1001",
  "3456": "ĠStack",
  "6616": "ĠÐ´ÐµÐ»ÐµÐ½Ð¸Ðµ",
  "5412": "Ð°Ð½Ð´",
  "9946": "Ð§ÑĤÐµÐ½Ð¸Ðµ",
  "6115": "ĠÐ¸ÑģÐ¿Ð¾Ð»ÑĮÐ·Ð¾Ð²Ð°Ð½Ð¸ÐµÐ¼",
  "7759": "ĠSFINAE",
  "7076": "ĠÑģÐ»ÑĥÑĩÐ°",
  "3535": "ventory",
  "4909": "ĠgetId",
  "206": "ĠÐ",
  "7924": "Gre",
  "536": "push",
  "3776": "\\\\\\\":",
  "7564": "Cle",
  "3923": "device",
  "2734": "System",
  "7369": "ZERO",
  "4336": "Ġformat",
  "9458": "-]+",
  "592": "ÑĦ",
  "9041": "thernet",
  "8723": "WRITE",
  "8892": "ÐĴÑĭÐ¿Ð¾Ð»Ð½",
  "9000": "Ð½ÑıÑĤ",
  "3283": "Ġrunning",
  "550": "Ġover",
  "5845": "adr",
  "8156": "Ð²Ð¸Ñģ",
  "9306": "Ġreplace",
  "3882": "Access",
  "6008": "AME",
  "7623": "Ġproto",
  "2646": "Ġand",
  "7353": "ĠÐ²Ð¾Ð·Ð²ÑĢÐ°ÑīÐ°ÐµÐ¼",
  "641": ">>",
  "1215": "User",
  "8868": "Three",
  "4142": "ÐµÑģÐº",
  "3585": "Ð²ÐµÑĢÑĤ",
  "2253": "Code",
  "2665": "upper",
  "1772": "().",
  "7298": "ĠÐ´ÐµÐº",
  "5810": "Ġmagnitude",
  "8195": "ĠRuleOfFive",
  "2745": "Ġdestroy",
  "6398": "ĠÐ°Ð²ÑĤÐ¾Ð¼Ð°ÑĤ",
  "8293": "Connections",
  "7332": "ĠTimeInterval",
  "1455": "ĠÐºÐ¾Ð½",
  "187": "ĠĠĠĠĠĠĠ",
  "3045": "ÐĿÐ°Ð¹Ð´ÐµÐ½",
  "999": "atus",
  "2539": "ĠJsonValue",
  "5122": "Ġ180",
  "5600": "Aggregate",
  "511": "ÑĨÐ¸",
  "9826": "Ð¡ÑĤÐ°ÑĤÑĥÑģ",
  "5305": "Ð¿Ð»",
  "3566": "arpa",
  "5494": "Ð¾ÑĤÐ¾ÑĢ",
  "7843": "directory",
  "9019": "ĠbubbleSort",
  "4823": "));",
  "9426": "ĠNonCopyableButCloneable",
  "5948": "Ð°Ð½Ð°",
  "1917": "sive",
  "1590": "Ġ\\\\",
  "5394": "Ġreservation",
  "5596": "ĠActor",
  "4021": "Ġtag",
  "3130": "ÐµÐ½Ð½Ð°Ñı",
  "741": "ÑģÑĤÑĢ",
  "7106": "VirtualBase",
  "7629": "ĠÐ±ÑĥÐ´",
  "791": "ÐĶ",
  "8184": "ĠnewArr",
  "2777": "ĠÑĤÐµÐº",
  "2386": "span",
  "2859": "Log",
  "2928": "uple",
  "5642": "ETH",
  "559": "ter",
  "9768": "ĠYELLOW",
  "1963": "ÐµÐ½Ð°",
  "6843": "ĠÐ´Ð²ÑĥÑħ",
  "9058": "Ð¿Ð°",
  "8933": "ĠÑĥÐ½Ð¸ÑĩÑĤÐ¾Ð¶ÐµÐ½",
  "7068": "RITICAL",
  "7855": "ĠÑģÐ¿Ð¾ÑģÐ¾Ð±",
  "2538": "ÑĢÑĥÐ³",
  "2650": "ie",
  "9582": "Ð½Ð¾ÑĪ",
  "2870": "Ġitems",
  "4913": "ecution",
  "6217": "Ada",
  "1950": "sort",
  "3132": "Ġhead",
  "6565": "Ġack",
  "9827": "lazy",
  "3060": "Use",
  "827": "bers",
  "1154": "unc",
  "8045": "ĠStateMachine",
  "5807": "Ð¸ÑĩÐµÑģÐºÐ¸Ðµ",
  "5287": "Ġ\\\"(",
  "4487": "ĠÑģÐµÑĢ",
  "3671": "Ġcuda",
  "6225": "average",
  "2236": "ync",
  "169": "Ļ",
  "1522": "ĠPro",
  "5503": "foo",
  "4468": "Ġcleanup",
  "5415": "ĠÐ½Ð°Ð»",
  "8252": "ĠÐ¾Ð´Ð½Ð¾Ð³Ð¾",
  "4535": "Ġconnections",
  "3697": "ĠÐ¿Ð°ÑĢ",
  "7679": "ĠÐ¡ÑģÑĭÐ»ÐºÐ¸",
  "7149": "ÐºÑĤ",
  "3929": "Ġaction",
  "1945": "ÐºÑĥ",
  "5389": "ermo",
  "2844": "ĠÑģÐ¿",
  "8141": "Ġneg",
  "4191": "Mod",
  "6643": "gener",
  "690": "late",
  "4046": "ĠSize",
  "1373": "Ġ\\\"[",
  "1104": "Ġan",
  "1157": "inary",
  "3038": "Ġmerge",
  "2546": "wait",
  "5249": "Ð¢Ð¸Ð¿",
  "7845": "Ġrecipient",
  "4927": "ĠÑĢÐ°Ð±Ð¾ÑĤÑĥ",
  "649": "IN",
  "4824": ">>>",
  "2962": "Tracker",
  "2772": "ken",
  "6173": "Ð¡Ð°Ð¼",
  "3797": "ÑĢÐ°Ð¶",
  "5471": "dated",
  "1577": "original",
  "25": "6",
  "4459": "Unknown",
  "5082": "ĠWeekday",
  "1881": "cltype",
  "6805": "ĠFilter",
  "9365": "scalar",
  "9810": "ĠSharedMemory",
  "778": "ÐĴÐ²ÐµÐ´",
  "3260": "derer",
  "3729": "pu",
  "8382": "Standard",
  "1788": "Ð»ÑİÑĩ",
  "7874": "andidates",
  "857": "og",
  "7487": "ĠÐłÐµÐºÑĥÑĢÑģ",
  "9484": "],\\",
  "5485": "Ġcalle",
  "548": "iv",
  "5754": "GR",
  "5693": "ĠpImpl",
  "4478": "weak",
  "5663": "ĠSettings",
  "2910": "ĠÐļÐ¾Ð½",
  "72": "e",
  "777": "Ð¸Ñĩ",
  "9661": "LOAD",
  "5038": "ĠÑģÐ¾Ð¾Ð±ÑīÐµÐ½Ð¸Ðµ",
  "4783": "ĠÐ¿Ð¾Ð¸ÑģÐºÐ°",
  "544": "Ð¹",
  "1019": "ĠO",
  "7898": "ÑĢÐ°Ð±Ð°ÑĤ",
  "824": "Ġmin",
  "5968": "toupper",
  "5158": "BE",
  "8775": "nÐ¢ÐµÑģÑĤ",
  "7036": "ĠÑĢÐ°ÑģÑģÑĤ",
  "2931": "LOCK",
  "4472": "Longest",
  "6796": "Remo",
  "7619": "ĠAll",
  "4210": "ÑĪÐµ",
  "7237": "ÑĢÐ°Ð½Ð¸Ñĩ",
  "6957": "Ġterms",
  "5790": "Ġ2024",
  "2409": "alle",
  "4728": "Ġtm",
  "8111": "aN",
  "4936": "Email",
  "7269": "Factor",
  "3519": "Ð¸ÑĦÑĢÐ¾Ð²",
  "3687": "ĠÐ¿ÑĢÐ¸Ð¾ÑĢÐ¸ÑĤÐµÑĤ",
  "5566": "ĠLO",
  "5633": "ĠRED",
  "232": "Ġ(",
  "7593": "ÑıÑī",
  "6056": "InMonth",
  "7651": "compute",
  "5517": "App",
  "8938": "ĠÐ¿Ð°ÑĤÑĤÐµÑĢ",
  "4322": "TE",
  "6018": "Phone",
  "6045": "Ġlst",
  "9687": "ĠInner",
  "8220": "Ġattr",
  "4309": "ĠJsonException",
  "3074": "target",
  "9990": "ĠÑģÐ¾Ð¾Ð±ÑīÐµÐ½Ð¸Ð¹",
  "3665": "PU",
  "2294": "olution",
  "5353": "Ġstrategy",
  "7692": "nnamespace",
  "3396": "ĠGame",
  "779": "move",
  "785": "Ð¾Ð³",
  "8641": "Ð»ÐµÐ½Ð¾",
  "939": "Ðľ",
  "5867": "ĠmaxEndingHere",
  "9227": "ÑĢÐ¾Ð¶Ð´ÐµÐ½Ð½Ð°Ñı",
  "2462": "ĠÐ¿Ð¾Ð»Ð¾Ð¶Ð¸ÑĤÐµÐ»ÑĮ",
  "1404": "dd",
  "6249": "annel",
  "4374": "...)",
  "1920": "Book",
  "6365": "ĠSe",
  "4613": "ĠÐĴÐ¾Ð·",
  "1947": "leted",
  "3817": "ÑĢÐ¾",
  "3358": "ÑĥÑĢÐ°",
  "675": "ĠÐ±",
  "6909": "ĠÐ·Ð°Ð³",
  "6827": "Ð¾Ð½Ð°Ð»ÑĮ",
  "4274": "ÐŀÑĤÑģÐ¾ÑĢÑĤÐ¸ÑĢÐ¾Ð²Ð°Ð½",
  "8856": "Ð°ÑĢÐ°ÑĤÐ¾ÑĢ",
  "3617": "src",
  "423": "as",
  "9905": "ĠĠĠĠĠĠĠĠĠĠĠĠĠĠĠĠĠĠĠĠĠĠĠĠĠĠĠĠ",
  "5176": "Ġchoice",
  "4859": "getType",
  "5520": "Ð¾Ð´Ð¸ÑĦÐ¸ÐºÐ°ÑĨÐ¸Ñı",
  "6073": "Ð¸Ð·Ð²Ð¾Ð´",
  "2470": "ÑİÑī",
  "9045": "ĠÐ²ÐµÑģ",
  "5794": "LOG",
  "6320": "Traversal",
  "533": "Ġ>>",
  "6342": "82",
  "7870": "UniquePtr",
  "2789": "Ġconn",
  "2915": "Ġti",
  "5013": "ĠÐ´ÐµÐ¼Ð¾Ð½ÑģÑĤÑĢ",
  "800": "//",
  "123": "¼",
  "5317": "jection",
  "5010": "ĠCre",
  "7869": "Ġtrim",
  "790": "irst",
  "9941": "Ġ\\\"':\\\"",
  "8247": "ĠcalculateSalary",
  "191": "re",
  "8926": "Cycle",
  "1907": "Ġdenominator",
  "2803": "ÑĦÑĦ",
  "7583": "Ġ\\\"---",
  "8349": "shape",
  "3359": "iton",
  "3739": "ĠcurrentState",
  "320": "ad",
  "3549": "Ġeven",
  "506": "Ġbool",
  "6899": "Ġinventory",
  "2633": "Ġfreq",
  "8584": "ĠyVal",
  "9047": "ĠxVal",
  "6591": "ÐĲÐ¢",
  "5388": "reed",
  "896": "Ġtotal",
  "7514": "Serialize",
  "7118": "oStack",
  "3721": "ĠÐ±Ð¾Ð»ÑĮÑĪ",
  "9424": "Ð¡Ð¢Ðĺ",
  "7264": "ÑģÐ¾Ð»ÑİÑĤ",
  "5652": "ĠĠĠĠĠĠĠĠĠĠĠĠĠĠĠĠĠĠĠĠĠĠĠĠĠ",
  "8352": "Ġ\\\"^\\\"",
  "4703": "ÐŀÐ±ÑĬ",
  "2927": "Ġjson",
  "3799": "ÑģÐ¿ÐµÑĪ",
  "4474": "TP",
  "5537": "ipe",
  "2394": "ÐĺÑģÑħÐ¾Ð´Ð½ÑĭÐ¹",
  "6151": "sell",
  "1354": "ÑĤÐ°ÑĤ",
  "18": "/",
  "8820": "Ġhobbies",
  "3377": "pher",
  "2518": "Ġexception",
  "9461": "Between",
[...]
