{
  "version": "1.0",
  "truncation": null,
  "padding": null,
  "added_tokens": [
    {
      "id": 0,
      "content": "<PAD>",
      "single_word": false,
      "lstrip": false,
      "rstrip": false,
      "normalized": false,
      "special": true
    },
    {
      "id": 1,
      "content": "<UNK>",
      "single_word": false,
      "lstrip": false,
      "rstrip": false,
      "normalized": false,
      "special": true
    },
    {
      "id": 2,
      "content": "<BOS>",
      "single_word": false,
      "lstrip": false,
      "rstrip": false,
      "normalized": false,
      "special": true
    },
    {
      "id": 3,
      "content": "<EOS>",
      "single_word": false,
      "lstrip": false,
      "rstrip": false,
      "normalized": false,
      "special": true
    }
  ],
  "normalizer": null,
  "pre_tokenizer": {
    "type": "ByteLevel",
    "add_prefix_space": false,
    "trim_offsets": true,
    "use_regex": true
  },
  "post_processor": {
    "type": "ByteLevel",
    "add_prefix_space": true,
    "trim_offsets": true,
    "use_regex": true
  },
  "decoder": {
    "type": "ByteLevel",
    "add_prefix_space": true,
    "trim_offsets": true,
    "use_regex": true
  },
  "model": {
    "type": "BPE",
    "dropout": null,
    "unk_token": null,
    "continuing_subword_prefix": null,
    "end_of_word_suffix": null,
    "fuse_unk": false,
    "byte_fallback": false,
    "ignore_merges": false,
    "vocab": {
      "<PAD>": 0,
      "<UNK>": 1,
      "<BOS>": 2,
      "<EOS>": 3,
      "!": 4,
      "\"": 5,
      "#": 6,
      "$": 7,
      "%": 8,
      "&": 9,
      "'": 10,
      "(": 11,
      ")": 12,
      "*": 13,
      "+": 14,
      ",": 15,
      "-": 16,
      ".": 17,
      "/": 18,
      "0": 19,
      "1": 20,
      "2": 21,
      "3": 22,
      "4": 23,
      "5": 24,
      "6": 25,
      "7": 26,
      "8": 27,
      "9": 28,
      ":": 29,
      ";": 30,
      "<": 31,
      "=": 32,
      ">": 33,
      "?": 34,
      "@": 35,
      "A": 36,
      "B": 37,
      "C": 38,
      "D": 39,
      "E": 40,
      "F": 41,
      "G": 42,
      "H": 43,
      "I": 44,
      "J": 45,
      "K": 46,
      "L": 47,
      "M": 48,
      "N": 49,
      "O": 50,
      "P": 51,
      "Q": 52,
      "R": 53,
      "S": 54,
      "T": 55,
      "U": 56,
      "V": 57,
      "W": 58,
      "X": 59,
      "Y": 60,
      "Z": 61,
      "[": 62,
      "\\": 63,
      "]": 64,
      "^": 65,
      "_": 66,
      "`": 67,
      "a": 68,
      "b": 69,
      "c": 70,
      "d": 71,
      "e": 72,
      "f": 73,
      "g": 74,
      "h": 75,
      "i": 76,
      "j": 77,
      "k": 78,
      "l": 79,
      "m": 80,
      "n": 81,
      "o": 82,
      "p": 83,
      "q": 84,
      "r": 85,
      "s": 86,
      "t": 87,
      "u": 88,
      "v": 89,
      "w": 90,
      "x": 91,
      "y": 92,
      "z": 93,
      "{": 94,
      "|": 95,
      "}": 96,
      "~": 97,
      "¡": 98,
      "¢": 99,
      "£": 100,
      "¤": 101,
      "¥": 102,
      "¦": 103,
      "§": 104,
      "¨": 105,
      "©": 106,
      "«": 107,
      "¬": 108,
      "®": 109,
      "¯": 110,
      "°": 111,
      "±": 112,
      "²": 113,
      "³": 114,
      "´": 115,
      "µ": 116,
      "¶": 117,
      "·": 118,
      "¸": 119,
      "¹": 120,
      "º": 121,
      "»": 122,
      "¼": 123,
      "½": 124,
      "¾": 125,
      "¿": 126,
      "Â": 127,
      "Ã": 128,
      "Î": 129,
      "Ï": 130,
      "Ð": 131,
      "Ñ": 132,
      "×": 133,
      "Ø": 134,
      "Ù": 135,
      "â": 136,
      "ã": 137,
      "ä": 138,
      "å": 139,
      "ç": 140,
      "ï": 141,
      "ð": 142,
      "Ġ": 143,
      "Ģ": 144,
      "ģ": 145,
      "Ĥ": 146,
      "ĥ": 147,
      "Ħ": 148,
      "ħ": 149,
      "Ĩ": 150,
      "ĩ": 151,
      "Ī": 152,
      "ī": 153,
      "Ĭ": 154,
      "ĭ": 155,
      "Į": 156,
      "į": 157,
      "İ": 158,
      "ı": 159,
      "Ĳ": 160,
      "ĳ": 161,
      "Ĵ": 162,
      "ĵ": 163,
      "Ķ": 164,
      "ķ": 165,
      "ĸ": 166,
      "Ĺ": 167,
      "ĺ": 168,
      "Ļ": 169,
      "ļ": 170,
      "Ľ": 171,
      "ľ": 172,
      "Ŀ": 173,
      "ŀ": 174,
      "Ł": 175,
      "ł": 176,
      "Ń": 177,
      "ĠĠ": 178,
      "ĠĠĠĠ": 179,
      "ĠĠĠ": 180,
      ";\\": 181,
      "Ġ<": 182,
      "st": 183,
      "in": 184,
      "\\\"": 185,
      "Ġ<<": 186,
      "ĠĠĠĠĠĠĠ": 187,
      "Ġ\\\"": 188,
      "co": 189,
      "Ġst": 190,
      "re": 191,
      "::": 192,
      "Ġ{": 193,
      "en": 194,
      "Ġstd": 195,
      "Ðµ": 196,
      "Ġ=": 197,
      "Ġ{\\": 198,
      "ut": 199,
      "er": 200,
      "Ð¾": 201,
      "int": 202,
      "()": 203,
      "Ð°": 204,
      "or": 205,
      "ĠÐ": 206,
      "de": 207,
      "Ġ\\": 208,
      "}\\": 209,
      "at": 210,
      "cout": 211,
      "Ð¸": 212,
      "end": 213,
      "Ġ}\\": 214,
      "Ð½": 215,
      "Ġi": 216,
      "le": 217,
      "Ġre": 218,
      "endl": 219,
      "ÑĤ": 220,
      "al": 221,
      "ĠĠĠĠĠĠĠĠĠĠĠ": 222,
      "cl": 223,
      ");\\": 224,
      "ur": 225,
      "ÑĢ": 226,
      "Ñģ": 227,
      "Ð¾Ð": 228,
      "ing": 229,
      "am": 230,
      "on": 231,
      "Ġ(": 232,
      "con": 233,
      "Ġ0": 234,
      "ar": 235,
      ">\\": 236,
      "se": 237,
      "tur": 238,
      "turn": 239,
      "Ġreturn": 240,
      "ct": 241,
      "ude": 242,
      "Ġm": 243,
      "clude": 244,
      "include": 245,
      "Ġf": 246,
      "Ġn": 247,
      "Ġv": 248,
      "Ġcout": 249,
      "Ġt": 250,
      "Ġd": 251,
      "si": 252,
      "Ð»": 253,
      "ub": 254,
      "Ġp": 255,
      "const": 256,
      "ce": 257,
      "ring": 258,
      "Ġc": 259,
      "Ġint": 260,
      "Ġendl": 261,
      "un": 262,
      "ue": 263,
      "th": 264,
      "id": 265,
      "Ġa": 266,
      "ÐµÐ": 267,
      "Ġb": 268,
      "Ġif": 269,
      "an": 270,
      "ge": 271,
      "ame": 272,
      "ic": 273,
      "ze": 274,
      "Ġs": 275,
      "ect": 276,
      "Ġo": 277,
      "Ġ1": 278,
      "Ġma": 279,
      "ĠĠĠĠĠĠĠĠ": 280,
      "Ð°Ð": 281,
      "Ñĥ": 282,
      "Ñı": 283,
      "ro": 284,
      "string": 285,
      "ri": 286,
      "ss": 287,
      "Ñĭ": 288,
      "size": 289,
      "us": 290,
      "ion": 291,
      "ck": 292,
      "ream": 293,
      "Ġ/": 294,
      "ÐµÐ½": 295,
      "te": 296,
      "stream": 297,
      "mp": 298,
      "Ġ+": 299,
      "Ġ:": 300,
      "um": 301,
      "ate": 302,
      "Ġconst": 303,
      "uble": 304,
      "ouble": 305,
      "io": 306,
      "Ð¸Ð": 307,
      "};\\": 308,
      "tr": 309,
      "ul": 310,
      "();\\": 311,
      "it": 312,
      "nint": 313,
      "Ġe": 314,
      "==": 315,
      "oid": 316,
      "Ġfor": 317,
      "ent": 318,
      "ector": 319,
      "ad": 320,
      "Ġmain": 321,
      "iostream": 322,
      "\\\\": 323,
      "Ġ//": 324,
      "pe": 325,
      "lo": 326,
      "unt": 327,
      "ch": 328,
      "Ðº": 329,
      "Ñĩ": 330,
      "get": 331,
      "ÑģÑĤ": 332,
      "ÑĮ": 333,
      "ata": 334,
      "ol": 335,
      "alue": 336,
      "Ġvoid": 337,
      "ed": 338,
      "ĠĠĠĠĠĠĠĠĠĠĠĠĠĠĠ": 339,
      "lic": 340,
      "Ġ*": 341,
      "Ġ-": 342,
      "Ð¾Ð²": 343,
      "Ġdouble": 344,
      "is": 345,
      "Ġname": 346,
      "pa": 347,
      "ublic": 348,
      "ÐµÑĢ": 349,
      ":\\": 350,
      "Ð²": 351,
      "ĠÐ¿": 352,
      "ex": 353,
      "np": 354,
      "ult": 355,
      "ir": 356,
      "Ġ2": 357,
      "ass": 358,
      "ype": 359,
      "->": 360,
      "Ġ>": 361,
      "++": 362,
      "Ġ==": 363,
      "me": 364,
      "std": 365,
      "ile": 366,
      "ra": 367,
      "Ġw": 368,
      "ver": 369,
      "vector": 370,
      "ig": 371,
      "ĠÑģ": 372,
      "(\\\"": 373,
      "class": 374,
      "ĠC": 375,
      "ator": 376,
      "Ġco": 377,
      "ĠS": 378,
      "ot": 379,
      "Ġl": 380,
      "Ġ\\\"\\\\": 381,
      "nclass": 382,
      "ĠT": 383,
      "Ġstring": 384,
      "uto": 385,
      "ma": 386,
      "ase": 387,
      "Ð¼": 388,
      "Ġsize": 389,
      "using": 390,
      "npublic": 391,
      "00": 392,
      "ÐµÐ¼": 393,
      "sult": 394,
      "Ġde": 395,
      "ther": 396,
      "Ġ\\\";\\": 397,
      "ve": 398,
      "il": 399,
      "Ġ}": 400,
      "\\\";\\": 401,
      "ode": 402,
      "pace": 403,
      "Re": 404,
      "Ġh": 405,
      "ool": 406,
      "Ð°Ð½": 407,
      "space": 408,
      "ptr": 409,
      "nusing": 410,
      "Ġ3": 411,
      "Ð¾Ð»": 412,
      "Ġnamespace": 413,
      "ack": 414,
      "ĠÐ²": 415,
      "ÑĨ": 416,
      "Ð´": 417,
      "set": 418,
      "arr": 419,
      "ÐµÐ½Ð¸": 420,
      "per": 421,
      "Ġx": 422,
      "as": 423,
      "\\\",": 424,
      "ĠÐ½": 425,
      "Ð½Ñĭ": 426,
      "str": 427,
      "ĠÐ´": 428,
      "Ġ&": 429,
      "nt": 430,
      "Ġauto": 431,
      "ht": 432,
      "que": 433,
      "),": 434,
      "Ð°ÑĤ": 435,
      "++)": 436,
      "rint": 437,
      "ke": 438,
      "ation": 439,
      "ff": 440,
      "Ġdata": 441,
      "\\\");\\": 442,
      "Ġch": 443,
      "Ð¾ÑĢ": 444,
      "Ġnum": 445,
      "Ġresult": 446,
      "ÐµÑĤ": 447,
      "Ġin": 448,
      "emp": 449,
      "ew": 450,
      "ime": 451,
      "Co": 452,
      "ay": 453,
      "Ġother": 454,
      "Ġel": 455,
      "ser": 456,
      "ÐµÐ»": 457,
      "Ġelse": 458,
      "Ġ'": 459,
      "Ġr": 460,
      "ist": 461,
      "ÐµÐ´": 462,
      "Ð¸ÑĤ": 463,
      "];\\": 464,
      "Ġget": 465,
      "ĠP": 466,
      "et": 467,
      "uct": 468,
      "ty": 469,
      "are": 470,
      "pt": 471,
      "Ġ5": 472,
      "ab": 473,
      "ind": 474,
      "St": 475,
      "Ġy": 476,
      "ĠD": 477,
      ">(": 478,
      "Ġvalue": 479,
      "Ð¿": 480,
      "ĠB": 481,
      "Ġ!": 482,
      "Ġj": 483,
      "Ð¾Ð´": 484,
      "gin": 485,
      "Ġstr": 486,
      "())": 487,
      "Ð½Ð°": 488,
      "Ġg": 489,
      "Ġarr": 490,
      "][": 491,
      "ÑĢÐ°Ð": 492,
      "ĠÐº": 493,
      "Ñħ": 494,
      "double": 495,
      "Ġ4": 496,
      "and": 497,
      "cond": 498,
      "ÑĪ": 499,
      "ft": 500,
      "read": 501,
      "ber": 502,
      "art": 503,
      "ĠM": 504,
      "count": 505,
      "Ġbool": 506,
      "ow": 507,
      "ÑģÐ»": 508,
      "ename": 509,
      "op": 510,
      "ÑĨÐ¸": 511,
      "Ð°Ð»": 512,
      "age": 513,
      "eng": 514,
      "ush": 515,
      "add": 516,
      "ÐŁ": 517,
      "ction": 518,
      "ext": 519,
      "Ġtr": 520,
      "ĠÐ¸": 521,
      "ength": 522,
      ":\\\"": 523,
      "Ð½Ð¾": 524,
      "));\\": 525,
      "back": 526,
      "uni": 527,
      "In": 528,
      "Ġnew": 529,
      "Ġ!=": 530,
      "(),": 531,
      "rent": 532,
      "Ġ>>": 533,
      "ÐĴ": 534,
      "ÐºÐ°": 535,
      "push": 536,
      "Ð¸Ð¼": 537,
      "om": 538,
      "..": 539,
      "our": 540,
      "atic": 541,
      "tu": 542,
      "Ġ{}\\": 543,
      "Ð¹": 544,
      "lock": 545,
      "ity": 546,
      "ĠA": 547,
      "iv": 548,
      "Ġth": 549,
      "Ġover": 550,
      "Ð·": 551,
      "Ġcon": 552,
      "ÐµÐ½Ð¸Ðµ": 553,
      "--": 554,
      "ord": 555,
      "ory": 556,
      "Node": 557,
      "Ġoper": 558,
      "ter": 559,
      "value": 560,
      "ith": 561,
      "Ġvector": 562,
      "\\\")": 563,
      "val": 564,
      "row": 565,
      "Ġis": 566,
      "second": 567,
      "ĠÐ¼": 568,
      "sit": 569,
      "ance": 570,
      "Ġchar": 571,
      "ĠĠĠĠĠĠĠĠĠĠĠĠĠĠĠĠ": 572,
      "Ð¾ÑĤ": 573,
      "ast": 574,
      "Ð¾Ð±": 575,
      "Ð»Ñı": 576,
      "pl": 577,
      "qu": 578,
      "ĠÐŁ": 579,
      "ride": 580,
      "Ġoverride": 581,
      "ÑĢÐ¾Ð²": 582,
      "alse": 583,
      "Ġ&&": 584,
      "[]": 585,
      "unique": 586,
      "num": 587,
      "mo": 588,
      "urrent": 589,
      "Ġstatic": 590,
      "dex": 591,
      "ÑĦ": 592,
      "err": 593,
      "ec": 594,
      "ock": 595,
      "))": 596,
      "====": 597,
      "lete": 598,
      "Ð¾Ðº": 599,
      "uff": 600,
      "able": 601,
      "Ġoperator": 602,
      "type": 603,
      "ag": 604,
      "cess": 605,
      "ĠÑĩ": 606,
      "of": 607,
      "ight": 608,
      "Ġ|": 609,
      "void": 610,
      "ap": 611,
      "ment": 612,
      "irtu": 613,
      "irtual": 614,
      "ÐµÐº": 615,
      "Ñİ": 616,
      "es": 617,
      "Ġpro": 618,
      "data": 619,
      "left": 620,
      "sion": 621,
      "ial": 622,
      "res": 623,
      "Type": 624,
      "ask": 625,
      "be": 626,
      "oint": 627,
      "Ġ?": 628,
      "rea": 629,
      "Ġad": 630,
      "Ġ+=": 631,
      "Value": 632,
      "ource": 633,
      "Ġfalse": 634,
      "ph": 635,
      "key": 636,
      "Ġ10": 637,
      "el": 638,
      "rig": 639,
      "ron": 640,
      ">>": 641,
      "Ġmax": 642,
      "name": 643,
      "Ġvirtual": 644,
      "est": 645,
      "Ð¡": 646,
      "ort": 647,
      "Ñī": 648,
      "IN": 649,
      "cept": 650,
      "Ġ<=": 651,
      "Ġcount": 652,
      "right": 653,
      "ĠÐ·": 654,
      "Ġex": 655,
      "Count": 656,
      "ine": 657,
      "Ġprint": 658,
      "char": 659,
      "vent": 660,
      "ath": 661,
      "ull": 662,
      "pename": 663,
      "length": 664,
      "print": 665,
      "Ð°Ð½Ð¸": 666,
      "Ð½ÑĭÐ¹": 667,
      "ong": 668,
      "Ġ\\\",": 669,
      "Ð¾Ð¼": 670,
      "otal": 671,
      "ĠÑĤ": 672,
      "Ġto": 673,
      "Ð¾Ð½": 674,
      "ĠÐ±": 675,
      "Con": 676,
      "begin": 677,
      "Ðŀ": 678,
      "ize": 679,
      "ice": 680,
      "act": 681,
      "ĠF": 682,
      "Ġwh": 683,
      "();": 684,
      "os": 685,
      "Ex": 686,
      "Ġpublic": 687,
      "ĠÑĥ": 688,
      "ĠĠĠĠĠĠĠĠĠĠĠĠĠĠĠĠĠĠĠ": 689,
      "late": 690,
      "Ġ||": 691,
      "uffer": 692,
      "em": 693,
      "im": 694,
      "fd": 695,
      "ÐµÐ»ÑĮ": 696,
      "===": 697,
      "ived": 698,
      "ach": 699,
      "ÐµÐ½ÑĤ": 700,
      "Ġdelete": 701,
      "ray": 702,
      "Ġwhile": 703,
      "Ġ===": 704,
      "Ð°Ñģ": 705,
      "ted": 706,
      "ary": 707,
      "Ð±": 708,
      "Ð¾Ð»ÑĮ": 709,
      "++;\\": 710,
      "eight": 711,
      "Ġfile": 712,
      "Ġtrue": 713,
      "Ġ===\\\"": 714,
      "red": 715,
      "loc": 716,
      "hare": 717,
      "Ð¸Ð½": 718,
      "10": 719,
      "cast": 720,
      "ÐĿ": 721,
      "if": 722,
      "ĠV": 723,
      "ĠÐ¿ÑĢ": 724,
      "Ġset": 725,
      "ok": 726,
      "root": 727,
      "Ð°Ð·": 728,
      "error": 729,
      "cle": 730,
      "Ð¸Ð²": 731,
      "Ġptr": 732,
      "ĠÐ½Ð°": 733,
      "pr": 734,
      "Ð²ÐµÐ´": 735,
      "ullptr": 736,
      "hared": 737,
      "ain": 738,
      "mple": 739,
      "ĠR": 740,
      "ÑģÑĤÑĢ": 741,
      "ÐµÑģ": 742,
      "atri": 743,
      "Ġid": 744,
      "erived": 745,
      "atrix": 746,
      "ÐµÐ½Ð¸Ñı": 747,
      "ĠL": 748,
      "ard": 749,
      "temp": 750,
      ");": 751,
      "Ð°Ð¹": 752,
      "ers": 753,
      "Ġcurrent": 754,
      "source": 755,
      "Ġtemp": 756,
      "Ġtype": 757,
      "ree": 758,
      "Ġsizeof": 759,
      "this": 760,
      "Name": 761,
      "Ð¸ÑĤÐµ": 762,
      "nvoid": 763,
      "Ġadd": 764,
      "ĠCo": 765,
      "Ð¾Ð¿": 766,
      "up": 767,
      "ĠÐ´Ð»Ñı": 768,
      "bj": 769,
      "ient": 770,
      "rono": 771,
      "typename": 772,
      "Ð¾Ð·": 773,
      "Ġlong": 774,
      "ÐµÑģÑĤ": 775,
      "ĠN": 776,
      "Ð¸Ñĩ": 777,
      "ÐĴÐ²ÐµÐ´": 778,
      "move": 779,
      "empty": 780,
      "Ð¸ÑģÐ»": 781,
      "Ġ6": 782,
      "Ð¾Ð¹": 783,
      "Ġtext": 784,
      "Ð¾Ð³": 785,
      "ÐĴÐ²ÐµÐ´Ð¸ÑĤÐµ": 786,
      "Ġ>=": 787,
      "play": 788,
      "].": 789,
      "irst": 790,
      "ÐĶ": 791,
      "addr": 792,
      "Ġ%": 793,
      "map": 794,
      "());\\": 795,
      "Ðł": 796,
      "ÑĨÐ¸Ñı": 797,
      "utex": 798,
      "Ð¸Ñģ": 799,
      "//": 800,
      "server": 801,
      "Ð¾Ð¶": 802,
      "ache": 803,
      "ÐµÐ·": 804,
      "thread": 805,
      "sig": 806,
      "isplay": 807,
      "])": 808,
      "struct": 809,
      "Data": 810,
      "isit": 811,
      "Ġcl": 812,
      "Ġ100": 813,
      "Ð¸Ð¹": 814,
      "Ð¸Ðº": 815,
      "xt": 816,
      ".\\\"": 817,
      "Ðĺ": 818,
      "},": 819,
      "ear": 820,
      "Ð°Ðº": 821,
      ")\\": 822,
      "Ñį": 823,
      "Ġmin": 824,
      "reak": 825,
      "andl": 826,
      "bers": 827,
      "gle": 828,
      "ess": 829,
      "Ptr": 830,
      "to": 831,
      "ac": 832,
      "Ð¾ÑģÑĤ": 833,
      "tain": 834,
      ")\\\"": 835,
      "fo": 836,
      "ĠE": 837,
      "Ġ~": 838,
      "ĠÐ¡": 839,
      "ithm": 840,
      "gor": 841,
      "raph": 842,
      "gorithm": 843,
      "ape": 844,
      "chrono": 845,
      "atch": 846,
      "Ġ++": 847,
      "dent": 848,
      "Ġthrow": 849,
      "duct": 850,
      "log": 851,
      "Al": 852,
      "ger": 853,
      "Ġbreak": 854,
      "Num": 855,
      "Ð¸ÑĢÐ¾Ð²": 856,
      "og": 857,
      "its": 858,
      "other": 859,
      "Ar": 860,
      "Ġk": 861,
      "Ġ(!": 862,
      "Ġstart": 863,
      "Ð°Ð²": 864,
      "Ġvec": 865,
      "for": 866,
      "ĠÑĢÐ°Ð": 867,
      "algorithm": 868,
      "ans": 869,
      "Ġtest": 870,
      "template": 871,
      "cre": 872,
      "hape": 873,
      "od": 874,
      "Ġac": 875,
      "ÑĢÑĥ": 876,
      "sign": 877,
      "Ð¾ÑģÐ»": 878,
      "Ġit": 879,
      "find": 880,
      "ive": 881,
      "nect": 882,
      "ircle": 883,
      "Ġsum": 884,
      "eck": 885,
      "ĠRe": 886,
      "Ð³": 887,
      "ĠĠĠĠĠĠĠĠĠĠĠĠ": 888,
      ">&": 889,
      "Ð°ÑĢ": 890,
      "ook": 891,
      "adi": 892,
      "Pro": 893,
      "ĠCon": 894,
      "tem": 895,
      "Ġtotal": 896,
      "ix": 897,
      "ren": 898,
      "Ġse": 899,
      "ep": 900,
      "Ġcase": 901,
      "ork": 902,
      "essage": 903,
      "ute": 904,
      "File": 905,
      "tainer": 906,
      "time": 907,
      "):": 908,
      "Ġval": 909,
      "und": 910,
      "ose": 911,
      "Ð¶": 912,
      "fa": 913,
      "andler": 914,
      "seconds": 915,
      "ĠÐ½Ðµ": 916,
      "ant": 917,
      "ÑĤÐ¾ÑĢ": 918,
      "Ġ\\\\\\": 919,
      "ntemplate": 920,
      "Id": 921,
      "Ġcomp": 922,
      "mplex": 923,
      "Ġnullptr": 924,
      "Ġkey": 925,
      "ount": 926,
      "yn": 927,
      "amount": 928,
      "Ch": 929,
      "make": 930,
      "put": 931,
      "unction": 932,
      "Ġu": 933,
      "bool": 934,
      "Ð½Ð°Ñı": 935,
      "riv": 936,
      "adius": 937,
      "ĠBase": 938,
      "Ðľ": 939,
      "rom": 940,
      "========": 941,
      "Ðļ": 942,
      "Ġright": 943,
      "nstruct": 944,
      "one": 945,
      "Ġ};\\": 946,
      "fe": 947,
      "Ġleft": 948,
      "Ð½Ð¾Ðµ": 949,
      "vice": 950,
      "arg": 951,
      "file": 952,
      "Ġprocess": 953,
      "',": 954,
      "ure": 955,
      "Ð°ÑģÑģ": 956,
      "shared": 957,
      "expr": 958,
      "ild": 959,
      "ilename": 960,
      "Ð°Ð½Ð¸Ðµ": 961,
      "rivate": 962,
      "atter": 963,
      "angle": 964,
      "Ð»ÐµÐ¼": 965,
      "Ġ8": 966,
      "State": 967,
      "Ġal": 968,
      "mutex": 969,
      "ĠI": 970,
      "ĠÑį": 971,
      "Ð¢": 972,
      "cin": 973,
      "Ð¾ÑģÐ»Ðµ": 974,
      "Ð»ÐµÐ¼ÐµÐ½ÑĤ": 975,
      "auto": 976,
      "ĠÑĢ": 977,
      "ÐºÐ¸": 978,
      "sed": 979,
      "son": 980,
      "ĠÐ¾Ð±": 981,
      "To": 982,
      "ĠÐ¿ÐµÑĢ": 983,
      "text": 984,
      "ĠÐ²Ñĭ": 985,
      "Ð½Ð°Ñĩ": 986,
      "ĠÐĴ": 987,
      "Ð½ÑĭÐµ": 988,
      "lement": 989,
      "ĠSt": 990,
      "Ġlock": 991,
      "alc": 992,
      "ib": 993,
      "Ġtask": 994,
      "Ġroot": 995,
      "Ġ7": 996,
      "ĠNode": 997,
      "index": 998,
      "atus": 999,
      "Ð¾Ð³Ð¾": 1000,
      "sg": 1001,
      "ĠÐĶ": 1002,
      "mag": 1003,
      "Ġbuffer": 1004,
      "Ġnode": 1005,
      "ÑĭÑĤ": 1006,
      "Ð°ÐµÐ¼": 1007,
      "Ð°Ð´": 1008,
      "nprivate": 1009,
      "ET": 1010,
      "cm": 1011,
      "queue": 1012,
      "Ð¸Ð±": 1013,
      "attern": 1014,
      "onth": 1015,
      "mem": 1016,
      "Ġen": 1017,
      "ip": 1018,
      "ĠO": 1019,
      "Ð¸Ð·": 1020,
      "sert": 1021,
      "Ġgraph": 1022,
      "isitor": 1023,
      "Ġcol": 1024,
      "ception": 1025,
      "orde": 1026,
      "ordered": 1027,
      "unordered": 1028,
      "Ġword": 1029,
      "Ð°Ð¼": 1030,
      "Ġend": 1031,
      "ÑĢÐ¾Ð²ÐµÑĢ": 1032,
      "Size": 1033,
      "Number": 1034,
      "air": 1035,
      "mm": 1036,
      "ange": 1037,
      "Ð¾Ð»ÑĮÐ·": 1038,
      "ĠÐŀ": 1039,
      "ĠÑĩÐ¸ÑģÐ»": 1040,
      "ugin": 1041,
      "ÐµÐ¹": 1042,
      "ee": 1043,
      "ĠÑĦ": 1044,
      "Array": 1045,
      "first": 1046,
      "user": 1047,
      "Val": 1048,
      "quest": 1049,
      "Ġpri": 1050,
      "pre": 1051,
      "ĠÐ¾ÑĤ": 1052,
      "anag": 1053,
      "erator": 1054,
      "IZ": 1055,
      "Ġ9": 1056,
      "Ġfind": 1057,
      "ÑģÐ¿": 1058,
      "Ġ20": 1059,
      "...": 1060,
      "anager": 1061,
      "ÑģÑĭ": 1062,
      "Ġheight": 1063,
      "ĠComplex": 1064,
      "Ð°Ð¿": 1065,
      "osit": 1066,
      "lugin": 1067,
      "Ġhas": 1068,
      "yst": 1069,
      "ĠDerived": 1070,
      "ystem": 1071,
      "py": 1072,
      "Ref": 1073,
      "ÑĨÐ¸Ð¸": 1074,
      "Ġ{\\\"": 1075,
      "arget": 1076,
      "Ġtime": 1077,
      "Ġcin": 1078,
      "ello": 1079,
      "ions": 1080,
      "base": 1081,
      "alance": 1082,
      "]);\\": 1083,
      "Ġ[": 1084,
      "fault": 1085,
      "igh": 1086,
      "ÑĢÐ°Ð²": 1087,
      "ÑĢÐ°": 1088,
      "bserver": 1089,
      "node": 1090,
      "ill": 1091,
      "IZE": 1092,
      "Ð»ÑĮ": 1093,
      "Ġcache": 1094,
      "ression": 1095,
      "ÑģÑı": 1096,
      "100": 1097,
      "yte": 1098,
      "display": 1099,
      "Ð°ÑģÑģÐ¸Ð²": 1100,
      "cmath": 1101,
      "Ġmo": 1102,
      "ÑħÐ¾Ð´": 1103,
      "Ġan": 1104,
      "ĠÑįÐ»ÐµÐ¼ÐµÐ½ÑĤ": 1105,
      "ST": 1106,
      "[](": 1107,
      "ton": 1108,
      "ÐĲ": 1109,
      "fig": 1110,
      "Ð¸Ð¿": 1111,
      "memory": 1112,
      "ail": 1113,
      "Ð¸ÑĨ": 1114,
      "ĠVector": 1115,
      "ÑĥÐ¼": 1116,
      "Ġamount": 1117,
      "ations": 1118,
      ">::": 1119,
      "Ð°ÑĨÐ¸Ñı": 1120,
      "ÐµÐ²": 1121,
      "ÐµÑģÑĤÐ²": 1122,
      "Ġradius": 1123,
      "String": 1124,
      "sub": 1125,
      "udent": 1126,
      "Ð½ÑĭÑħ": 1127,
      "ĠÐŁÑĢ": 1128,
      "ple": 1129,
      "sc": 1130,
      "enc": 1131,
      "Ð¾Ñģ": 1132,
      "ated": 1133,
      "ĠÐ¸Ð·": 1134,
      "bject": 1135,
      "ĠÑĢÐ°Ð·": 1136,
      "Ġcre": 1137,
      "side": 1138,
      "Ġdefault": 1139,
      "line": 1140,
      "Base": 1141,
      "----": 1142,
      "ÑĥÐ½": 1143,
      "Ð¸ÑĤÐµÐ»ÑĮ": 1144,
      "Ð¾Ð·Ð´": 1145,
      "ÑģÑĭÐ»": 1146,
      "ĠW": 1147,
      "ÑĪÐ¸Ð±": 1148,
      "Ð°Ð»ÑĮ": 1149,
      "')": 1150,
      "min": 1151,
      "!\\\"": 1152,
      "Ð¾Ñĩ": 1153,
      "unc": 1154,
      "ound": 1155,
      "stance": 1156,
      "inary": 1157,
      "ĠÐĺ": 1158,
      "alcul": 1159,
      "Ð°ÑĤÐµÐ»ÑĮ": 1160,
      "Ġ\\\":": 1161,
      "array": 1162,
      "ervice": 1163,
      "Ġdp": 1164,
      "ER": 1165,
      "Ġmake": 1166,
      "ority": 1167,
      "low": 1168,
      "Ġsub": 1169,
      "Ġnums": 1170,
      "Ð½Ð¾ÑģÑĤ": 1171,
      "12": 1172,
      "uard": 1173,
      "ected": 1174,
      "ÐŁÐ¾ÑģÐ»Ðµ": 1175,
      "Handler": 1176,
      "Exp": 1177,
      "day": 1178,
      "result": 1179,
      "der": 1180,
      "ĠG": 1181,
      "Ġq": 1182,
      "Ġsock": 1183,
      "list": 1184,
      "Ġlog": 1185,
      "quare": 1186,
      "signed": 1187,
      "pro": 1188,
      "actor": 1189,
      "action": 1190,
      "lag": 1191,
      "max": 1192,
      "eg": 1193,
      "all": 1194,
      "ĠÐ¿Ð¾": 1195,
      "valid": 1196,
      "ÑĢÐµÐ´": 1197,
      "ytes": 1198,
      "new": 1199,
      "ÐµÐ³": 1200,
      "ld": 1201,
      "Ġnumbers": 1202,
      "now": 1203,
      "Ġ});\\": 1204,
      "LE": 1205,
      "ÑģÑĤÑĢÐ¾Ðº": 1206,
      "ust": 1207,
      "ĠÐļ": 1208,
      "ogger": 1209,
      "oc": 1210,
      "rade": 1211,
      "isi": 1212,
      "Hello": 1213,
      "Ġdist": 1214,
      "User": 1215,
      "ÑĭÐ¹": 1216,
      "ref": 1217,
      "Ð¾Ðµ": 1218,
      "ateg": 1219,
      "ĠÐ·Ð½Ð°Ñĩ": 1220,
      "(!": 1221,
      "current": 1222,
      "Ġref": 1223,
      "Info": 1224,
      "function": 1225,
      "word": 1226,
      "Ġ\\\")\\\"": 1227,
      "Ð»Ð¸": 1228,
      "Ġconstexpr": 1229,
      "Comp": 1230,
      "Ac": 1231,
      "idth": 1232,
      "Ġsw": 1233,
      "20": 1234,
      "},\\": 1235,
      "inal": 1236,
      "ead": 1237,
      "Ġmatrix": 1238,
      "Ġout": 1239,
      "untime": 1240,
      "Ðķ": 1241,
      "ĠJ": 1242,
      "Ġpair": 1243,
      "ument": 1244,
      "pop": 1245,
      "Ġof": 1246,
      "ĠPoint": 1247,
      "inator": 1248,
      "ÑģÐ¿Ð¾Ð»ÑĮÐ·": 1249,
      "buffer": 1250,
      "Ð´ÐµÐ½": 1251,
      "sock": 1252,
      "Ġcatch": 1253,
      "ĠÐ³": 1254,
      "rows": 1255,
      "work": 1256,
      "afe": 1257,
      "order": 1258,
      "Ġexp": 1259,
      "raw": 1260,
      "isited": 1261,
      "enom": 1262,
      "Ġpattern": 1263,
      "nection": 1264,
      "Int": 1265,
      "test": 1266,
      "Resource": 1267,
      "eff": 1268,
      "ded": 1269,
      "Ġmessage": 1270,
      "Ġtarget": 1271,
      "(&": 1272,
      "onent": 1273,
      "ÑĥÑİ": 1274,
      "Ġres": 1275,
      "Derived": 1276,
      "rite": 1277,
      "RE": 1278,
      "Ġz": 1279,
      "15": 1280,
      "Le": 1281,
      "Ġun": 1282,
      "Ð¸Ð¼ÐµÑĢ": 1283,
      "Ġcont": 1284,
      "date": 1285,
      "âķ": 1286,
      "Ġdi": 1287,
      "ĠÑģÑģÑĭÐ»": 1288,
      "ÑĢÐ¾Ð²ÐµÑĢÐºÐ°": 1289,
      "erm": 1290,
      "emory": 1291,
      "ÑĪÐ¸Ð±ÐºÐ°": 1292,
      "&)": 1293,
      "(*": 1294,
      "Time": 1295,
      "cor": 1296,
      "Pri": 1297,
      "Ġtry": 1298,
      "CK": 1299,
      "Ð°Ñı": 1300,
      "Ġfilename": 1301,
      "ÑĥÐ½Ðº": 1302,
      "qr": 1303,
      "sin": 1304,
      "ci": 1305,
      "ĠÐ¼Ð°ÑģÑģÐ¸Ð²": 1306,
      "Ġwith": 1307,
      "rence": 1308,
      "AB": 1309,
      "ON": 1310,
      "col": 1311,
      "ansaction": 1312,
      ",\\": 1313,
      "±Ð¾ÑĤ": 1314,
      "ry": 1315,
      "Ġclose": 1316,
      "ition": 1317,
      "Ġuser": 1318,
      "qrt": 1319,
      "ari": 1320,
      "ĠÐ¿Ð¾Ð»": 1321,
      "Ġ30": 1322,
      "enominator": 1323,
      "loat": 1324,
      "start": 1325,
      "Ġsh": 1326,
      "ĠÑĤÐ¸Ð¿": 1327,
      "Ġindex": 1328,
      "ĠÑģÑĤ": 1329,
      "ress": 1330,
      "Str": 1331,
      "pos": 1332,
      "ĠÐĿ": 1333,
      "uration": 1334,
      "Ġmsg": 1335,
      "ÐŁÑĢ": 1336,
      "Ġthread": 1337,
      "Ġday": 1338,
      "*>(": 1339,
      "ost": 1340,
      "\\\";": 1341,
      "ÑıÐµÐ¼": 1342,
      "By": 1343,
      "En": 1344,
      "Ð¼ÐµÐ½": 1345,
      "ption": 1346,
      "apa": 1347,
      "out": 1348,
      "use": 1349,
      "wh": 1350,
      "Ĳâķ": 1351,
      "Ġline": 1352,
      "14": 1353,
      "ÑĤÐ°ÑĤ": 1354,
      "Ġevent": 1355,
      "AX": 1356,
      "Ġdisplay": 1357,
      "Ġunique": 1358,
      "comp": 1359,
      "Ġstruct": 1360,
      "Expression": 1361,
      "De": 1362,
      "EN": 1363,
      "Th": 1364,
      "=(": 1365,
      "len": 1366,
      "insert": 1367,
      "Ġitem": 1368,
      "ĲâķĲâķ": 1369,
      "top": 1370,
      "ÐµÑĪ": 1371,
      "Ð½Ð¾Ð³Ð¾": 1372,
      "Ġ\\\"[": 1373,
      "Ð¸ÑĢÐ¾Ð²Ð°Ð½": 1374,
      "indow": 1375,
      "Ð°Ð¹Ð´ÐµÐ½": 1376,
      "All": 1377,
      "Ġat": 1378,
      "client": 1379,
      "ĠĠĠĠĠĠĠĠĠĠĠĠĠĠĠĠĠĠĠĠĠĠĠ": 1380,
      "ÑģÑĤÐ°Ð½": 1381,
      "clock": 1382,
      "rot": 1383,
      "pper": 1384,
      "Ð¼ÐµÑĢ": 1385,
      "Event": 1386,
      "Ġ(\\\"": 1387,
      "Ġbase": 1388,
      "acket": 1389,
      "Ð¸ÑĩÐµÑģ": 1390,
      "ency": 1391,
      "vel": 1392,
      "has": 1393,
      "ecute": 1394,
      "ÐĹ": 1395,
      "ply": 1396,
      "Ġ\\\"'": 1397,
      "itle": 1398,
      "],": 1399,
      "itial": 1400,
      "Ġlength": 1401,
      "Point": 1402,
      "city": 1403,
      "dd": 1404,
      "pair": 1405,
      "Ð¾Ð»Ð½": 1406,
      "leep": 1407,
      "ĠÑģÑĤÑĢÐ¾Ðº": 1408,
      "Ð½Ð¾Ð¹": 1409,
      "Ġ'\\\"": 1410,
      "Ġpos": 1411,
      "ulti": 1412,
      "alloc": 1413,
      "99": 1414,
      "ÑĢÐ¸ÑĨ": 1415,
      "what": 1416,
      "rr": 1417,
      "ies": 1418,
      "ĠDate": 1419,
      ":\\\\": 1420,
      "Ġqu": 1421,
      "Ġstate": 1422,
      "ĠÐł": 1423,
      "Ġcheck": 1424,
      "ÑĭÑĤÑĮ": 1425,
      "orig": 1426,
      "Ġread": 1427,
      "vec": 1428,
      "({": 1429,
      "iseconds": 1430,
      "form": 1431,
      "illiseconds": 1432,
      "Index": 1433,
      "Ð½ÑĭÐ¼": 1434,
      "Ġyear": 1435,
      "ĠResource": 1436,
      "nullptr": 1437,
      "=\\\"": 1438,
      "mail": 1439,
      "Ð¼Ð°": 1440,
      "Ġtypeid": 1441,
      "ÑĥÐº": 1442,
      "abs": 1443,
      "Ġ\\\")": 1444,
      "ĠMatrix": 1445,
      "Task": 1446,
      "point": 1447,
      "});\\": 1448,
      "la": 1449,
      "port": 1450,
      "rapper": 1451,
      "Ġfactor": 1452,
      "Ġarea": 1453,
      "Ġobj": 1454,
      "ĠÐºÐ¾Ð½": 1455,
      "not": 1456,
      "ĠIN": 1457,
      "Ġtemplate": 1458,
      "ront": 1459,
      "rror": 1460,
      "\\\"\\\"": 1461,
      "Ġser": 1462,
      "Ġproduct": 1463,
      "milliseconds": 1464,
      "Ġaddr": 1465,
      "def": 1466,
      "Ð¾Ð»Ð¸Ñĩ": 1467,
      "apacity": 1468,
      "Ð¾Ð»Ð¸ÑĩÐµÑģÑĤÐ²": 1469,
      "';\\": 1470,
      "man": 1471,
      "Ð¾ÑĢÑĤ": 1472,
      "ustom": 1473,
      "Ġ12": 1474,
      "...\\\"": 1475,
      "ĠÐ±ÑĭÑĤÑĮ": 1476,
      "Ġclient": 1477,
      "ectangle": 1478,
      "raction": 1479,
      "Ġdest": 1480,
      "andle": 1481,
      "ÑĢÐ°Ð²Ð½": 1482,
      "Ġside": 1483,
      "ÐµÑĢÐµÐ·": 1484,
      "Visitor": 1485,
      "Ġemp": 1486,
      "sleep": 1487,
      "ys": 1488,
      "ank": 1489,
      "Ġaccount": 1490,
      "istr": 1491,
      "ject": 1492,
      "SIZE": 1493,
      "ert": 1494,
      "ÐºÐ°Ð·": 1495,
      "ixed": 1496,
      "AL": 1497,
      "gistr": 1498,
      "Ð»ÐµÐ½": 1499,
      "ĠĠĠĠĠĠĠĠĠĠĠĠĠĠĠĠĠ": 1500,
      "Exception": 1501,
      "ĠCircle": 1502,
      "cur": 1503,
      "ĠÑĩÐ¸ÑģÐ»Ð¾": 1504,
      "Ġmove": 1505,
      "real": 1506,
      "ÑĥÐ»ÑĮ": 1507,
      "Ð¸Ð³": 1508,
      "pen": 1509,
      "ener": 1510,
      "ify": 1511,
      "ĠÐ»": 1512,
      "Ġreal": 1513,
      "mpl": 1514,
      "event": 1515,
      "next": 1516,
      "ĠJson": 1517,
      "Ġnext": 1518,
      "ign": 1519,
      "Ġalloc": 1520,
      "ting": 1521,
      "ĠPro": 1522,
      "32": 1523,
      "dge": 1524,
      "ÑĥÑĤ": 1525,
      "rol": 1526,
      "ypename": 1527,
      "amic": 1528,
      "Ġ\\\"===": 1529,
      "Ġle": 1530,
      "ĠÐľ": 1531,
      "igit": 1532,
      "erson": 1533,
      "ynamic": 1534,
      "Account": 1535,
      "tx": 1536,
      "Ð»Ñİ": 1537,
      "Result": 1538,
      "Plugin": 1539,
      "Ð¸Ñı": 1540,
      "ÑĭÐ²": 1541,
      "Ġpoint": 1542,
      "load": 1543,
      "Ð°Ð½Ð¸Ñı": 1544,
      "CT": 1545,
      "OR": 1546,
      "Ġstudent": 1547,
      "ative": 1548,
      "arch": 1549,
      "Ġfrom": 1550,
      "Ġwidth": 1551,
      "Ð¾Ð»Ð¸ÑĩÐµÑģÑĤÐ²Ð¾": 1552,
      "gs": 1553,
      "Char": 1554,
      "nbool": 1555,
      "vail": 1556,
      "Ġ[](": 1557,
      "Ð¸Ð´": 1558,
      "ÐµÑĤÑģÑı": 1559,
      "oken": 1560,
      "Ġmonth": 1561,
      "Ġos": 1562,
      "true": 1563,
      "List": 1564,
      "ak": 1565,
      "sh": 1566,
      "&&": 1567,
      "uild": 1568,
      "ingle": 1569,
      "Ġmanager": 1570,
      "ÑĥÑģ": 1571,
      "Ð½Ð¸Ðº": 1572,
      "Ġage": 1573,
      "Ġthis": 1574,
      "Ġvisited": 1575,
      "Ð´Ð°Ð»": 1576,
      "original": 1577,
      ").": 1578,
      "Sub": 1579,
      "Ġfirst": 1580,
      "igits": 1581,
      "crete": 1582,
      "ven": 1583,
      "Ð§": 1584,
      "try": 1585,
      "Error": 1586,
      "ÑĢÐµÐ¼": 1587,
      "ĠÑĩÐµÑĢÐµÐ·": 1588,
      "mmand": 1589,
      "Ġ\\\\": 1590,
      "24": 1591,
      "Ġ->": 1592,
      "fter": 1593,
      "ĠH": 1594,
      "Ġ\\\";": 1595,
      "utes": 1596,
      "Ð°Ð±": 1597,
      "ÐµÑĤÐ¾Ð´": 1598,
      "numbers": 1599,
      "ÐµÐ·ÑĥÐ»ÑĮ": 1600,
      "vailable": 1601,
      "ÐµÐ·ÑĥÐ»ÑĮÑĤÐ°ÑĤ": 1602,
      "Ġerror": 1603,
      "rect": 1604,
      "ĠÐ¤": 1605,
      "================": 1606,
      "sys": 1607,
      "Ġtypename": 1608,
      "Logger": 1609,
      "Ġarg": 1610,
      "Ġbalance": 1611,
      "pri": 1612,
      "rest": 1613,
      "ÑģÑħÐ¾Ð´": 1614,
      "Shape": 1615,
      "ning": 1616,
      "pan": 1617,
      "ÐµÐºÑĤ": 1618,
      "Ġ\\\"-": 1619,
      "thod": 1620,
      "ĠÐŁÑĢÐ¾Ð²ÐµÑĢÐºÐ°": 1621,
      "ox": 1622,
      "Ġmid": 1623,
      "ÑĥÑĩ": 1624,
      "eld": 1625,
      "imal": 1626,
      "Ġvalid": 1627,
      "LO": 1628,
      "sum": 1629,
      "gistry": 1630,
      "Tree": 1631,
      "ield": 1632,
      "uc": 1633,
      "Ġimag": 1634,
      "ÑĢÐ°ÑĤ": 1635,
      "gest": 1636,
      "Ð°Ð¹ÑĤ": 1637,
      "Pool": 1638,
      "Ġshared": 1639,
      "gist": 1640,
      "imag": 1641,
      "Ġbytes": 1642,
      "Ġlast": 1643,
      "task": 1644,
      "close": 1645,
      "','": 1646,
      "loy": 1647,
      "Ġpar": 1648,
      "etwork": 1649,
      "Ġuint": 1650,
      "ÑĥÐ½ÐºÑĨÐ¸Ñı": 1651,
      "guard": 1652,
      "orld": 1653,
      "Ð¸ÑĦ": 1654,
      "ÑĥÐ¿": 1655,
      "ÐµÐ¶": 1656,
      "edi": 1657,
      "nstd": 1658,
      "ution": 1659,
      "Ġblock": 1660,
      "Ġbook": 1661,
      "Container": 1662,
      "ÐŀÐ±": 1663,
      "bs": 1664,
      "cry": 1665,
      "Ð£": 1666,
      "ĠÑĥÐºÐ°Ð·": 1667,
      "bor": 1668,
      "Ð²Ð¾Ð»": 1669,
      "ĠÐ¸Ð½": 1670,
      "Ġadj": 1671,
      ":\\\";\\": 1672,
      "Total": 1673,
      "ps": 1674,
      "Ġposit": 1675,
      "Ð°Ð»Ð¸Ð·": 1676,
      "ĠĠĠĠĠĠĠĠĠĠĠĠĠĠĠĠĠĠĠĠ": 1677,
      "actory": 1678,
      "Service": 1679,
      "Tr": 1680,
      "Un": 1681,
      "alary": 1682,
      "Ð¾Ð±Ð°Ð²": 1683,
      "Ð¾ÑĤÐ¾Ðº": 1684,
      "substr": 1685,
      "ÐłÐ°Ð·": 1686,
      "ner": 1687,
      "Ġshape": 1688,
      "Que": 1689,
      "ating": 1690,
      "Ġcreate": 1691,
      "AR": 1692,
      "ÑģÐµ": 1693,
      "Ġ'\\\\": 1694,
      "ÐµÐºÑĤÐ¾ÑĢ": 1695,
      "cstring": 1696,
      "filename": 1697,
      "year": 1698,
      "erase": 1699,
      "Ð¸Ðµ": 1700,
      "Ġinput": 1701,
      "Ð¸Ð¼Ð²Ð¾Ð»": 1702,
      "Product": 1703,
      "ĠÐ¢": 1704,
      "ĠÐŁÑĢÐ¸Ð¼ÐµÑĢ": 1705,
      "Ġunsigned": 1706,
      "rotected": 1707,
      "iz": 1708,
      "orm": 1709,
      "Ð¾Ð»Ð¶": 1710,
      "Ð°Ð³": 1711,
      "ĠAr": 1712,
      "Item": 1713,
      "ly": 1714,
      "Ġ25": 1715,
      "jo": 1716,
      "ference": 1717,
      "Ð¸ÑģÑĤ": 1718,
      "ĠData": 1719,
      "ingleton": 1720,
      "fstream": 1721,
      "nprotected": 1722,
      "Status": 1723,
      "ĠType": 1724,
      "Queue": 1725,
      "Date": 1726,
      "Ġelement": 1727,
      "ĠAn": 1728,
      "pha": 1729,
      "Valid": 1730,
      "dist": 1731,
      "txt": 1732,
      "ÑĩÐµÑĤ": 1733,
      "Cl": 1734,
      "Qu": 1735,
      "bin": 1736,
      "alind": 1737,
      "Ġpool": 1738,
      "),\\": 1739,
      "--;\\": 1740,
      "ÐĺÑģÑħÐ¾Ð´": 1741,
      "join": 1742,
      "Message": 1743,
      "Ð°Ð¹Ð»": 1744,
      "scri": 1745,
      "ĠÐ·Ð½Ð°ÑĩÐµÐ½Ð¸Ðµ": 1746,
      "ÑģÐ¿Ð¾Ð»ÑĮÐ·Ð¾Ð²": 1747,
      "aile": 1748,
      "ailed": 1749,
      "ÑĬ": 1750,
      "Ġclass": 1751,
      "ence": 1752,
      "ĠÑģÐ¾Ð·Ð´": 1753,
      "Ġdis": 1754,
      "ÐµÐ¿": 1755,
      "Se": 1756,
      "eigh": 1757,
      "Ġrows": 1758,
      "Ð¾Ð½ÑģÑĤÑĢ": 1759,
      "effs": 1760,
      "eighbor": 1761,
      "Ġusing": 1762,
      "req": 1763,
      "Ġbe": 1764,
      "alculate": 1765,
      ">(\\\"": 1766,
      "ÐµÑĢÑĪ": 1767,
      "ours": 1768,
      "ÐŀÑĪÐ¸Ð±ÐºÐ°": 1769,
      "lace": 1770,
      "ax": 1771,
      "().": 1772,
      "ED": 1773,
      "TI": 1774,
      "Ġprice": 1775,
      "lags": 1776,
      "Length": 1777,
      "sor": 1778,
      "Ke": 1779,
      "alpha": 1780,
      "Ġfound": 1781,
      "Sort": 1782,
      "ĠÐ¾Ð¿": 1783,
      "Ġfri": 1784,
      "Ġnot": 1785,
      "rc": 1786,
      "ĠÑģÐ»": 1787,
      "Ð»ÑİÑĩ": 1788,
      "AN": 1789,
      "Ġrequest": 1790,
      "ÑĤÐµÑĢ": 1791,
      "ĠÐ½Ð°Ð¹Ð´ÐµÐ½": 1792,
      "omial": 1793,
      "INET": 1794,
      "Ġsockaddr": 1795,
      "ategory": 1796,
      "*)": 1797,
      "uture": 1798,
      ">();\\": 1799,
      "ĠÐ¾": 1800,
      "Ġper": 1801,
      "ĠFraction": 1802,
      "123": 1803,
      "Manager": 1804,
      "rome": 1805,
      "ĠShape": 1806,
      "alindrome": 1807,
      "Col": 1808,
      "ait": 1809,
      "from": 1810,
      "ĠÐ£": 1811,
      "Ġme": 1812,
      "Ġdistance": 1813,
      "Or": 1814,
      "Ġpre": 1815,
      "Cache": 1816,
      "antity": 1817,
      "Ġswap": 1818,
      "[\\\"": 1819,
      "Ġon": 1820,
      "Ð´Ð°": 1821,
      "nums": 1822,
      "Ġfriend": 1823,
      "Ðĳ": 1824,
      "ÐµÐµ": 1825,
      "Ð¾Ð¼Ð¿": 1826,
      "ÑĥÑī": 1827,
      "Ġwork": 1828,
      "eap": 1829,
      "Process": 1830,
      "Element": 1831,
      "Ð°Ñĩ": 1832,
      "oney": 1833,
      "oex": 1834,
      "oper": 1835,
      "uth": 1836,
      "erat": 1837,
      "uccess": 1838,
      "oexcept": 1839,
      "Observer": 1840,
      "ram": 1841,
      "ash": 1842,
      "emplace": 1843,
      "ialize": 1844,
      "ĠÐ±Ð°Ð¹ÑĤ": 1845,
      "Ġcols": 1846,
      "gre": 1847,
      "Ġ50": 1848,
      "50": 1849,
      "binary": 1850,
      "inter": 1851,
      "Ġact": 1852,
      "--------": 1853,
      "ÑĥÑĢ": 1854,
      "Ġsetw": 1855,
      "ÐĽ": 1856,
      "Ġ\\\"]": 1857,
      "Ġ{'": 1858,
      "olyn": 1859,
      "000": 1860,
      "Ð°ÑĤÐµÐ»": 1861,
      "ĠComp": 1862,
      "olynomial": 1863,
      "false": 1864,
      "ample": 1865,
      "Ġcontainer": 1866,
      "ibr": 1867,
      "MP": 1868,
      "ÑıÑĤ": 1869,
      "ĠÑĤÑĢ": 1870,
      "Ġ60": 1871,
      "Min": 1872,
      "front": 1873,
      "imple": 1874,
      "ÐµÑī": 1875,
      "ĠÑģÐ¸Ð¼Ð²Ð¾Ð»": 1876,
      "ĠStu": 1877,
      "Ð°Ð¼Ð¸": 1878,
      "ĠStudent": 1879,
      "Ð¸Ð½Ð°": 1880,
      "cltype": 1881,
      "Ġpath": 1882,
      "ÑĥÐ³": 1883,
      "Ð¸Ð¼Ð°Ð»ÑĮ": 1884,
      "Of": 1885,
      "core": 1886,
      "ĠgetName": 1887,
      "Ð°ÑĨÐ¸Ð¸": 1888,
      "Ġgrade": 1889,
      "corator": 1890,
      "Mutex": 1891,
      "On": 1892,
      "system": 1893,
      "Ġoriginal": 1894,
      "Ð½Ð¾ÑģÑĤÑĮ": 1895,
      "('": 1896,
      "ud": 1897,
      "parent": 1898,
      "ĠÑĩÐ¸ÑģÐ»Ð°": 1899,
      "ultiply": 1900,
      "Object": 1901,
      "Ġinstance": 1902,
      "ower": 1903,
      "16": 1904,
      "ved": 1905,
      "Ġmod": 1906,
      "Ġdenominator": 1907,
      "Ġcapacity": 1908,
      "ING": 1909,
      "Test": 1910,
      "ale": 1911,
      "stack": 1912,
      "Ġtop": 1913,
      ">>&": 1914,
      "long": 1915,
      "month": 1916,
      "sive": 1917,
      "ĠÐ´Ð¾Ð»Ð¶": 1918,
      "Inte": 1919,
      "Book": 1920,
      "ÑĥÐ³Ð¾Ð»ÑĮ": 1921,
      "oor": 1922,
      "ĠÐ¿ÐµÑĢÐµÐ¼": 1923,
      "Key": 1924,
      "25": 1925,
      "Ġsc": 1926,
      "ĠÐ¿Ð¾Ð´": 1927,
      "ĠÐ¡Ð¾Ð·Ð´": 1928,
      "ÑĥÐ¼Ð¼Ð°": 1929,
      "Ð¸ÑĩÐµÑģÐº": 1930,
      "Wrapper": 1931,
      "cent": 1932,
      "Ġtitle": 1933,
      "ÑĩÐ¸ÑģÐ»": 1934,
      "old": 1935,
      "setw": 1936,
      "ÐŁÐµÑĢ": 1937,
      "45": 1938,
      "Set": 1939,
      "Ġresource": 1940,
      "Ġexpr": 1941,
      "Ð°ÐºÑģ": 1942,
      "egative": 1943,
      "ater": 1944,
      "ÐºÑĥ": 1945,
      "number": 1946,
      "leted": 1947,
      "update": 1948,
      "nconst": 1949,
      "sort": 1950,
      "ÑıÐ¼": 1951,
      "preci": 1952,
      "Ð½Ð¾ÑģÑĤÐ¸": 1953,
      "ÑĢÐµÐ´ÐµÐ»": 1954,
      "Ġsafe": 1955,
      "\\\",\\": 1956,
      "ide": 1957,
      "sk": 1958,
      "ÑıÐ²": 1959,
      "rack": 1960,
      "Ġcircle": 1961,
      "Ġobserver": 1962,
      "ÐµÐ½Ð°": 1963,
      "ific": 1964,
      "Block": 1965,
      "ward": 1966,
      "Ġcle": 1967,
      "ÐµÐ½Ð¸Ð¹": 1968,
      "ility": 1969,
      "Ð¡ÑĤ": 1970,
      "erature": 1971,
      "11": 1972,
      "stdex": 1973,
      "Ġsend": 1974,
      "ĠSO": 1975,
      "Check": 1976,
      "stdexcept": 1977,
      "Ġrever": 1978,
      "ongest": 1979,
      "Ġ*=": 1980,
      "Ġlen": 1981,
      "ĠFile": 1982,
      "pted": 1983,
      "write": 1984,
      "Ġstop": 1985,
      "ÐµÑĩ": 1986,
      "ÑģÑĤÐ²": 1987,
      "Ġnumber": 1988,
      "uffix": 1989,
      "Circle": 1990,
      "runtime": 1991,
      "code": 1992,
      "itch": 1993,
      "Ð°ÑĤÑĢÐ¸ÑĨ": 1994,
      "Ġruntime": 1995,
      "Database": 1996,
      "Ġthreads": 1997,
      "unning": 1998,
      "ĠÑĩÐ¸Ñģ": 1999,
      "pret": 2000,
      "ibrary": 2001,
      "ĠÑĩÐ¸ÑģÐµÐ»": 2002,
      "cpy": 2003,
      "Max": 2004,
      "Temp": 2005,
      "ĠU": 2006,
      "info": 2007,
      "Ġinsert": 2008,
      "ÑĢÐ°Ð±Ð¾ÑĤ": 2009,
      "Ġcounter": 2010,
      "No": 2011,
      "With": 2012,
      "Ġpq": 2013,
      "Ġoss": 2014,
      "Ġvisit": 2015,
      "Ġmap": 2016,
      "ÐµÐ½ÑĮ": 2017,
      "precision": 2018,
      "DE": 2019,
      "sqrt": 2020,
      "eric": 2021,
      "ÑĭÐµ": 2022,
      "ĠSIZE": 2023,
      "ĠÐ´Ð¾": 2024,
      "Ð¾ÑĢÐ¼": 2025,
      "ĠBook": 2026,
      "ices": 2027,
      "ĠRectangle": 2028,
      "path": 2029,
      "Ġstack": 2030,
      "Ġdynamic": 2031,
      "Ð´ÑĢ": 2032,
      "loyee": 2033,
      "tic": 2034,
      "ational": 2035,
      "valu": 2036,
      "Ġcode": 2037,
      "ĠÐ²ÑĢÐµÐ¼": 2038,
      "arent": 2039,
      "ĠContainer": 2040,
      "ĠÐĴÑĭ": 2041,
      "ÐµÐ³Ð¾": 2042,
      "ategy": 2043,
      "manip": 2044,
      "msg": 2045,
      "condition": 2046,
      "tings": 2047,
      "uthor": 2048,
      "iomanip": 2049,
      "Ġ42": 2050,
      "alculator": 2051,
      "Matrix": 2052,
      "Ð¾Ñī": 2053,
      "ÐĿÐµ": 2054,
      "Ġdiff": 2055,
      "AT": 2056,
      "SS": 2057,
      "ore": 2058,
      "riangle": 2059,
      "Ġ-=": 2060,
      "ÑģÑĤÐ°Ð½ÑĤ": 2061,
      "opt": 2062,
      "ĠÐĹ": 2063,
      "ÑĥÑģÑĤ": 2064,
      "Ġdet": 2065,
      "clear": 2066,
      "Memory": 2067,
      "ob": 2068,
      "ĠÑģÐº": 2069,
      "Ð°ÑĤÑĮ": 2070,
      "*(": 2071,
      "Ġtree": 2072,
      "check": 2073,
      "ĠÐ²Ð¾Ð·": 2074,
      "functional": 2075,
      "ormal": 2076,
      "mtx": 2077,
      "leag": 2078,
      "ĠMAX": 2079,
      "ĠÐ¼Ð¾Ð¶": 2080,
      "ÐµÐºÑģ": 2081,
      "league": 2082,
      "):\\\"": 2083,
      "rand": 2084,
      "Ġseconds": 2085,
      "Ġtasks": 2086,
      "mart": 2087,
      "pon": 2088,
      "Ġsqrt": 2089,
      "ĠDe": 2090,
      "ĠÑĦÐ°Ð¹Ð»": 2091,
      "ĠÑģÐ¾Ð·Ð´Ð°Ð½": 2092,
      "Ð°ÑģÑĤ": 2093,
      "Ð¸ÑĢÑĥ": 2094,
      "Ġweight": 2095,
      "ÑİÑĤ": 2096,
      "LL": 2097,
      "Ġduration": 2098,
      "cel": 2099,
      "ick": 2100,
      "ĠTh": 2101,
      "argument": 2102,
      "ariable": 2103,
      "define": 2104,
      "ponse": 2105,
      "RU": 2106,
      "Ġ\\\"%": 2107,
      "Command": 2108,
      "open": 2109,
      "omic": 2110,
      "eek": 2111,
      "gister": 2112,
      "Emp": 2113,
      "Ð½Ð¸Ð¹": 2114,
      "Ġios": 2115,
      "ÑĢÐ°Ð¼": 2116,
      "Connection": 2117,
      "signal": 2118,
      "An": 2119,
      "lay": 2120,
      "Ġro": 2121,
      "orage": 2122,
      "Ð¸ÑĤÑĮ": 2123,
      "Ġserver": 2124,
      "ier": 2125,
      "Ð½Ð¾Ð²": 2126,
      "ĠÐ¾Ð±ÑĬ": 2127,
      "ocument": 2128,
      "Add": 2129,
      "ndouble": 2130,
      "own": 2131,
      "crement": 2132,
      "same": 2133,
      "ÐŃ": 2134,
      "ansit": 2135,
      "ped": 2136,
      "Ġlist": 2137,
      "Ð°ÑĤÐ¾ÑĢ": 2138,
      "serv": 2139,
      "Ġvalues": 2140,
      "ÐłÐ°Ð·Ð¼ÐµÑĢ": 2141,
      "Ð¾Ñı": 2142,
      "Ġnoexcept": 2143,
      "ĠTime": 2144,
      "ÐłÐµÐ·ÑĥÐ»ÑĮÑĤÐ°ÑĤ": 2145,
      "ME": 2146,
      "ĠÑĨ": 2147,
      "tra": 2148,
      "ĠRational": 2149,
      "Ð¸ÑģÐº": 2150,
      "ĲâķĲâķĲâķĲâķ": 2151,
      "Di": 2152,
      "Ġcalculate": 2153,
      "Ġminutes": 2154,
      "Ġacc": 2155,
      "Ġswitch": 2156,
      "Packet": 2157,
      "Sum": 2158,
      "Ð°ÐµÑĤ": 2159,
      "Ġperror": 2160,
      "idget": 2161,
      "pec": 2162,
      "Ġinitial": 2163,
      "MAX": 2164,
      "fs": 2165,
      "Ġfloat": 2166,
      "Ġsource": 2167,
      "cstd": 2168,
      "total": 2169,
      "token": 2170,
      "atio": 2171,
      "lease": 2172,
      "iterator": 2173,
      "Expr": 2174,
      "AC": 2175,
      "static": 2176,
      "Ð²ÐµÑĢ": 2177,
      "ĠConcrete": 2178,
      "Prime": 2179,
      "80": 2180,
      "mat": 2181,
      "Ġarray": 2182,
      "ery": 2183,
      "Ġap": 2184,
      "oll": 2185,
      "Ġgener": 2186,
      "Ġconfig": 2187,
      "Ġexecute": 2188,
      "Ġ\\\\\\\"\\\"": 2189,
      "\\\"]": 2190,
      "\\\"};\\": 2191,
      "ÑĥÐ´": 2192,
      "ĠSimple": 2193,
      "ĠĠĠĠĠĠĠĠĠĠĠĠĠ": 2194,
      "Ġsearch": 2195,
      "ÑĢÐ°Ð²Ð½ÐµÐ½Ð¸Ðµ": 2196,
      "ink": 2197,
      "ersion": 2198,
      "ics": 2199,
      "Stack": 2200,
      "Alloc": 2201,
      "valuate": 2202,
      "Path": 2203,
      "hic": 2204,
      "iew": 2205,
      "rid": 2206,
      "inet": 2207,
      "ĠÐĲ": 2208,
      "Ġback": 2209,
      "exp": 2210,
      "ĠTask": 2211,
      "Ð¾ÑģÑĤÑĥÐ¿": 2212,
      "hicle": 2213,
      "ug": 2214,
      "uint": 2215,
      "coded": 2216,
      "Ġstatus": 2217,
      "Ð¸ÑĨÐ¸": 2218,
      "terator": 2219,
      "ĠINT": 2220,
      "bytes": 2221,
      "sius": 2222,
      "ume": 2223,
      "verage": 2224,
      "ĠÑģÐ¾": 2225,
      "cord": 2226,
      "64": 2227,
      "AD": 2228,
      "az": 2229,
      "cct": 2230,
      "ĠÐ²ÑģÐµ": 2231,
      "Ð¾ÑĢÐ¸ÑĤ": 2232,
      "ĠÐºÐ¾Ð¼Ð¿": 2233,
      "qui": 2234,
      "ĠÑĥÐ´Ð°Ð»": 2235,
      "ync": 2236,
      "ÑĥÐ³Ð¾Ð»ÑĮÐ½Ð¸Ðº": 2237,
      "cctype": 2238,
      "no": 2239,
      "ios": 2240,
      "abc": 2241,
      "42": 2242,
      "ark": 2243,
      "Ġsort": 2244,
      "Ġedge": 2245,
      "ÐµÐ¼Ð¾Ð½ÑģÑĤÑĢ": 2246,
      "$\\\"": 2247,
      "he": 2248,
      "Ġunordered": 2249,
      "Instance": 2250,
      "ializ": 2251,
      "ĠÐ¤ÑĥÐ½ÐºÑĨÐ¸Ñı": 2252,
      "Code": 2253,
      "FF": 2254,
      "IG": 2255,
      "posit": 2256,
      "connect": 2257,
      "Ġden": 2258,
      "Ġ15": 2259,
      "ĠTr": 2260,
      "local": 2261,
      "ĠEvent": 2262,
      "Inter": 2263,
      "future": 2264,
      "ero": 2265,
      "annot": 2266,
      "olume": 2267,
      "ĠÐ·Ð°Ð¿": 2268,
      "Ð¾Ð¶Ð¸ÑĤÐµÐ»ÑĮ": 2269,
      "Ġcolor": 2270,
      "uilder": 2271,
      "Class": 2272,
      "');\\": 2273,
      "Ð½ÑĥÑİ": 2274,
      "ÑĤÐ¾": 2275,
      "peed": 2276,
      "ĠÐ¿Ð¾ÑģÐ»Ðµ": 2277,
      "ffset": 2278,
      "interpret": 2279,
      "After": 2280,
      "Impl": 2281,
      "Ġ#": 2282,
      "Ġcar": 2283,
      "\\\\\\\"": 2284,
      "Request": 2285,
      "Ġtrans": 2286,
      "ĠString": 2287,
      "eader": 2288,
      "ĠProduct": 2289,
      "Guard": 2290,
      "ehicle": 2291,
      "Ġ\\\"*": 2292,
      "ats": 2293,
      "olution": 2294,
      "Ġ40": 2295,
      "Ġhash": 2296,
      "ÑģÐ¿Ð¾Ð»ÑĮÐ·Ñĥ": 2297,
      "Ġrect": 2298,
      "Ġfunc": 2299,
      "Ġhours": 2300,
      "Ġmode": 2301,
      "quence": 2302,
      "ized": 2303,
      "ĠLogger": 2304,
      "Ġempty": 2305,
      "Order": 2306,
      "ĠIn": 2307,
      "Ġinter": 2308,
      "Ġemail": 2309,
      "execute": 2310,
      "ĠMoney": 2311,
      "Thread": 2312,
      "float": 2313,
      "input": 2314,
      "ÐºÑĢ": 2315,
      "main": 2316,
      "imit": 2317,
      ">()": 2318,
      "Year": 2319,
      "](": 2320,
      "cerr": 2321,
      "Ġmat": 2322,
      "ĠÐ´Ð°Ð½": 2323,
      "ĠPolynomial": 2324,
      "(-": 2325,
      "ID": 2326,
      "draw": 2327,
      "ĠÐĳ": 2328,
      "Ġ(*": 2329,
      "Ġfailed": 2330,
      "ĠSingleton": 2331,
      "0000": 2332,
      "Const": 2333,
      "Ð°Ð±Ð»": 2334,
      "ÑģÐ¿Ð¾Ð»ÑĮÐ·Ð¾Ð²Ð°Ð½Ð¸Ðµ": 2335,
      "EL": 2336,
      "eak": 2337,
      "Ð»ÐµÐ½Ð¸Ðµ": 2338,
      "ĠÐ²ÐµÐºÑĤÐ¾ÑĢ": 2339,
      "Map": 2340,
      "Ġpart": 2341,
      "Ġparent": 2342,
      "Ġsquare": 2343,
      "roup": 2344,
      "Ġconnect": 2345,
      "Config": 2346,
      "ĠÐ¿ÐµÑĢÐ²": 2347,
      "Ġlogger": 2348,
      "cursive": 2349,
      "Processor": 2350,
      "ied": 2351,
      "requ": 2352,
      "assword": 2353,
      "tract": 2354,
      "Ð¾Ð²ÑĭÐ¹": 2355,
      "Ġrange": 2356,
      "unistd": 2357,
      "Counter": 2358,
      "ĠInt": 2359,
      "socket": 2360,
      "onents": 2361,
      "30": 2362,
      "AF": 2363,
      "RO": 2364,
      "ĠÑıÐ²": 2365,
      "ensor": 2366,
      "ÐĴÑĭ": 2367,
      "create": 2368,
      "Balance": 2369,
      "Word": 2370,
      "flow": 2371,
      "ÐµÐ±": 2372,
      "ana": 2373,
      "Ġchild": 2374,
      "ĠBig": 2375,
      "typeid": 2376,
      "imits": 2377,
      "ÐĶÐ¾": 2378,
      "LA": 2379,
      "di": 2380,
      "Ġfib": 2381,
      "Ġwrite": 2382,
      "Ġhandler": 2383,
      "ĠÐ¼ÐµÑĤÐ¾Ð´": 2384,
      "ÐļÐ¾Ð»Ð¸ÑĩÐµÑģÑĤÐ²Ð¾": 2385,
      "span": 2386,
      "Ð¤": 2387,
      "Ġ{};\\": 2388,
      "Ġpacket": 2389,
      "child": 2390,
      "Ġheap": 2391,
      "ĠÐ´Ð²": 2392,
      "ediator": 2393,
      "ÐĺÑģÑħÐ¾Ð´Ð½ÑĭÐ¹": 2394,
      ">;\\": 2395,
      "TR": 2396,
      "Vector": 2397,
      "icient": 2398,
      "qual": 2399,
      "Ġdays": 2400,
      "ave": 2401,
      "cri": 2402,
      "Ġus": 2403,
      "vert": 2404,
      "ĠÐŀÐ±": 2405,
      "ariant": 2406,
      "Ġpositions": 2407,
      "ruct": 2408,
      "alle": 2409,
      "Ð»ÑıÐµÐ¼": 2410,
      "Available": 2411,
      "high": 2412,
      "Ġsystem": 2413,
      "ĠTest": 2414,
      "Ð¿Ð¾Ð»Ð½": 2415,
      "ÑĢÐ°Ð·": 2416,
      "Ġpriority": 2417,
      "OU": 2418,
      "SE": 2419,
      "]*": 2420,
      "Ġparse": 2421,
      "Hash": 2422,
      "Ġ\\\":\\\"": 2423,
      "utations": 2424,
      "Ġdoc": 2425,
      "Ġobject": 2426,
      "Read": 2427,
      "ĠÐ·Ð°Ð²": 2428,
      "ification": 2429,
      "Day": 2430,
      "]++;\\": 2431,
      "sstream": 2432,
      "ĠUser": 2433,
      "mount": 2434,
      "ĠÐ¿ÑĢÐ¾": 2435,
      "mmon": 2436,
      "Level": 2437,
      "Ð°Ð»Ð¸Ð·Ð°ÑĨÐ¸Ñı": 2438,
      "ĠThread": 2439,
      "Palindrome": 2440,
      "ble": 2441,
      "fabs": 2442,
      "tm": 2443,
      "weight": 2444,
      "orted": 2445,
      "Ġnow": 2446,
      "Ġ\\\"\\\\\\\"": 2447,
      "ĠTemp": 2448,
      "Ð¸ÑĢÐ¾Ð²Ð°Ð½Ð¸Ðµ": 2449,
      "Ġprime": 2450,
      "Ġcreated": 2451,
      "Ð»Ð¸Ð½Ð°": 2452,
      "Ġelements": 2453,
      "Amount": 2454,
      "Func": 2455,
      "range": 2456,
      "ĠExpression": 2457,
      "Ð°Ñħ": 2458,
      "ÐºÐµ": 2459,
      "ÐºÐ»ÑİÑĩ": 2460,
      "Ġcontent": 2461,
      "ĠÐ¿Ð¾Ð»Ð¾Ð¶Ð¸ÑĤÐµÐ»ÑĮ": 2462,
      "Area": 2463,
      "ĠÐ¾Ð´": 2464,
      "ĠÑĪ": 2465,
      "ses": 2466,
      "Ġvisitor": 2467,
      "gine": 2468,
      "Ġcontext": 2469,
      "ÑİÑī": 2470,
      "Ġaccept": 2471,
      "Ġcontin": 2472,
      "hone": 2473,
      "ual": 2474,
      "Ðĵ": 2475,
      "Ġold": 2476,
      ">,": 2477,
      "denominator": 2478,
      "Ð¸Ð°Ð¿": 2479,
      "Ġplugin": 2480,
      "Ġcerr": 2481,
      "Ġopen": 2482,
      "ĠĠĠĠĠĠĠĠĠĠĠĠĠĠĠĠĠĠĠĠĠĠĠĠ": 2483,
      "acency": 2484,
      "Ġresponse": 2485,
      "ÑĥÐºÑĤÐ¾ÑĢ": 2486,
      "Ġshapes": 2487,
      "Ð¾ÑıÐ½": 2488,
      "Ġcontinue": 2489,
      "Ð¸Ð°Ð¿Ð°Ð·": 2490,
      "atomic": 2491,
      "roy": 2492,
      "ffee": 2493,
      "ĠÐºÐ¾ÑĢ": 2494,
      "resolution": 2495,
      "Ð¡ÑĥÐ¼Ð¼Ð°": 2496,
      "crypted": 2497,
      "Factory": 2498,
      "\\\"\\": 2499,
      "utton": 2500,
      "pack": 2501,
      "Ġwindow": 2502,
      "Ð¾Ð»ÑĮÐ·Ð¾Ð²": 2503,
      "cols": 2504,
      "Decorator": 2505,
      "Second": 2506,
      ">)": 2507,
      "bit": 2508,
      "ll": 2509,
      "Ð¦": 2510,
      "Ð¸ÑĢ": 2511,
      "ending": 2512,
      "Ð½Ð¾Ð¶": 2513,
      "Ġrec": 2514,
      "ctime": 2515,
      "older": 2516,
      "exception": 2517,
      "Ġexception": 2518,
      "Ġ1000": 2519,
      "IT": 2520,
      "cs": 2521,
      "ceived": 2522,
      "ÐµÐ½Ð¾": 2523,
      "getName": 2524,
      "ĠÐ¿ÑĢÐ¸": 2525,
      "nconstexpr": 2526,
      "ĠÑıÐ²Ð»Ñı": 2527,
      "Square": 2528,
      "obj": 2529,
      "Ġ\\\"/": 2530,
      "Ġsuccess": 2531,
      "Ġop": 2532,
      "npos": 2533,
      "ĠCol": 2534,
      "ayment": 2535,
      "Ð¿ÐµÑĢ": 2536,
      "imer": 2537,
      "ÑĢÑĥÐ³": 2538,
      "ĠJsonValue": 2539,
      "igned": 2540,
      "lect": 2541,
      "ĠÐ¿Ð¾Ð·": 2542,
      "Ġhandle": 2543,
      "ĠÐ¸Ð·Ð¼ÐµÐ½": 2544,
      "ÑĢÐ¸ÑĨÐ°ÑĤÐµÐ»ÑĮ": 2545,
      "wait": 2546,
      "Ð¾Ð¸ÑģÐº": 2547,
      "Ð¸Ð»": 2548,
      "Ġservice": 2549,
      "Ġchrono": 2550,
      "ĠBank": 2551,
      "Ð¸Ð¼Ð¾ÑģÑĤ": 2552,
      "ĠConfig": 2553,
      "Ġwords": 2554,
      "Ð½ÑĭÐ¼Ð¸": 2555,
      "ĠÐ¾Ð±ÑĬÐµÐºÑĤ": 2556,
      "Ent": 2557,
      "digits": 2558,
      "mon": 2559,
      "Ġrow": 2560,
      "Ġabs": 2561,
      "getline": 2562,
      "edge": 2563,
      "ÐĿÐµÑĤ": 2564,
      "Ð°ÐºÑģÐ¸Ð¼Ð°Ð»ÑĮ": 2565,
      "<(": 2566,
      "pid": 2567,
      "any": 2568,
      "ÑĥÐ»": 2569,
      "ĠÐºÐ¾Ð»Ð¸ÑĩÐµÑģÑĤÐ²Ð¾": 2570,
      "Args": 2571,
      "operator": 2572,
      "67": 2573,
      "Next": 2574,
      "remove": 2575,
      "Ð¾Ð½Ð°": 2576,
      "Ġpage": 2577,
      "ĠCom": 2578,
      "Ġinvalid": 2579,
      "Start": 2580,
      "Ġfactorial": 2581,
      "Ð§Ð¸ÑģÐ»": 2582,
      "Ġvalidate": 2583,
      "ĠArgs": 2584,
      "*)&": 2585,
      "Function": 2586,
      "]()": 2587,
      "utility": 2588,
      "metic": 2589,
      "Ġnumerator": 2590,
      "ĠÐĶÐ¾Ð±Ð°Ð²": 2591,
      "Ġsocket": 2592,
      "Ġ/=": 2593,
      "ĠCar": 2594,
      "Ġangle": 2595,
      "Rate": 2596,
      "Text": 2597,
      "Ġdy": 2598,
      "Ð¾ÑģÐ»ÐµÐ´": 2599,
      "Ġentry": 2600,
      "ENT": 2601,
      "Ð¸ÑĢÑĥÐµÐ¼": 2602,
      "dle": 2603,
      "ostream": 2604,
      "oard": 2605,
      "uf": 2606,
      "Ġqueue": 2607,
      "Ġmy": 2608,
      "racker": 2609,
      "azy": 2610,
      "func": 2611,
      "state": 2612,
      "Ġ((": 2613,
      "Ġdiv": 2614,
      "ĠPri": 2615,
      "resource": 2616,
      "process": 2617,
      "ptional": 2618,
      "allocate": 2619,
      "Buffer": 2620,
      "Mode": 2621,
      "den": 2622,
      "radius": 2623,
      "Ġupdate": 2624,
      "ĠÐ¿ÑĢÐµÐ´": 2625,
      "Ġprev": 2626,
      "ÑĥÑĢÑģ": 2627,
      "ansition": 2628,
      "Window": 2629,
      "eur": 2630,
      "Ġ$\\\"": 2631,
      "amp": 2632,
      "Ġfreq": 2633,
      "assert": 2634,
      "Ð°Ð´Ð°Ñĩ": 2635,
      "ĠÑįÐ»ÐµÐ¼ÐµÐ½ÑĤÐ¾Ð²": 2636,
      "digit": 2637,
      "nÐŁ": 2638,
      "Ġfunction": 2639,
      "Ġport": 2640,
      "unsigned": 2641,
      "ÑıÐ´": 2642,
      "ÑĭÑħ": 2643,
      "Ġlongest": 2644,
      "Ð¾Ð»ÑĮÑĪ": 2645,
      "Ġand": 2646,
      "efficient": 2647,
      "ĠÑģÑģÑĭÐ»ÐºÑĥ": 2648,
      "ĠÐ¾Ð¿ÐµÑĢ": 2649,
      "ie": 2650,
      "ole": 2651,
      "oom": 2652,
      "ures": 2653,
      "Ġsecond": 2654,
      "Ġremove": 2655,
      "arge": 2656,
      "Ġnormal": 2657,
      "ĠÐ¿Ð¾ÑĤÐ¾Ðº": 2658,
      "Ġcopy": 2659,
      "Ð½Ðµ": 2660,
      "Ġmemory": 2661,
      "Copy": 2662,
      "ÐµÐ´Ð¸Ð½": 2663,
      "ĠÐ¼Ð°ÑĤÑĢÐ¸ÑĨ": 2664,
      "upper": 2665,
      "ĠNetwork": 2666,
      "Ġgenerate": 2667,
      "cd": 2668,
      "duration": 2669,
      "height": 2670,
      "}};\\": 2671,
      "ÑģÐ¾ÑĢÑĤ": 2672,
      "ces": 2673,
      "ÑĢÐ°ÑģÑĤ": 2674,
      "((": 2675,
      ")),": 2676,
      "22": 2677,
      "AI": 2678,
      "Car": 2679,
      "Per": 2680,
      "request": 2681,
      "Ġtra": 2682,
      "Ð»Ð°ÑģÑģ": 2683,
      "Ġas": 2684,
      "Ġss": 2685,
      "istory": 2686,
      "accept": 2687,
      "ĠÑĢÐ°Ð±Ð¾ÑĤ": 2688,
      "args": 2689,
      "lower": 2690,
      "End": 2691,
      "Out": 2692,
      "free": 2693,
      "Ġfree": 2694,
      "serialize": 2695,
      "Ġgen": 2696,
      "earch": 2697,
      "ĠÑĥÐºÐ°Ð·Ð°ÑĤÐµÐ»ÑĮ": 2698,
      "Ġworker": 2699,
      "ĠÐ¿ÐµÑĢÐµÐ¼ÐµÐ½": 2700,
      "ĠÐ¡Ð¾Ð·Ð´Ð°ÐµÐ¼": 2701,
      "AM": 2702,
      "handler": 2703,
      "iss": 2704,
      "pend": 2705,
      "Ġsignal": 2706,
      "Ġ{{": 2707,
      "erge": 2708,
      "enter": 2709,
      "Ð¸ÐºÐ°": 2710,
      "ĠÐºÐ¾Ð½ÑģÑĤÐ°Ð½ÑĤ": 2711,
      "Ġargs": 2712,
      "ÑģÐ¿Ð¾Ð»ÑĮÐ·ÑĥÐµÐ¼": 2713,
      "Builder": 2714,
      "RC": 2715,
      "ouse": 2716,
      "ĠÑħ": 2717,
      "ĠQu": 2718,
      "ination": 2719,
      "\\\"},\\": 2720,
      "onac": 2721,
      "Ġbad": 2722,
      "stringstream": 2723,
      "Ð²Ð¾Ð´": 2724,
      "Registry": 2725,
      "numerator": 2726,
      "roll": 2727,
      "celsius": 2728,
      "ÐµÐ¼Ð¾Ð½ÑģÑĤÑĢÐ°ÑĨÐ¸Ñı": 2729,
      "ÑģÐ¾ÑĢÑĤÐ¸ÑĢÐ¾Ð²Ð°Ð½": 2730,
      "onacci": 2731,
      "Act": 2732,
      "FI": 2733,
      "System": 2734,
      "Safe": 2735,
      "Search": 2736,
      "Ġsm": 2737,
      "ĠÐŁÐµÑĢ": 2738,
      "sions": 2739,
      "ĠÐ·Ð°Ðº": 2740,
      "Cont": 2741,
      "Ð¾Ð¿Ð¾Ð»Ð½": 2742,
      "ÑĢÐ°Ñī": 2743,
      "worker": 2744,
      "Ġdestroy": 2745,
      "Me": 2746,
      "Rectangle": 2747,
      "sw": 2748,
      "coeffs": 2749,
      "Ġmultiply": 2750,
      "Ġ200": 2751,
      "Ġtransaction": 2752,
      "Invalid": 2753,
      "Ð¸Ð¼ÑĥÐ¼": 2754,
      "numeric": 2755,
      "ÐŀÑĤ": 2756,
      "ĠWorld": 2757,
      "My": 2758,
      "PI": 2759,
      "Ser": 2760,
      "gram": 2761,
      "net": 2762,
      "arith": 2763,
      "Ġopt": 2764,
      "Ġconstruct": 2765,
      "itude": 2766,
      "Ġoperation": 2767,
      "ĠÐ·Ð½Ð°ÑĩÐµÐ½Ð¸Ñı": 2768,
      "arithmetic": 2769,
      "];": 2770,
      "due": 2771,
      "ken": 2772,
      "\\\"));\\": 2773,
      "Ð¸Ð»Ñı": 2774,
      "ĠÐ¿Ð¾Ð²": 2775,
      "++)\\": 2776,
      "ĠÑĤÐµÐº": 2777,
      "Ġtoken": 2778,
      "Ð¸Ð½Ð´ÑĢ": 2779,
      "Ġall": 2780,
      "Left": 2781,
      "ÑģÑĤÐ°Ð½Ð¾Ð²": 2782,
      "Ð¾ÑĢÑĤÐ¸ÑĢÐ¾Ð²": 2783,
      "ĠÐ¼Ð¾Ð¶ÐµÑĤ": 2784,
      "ym": 2785,
      "Ġ_": 2786,
      "idx": 2787,
      "area": 2788,
      "Ġconn": 2789,
      "ĠCount": 2790,
      "Ġsubject": 2791,
      "Ġobservers": 2792,
      "Ġclean": 2793,
      "Print": 2794,
      "mid": 2795,
      "dest": 2796,
      "decltype": 2797,
      "ÑĢÐµÐºÑĤ": 2798,
      "Ġscore": 2799,
      "Ġhigh": 2800,
      "Ġ')": 2801,
      "ÑģÐ»Ð¸": 2802,
      "ÑĦÑĦ": 2803,
      "fds": 2804,
      "face": 2805,
      "refix": 2806,
      "Strategy": 2807,
      "ĠArray": 2808,
      "Ġ\\\"%\\\"": 2809,
      "ĠComm": 2810,
      "Age": 2811,
      "dp": 2812,
      "host": 2813,
      "ĠÑĢÑĥ": 2814,
      "initial": 2815,
      "Ġdigits": 2816,
      "rigin": 2817,
      "ĠÐ¿ÑĥÑģÑĤ": 2818,
      "ĠPerson": 2819,
      "ĠÐºÐ¾": 2820,
      "ĠÐ¸Ð¼": 2821,
      "159": 2822,
      "14159": 2823,
      "Ġpoints": 2824,
      "ĠSOCK": 2825,
      "packet": 2826,
      "ĠÑıÐ²Ð»ÑıÐµÑĤÑģÑı": 2827,
      "pth": 2828,
      "enum": 2829,
      "ÑĢÐ¾Ðº": 2830,
      "Ġneighbor": 2831,
      "ÐµÑĢÐ¶": 2832,
      "ĠÐ±ÐµÐ·": 2833,
      "Ð½Ð°ÑĩÐµÐ½Ð¸Ðµ": 2834,
      "ĠÑĦÑĥÐ½Ðº": 2835,
      "*>": 2836,
      "flag": 2837,
      "handle": 2838,
      "ote": 2839,
      "par": 2840,
      "Ġsalary": 2841,
      "ssage": 2842,
      "message": 2843,
      "ĠÑģÐ¿": 2844,
      "Student": 2845,
      "ĠÐŁÑĢÐ¾Ð²ÐµÑĢ": 2846,
      "Ð¸ÑĢÐ¾Ð²Ð°Ð½Ð¸Ñı": 2847,
      "ÑĥÐ´ÐµÐ½ÑĤ": 2848,
      "Grade": 2849,
      "ift": 2850,
      "Â°": 2851,
      "status": 2852,
      "Ġflags": 2853,
      "Ġinte": 2854,
      "Ġafter": 2855,
      "imeter": 2856,
      "istics": 2857,
      "Priority": 2858,
      "Log": 2859,
      "pattern": 2860,
      "visited": 2861,
      "Ð½Ð¾Ð¼": 2862,
      "Ġcustom": 2863,
      "unk": 2864,
      "Ġby": 2865,
      "ĠÑĩÐ°ÑģÑĤ": 2866,
      "ressed": 2867,
      "ÐĶÐ°": 2868,
      "Ġoutput": 2869,
      "Ġitems": 2870,
      "ĠĠĠĠĠĠĠĠĠĠĠĠĠĠĠĠĠĠĠĠĠ": 2871,
      "ĠÑĢÑĥÐ±": 2872,
      "Edge": 2873,
      "Pair": 2874,
      "av": 2875,
      "part": 2876,
      "Ġcalc": 2877,
      "ĠÐ¼Ð¸Ð½": 2878,
      "Ð¾Ð±Ñī": 2879,
      "Concrete": 2880,
      "Ġcompleted": 2881,
      "ÐµÐ²ÐµÑĢ": 2882,
      "ĠCommand": 2883,
      "element": 2884,
      "neighbor": 2885,
      "ĠValue": 2886,
      "search": 2887,
      "Ġfixed": 2888,
      "sian": 2889,
      "tesian": 2890,
      "Ð·Ð¾Ð²": 2891,
      "ĠÐŀÑĪÐ¸Ð±ÐºÐ°": 2892,
      "hash": 2893,
      "Pointer": 2894,
      "distance": 2895,
      "efficients": 2896,
      "cmp": 2897,
      "hold": 2898,
      "Ġ\\\".": 2899,
      "Ġcm": 2900,
      "gex": 2901,
      "Ġsorted": 2902,
      "method": 2903,
      "ĠSmart": 2904,
      "ÐŁÐ¾ÑĤÐ¾Ðº": 2905,
      "plier": 2906,
      "account": 2907,
      "Alice": 2908,
      "ÑĢÐµÐ´Ð½": 2909,
      "ĠÐļÐ¾Ð½": 2910,
      "ĠÐ²ÑĢÐµÐ¼Ñı": 2911,
      "Is": 2912,
      "item": 2913,
      "atistics": 2914,
      "Ġti": 2915,
      "rib": 2916,
      "ĠÑģÐµÐº": 2917,
      "perm": 2918,
      "ĠPlugin": 2919,
      "Ġclone": 2920,
      "Ġprocessor": 2921,
      "':": 2922,
      "OL": 2923,
      "ULL": 2924,
      "Ð½ÐµÑĤ": 2925,
      "Ġcv": 2926,
      "Ġjson": 2927,
      "uple": 2928,
      "Numbers": 2929,
      "ĠĠĠĠĠĠĠĠĠĠĠĠĠĠ": 2930,
      "LOCK": 2931,
      "ĠÑĥÐºÐ°Ð·Ð°ÑĤÐµÐ»": 2932,
      "ĠÐ¿Ð¾Ð·Ð¸": 2933,
      "17": 2934,
      "Salary": 2935,
      "da": 2936,
      "nÐ¡": 2937,
      "stop": 2938,
      "register": 2939,
      "Ġregistry": 2940,
      "Ð»Ð¾Ñī": 2941,
      "ÐµÐ½Ð½ÑĭÐ¹": 2942,
      "Ġcompute": 2943,
      "ertices": 2944,
      "Transaction": 2945,
      "Ð»Ð¾ÑīÐ°Ð´": 2946,
      "Lock": 2947,
      "Open": 2948,
      "with": 2949,
      "Ġ\\\"\\\";\\": 2950,
      "urse": 2951,
      "amil": 2952,
      "Ġmem": 2953,
      "Ð²Ð°Ð´": 2954,
      "irc": 2955,
      "Ð¾ÑĢÑıÐ´": 2956,
      "ĠÐºÐ¾Ð¿": 2957,
      "els": 2958,
      "Ð¸ÑģÐ¾Ðº": 2959,
      "children": 2960,
      "ĠCounter": 2961,
      "Tracker": 2962,
      "alar": 2963,
      "Ġauthor": 2964,
      "ission": 2965,
      "otype": 2966,
      "---": 2967,
      "ĠÑĤÐ¾Ñĩ": 2968,
      "ĠÐ½Ð°Ñĩ": 2969,
      "Ġreversed": 2970,
      "ĠÐ·Ð°Ð²ÐµÑĢÑĪ": 2971,
      "ĠÐŁÑĢÐ¾Ð²ÐµÑĢÑıÐµÐ¼": 2972,
      "]->": 2973,
      "nenum": 2974,
      "com": 2975,
      "()(": 2976,
      "Ġdate": 2977,
      "Ġdraw": 2978,
      "ish": 2979,
      "ĠÐ¿Ð¾Ð»ÑĮÐ·Ð¾Ð²": 2980,
      "Ð°Ð»Ð¸Ð½Ð´ÑĢ": 2981,
      "ĠAl": 2982,
      "ĠÐ¾ÑĤÑĢÐ¸ÑĨÐ°ÑĤÐµÐ»ÑĮ": 2983,
      "Ġadjacency": 2984,
      "Ð¸ÑģÑĤÐµÐ¼": 2985,
      "ĠÐºÐ¾Ð¼Ð¿Ð¸Ð»Ñı": 2986,
      "Ð°Ð»Ð¸Ð½Ð´ÑĢÐ¾Ð¼": 2987,
      "([": 2988,
      "+(": 2989,
      "89": 2990,
      "ml": 2991,
      "visit": 2992,
      "invalid": 2993,
      "Ð¸Ð¸": 2994,
      "Ġip": 2995,
      "Ġdx": 2996,
      "Ġhton": 2997,
      "ĠMult": 2998,
      "ĠÐĺÑģÐ¿Ð¾Ð»ÑĮÐ·Ð¾Ð²Ð°Ð½Ð¸Ðµ": 2999,
      "Ġquantity": 3000,
      "priority": 3001,
      "Ġactive": 3002,
      "Integer": 3003,
      "ĠPriority": 3004,
      "**": 3005,
      "Cannot": 3006,
      "Ð¸Ð»ÑĮ": 3007,
      "alid": 3008,
      "Ġfut": 3009,
      "Ġterm": 3010,
      "rie": 3011,
      "ĠÐ´Ð¸Ð°Ð¿Ð°Ð·": 3012,
      "ĠMy": 3013,
      "ĠValid": 3014,
      "andlers": 3015,
      "forward": 3016,
      "ÐŁÐµÑĢÐ²": 3017,
      "ÐŃÐ»ÐµÐ¼ÐµÐ½ÑĤ": 3018,
      "cache": 3019,
      "last": 3020,
      "Ð¸Ð°Ð½": 3021,
      "ĠĠĠĠĠĠĠĠĠ": 3022,
      "ÐĶÐ»Ð¸Ð½Ð°": 3023,
      "ĠÑĤÐ¸Ð¿Ð°": 3024,
      "price": 3025,
      "ÐµÐ¶Ð´": 3026,
      "traits": 3027,
      "AG": 3028,
      "Cre": 3029,
      "ision": 3030,
      "impl": 3031,
      "rate": 3032,
      "sal": 3033,
      "Ġent": 3034,
      "ĠÑĨÐ¸": 3035,
      "ines": 3036,
      "lem": 3037,
      "Ġmerge": 3038,
      "Ġfield": 3039,
      "Ġcity": 3040,
      "ical": 3041,
      "Ð¼Ð½Ð¾Ð¶": 3042,
      "Ġdecltype": 3043,
      "[]()": 3044,
      "ÐĿÐ°Ð¹Ð´ÐµÐ½": 3045,
      "ĠConnection": 3046,
      "Ġuse": 3047,
      "Ġ[&": 3048,
      "ĠÐ¿Ð¾Ð»ÑĥÑĩ": 3049,
      "ĠÑĤÐ¸Ð¿Ð¾Ð²": 3050,
      "ĠÑģÑĤÑĢÐ¾ÐºÑĥ": 3051,
      "notify": 3052,
      "ÑĭÐ²Ð¾Ð´": 3053,
      "scription": 3054,
      "12345": 3055,
      "Seconds": 3056,
      "Ð¾Ð¿Ð¾Ð»Ð½Ð¸ÑĤÐµÐ»ÑĮ": 3057,
      "19": 3058,
      ">:": 3059,
      "Use": 3060,
      "Vec": 3061,
      "gen": 3062,
      "Ġmatch": 3063,
      "Ġifstream": 3064,
      "ched": 3065,
      "versal": 3066,
      "Ð¼ÐµÑĤ": 3067,
      "apple": 3068,
      "ÑĢÑĥÐ¶": 3069,
      "undo": 3070,
      "Ġsuccessf": 3071,
      "Pos": 3072,
      "ti": 3073,
      "target": 3074,
      "ĠÐ¨": 3075,
      "Ġdo": 3076,
      "Ġbinary": 3077,
      "ilter": 3078,
      "ĠÐ´ÐµÐ»": 3079,
      "ĠAF": 3080,
      "ĠprintArray": 3081,
      "Ġsetprecision": 3082,
      "ĠÐĴÑĭÐ²Ð¾Ð´": 3083,
      "refCount": 3084,
      "Ġshow": 3085,
      "ĠDatabase": 3086,
      "ĠAnimal": 3087,
      "Ð¾ÑıÐ½Ð¸Ðµ": 3088,
      "ĠÐºÐ¾Ð¼Ð¿Ð¸Ð»ÑıÑĨÐ¸Ð¸": 3089,
      "Ġhtons": 3090,
      "Current": 3091,
      "Dep": 3092,
      "Yes": 3093,
      "block": 3094,
      "Ġ\\\"(\\\"": 3095,
      "Ġ\\\"\\\")": 3096,
      "Ð¸Ñħ": 3097,
      "ÑĢÐ°Ð½": 3098,
      "ÑĢÐ¾Ñģ": 3099,
      "ars": 3100,
      "Ġpower": 3101,
      "Ġcan": 3102,
      "ities": 3103,
      "Ð²ÑĢÐ°Ñī": 3104,
      "Ġidx": 3105,
      "ĠEmp": 3106,
      "ĠÐ²ÑĭÐ¿Ð¾Ð»Ð½": 3107,
      "ĠState": 3108,
      "Ġencoded": 3109,
      "Ġ\\\"'\\\"": 3110,
      "Ġblocks": 3111,
      ">());\\": 3112,
      "Origin": 3113,
      "Table": 3114,
      "famil": 3115,
      "Ġreset": 3116,
      "cont": 3117,
      "Ġcoeffs": 3118,
      "ĠÐºÐ°Ðº": 3119,
      "Ð°Ð½Ð¸Ñİ": 3120,
      "imen": 3121,
      "ĠNum": 3122,
      "ÑĢÐ°Ð±Ð¾ÑĤÐºÐ°": 3123,
      "Ð¾ÑĢÐ¸ÑĤÐµÑĤ": 3124,
      "family": 3125,
      "ES": 3126,
      "reinterpret": 3127,
      "Ð½Ð¸Ð³": 3128,
      "Ġvolume": 3129,
      "ÐµÐ½Ð½Ð°Ñı": 3130,
      "ĠCh": 3131,
      "Ġhead": 3132,
      "Ð´Ð¸Ð½": 3133,
      "Ð¾Ð»ÑĮÐº": 3134,
      "tains": 3135,
      "ĠÑĢÐ°Ð·Ð¼ÐµÑĢ": 3136,
      "Price": 3137,
      "servation": 3138,
      "Ġ\\\"/\\\"": 3139,
      "ek": 3140,
      "nstring": 3141,
      "Ġorder": 3142,
      "level": 3143,
      "Ġmtx": 3144,
      "ĠTree": 3145,
      "ĠBox": 3146,
      "ĠMessage": 3147,
      "Ġconnection": 3148,
      "types": 3149,
      "ĠID": 3150,
      "Interest": 3151,
      "quire": 3152,
      "Div": 3153,
      "Var": 3154,
      "oice": 3155,
      "xy": 3156,
      "ÑģÐº": 3157,
      "tex": 3158,
      "Ð¿ÑĢ": 3159,
      "minant": 3160,
      "ĠÐ³Ð¾Ð´": 3161,
      "ĠÐ¢ÐµÑģÑĤ": 3162,
      "ĠÑĤÑĢÐµ": 3163,
      "ĠTransaction": 3164,
      "Holder": 3165,
      "It": 3166,
      "Json": 3167,
      "erence": 3168,
      "pow": 3169,
      "orrow": 3170,
      "Ġfs": 3171,
      "Ġdb": 3172,
      "Ð»Ð¸Ð½": 3173,
      "Ġprefix": 3174,
      "Ġsp": 3175,
      "sizeof": 3176,
      "Record": 3177,
      "Ġinorder": 3178,
      "ifstream": 3179,
      "Substring": 3180,
      "ADD": 3181,
      "ĠBankAccount": 3182,
      "Ð²Ð°Ð´ÑĢÐ°ÑĤ": 3183,
      "dx": 3184,
      "match": 3185,
      "Ð¨": 3186,
      "Ġdq": 3187,
      "Ġsrc": 3188,
      "ĠÐ¿Ð°Ð»Ð¸Ð½Ð´ÑĢÐ¾Ð¼": 3189,
      "ĠÑģÐ¾ÑĢÑĤÐ¸ÑĢÐ¾Ð²": 3190,
      "Reference": 3191,
      "ĠÐ´Ð¾ÑģÑĤÑĥÐ¿": 3192,
      "Ġgre": 3193,
      "uffman": 3194,
      "Ġsettings": 3195,
      "Ġaddress": 3196,
      "ÐľÐ°ÑģÑģÐ¸Ð²": 3197,
      "ĠÑĢÐµÑĪ": 3198,
      "ABC": 3199,
      "Color": 3200,
      "ĠTemperature": 3201,
      "Dist": 3202,
      "aded": 3203,
      "grade": 3204,
      "matrix": 3205,
      "width": 3206,
      "Ġlo": 3207,
      "instance": 3208,
      "ĠÐķ": 3209,
      "Ġred": 3210,
      "arm": 3211,
      "Ġpid": 3212,
      "Ġbit": 3213,
      "Ð²Ð°": 3214,
      "ĠÐ²ÑĤÐ¾ÑĢ": 3215,
      "Ð´ÐµÐ»": 3216,
      "Ð°ÑģÑģÑĤ": 3217,
      "Ð¾Ð¿Ð°Ñģ": 3218,
      "Ð¾ÑĩÐºÐ°": 3219,
      "eady": 3220,
      "Ġreverse": 3221,
      "Ap": 3222,
      "evaluate": 3223,
      "ite": 3224,
      "lib": 3225,
      "nÐŁÑĢ": 3226,
      "patch": 3227,
      "Ġcenter": 3228,
      "verse": 3229,
      "Ġlibrary": 3230,
      "Ġ\\\"\\\\\\\"\\\"": 3231,
      "Ġdec": 3232,
      "Ð´ÐµÐºÑģ": 3233,
      "ĠNULL": 3234,
      "ĠÑĢÐ°Ð´": 3235,
      "ĠAny": 3236,
      "Ġconstructor": 3237,
      "Ð»Ð¾ÑīÐ°Ð´ÑĮ": 3238,
      "dis": 3239,
      "fer": 3240,
      "running": 3241,
      "Ġ.": 3242,
      "Ġsig": 3243,
      "Ġload": 3244,
      "Ġrelease": 3245,
      "Ġavailable": 3246,
      "Cost": 3247,
      "Ð¿ÑĢÐµÐ´ÐµÐ»": 3248,
      "escri": 3249,
      "ultiplier": 3250,
      "Ġlevel": 3251,
      "Empty": 3252,
      "cessed": 3253,
      "fixed": 3254,
      "uck": 3255,
      "Ð«": 3256,
      "Ġlow": 3257,
      "student": 3258,
      "rer": 3259,
      "derer": 3260,
      "ÑĢÐ°Ð½Ð¸": 3261,
      "Ġdfs": 3262,
      "Ġ18": 3263,
      "itor": 3264,
      "ĠÑģÑĩÐµÑĤ": 3265,
      "ĠSer": 3266,
      "ĠSquare": 3267,
      "ecut": 3268,
      "printInfo": 3269,
      "Ġzero": 3270,
      "ABLE": 3271,
      "Ð¸ÑĦÐ¸Ðº": 3272,
      "----------------": 3273,
      "uda": 3274,
      "requency": 3275,
      "ĠBigInt": 3276,
      "Person": 3277,
      "Singleton": 3278,
      "ered": 3279,
      "mul": 3280,
      "utation": 3281,
      "clval": 3282,
      "Ġrunning": 3283,
      "Ġgcd": 3284,
      "Ð°Ð»Ð¸Ð´": 3285,
      "ĠAdd": 3286,
      "Ġofstream": 3287,
      "color": 3288,
      "ĠÑģÑĤÑĢÐ¾ÐºÐ°": 3289,
      "Ð°Ð±Ð»Ð¾Ð½": 3290,
      "ĠEmployee": 3291,
      "ĠNumber": 3292,
      "Ð¾Ð»ÑĮÐºÐ¾": 3293,
      "23": 3294,
      "AP": 3295,
      "Case": 3296,
      "IP": 3297,
      "]]": 3298,
      "nÐĶ": 3299,
      "dec": 3300,
      "uest": 3301,
      "Ġbuild": 3302,
      "getValue": 3303,
      "lication": 3304,
      "Ð°Ð»Ð»": 3305,
      "ÑĥÑİÑī": 3306,
      "Ġinterest": 3307,
      "balance": 3308,
      "Ġ\\\"================": 3309,
      "Ġfactory": 3310,
      "setprecision": 3311,
      "*>(&": 3312,
      "gistered": 3313,
      "ĠÐ¾ÑĪÐ¸Ð±": 3314,
      "Ġmodel": 3315,
      "PE": 3316,
      "graph": 3317,
      "ise": 3318,
      "tv": 3319,
      "reset": 3320,
      "Ġdigit": 3321,
      "isValid": 3322,
      "ĠÐ¿Ð¾ÑĢÑıÐ´": 3323,
      "mage": 3324,
      "ÑĨÐµÐ½": 3325,
      "ĠÐŁÐ¾Ð»": 3326,
      "Ð¡ÑĤÑĢÐ¾Ðº": 3327,
      "ĠÐĹÐ°Ð¿": 3328,
      "eekday": 3329,
      "65": 3330,
      "bal": 3331,
      "ere": 3332,
      "flags": 3333,
      "ten": 3334,
      "âľ": 3335,
      "Ġ^": 3336,
      "Ġsi": 3337,
      "Ġstep": 3338,
      "resize": 3339,
      "ĠÐĽ": 3340,
      "Ġ11": 3341,
      "Ġhost": 3342,
      "Ð°Ð½Ð¾Ð²": 3343,
      "--\\\"": 3344,
      "ĠÐ·Ð°Ð´Ð°Ñĩ": 3345,
      "ĠComplexNumber": 3346,
      "ÐĹÐ½Ð°ÑĩÐµÐ½Ð¸Ðµ": 3347,
      "Mo": 3348,
      "gress": 3349,
      "nÐŁÐ¾ÑģÐ»Ðµ": 3350,
      "variable": 3351,
      "Ġlocal": 3352,
      "Ġmust": 3353,
      "Ġfd": 3354,
      "Ġperm": 3355,
      "Ġcategory": 3356,
      "ÑĥÐ±": 3357,
      "ÑĥÑĢÐ°": 3358,
      "iton": 3359,
      "ÐµÑĤÑĢ": 3360,
      "Ġ'-": 3361,
      "Ð·Ñı": 3362,
      "ÐµÐ»ÑĮÐ·Ñı": 3363,
      "Ð¸Ð²Ð°ÐµÐ¼": 3364,
      "STRE": 3365,
      "product": 3366,
      "Leap": 3367,
      "ĠÐ¼Ð°ÑģÑģÐ¸Ð²Ð°": 3368,
      "ÑĥÑģÐºÐ°": 3369,
      "Colleague": 3370,
      "cstdlib": 3371,
      "ĠÑĨÐ¸ÑĦ": 3372,
      "STREAM": 3373,
      "Document": 3374,
      "Ġpop": 3375,
      "Ġboolalpha": 3376,
      "pher": 3377,
      "ĠNon": 3378,
      "Ð¸ÐºÑģ": 3379,
      "Ð°ÑĢÑĤ": 3380,
      "ĠÐ²ÑĭÑĩÐ¸ÑģÐ»": 3381,
      "sorted": 3382,
      "ADDR": 3383,
      "Det": 3384,
      "cat": 3385,
      "hello": 3386,
      "ood": 3387,
      "wner": 3388,
      "ĠÐĵ": 3389,
      "Ġeps": 3390,
      "ĠMe": 3391,
      "ĠAc": 3392,
      "ached": 3393,
      "ified": 3394,
      "ĠEn": 3395,
      "ĠGame": 3396,
      "Ġquery": 3397,
      "tasks": 3398,
      "##": 3399,
      ")\\\");\\": 3400,
      "For": 3401,
      "Over": 3402,
      "link": 3403,
      "stamp": 3404,
      "section": 3405,
      "Ġperson": 3406,
      "Ð°Ð¶": 3407,
      "ates": 3408,
      "lobal": 3409,
      "ĠÐ²ÐµÑĢÑĪ": 3410,
      "tuple": 3411,
      "errno": 3412,
      "cret": 3413,
      "ĠÐĶÐµÐ¼Ð¾Ð½ÑģÑĤÑĢÐ°ÑĨÐ¸Ñı": 3414,
      "ÑıÑĤÑĮ": 3415,
      "ĠÐ´Ð¾Ð»Ð¶Ð½Ð¾": 3416,
      "Ġusers": 3417,
      "ĠColor": 3418,
      "swap": 3419,
      "Digit": 3420,
      "Even": 3421,
      "FS": 3422,
      "bst": 3423,
      "negative": 3424,
      "pi": 3425,
      "Â²": 3426,
      "ĠÑģÑĤÑĢ": 3427,
      "ĠÐ¾Ñģ": 3428,
      "Ġcard": 3429,
      "ular": 3430,
      "ĠSub": 3431,
      "mask": 3432,
      "Ð´Ð²": 3433,
      "peration": 3434,
      "values": 3435,
      "ĠÑĢÐµÐ·ÑĥÐ»ÑĮÑĤÐ°ÑĤ": 3436,
      "Ð¸ÑĨÐ°": 3437,
      "okenType": 3438,
      "Uni": 3439,
      "ĠÐ£Ð´Ð°Ð»": 3440,
      "Ġweights": 3441,
      "Allocator": 3442,
      "ĠÐ´Ð°Ð½Ð½ÑĭÑħ": 3443,
      "Ġdestroyed": 3444,
      "40": 3445,
      "Version": 3446,
      "hren": 3447,
      "ome": 3448,
      "sp": 3449,
      "stat": 3450,
      "Ð°ÑİÑī": 3451,
      "sic": 3452,
      "Ġ16": 3453,
      "threads": 3454,
      "boolalpha": 3455,
      "ĠStack": 3456,
      "ĠOr": 3457,
      "ĠWidget": 3458,
      "Ġmethod": 3459,
      "ĠÐ²ÑģÐµÑħ": 3460,
      "heit": 3461,
      "ĠThreadSafe": 3462,
      "Ġcmd": 3463,
      "hrenheit": 3464,
      "Descri": 3465,
      "Month": 3466,
      "VAL": 3467,
      "Work": 3468,
      "book": 3469,
      "buf": 3470,
      "car": 3471,
      "case": 3472,
      "Ð¯": 3473,
      "det": 3474,
      "Ġvertices": 3475,
      "ÑģÑĤÐ°Ð²": 3476,
      "Ġlimit": 3477,
      "inder": 3478,
      "Storage": 3479,
      "ĠÐºÐ»Ð°ÑģÑģ": 3480,
      "ĠmaxVal": 3481,
      "ÐµÑģÑĥÑĢÑģ": 3482,
      "},{": 3483,
      "ĠÐ¡ÑģÑĭÐ»": 3484,
      "ĠÑĢÐ°Ð²": 3485,
      "Ġcomponents": 3486,
      "ibonacci": 3487,
      "ĠÐľÐµÑĤÐ¾Ð´": 3488,
      "Ġ\\\\\\\"": 3489,
      "scribe": 3490,
      "ĠÑģÐ¸Ð¼Ð²Ð¾Ð»Ð¾Ð²": 3491,
      "ĠÐ¿ÐµÑĢÐµÐ¼ÐµÑī": 3492,
      "ĠÐ¡Ð¾Ð·Ð´Ð°Ð½Ð¸Ðµ": 3493,
      "ĲâķĲâķĲâķĲâķĲâķĲâķĲâķĲâķ": 3494,
      "ĠÑĤÐµÐºÑģÑĤ": 3495,
      "<<(": 3496,
      "Binary": 3497,
      "ROR": 3498,
      "World": 3499,
      "lt": 3500,
      "nvector": 3501,
      "ĠX": 3502,
      "ĠÐ°ÑĢ": 3503,
      "Ð½ÑĥÑĤ": 3504,
      "Ġreceived": 3505,
      "Ġep": 3506,
      "ĠCalculator": 3507,
      "ĠÐ´Ð¾Ð±Ð°Ð²": 3508,
      "Ð¾ÑĢÑĢÐµÐºÑĤ": 3509,
      "ĠÐ¸ÑģÐ¿Ð¾Ð»ÑĮÐ·Ð¾Ð²": 3510,
      "ofstream": 3511,
      "Ð±Ð¾ÑĢ": 3512,
      "Arr": 3513,
      "ĠÐĶÐ¾Ð¿Ð¾Ð»Ð½Ð¸ÑĤÐµÐ»ÑĮ": 3514,
      "ĠÑĦÑĥÐ½ÐºÑĨÐ¸Ñı": 3515,
      "ĠGraph": 3516,
      "Ð¸ÑĩÐµÑģÐºÐ¸": 3517,
      "Ġdestination": 3518,
      "Ð¸ÑĦÑĢÐ¾Ð²": 3519,
      "Ġscalar": 3520,
      "Ð¸ÑĩÐµÑģÐºÐ¾Ðµ": 3521,
      "Ġroom": 3522,
      "BLOCK": 3523,
      "cnt": 3524,
      "totype": 3525,
      "ĠÐ¾ÑģÑĤ": 3526,
      "Ð¸ÑĥÑģ": 3527,
      "alth": 3528,
      "Ð»ÐµÐ½Ð¸Ñı": 3529,
      "Ġ---\\\"": 3530,
      "Ġhandlers": 3531,
      "Ġchange": 3532,
      "ivot": 3533,
      "Ġ1024": 3534,
      "ventory": 3535,
      "ĠÑĥÑģÑĤÐ°Ð½Ð¾Ð²": 3536,
      "haredPtr": 3537,
      "ÐķÐĿ": 3538,
      "Ġsides": 3539,
      "TreeNode": 3540,
      "Ġresources": 3541,
      "cntl": 3542,
      "NO": 3543,
      "__": 3544,
      "bind": 3545,
      "sa": 3546,
      "ĠEx": 3547,
      "ÑĤÐ¾Ð¼": 3548,
      "Ġeven": 3549,
      "isor": 3550,
      "ĠCustom": 3551,
      "sets": 3552,
      "ĠMemory": 3553,
      "ĠÐ¿ÑĢÐ¾ÑģÑĤ": 3554,
      "ĠÑĦÐ¾ÑĢÐ¼": 3555,
      "rieNode": 3556,
      "Door": 3557,
      "MIN": 3558,
      "MENT": 3559,
      "RI": 3560,
      "cy": 3561,
      "down": 3562,
      "gate": 3563,
      "Ġcelsius": 3564,
      "utable": 3565,
      "arpa": 3566,
      "anana": 3567,
      "ÑĥÐ»Ñı": 3568,
      "Ġelem": 3569,
      "ÑĩÐ¸Ðº": 3570,
      "ĠÐ²ÐµÑĢ": 3571,
      "ĠÐ´Ð»Ð¸Ð½": 3572,
      "Ġresults": 3573,
      "ĠMath": 3574,
      "--)": 3575,
      "ĠÑĩÐµÑĤ": 3576,
      "ÐµÑģÑģ": 3577,
      "ÑįÑĪ": 3578,
      "ĠStatus": 3579,
      "Ġtimeout": 3580,
      "STNode": 3581,
      "ÑĥÐ½Ð´": 3582,
      "ĠÐĺÑģÐ¿Ð¾Ð»ÑĮÐ·ÑĥÐµÐ¼": 3583,
      "Ġstudents": 3584,
      "Ð²ÐµÑĢÑĤ": 3585,
      "Ġedges": 3586,
      "netinet": 3587,
      "CC": 3588,
      "Custom": 3589,
      "Calculator": 3590,
      "]))": 3591,
      "ace": 3592,
      "box": 3593,
      "ness": 3594,
      "we": 3595,
      "Ġuni": 3596,
      "comm": 3597,
      "Ð½Ñı": 3598,
      "sequence": 3599,
      "Ġpi": 3600,
      "Ġspeed": 3601,
      "getInstance": 3602,
      "licit": 3603,
      "ĠÑģÐ¾Ð²": 3604,
      "Ð°ÑĤÐ°": 3605,
      "Stats": 3606,
      "ÑĢÑĥÑĪ": 3607,
      "Ð¢ÐµÐº": 3608,
      "ĠÐ¾Ð±ÑĢÐ°Ð±Ð¾ÑĤ": 3609,
      "actorial": 3610,
      "ĠÑģÑģÑĭÐ»ÐºÐ°": 3611,
      "ĠINF": 3612,
      "show": 3613,
      "Ġscale": 3614,
      "ming": 3615,
      "osi": 3616,
      "src": 3617,
      "climits": 3618,
      "trans": 3619,
      "ÑĨÐ¸Ð¹": 3620,
      "Ġinv": 3621,
      "ĠgetType": 3622,
      "counter": 3623,
      "ĠĠĠĠĠĠĠĠĠĠĠĠĠĠĠĠĠĠĠĠĠĠĠĠĠĠĠ": 3624,
      "active": 3625,
      "imum": 3626,
      "Idx": 3627,
      "ÐľÐ°ÐºÑģÐ¸Ð¼Ð°Ð»ÑĮ": 3628,
      "ĠÑĢÐµ": 3629,
      "days": 3630,
      "allable": 3631,
      "ĠÐĶÐ¾Ð±Ð°Ð²Ð»ÑıÐµÐ¼": 3632,
      "ÑĥÑģÐºÐ°ÐµÐ¼": 3633,
      "([](": 3634,
      "/(": 3635,
      "First": 3636,
      "Right": 3637,
      "Us": 3638,
      "Widget": 3639,
      "board": 3640,
      "ipher": 3641,
      "used": 3642,
      "clone": 3643,
      "Ġphone": 3644,
      "Ġssize": 3645,
      "Ġsuffix": 3646,
      "Ð°Ð½Ñģ": 3647,
      "Ġ31": 3648,
      "Ġincrement": 3649,
      "Ð¾Ð´Ð¸ÑĦÐ¸Ðº": 3650,
      "\\\");": 3651,
      "Ð¾Ð±ÑĭÑĤ": 3652,
      "ÑĥÐ¼ÐµÐ½ÑĤ": 3653,
      "Ġexpression": 3654,
      "Ġshift": 3655,
      "Ġevents": 3656,
      "Ġposition": 3657,
      "Ð¾Ð½ÑģÑĤÑĢÑĥÐºÑĤÐ¾ÑĢ": 3658,
      "gregate": 3659,
      "ĠÐĴÑĭÑĩÐ¸ÑģÐ»": 3660,
      "ĠÐ²Ð¾Ð·ÑĢÐ°ÑģÑĤ": 3661,
      "layer": 3662,
      "ĠÑģÐ¾Ð¾Ð±Ñī": 3663,
      "AII": 3664,
      "PU": 3665,
      "vg": 3666,
      "ÐµÐ¾Ð±": 3667,
      "Ð°ÐµÑĤÑģÑı": 3668,
      "Ġreq": 3669,
      "arted": 3670,
      "Ġcuda": 3671,
      "Ġsa": 3672,
      "Ġforward": 3673,
      "ÐºÐ¾Ð¹": 3674,
      "Ġwrapper": 3675,
      "Ġrate": 3676,
      "(),\\": 3677,
      "Ġthe": 3678,
      "emon": 3679,
      "acc": 3680,
      "ÐµÐ¹ÑģÑĤÐ²": 3681,
      "nown": 3682,
      "ĠÑģÑģÑĭÐ»ÐºÐ¸": 3683,
      "Ġquick": 3684,
      "Ġserialize": 3685,
      "ĠÑģÐ»Ð¾Ð²": 3686,
      "ĠÐ¿ÑĢÐ¸Ð¾ÑĢÐ¸ÑĤÐµÑĤ": 3687,
      "ĠMultiton": 3688,
      "div": 3689,
      "pose": 3690,
      "wo": 3691,
      "Ġiss": 3692,
      "Ġfail": 3693,
      "Ġpassword": 3694,
      "Ġoffset": 3695,
      "Ġowner": 3696,
      "ĠÐ¿Ð°ÑĢ": 3697,
      "ĠSort": 3698,
      "...);\\": 3699,
      "1000": 3700,
      "Ġexplicit": 3701,
      "random": 3702,
      ".','": 3703,
      "Gen": 3704,
      "Posit": 3705,
      "Perm": 3706,
      "UE": 3707,
      "US": 3708,
      "gment": 3709,
      "house": 3710,
      "limits": 3711,
      "ping": 3712,
      "Ġcondition": 3713,
      "()>": 3714,
      "ĠÐ§": 3715,
      "Ġmag": 3716,
      "Ġevaluate": 3717,
      "ĠService": 3718,
      "strlen": 3719,
      "ĠÐ±ÑĥÐº": 3720,
      "ĠÐ±Ð¾Ð»ÑĮÑĪ": 3721,
      "ĠÑįÐ»ÐµÐ¼ÐµÐ½ÑĤÑĭ": 3722,
      "encies": 3723,
      "Blocks": 3724,
      "RUCache": 3725,
      "euron": 3726,
      "ÐµÐ¾Ð±ÑĢÐ°Ð·": 3727,
      "Tra": 3728,
      "pu": 3729,
      "square": 3730,
      "visitor": 3731,
      "Ġ[]()": 3732,
      "deg": 3733,
      "Ġfront": 3734,
      "Ġ*(": 3735,
      "Ġlarge": 3736,
      "Ġhex": 3737,
      "mplement": 3738,
      "ĠcurrentState": 3739,
      "Ð¾Ð¿ÑĭÑĤ": 3740,
      "Ð¶Ðµ": 3741,
      "Ġallocated": 3742,
      "Ġdiscount": 3743,
      "Ð°ÑĤÑĢÐ¸ÑĨÐ°": 3744,
      "Ð´ÑĢÐµÑģ": 3745,
      "Employee": 3746,
      "Ð§Ð¸ÑģÐ»Ð¾": 3747,
      "Ð¡ÑĤÑĢÐ¾ÐºÐ°": 3748,
      "nitude": 3749,
      "ral": 3750,
      "variant": 3751,
      "};": 3752,
      "ĠÐŃ": 3753,
      "Ġversion": 3754,
      "Ġdoor": 3755,
      "Ð»Ð¾Ðº": 3756,
      "union": 3757,
      "==(": 3758,
      "olar": 3759,
      "ÐµÑĢÑĮ": 3760,
      "ĠÐ¿Ð¾ÑģÐ»ÐµÐ´": 3761,
      "ĠÑģÐ¾ÑģÑĤ": 3762,
      "ptrTo": 3763,
      "Ð¾ÑĢÐ´Ð¸Ð½": 3764,
      "arehouse": 3765,
      "Ð¾Ð´ÐµÑĢÐ¶": 3766,
      "ÑĨÐ¸Ñİ": 3767,
      "Ġconver": 3768,
      "irtualBase": 3769,
      "ĠÑĢÐ°Ð·ÑĢÑĥÑĪ": 3770,
      "Ġaccounts": 3771,
      "Subsets": 3772,
      "ÐµÐ¿ÐµÑĢÑĮ": 3773,
      "Ġpercent": 3774,
      "Ġ#\\\"": 3775,
      "\\\\\\\":": 3776,
      "1234567": 3777,
      "Ð¾ÑĢÐ´Ð¸Ð½Ð°ÑĤ": 3778,
      "EX": 3779,
      "Height": 3780,
      "Light": 3781,
      "OD": 3782,
      "Op": 3783,
      "Par": 3784,
      "Room": 3785,
      "Title": 3786,
      "ggregate": 3787,
      "\\\"},": 3788,
      "declval": 3789,
      "att": 3790,
      "argest": 3791,
      "ÑĭÐ¼": 3792,
      "Ð¸Ð¶": 3793,
      "ĠÐ¿ÑĢÐ°Ð²": 3794,
      "ultip": 3795,
      "ĠCON": 3796,
      "ÑĢÐ°Ð¶": 3797,
      "ÐŁÐ»Ð¾ÑīÐ°Ð´ÑĮ": 3798,
      "ÑģÐ¿ÐµÑĪ": 3799,
      "ÑĥÐ¼Ð¼": 3800,
      "ById": 3801,
      "ĠÑģÑĤÑĢÐ¾ÐºÐ¸": 3802,
      "ÑıÐ¼Ð¾": 3803,
      "Ġclear": 3804,
      "Ġprimes": 3805,
      "ĠÑĤÑĢÐµÑĥÐ³Ð¾Ð»ÑĮÐ½Ð¸Ðº": 3806,
      "nÐŁÑĢÐ¸Ð¼ÐµÑĢ": 3807,
      "01": 3808,
      "35": 3809,
      "Double": 3810,
      "From": 3811,
      "Graph": 3812,
      "Negative": 3813,
      "Sh": 3814,
      "ule": 3815,
      "ĠÐ°Ð²": 3816,
      "ÑĢÐ¾": 3817,
      "Ġtri": 3818,
      "Ġpow": 3819,
      "Ġsin": 3820,
      "uld": 3821,
      "Ġdescription": 3822,
      "Recursive": 3823,
      "stration": 3824,
      "\\\")\\": 3825,
      "typeinfo": 3826,
      "ĠRE": 3827,
      "sides": 3828,
      "egral": 3829,
      "output": 3830,
      "lyweight": 3831,
      "operation": 3832,
      "ELD": 3833,
      "Ġnormalize": 3834,
      "FIELD": 3835,
      "Generator": 3836,
      "New": 3837,
      "Radius": 3838,
      "Ut": 3839,
      "offset": 3840,
      "win": 3841,
      "Ð°ÑİÑĤ": 3842,
      "Ð¸ÑģÑĤÑĢ": 3843,
      "ÐµÐ½Ð½Ð¾Ðµ": 3844,
      "Ð¾Ð²Ð°ÑĢ": 3845,
      "ÐµÑĢÐµÐ²": 3846,
      "ĠÐ¿ÑĢÐ¾Ð²ÐµÑĢ": 3847,
      "++;": 3848,
      "ĠÑģÐ¸ÑģÑĤÐµÐ¼": 3849,
      "Ð¸ÑĤÐµÐ»": 3850,
      "ĠBinary": 3851,
      "ÐºÐ°Ñı": 3852,
      "Ð·Ð¼ÐµÐ½": 3853,
      "ocket": 3854,
      "app": 3855,
      "ĠÐ±Ð¸ÑĤ": 3856,
      "ĠLine": 3857,
      "ÐľÐ°ÑĤÑĢÐ¸ÑĨÐ°": 3858,
      "ĠÑģÑĤÑĥÐ´ÐµÐ½ÑĤ": 3859,
      "Ġallocate": 3860,
      "Diff": 3861,
      "Util": 3862,
      "';": 3863,
      "77": 3864,
      "bug": 3865,
      "freq": 3866,
      "nunion": 3867,
      "ould": 3868,
      "Ġdot": 3869,
      "Ġcat": 3870,
      "olute": 3871,
      "Ð²ÐµÑĤ": 3872,
      "ĠTrieNode": 3873,
      "Complex": 3874,
      "Ġgrid": 3875,
      "Ġgroup": 3876,
      "ĠisValid": 3877,
      "INT": 3878,
      "ĠÐ²ÑĭÐ·Ð¾Ð²": 3879,
      "ĠÐĺÐ½": 3880,
      "Component": 3881,
      "Access": 3882,
      "Ġallocator": 3883,
      "ĠĠĠĠĠĠĠĠĠĠĠĠĠĠĠĠĠĠĠĠĠĠ": 3884,
      "Trans": 3885,
      "maining": 3886,
      "Content": 3887,
      "ÐµÐ¶Ð´Ñĥ": 3888,
      "ĠTreeNode": 3889,
      "Bob": 3890,
      "rec": 3891,
      "enable": 3892,
      "entry": 3893,
      "context": 3894,
      "Ġcost": 3895,
      "ĠSet": 3896,
      "ĠÐ½Ð¾Ð²": 3897,
      "Ġdatabase": 3898,
      "Ġ500": 3899,
      "ĠÐ¸Ð»Ð¸": 3900,
      "ÑįÑĦÑĦ": 3901,
      "Ġ80": 3902,
      "egment": 3903,
      "pecification": 3904,
      "Ð¸ÑĨÐ¸ÐµÐ½ÑĤ": 3905,
      "Ð¸Ð¼Ð¾ÑģÑĤÑĮ": 3906,
      "Copyable": 3907,
      "Original": 3908,
      "ĠSerializ": 3909,
      "ĠAccount": 3910,
      "osite": 3911,
      "ÑįÑĦÑĦÐ¸ÑĨÐ¸ÐµÐ½ÑĤ": 3912,
      "CS": 3913,
      "Line": 3914,
      "PEN": 3915,
      "SL": 3916,
      "field": 3917,
      "ru": 3918,
      "send": 3919,
      "var": 3920,
      "Ġ\"": 3921,
      "erg": 3922,
      "device": 3923,
      "Ġrest": 3924,
      "Ġregister": 3925,
      "ÑĤÐµÐ³": 3926,
      "sec": 3927,
      "Ġtable": 3928,
      "Ġaction": 3929,
      "Ġborrow": 3930,
      "Ġ13": 3931,
      "ĠÐ¼ÐµÐ¶Ð´Ñĥ": 3932,
      "101": 3933,
      "Ġses": 3934,
      "Ġengine": 3935,
      "ĠObject": 3936,
      "Ð¸Ð·Ð²ÐµÐ´": 3937,
      "ĠÑįÐ»ÐµÐ¼ÐµÐ½ÑĤÐ°": 3938,
      "Ð¼ÐµÐ½Ð°": 3939,
      "ÑĥÑīÐµÑģÑĤÐ²": 3940,
      "Method": 3941,
      "ĠÐ¸Ð¼Ðµ": 3942,
      "Unique": 3943,
      "ÑĤÐµÐ³ÑĢ": 3944,
      ")>": 3945,
      "At": 3946,
      "HE": 3947,
      "Hel": 3948,
      "]=": 3949,
      "ealth": 3950,
      "mit": 3951,
      "ĠÐ¾Ðº": 3952,
      "Ġ\\\"Â°": 3953,
      "Ġstarted": 3954,
      "Ġaverage": 3955,
      "Ġbits": 3956,
      "Ð¼ÐµÐ½Ð¸": 3957,
      "Ð°Ð»Ð°Ð½Ñģ": 3958,
      "ĠnewNode": 3959,
      "ÐĴÐµÐºÑĤÐ¾ÑĢ": 3960,
      "Ġconvert": 3961,
      "aps": 3962,
      "Ð¡ÑĢÐµÐ´Ð½": 3963,
      "ully": 3964,
      "ĠÐ¿ÑĢÐ¸Ñģ": 3965,
      "uplic": 3966,
      "Ð³Ð¾ÑĢÐ¸ÑĤ": 3967,
      "ĠÐ¾Ð±ÑĢÐ°ÑĤ": 3968,
      "ĠÐ¾ÑĤÐºÑĢ": 3969,
      "Struct": 3970,
      "ÑĭÐ²Ð°ÐµÐ¼": 3971,
      "Ġrecv": 3972,
      "ĠÐ¼Ð°ÑĤÑĢÐ¸ÑĨÑĭ": 3973,
      "ĠÐ¿Ð¾Ð·Ð¸ÑĨÐ¸Ð¸": 3974,
      "Ð°ÑģÑģÑĤÐ¾ÑıÐ½Ð¸Ðµ": 3975,
      "ĠÑĨÐ¸ÑĦÑĢ": 3976,
      "500": 3977,
      "88": 3978,
      "AS": 3979,
      "RT": 3980,
      "hex": 3981,
      "lue": 3982,
      "object": 3983,
      "tter": 3984,
      "ĠHandler": 3985,
      "enderer": 3986,
      "Ð°ÑĪ": 3987,
      "ÑĢÐ¾Ð±": 3988,
      "Ġ},": 3989,
      "async": 3990,
      "ĠĠĠĠĠĠĠĠĠĠĠĠĠĠĠĠĠĠĠĠĠĠĠĠĠĠĠĠĠĠĠĠ": 3991,
      "ĠÐŁÐ¾Ð¸ÑģÐº": 3992,
      "ĠLog": 3993,
      "ĠminVal": 3994,
      "ĠcacheMap": 3995,
      "STRU": 3996,
      "cryption": 3997,
      "ĠÐ¾Ð¿ÑĢÐµÐ´ÐµÐ»": 3998,
      "Ġgrades": 3999,
      "ĠÐ¼Ð¾Ð¶Ð½Ð¾": 4000,
      "ĠÐ·Ð°ÐºÐ°Ð·": 4001,
      "gramming": 4002,
      "ĠÐ¿Ð¾Ð»ÑĮÐ·Ð¾Ð²Ð°ÑĤÐµÐ»": 4003,
      "STRUCT": 4004,
      "-(": 4005,
      "200": 4006,
      "33": 4007,
      "55": 4008,
      ">>(": 4009,
      "Dis": 4010,
      "View": 4011,
      "aa": 4012,
      "ake": 4013,
      "Ġundo": 4014,
      "steady": 4015,
      "\\\"),": 4016,
      "copy": 4017,
      "integral": 4018,
      "ÑģÐµÐ³Ð¾": 4019,
      "container": 4020,
      "Ġtag": 4021,
      "Ġpivot": 4022,
      "Ġlight": 4023,
      "Ġht": 4024,
      "ĠÐºÐ»ÑİÑĩ": 4025,
      "chars": 4026,
      "ÐµÐ·Ð¾Ð¿Ð°Ñģ": 4027,
      "Ġaccess": 4028,
      "Ġ123": 4029,
      "Ġ255": 4030,
      "ĠDemo": 4031,
      "Interface": 4032,
      "ĠÐ¿Ð¾Ð»Ð¾Ð¶Ð¸ÑĤÐµÐ»ÑĮÐ½ÑĭÐ¼": 4033,
      "ĠÑģÐ¾ÑĢÑĤÐ¸ÑĢÐ¾Ð²ÐºÐ¸": 4034,
      "ĠOrder": 4035,
      "(\\": 4036,
      "Span": 4037,
      "network": 4038,
      "vance": 4039,
      "ÐµÑĨ": 4040,
      "depth": 4041,
      "Ġfuture": 4042,
      "Ġsym": 4043,
      "ĠÐ¿Ð°": 4044,
      "ĠÐ¿Ð°Ð¼": 4045,
      "ĠSize": 4046,
      "Ð¿Ð°Ð´": 4047,
      "ĠisPrime": 4048,
      "1024": 4049,
      "Ð¸ÑģÐºÐ°": 4050,
      "acy": 4051,
      "attery": 4052,
      "Ġ90": 4053,
      "encry": 4054,
      "2024": 4055,
      "Entry": 4056,
      "ĠÐłÐ°Ð·": 4057,
      "points": 4058,
      "Primes": 4059,
      "Ġloaded": 4060,
      "ĠÐķÑģÐ»Ð¸": 4061,
      "ÐµÐ¾Ð±ÑĢÐ°Ð·Ð¾Ð²": 4062,
      "circle": 4063,
      "my": 4064,
      "mode": 4065,
      "nT": 4066,
      "Ġobs": 4067,
      "ross": 4068,
      "getId": 4069,
      "Ð²ÐµÐ»": 4070,
      "ĠÑģÐ¾Ð±ÑĭÑĤ": 4071,
      "ĠÑģÑĥÐ¼Ð¼": 4072,
      "ĠTotal": 4073,
      "ĠTriangle": 4074,
      "Common": 4075,
      ">(\\": 4076,
      "andid": 4077,
      "[],": 4078,
      "Ġprocessed": 4079,
      "Ġ\\\",\\\"": 4080,
      "ÑģÑĤÑĢÑĥÐºÑĤÐ¾ÑĢ": 4081,
      "found": 4082,
      "Ġcompressed": 4083,
      "Ð¾ÑģÑĮ": 4084,
      "Ð°ÐºÑģÐ¸Ð¼ÑĥÐ¼": 4085,
      "Ġobjects": 4086,
      "Days": 4087,
      "ĠÐ¾Ð´Ð¸Ð½": 4088,
      "ĠÐºÐ¾Ð¾ÑĢÐ´Ð¸Ð½Ð°ÑĤ": 4089,
      "Description": 4090,
      "'},\\": 4091,
      "Average": 4092,
      "Card": 4093,
      "LET": 4094,
      "SET": 4095,
      "SON": 4096,
      "equal": 4097,
      "pool": 4098,
      "Ġ);\\": 4099,
      "Ð½ÐµÑĢ": 4100,
      "Ġiter": 4101,
      "Ġrear": 4102,
      "Ġremo": 4103,
      "icro": 4104,
      "oly": 4105,
      "Ġnames": 4106,
      "Ġwarehouse": 4107,
      "Ġcommand": 4108,
      "ĠST": 4109,
      "aren": 4110,
      "ÐĴÑģÐµ": 4111,
      "ĠÑĩÐ»ÐµÐ½": 4112,
      "ĠÑĩÑĤÐ¾": 4113,
      "ÐĿÐŀ": 4114,
      "ĠLRUCache": 4115,
      "ÐĺÐ½": 4116,
      "tocol": 4117,
      "Files": 4118,
      "Ġ99": 4119,
      "Ġanother": 4120,
      "ÐŁÑĢÐ¾": 4121,
      "components": 4122,
      "ĠÐ¸Ð½Ð´ÐµÐºÑģ": 4123,
      "Ġperimeter": 4124,
      "Ġworkers": 4125,
      "ÐµÐ²ÐµÑĢÐ½ÑĭÐ¹": 4126,
      "Ġsuccessfully": 4127,
      "ĠÐ£Ð´Ð°Ð»ÑıÐµÐ¼": 4128,
      "Field": 4129,
      "Iterator": 4130,
      "Ġ\\\"âľ": 4131,
      "Ġfabs": 4132,
      "Ġvar": 4133,
      "uel": 4134,
      "ges": 4135,
      "Ġwait": 4136,
      "Ġlazy": 4137,
      "ÐµÐ½Ð¸ÐµÐ¼": 4138,
      "person": 4139,
      "Ġgetline": 4140,
      "ĠVisitor": 4141,
      "ÐµÑģÐº": 4142,
      "ĠÐĶÐ»Ñı": 4143,
      "ÐĲÐ´ÑĢÐµÑģ": 4144,
      "ĠÐļÐ¾Ð½ÑģÑĤÑĢÑĥÐºÑĤÐ¾ÑĢ": 4145,
      "ATE": 4146,
      "ĠInter": 4147,
      "ĠValidation": 4148,
      "icroseconds": 4149,
      "Button": 4150,
      "CO": 4151,
      "Not": 4152,
      "capacity": 4153,
      "known": 4154,
      "sole": 4155,
      "()\\": 4156,
      "Ð»ÐµÐºÑģ": 4157,
      "Ġpalindrome": 4158,
      "Ġavg": 4159,
      "Ð°Ð±Ð¾ÑĤ": 4160,
      "tric": 4161,
      "change": 4162,
      "Ġ--": 4163,
      "isdigit": 4164,
      "ÐµÑĢÐµÐ´": 4165,
      "ĠÑģÑĥÐ¼Ð¼Ð°": 4166,
      "Ð¼Ð¾Ð¶": 4167,
      "Ġ32": 4168,
      "Ġinit": 4169,
      "ĠgetValue": 4170,
      "ĠPayment": 4171,
      "Ġ45": 4172,
      "Ġoverflow": 4173,
      "ÐµÑģÑı": 4174,
      "Ð¾ÑģÑĤÑĮ": 4175,
      "Ġalign": 4176,
      "Ġmost": 4177,
      "subscribe": 4178,
      "ĠÐ¸Ð·Ð¼ÐµÐ½Ð¸": 4179,
      "ÐµÐ³Ð¸ÑģÑĤÑĢ": 4180,
      "Ġcontrol": 4181,
      "Ð¸ÑĩÐµÑģÐºÐ°Ñı": 4182,
      "ÑĢÐ°Ð²Ð½ÐµÐ½Ð¸Ñı": 4183,
      "rector": 4184,
      "ĠÐ²Ð¾Ð·Ð²ÑĢÐ°Ñī": 4185,
      "ĠÐ¸Ð·Ð¼ÐµÐ½ÐµÐ½Ð¸Ñı": 4186,
      "ĠÑĢÐ°Ð´Ð¸ÑĥÑģ": 4187,
      "Ð¸Ð·Ð²ÐµÐ´ÐµÐ½Ð¸Ðµ": 4188,
      "Helper": 4189,
      "Ð³Ð¾ÑĢÐ¸ÑĤÐ¼": 4190,
      "Mod": 4191,
      "TH": 4192,
      "optional": 4193,
      "onus": 4194,
      "seek": 4195,
      "Ġmet": 4196,
      "Ġmutable": 4197,
      "Ġsk": 4198,
      "Ð²ÐµÑģÑĤ": 4199,
      "Ġ24": 4200,
      "ĠÐ½ÐµÐ»ÑĮÐ·Ñı": 4201,
      "Ġchunk": 4202,
      "Ġinfo": 4203,
      "Ð¸ÑĤÑģÑı": 4204,
      "ĠPrint": 4205,
      "etwe": 4206,
      "ĠDE": 4207,
      "ĠDog": 4208,
      "ĠDocument": 4209,
      "ÑĪÐµ": 4210,
      "ĠÑĥÑģÐ¿ÐµÑĪ": 4211,
      "Names": 4212,
      "listen": 4213,
      "Ġexponent": 4214,
      "Ġshort": 4215,
      "ĠÐ¿Ð¾Ð´ÑģÑĤÑĢÐ¾Ðº": 4216,
      "Ġtransform": 4217,
      "ĠÐ´Ð°Ð½Ð½ÑĭÐµ": 4218,
      "allest": 4219,
      "Ġpages": 4220,
      "Overdue": 4221,
      "lta": 4222,
      "etween": 4223,
      "13": 4224,
      "Equal": 4225,
      "ahrenheit": 4226,
      "bits": 4227,
      "cp": 4228,
      "do": 4229,
      "email": 4230,
      "ms": 4231,
      "title": 4232,
      "was": 4233,
      "Ġ\\\".\\\"": 4234,
      "release": 4235,
      "orter": 4236,
      "Ġrecomm": 4237,
      "Ġbest": 4238,
      "ÐµÐ½Ñĭ": 4239,
      "transaction": 4240,
      "Ġlps": 4241,
      "Ġlcs": 4242,
      "Ð¼ÐµÑģÑĤ": 4243,
      "ĠisOn": 4244,
      "Ð¾ÑĤÐ°": 4245,
      "ÑĢÐ°ÑĦ": 4246,
      "scale": 4247,
      "ĠResourceWrapper": 4248,
      "ÐŀÐ±Ñī": 4249,
      "ĠÑģÐ»ÑĥÑĩ": 4250,
      "Ġdifference": 4251,
      "ĠÐ¿ÑĢÐ¾ÑĨ": 4252,
      "ĠÑģÐµÐºÑĥÐ½Ð´": 4253,
      "winPrimes": 4254,
      "Ġrecommend": 4255,
      "BU": 4256,
      "Range": 4257,
      "bad": 4258,
      "can": 4259,
      "ratio": 4260,
      "Ġ\\\"+": 4261,
      "come": 4262,
      "Ð»Ð¾Ð¶": 4263,
      "ries": 4264,
      "ÐµÐ¼Ð¿ÐµÑĢ": 4265,
      "Ġheader": 4266,
      "Ġrank": 4267,
      "ifier": 4268,
      "Ð¾Ð³ÑĢ": 4269,
      "Ð¾Ð¶Ð´": 4270,
      "ÐľÐ¸Ð½": 4271,
      "Ġstates": 4272,
      "Ð¸ÑģÑĤÐ¸ÐºÐ°": 4273,
      "ÐŀÑĤÑģÐ¾ÑĢÑĤÐ¸ÑĢÐ¾Ð²Ð°Ð½": 4274,
      "Printer": 4275,
      "ĠÐ½Ð°ÑĩÐ°Ð»": 4276,
      "ĠÐ±ÑĥÐºÐ²": 4277,
      "degree": 4278,
      "Ð¾Ð¿ÑĭÑĤÐºÐ°": 4279,
      "ÐµÐ¼Ð¿ÐµÑĢÐ°ÑĤ": 4280,
      "Len": 4281,
      "OW": 4282,
      "VER": 4283,
      "banana": 4284,
      "ored": 4285,
      "regex": 4286,
      "Ġpush": 4287,
      "Ġcannot": 4288,
      "Ġsave": 4289,
      "Ġ19": 4290,
      "ulation": 4291,
      "Ð¾Ð²Ð°Ñı": 4292,
      "isalpha": 4293,
      "ĠCategory": 4294,
      "001": 4295,
      "ĠÐ½Ñĥ": 4296,
      "ĠÐ½ÐµÑĤ": 4297,
      "ĠÐ´ÑĢÑĥÐ³": 4298,
      "ĠDoor": 4299,
      "mod": 4300,
      "mento": 4301,
      "Ð°Ð½Ð¸ÐµÐ¼": 4302,
      "Ð¸Ð²Ð°Ð½Ð¸Ðµ": 4303,
      "ĠLibrary": 4304,
      "acquire": 4305,
      "Ð¢Ð¾ÑĩÐºÐ°": 4306,
      "ĠÐ¾ÑĤÑģÐ¾ÑĢÑĤÐ¸ÑĢÐ¾Ð²Ð°Ð½": 4307,
      "Ġany": 4308,
      "ĠJsonException": 4309,
      "crypt": 4310,
      "Ġdispatch": 4311,
      "ĠÐ½Ð°Ð¹Ð´ÐµÐ½Ð¾": 4312,
      "ĠÑĨÐµÐ»": 4313,
      "Ġapply": 4314,
      "ĠÐ·Ð°Ð¿Ð¸Ñģ": 4315,
      "ĠÐ¿Ð¾Ð²ÑĤÐ¾ÑĢ": 4316,
      "Ð´Ð²Ð¸Ð³": 4317,
      "!\\\";\\": 4318,
      "&>(": 4319,
      "GB": 4320,
      "Hour": 4321,
      "TE": 4322,
      "TY": 4323,
      "istream": 4324,
      "nÐłÐ°Ð·Ð¼ÐµÑĢ": 4325,
      "ope": 4326,
      "Ġâ": 4327,
      "Ġraw": 4328,
      "ertex": 4329,
      "arri": 4330,
      "arning": 4331,
      "Ġflag": 4332,
      "Ġbank": 4333,
      "Ġmask": 4334,
      "cks": 4335,
      "Ġformat": 4336,
      "Ð¼Ñı": 4337,
      "Ġdemon": 4338,
      "Ġhistory": 4339,
      "ĠÐ´ÐµÐ¹ÑģÑĤÐ²": 4340,
      "ĠÐ´ÐµÑĢÐµÐ²": 4341,
      "Ġrun": 4342,
      "ĠFixed": 4343,
      "ĠVehicle": 4344,
      "Ð¾ÑģÑĤÐ°ÑĤ": 4345,
      "Child": 4346,
      "ÑĥÐºÑĤ": 4347,
      "ĠaccountNumber": 4348,
      "rectory": 4349,
      "Server": 4350,
      "ĠÑĦÑĥÐ½ÐºÑĨÐ¸Ð¸": 4351,
      "Division": 4352,
      "ĠÐ¸Ð¼ÐµÐµÑĤ": 4353,
      "opecks": 4354,
      "<>": 4355,
      "Mediator": 4356,
      "Password": 4357,
      "Tag": 4358,
      "Vehicle": 4359,
      "increment": 4360,
      "aterm": 4361,
      "Ð½ÐµÐ¹": 4362,
      "Ð¾Ð²Ð°ÑĤÐµÐ»ÑĮ": 4363,
      "++]": 4364,
      "Ġcos": 4365,
      "Ġhour": 4366,
      "Coord": 4367,
      "serter": 4368,
      "Statistics": 4369,
      "ĠÐºÐ¾Ð¼": 4370,
      "Ð¾Ð¿ÑĥÑģÐºÐ°ÐµÐ¼": 4371,
      "adians": 4372,
      "Ġnodes": 4373,
      "...)": 4374,
      "Refs": 4375,
      "Ġ\\\"':": 4376,
      "TION": 4377,
      "Ġ\\\"]\\\"": 4378,
      "ĠÐ´Ð¾Ð»Ð¶ÐµÐ½": 4379,
      "Ġtraversal": 4380,
      "holds": 4381,
      "Distance": 4382,
      "ÑĨÐµÐ½ÐºÐ°": 4383,
      "ĠÐ¡ÑģÑĭÐ»ÐºÐ°": 4384,
      "atermark": 4385,
      ">())": 4386,
      "Non": 4387,
      "Network": 4388,
      "PA": 4389,
      "PO": 4390,
      "by": 4391,
      "bol": 4392,
      "gular": 4393,
      "header": 4394,
      "sync": 4395,
      "ĠK": 4396,
      "ĠÐ°Ð»": 4397,
      "inserter": 4398,
      "Ġren": 4399,
      "Ġreference": 4400,
      "Ġfrequency": 4401,
      "Ġdimen": 4402,
      "ane": 4403,
      "ssert": 4404,
      "Ð¾Ð²Ð¾Ðµ": 4405,
      "ĠText": 4406,
      "address": 4407,
      "ĠAct": 4408,
      "ĠmaxLength": 4409,
      "ĠÑĤÐµÑģÑĤ": 4410,
      "ĠÑĥÐ¶Ðµ": 4411,
      "Ġfiles": 4412,
      "ĠÐ¿ÑĢÐ¾Ð±": 4413,
      "Ð°ÐºÑĤ": 4414,
      "ĠÑĢÐµÑģÑĥÑĢÑģ": 4415,
      "Ġencrypted": 4416,
      "RES": 4417,
      "ĠÐºÐ¾Ð½ÑĤ": 4418,
      "ÐµÐ¶Ð¸Ð¼": 4419,
      "Items": 4420,
      "Processing": 4421,
      "256": 4422,
      "ĠQuantity": 4423,
      ":%": 4424,
      "SIG": 4425,
      "[(": 4426,
      "ia": 4427,
      "uit": 4428,
      "ving": 4429,
      "Ġrot": 4430,
      "inish": 4431,
      "cope": 4432,
      "coefficients": 4433,
      "Ð½Ð¸ÑĨÐ°": 4434,
      "ings": 4435,
      "Ġcart": 4436,
      "Ġbst": 4437,
      "ÑĥÐµÑĤ": 4438,
      "olat": 4439,
      "pass": 4440,
      "Ð²Ð»": 4441,
      "Ġcoefficients": 4442,
      "ĠSystem": 4443,
      "mainder": 4444,
      "Ð°Ð½Ð¾": 4445,
      "Ġrc": 4446,
      "ĠDemon": 4447,
      "Ð¿ÑĢÐ°Ð²": 4448,
      "ĠÐºÑįÑĪ": 4449,
      "Ġ400": 4450,
      "ÐĴÑģÐµÐ³Ð¾": 4451,
      "Ġcharact": 4452,
      "ĠÐŁÐ¾Ð´": 4453,
      "ĠÑĥÐ¼Ð½Ð¾Ð¶": 4454,
      "ĠÐ¿ÑĢÐ¸Ð²": 4455,
      "ĠResult": 4456,
      "Ġsection": 4457,
      "ToString": 4458,
      "Unknown": 4459,
      "TIME": 4460,
      "cstdint": 4461,
      "ializer": 4462,
      "Ġcartesian": 4463,
      "Ġplugins": 4464,
      "Entities": 4465,
      "roller": 4466,
      "Ġsmall": 4467,
      "Ġcleanup": 4468,
      "Ġentity": 4469,
      "ĠÐ¨Ð°Ð±Ð»Ð¾Ð½": 4470,
      "AA": 4471,
      "Longest": 4472,
      "Port": 4473,
      "TP": 4474,
      "dir": 4475,
      "nauto": 4476,
      "vin": 4477,
      "weak": 4478,
      "Ġ::": 4479,
      "ĠKey": 4480,
      "Ġmedi": 4481,
      "Ġdir": 4482,
      "Ġph": 4483,
      "iddle": 4484,
      "uler": 4485,
      "Ġ26": 4486,
      "ĠÑģÐµÑĢ": 4487,
      "Ġcomplex": 4488,
      "Ġrand": 4489,
      "Ġstrlen": 4490,
      "Values": 4491,
      "ĠtoString": 4492,
      "Ġsecret": 4493,
      "Ġ999": 4494,
      "Ġexpected": 4495,
      "ABAB": 4496,
      "ĠResourceHolder": 4497,
      "Ġallocations": 4498,
      "Ð¸ÑĦÐ¼ÐµÑĤ": 4499,
      "ÐĺÑģÑħÐ¾Ð´Ð½Ð°Ñı": 4500,
      "ribution": 4501,
      "Ð¢ÐµÐºÑĥÑī": 4502,
      "Ð¡ÑĢÐµÐ´Ð½ÐµÐµ": 4503,
      "Free": 4504,
      "UM": 4505,
      "observer": 4506,
      "vie": 4507,
      "Ġ\\\"\\": 4508,
      "ÐµÑĨÐ¸": 4509,
      "Ġnon": 4510,
      "Ġcall": 4511,
      "Ġassert": 4512,
      "Ð¾Ð²ÑĭÐµ": 4513,
      "ĠCache": 4514,
      "strcmp": 4515,
      "ĠBit": 4516,
      "Ġgap": 4517,
      "ÐµÐºÐ¾ÑĢÑĢÐµÐºÑĤ": 4518,
      "INF": 4519,
      "ĠprintInfo": 4520,
      "ĠRoom": 4521,
      "toString": 4522,
      "acation": 4523,
      "Prototype": 4524,
      "epoll": 4525,
      "ĠIterator": 4526,
      "ĠÐ¿ÐµÑĢÐµÐ´": 4527,
      "ĠÐ²ÑĭÑĢÐ°Ð¶": 4528,
      "Ð°Ð»ÑĮÐ½ÑĭÐµ": 4529,
      "ĠrefCount": 4530,
      "compare": 4531,
      "eneric": 4532,
      "expected": 4533,
      "FFER": 4534,
      "Ġconnections": 4535,
      "Ġservices": 4536,
      "otes": 4537,
      "ĠÐ´Ð¸Ð°Ð¿Ð°Ð·Ð¾Ð½Ð°": 4538,
      "control": 4539,
      "ÑĢÐ°Ð½Ð¸ÑĨ": 4540,
      "Ġ'-')": 4541,
      "cases": 4542,
      "123456789": 4543,
      ")->": 4544,
      "ESS": 4545,
      "lie": 4546,
      "ts": 4547,
      "ret": 4548,
      "ĠÐ¦": 4549,
      "Ġiterator": 4550,
      "ÑĤÐµ": 4551,
      "Ġderived": 4552,
      "Ġboard": 4553,
      "ÑĭÑĩ": 4554,
      "ÐµÐ½Ð½ÑĭÐµ": 4555,
      "ĠÐºÐ½Ð¸Ð³": 4556,
      "Types": 4557,
      "Ð¡Ð¢": 4558,
      "ĠList": 4559,
      "ĠLazy": 4560,
      "Ð¾Ð¿Ð¸ÑĢÐ¾Ð²Ð°Ð½": 4561,
      "Ð¾Ð³ÑĢÐ°Ð¼": 4562,
      "structor": 4563,
      "Ð¸ÐºÐ»": 4564,
      "Ġprocessing": 4565,
      "Ð»Ð¸ÐµÐ½ÑĤ": 4566,
      "Ġusername": 4567,
      "Engine": 4568,
      "ÑĤÐ°ÑĤÐ¸ÑģÑĤÐ¸ÐºÐ°": 4569,
      "Ġ\\\"[\\\"": 4570,
      "Ġletter": 4571,
      "Ġpointer": 4572,
      "rams": 4573,
      "Ð¸ÑĩÐµÑģÐºÐ¸Ð¹": 4574,
      "Checker": 4575,
      "connected": 4576,
      "Ð§Ð¸ÑģÐ»Ð°": 4577,
      "ĠÐ¾Ð¿ÐµÑĢÐ°ÑĤÐ¾ÑĢ": 4578,
      "Ð¸ÑģÐ¾ÐºÐ¾Ñģ": 4579,
      "ĠÐ¿Ð°ÑĢÐ°Ð¼": 4580,
      "37": 4581,
      "CLA": 4582,
      "Era": 4583,
      "FIN": 4584,
      "Pin": 4585,
      "PRO": 4586,
      "UR": 4587,
      "calculate": 4588,
      "microseconds": 4589,
      "nel": 4590,
      "cos": 4591,
      "Ġstream": 4592,
      "Ð¾Ð¸Ð¼Ð¾ÑģÑĤÑĮ": 4593,
      "Ð¸Ð½Ñĭ": 4594,
      "Ġtail": 4595,
      "Ð»Ð¸Ñĩ": 4596,
      "Ġcur": 4597,
      "ueDate": 4598,
      "Ġbox": 4599,
      "ismatch": 4600,
      "ĠÑģÐ°Ð¼": 4601,
      "Ġlines": 4602,
      "ĠTokenType": 4603,
      "Ġ300": 4604,
      "ason": 4605,
      "Ġratio": 4606,
      "ĠÐ±Ñĭ": 4607,
      "Example": 4608,
      "imized": 4609,
      "Ð¸Ð²Ð½ÑĭÐ¹": 4610,
      "ants": 4611,
      "ĠÐ²ÑĭÑģ": 4612,
      "ĠÐĴÐ¾Ð·": 4613,
      "Ġmoved": 4614,
      "Ġcreator": 4615,
      "&)>": 4616,
      "CKET": 4617,
      "ĠDateTime": 4618,
      "Tasks": 4619,
      "Ġproducts": 4620,
      "ĠÑģÐ»Ð¾Ð¶": 4621,
      "udget": 4622,
      "ĠÐ²ÑĢÐµÐ¼ÐµÐ½Ð¸": 4623,
      "quired": 4624,
      "ĠÑĥÐ´Ð°Ð»ÐµÐ½Ð¸Ñı": 4625,
      "vertices": 4626,
      "Actor": 4627,
      "MyClass": 4628,
      "ĠÐ¿Ð¾ÑĢÑıÐ´ÐºÐµ": 4629,
      "ĠÑĥÑģÑĤÐ°Ð½Ð¾Ð²Ð»ÐµÐ½": 4630,
      "ÑĤÐ¾Ð¼Ð°ÑĤ": 4631,
      "ĠÑģÐ¾Ð²Ð¿Ð°Ð´": 4632,
      "ĠÐ¿ÑĢÐ¾Ð²ÐµÑĢÐºÐ¸": 4633,
      "Erased": 4634,
      "City": 4635,
      "DP": 4636,
      "LD": 4637,
      "Power": 4638,
      "Suffix": 4639,
      "even": 4640,
      "fix": 4641,
      "fill": 4642,
      "over": 4643,
      "window": 4644,
      "ens": 4645,
      "ÐµÑĦ": 4646,
      "Ġmutex": 4647,
      "Ġnegative": 4648,
      "Ġoptional": 4649,
      "Ð²Ð°Ð½": 4650,
      "velo": 4651,
      "Remove": 4652,
      "ĠPRO": 4653,
      "ÑĦÐµÑĢ": 4654,
      "ĠmaxSize": 4655,
      "Ġcomponent": 4656,
      "ĠprocessBy": 4657,
      "ĠÐ¾Ð±Ð¼ÐµÐ½Ð°": 4658,
      "ĠÐ²ÑĭÐ±Ð¾ÑĢ": 4659,
      "Ġenum": 4660,
      "ĠÐŀÑĤ": 4661,
      "ĠÐĺÐ·Ð¼ÐµÐ½": 4662,
      "Completed": 4663,
      "Ġatt": 4664,
      "Points": 4665,
      "distribution": 4666,
      "Ġconnected": 4667,
      "cheduler": 4668,
      "ecuting": 4669,
      "tended": 4670,
      "ĠNonCopyable": 4671,
      "265": 4672,
      "ACT": 4673,
      "CV": 4674,
      "CON": 4675,
      "Loc": 4676,
      "NT": 4677,
      "Part": 4678,
      "Variable": 4679,
      "cal": 4680,
      "fect": 4681,
      "ĠY": 4682,
      "lection": 4683,
      "Ġmediator": 4684,
      "Ġfl": 4685,
      "Ġfill": 4686,
      "Ġcb": 4687,
      "ĠSharedPtr": 4688,
      "Ġlay": 4689,
      "Ġ36": 4690,
      "Ġ'.": 4691,
      "Ġglobal": 4692,
      "ÑģÐ»Ð¾Ð²": 4693,
      "tern": 4694,
      "Ð¡Ðº": 4695,
      "ĠÐ·Ð½": 4696,
      "minutes": 4697,
      "Expected": 4698,
      "Computations": 4699,
      "Throw": 4700,
      "rected": 4701,
      "Ġmiddle": 4702,
      "ÐŀÐ±ÑĬ": 4703,
      "Ġmean": 4704,
      "ansitions": 4705,
      "inputs": 4706,
      "14159265": 4707,
      "implExample": 4708,
      "ÐĿÐ°Ð¹Ð´ÐµÐ½Ð¾": 4709,
      "Depend": 4710,
      "ÑıÐ¼Ð¾ÑĥÐ³Ð¾Ð»ÑĮÐ½Ð¸Ðº": 4711,
      "Ġskip": 4712,
      ")(": 4713,
      ")\\\";\\": 4714,
      ".\\\\": 4715,
      "CRC": 4716,
      "ECT": 4717,
      "Found": 4718,
      "Up": 4719,
      "af": 4720,
      "dy": 4721,
      "gcount": 4722,
      "hours": 4723,
      "Ġsign": 4724,
      "ĠÐµÐ´Ð¸Ð½": 4725,
      "uter": 4726,
      "ĠÐ¶": 4727,
      "Ġtm": 4728,
      "Ġtimer": 4729,
      "ubble": 4730,
      "ÐºÐ¾Ð´": 4731,
      "ison": 4732,
      "Ð²Ð¾Ð±": 4733,
      "Ġdepth": 4734,
      "Ġinet": 4735,
      "Ġ5000": 4736,
      "ready": 4737,
      "ÐĴÑĤÐ¾ÑĢ": 4738,
      "Ġprod": 4739,
      "fore": 4740,
      "ĠÐ²ÑĭÐ²Ð¾Ð´": 4741,
      "rawing": 4742,
      "Ġmessages": 4743,
      "tical": 4744,
      "ĠÑģÐºÐ¸Ð´": 4745,
      "Ð¤Ð°Ð¹Ð»": 4746,
      "criminant": 4747,
      "ĠÐ´Ð¸Ð°Ð¿Ð°Ð·Ð¾Ð½": 4748,
      "Ġ\\\"================================": 4749,
      "ĠÐ²ÑĭÑĩÐ¸ÑģÐ»ÐµÐ½Ð¸Ñı": 4750,
      "ĠÑĥÑģÐ¿ÐµÑĪÐ½Ð¾": 4751,
      "ÐŀÑĤÑģÐ¾ÑĢÑĤÐ¸ÑĢÐ¾Ð²Ð°Ð½Ð½ÑĭÐ¹": 4752,
      "Category": 4753,
      "Rating": 4754,
      "SO": 4755,
      "Triangle": 4756,
      "sl": 4757,
      "safe": 4758,
      "reference": 4759,
      "()),": 4760,
      "atures": 4761,
      "led": 4762,
      "ÑĤÐµÐ½Ð¸Ðµ": 4763,
      "arison": 4764,
      "adj": 4765,
      "Ġ22": 4766,
      "ĠÑģÑĥÑīÐµÑģÑĤÐ²": 4767,
      "arry": 4768,
      "ĠinUse": 4769,
      "ĠgetInstance": 4770,
      "Stream": 4771,
      "addEdge": 4772,
      "ÐŁÐ¾Ð´": 4773,
      "Ġtransition": 4774,
      "place": 4775,
      "ĠÑĤÐ¾Ð²Ð°ÑĢ": 4776,
      "Context": 4777,
      "ÐłÐĲ": 4778,
      "ĠÐ¡Ð¿": 4779,
      "Ġcolleague": 4780,
      "Ġheights": 4781,
      "ĠÐŁÑĢÐ¾Ð¿ÑĥÑģÐºÐ°ÐµÐ¼": 4782,
      "ĠÐ¿Ð¾Ð¸ÑģÐºÐ°": 4783,
      "ĠÑģÑĤÐ°ÑĤ": 4784,
      "apab": 4785,
      "ARD": 4786,
      "grees": 4787,
      "Ġactor": 4788,
      "Settings": 4789,
      "diff": 4790,
      "Ġdivisor": 4791,
      "otel": 4792,
      "ĠÐºÐ¾Ð¿Ð¸ÑĢÐ¾Ð²Ð°Ð½Ð¸Ñı": 4793,
      "Ġsymbol": 4794,
      "encrypted": 4795,
      "!=(": 4796,
      "Final": 4797,
      "Socket": 4798,
      "author": 4799,
      "bot": 4800,
      "bda": 4801,
      "hn": 4802,
      "oi": 4803,
      "oot": 4804,
      "{}": 4805,
      "inf": 4806,
      "cores": 4807,
      "Ġ{}": 4808,
      "ÐµÑģÐ»Ð¸": 4809,
      "ambda": 4810,
      "Ġview": 4811,
      "Ġdog": 4812,
      "track": 4813,
      "iter": 4814,
      "Ġwri": 4815,
      "Ġdecrypted": 4816,
      "ĠÐ½ÑĥÐ»": 4817,
      "Ġ'+": 4818,
      "ĠBlock": 4819,
      "()))": 4820,
      "ĠÐºÐ¾Ð´": 4821,
      "ĠÐºÐ²Ð°Ð´ÑĢÐ°ÑĤ": 4822,
      "));": 4823,
      ">>>": 4824,
      "Ġtoday": 4825,
      "ĠFD": 4826,
      "ÐĿÐ°": 4827,
      "ĠCoffee": 4828,
      "Ġtests": 4829,
      "ĠJSON": 4830,
      "Ġreading": 4831,
      "Ġfactories": 4832,
      "ĠINADDR": 4833,
      "Ġclients": 4834,
      "&&...": 4835,
      "Ġargument": 4836,
      "ANY": 4837,
      "Ð¸Ð½Ð°Ð»ÑĮ": 4838,
      "Books": 4839,
      "Temperature": 4840,
      "Ġinitialized": 4841,
      "ĠÐĳÐ°Ð·": 4842,
      "Active": 4843,
      "ÐŁÐµÑĢÐ²ÑĭÐ¹": 4844,
      "ĠCheck": 4845,
      "Ġiterations": 4846,
      "TYPE": 4847,
      "*,": 4848,
      "</": 4849,
      "Duplic": 4850,
      "IC": 4851,
      "Success": 4852,
      "_(": 4853,
      "ees": 4854,
      "ias": 4855,
      "lab": 4856,
      "nion": 4857,
      "utdown": 4858,
      "getType": 4859,
      "ĠCl": 4860,
      "Ġdesc": 4861,
      "ĠDouble": 4862,
      "Ġ!(*": 4863,
      "owner": 4864,
      "ĠAp": 4865,
      "ĠÐŁÐ¾Ð¿ÑĭÑĤÐºÐ°": 4866,
      "apply": 4867,
      "reshold": 4868,
      "elsius": 4869,
      "ĠVirtualBase": 4870,
      "ÐłÐŀ": 4871,
      "Ð³Ð¾Ð»": 4872,
      "cmd": 4873,
      "Ð°Ð»ÑĮÐ½ÑĭÐ¹": 4874,
      "ERROR": 4875,
      "sockopt": 4876,
      "Ġdict": 4877,
      "Ġ\\\")\\\";\\": 4878,
      "ĠProcess": 4879,
      "loyees": 4880,
      "izer": 4881,
      "udio": 4882,
      "aternion": 4883,
      "laying": 4884,
      "ĠÐŀÐ±ÑĢÐ°Ð±Ð¾ÑĤÐºÐ°": 4885,
      "Ð¸Ð¼Ð¾ÑģÑĤÐ¸": 4886,
      "ĠÑĢÐ°Ð±Ð¾ÑĤÑĭ": 4887,
      "ĠTransactionType": 4888,
      "uffmanNode": 4889,
      "Ð°Ð¶Ð´": 4890,
      "ultiplication": 4891,
      "Ġmeters": 4892,
      "ÐµÐ¼Ð¿ÐµÑĢÐ°ÑĤÑĥÑĢÐ°": 4893,
      "Ð¾ÑģÑĤÐ°ÑĤÐ¾Ñĩ": 4894,
      "1415926535": 4895,
      "SQ": 4896,
      "Score": 4897,
      "ilog": 4898,
      "och": 4899,
      "oole": 4900,
      "ĠÐ°Ð´": 4901,
      "ĠÐ¾Ñĩ": 4902,
      "Ġ\\\"{": 4903,
      "reverse": 4904,
      "ÑģÐ¸Ñı": 4905,
      "Ġvehicle": 4906,
      "Ġbound": 4907,
      "Ð¾Ð»ÐµÐµ": 4908,
      "ĠgetId": 4909,
      "ÐŁÑĢÐ¾Ð²ÐµÑĢÐºÐ°": 4910,
      "Ð¸Ð¼ÐµÐ½": 4911,
      "quantity": 4912,
      "ecution": 4913,
      "Ð¾Ð¼ÐµÑĢ": 4914,
      "ĠÑĥÐ¼": 4915,
      "ĠLight": 4916,
      "ÐľÐµÑĤÐ¾Ð´": 4917,
      "itional": 4918,
      "END": 4919,
      "ĠÐłÐ°Ð±Ð¾ÑĤ": 4920,
      "Ġparam": 4921,
      "ĠÐ¿ÐµÑĢÐ²Ð¾Ð³Ð¾": 4922,
      "requent": 4923,
      "ĠÐ´Ð²Ð°": 4924,
      "Ġusage": 4925,
      "Reader": 4926,
      "ĠÑĢÐ°Ð±Ð¾ÑĤÑĥ": 4927,
      "Ġcustomer": 4928,
      "ĠÐļÐ¾Ð½ÑģÑĤÐ°Ð½ÑĤ": 4929,
      "([&": 4930,
      "ĠÐŁÐ¾Ð»ÑĥÑĩ": 4931,
      "veloper": 4932,
      "oolean": 4933,
      ")[": 4934,
      "Clo": 4935,
      "Email": 4936,
      "Group": 4937,
      "Page": 4938,
      "Simple": 4939,
      "bserv": 4940,
      "custom": 4941,
      "limit": 4942,
      "mary": 4943,
      "nÐļ": 4944,
      "xFF": 4945,
      "stBuilder": 4946,
      "init": 4947,
      "ensive": 4948,
      "ÑĤÑĮ": 4949,
      "alf": 4950,
      "aly": 4951,
      "ÑģÐºÐ»ÑİÑĩ": 4952,
      "Ġfa": 4953,
      "Ð»Ð¸Ð·": 4954,
      "Ġprivate": 4955,
      "Ġcast": 4956,
      "icy": 4957,
      "Ġsent": 4958,
      "Ġodd": 4959,
      "risk": 4960,
      "olve": 4961,
      "ĠÑģÐ¾Ð´ÐµÑĢÐ¶": 4962,
      "ĠTimer": 4963,
      "Coffee": 4964,
      "pter": 4965,
      "ĠBU": 4966,
      "Ġstrcpy": 4967,
      "ÑĪÐ¸Ð¹": 4968,
      "ctionary": 4969,
      "ĠAstBuilder": 4970,
      "ĠÐ¼Ð°ÐºÑģÐ¸Ð¼Ð°Ð»ÑĮ": 4971,
      "ecret": 4972,
      "Ġexample": 4973,
      "Ð¾Ð¶Ð´ÐµÐ½": 4974,
      "ÐĺÐķ": 4975,
      "ÐĺÐ¼Ñı": 4976,
      "ÐĺÐ²Ð°Ð½": 4977,
      "ĠÐ¡ÑĤ": 4978,
      "Ð°Ð²Ð»": 4979,
      "ĠObserver": 4980,
      "ÑģÑĤÐ°Ð½Ð°Ð²Ð»": 4981,
      "venue": 4982,
      "Ġparser": 4983,
      "ĠÐ¸Ð½ÑĤÐµÐ³ÑĢ": 4984,
      "Ġ'\\\\\\\"": 4985,
      "Validator": 4986,
      "ANS": 4987,
      "Ð¸Ð½Ð°ÑĢ": 4988,
      "ĠÑĦÐ°Ð¹Ð»Ð°": 4989,
      "ĠÑģÐ¾Ð·Ð´Ð°Ð½Ð°": 4990,
      "ĠBigInteger": 4991,
      "LAY": 4992,
      "ĠÐĶÐ¾Ð±Ð°Ð²Ð»ÐµÐ½Ð¸Ðµ": 4993,
      "Ġcleaned": 4994,
      "ĠEncryption": 4995,
      "ĠSubject": 4996,
      "ĠÑĦÐ¾ÑĢÐ¼Ð°ÑĤ": 4997,
      "ĠÐ´ÐµÐ¹ÑģÑĤÐ²Ð¸ÑĤÐµÐ»ÑĮ": 4998,
      "bservable": 4999,
      "':\\": 5000,
      "Lo": 5001,
      "Zero": 5002,
      "ncpy": 5003,
      "vi": 5004,
      "\\\"),\\": 5005,
      "config": 5006,
      "\\\\\\\\": 5007,
      "ÐºÐ¾Ð¼": 5008,
      "Ġweak": 5009,
      "ĠCre": 5010,
      "Ġdelta": 5011,
      "Ð°Ð½Ð½ÑĭÐ¹": 5012,
      "ĠÐ´ÐµÐ¼Ð¾Ð½ÑģÑĤÑĢ": 5013,
      "Course": 5014,
      "Ġ'{": 5015,
      "ÐµÐ´ÑĥÑİÑī": 5016,
      "ÑĢÐ°Ð´": 5017,
      "Ġcontains": 5018,
      ")))": 5019,
      "ĠÐ·Ð°": 5020,
      "Connect": 5021,
      "ÐĿÐµÐ²ÐµÑĢÐ½ÑĭÐ¹": 5022,
      "ĠÐ¿ÑĢÐµÐ¾Ð±ÑĢÐ°Ð·Ð¾Ð²": 5023,
      "ÑĢÑĥÐ·": 5024,
      "Ð³ÑĥÐ¼ÐµÐ½ÑĤ": 5025,
      "fail": 5026,
      "ÑĢÐµÐ¼Ñı": 5027,
      "Ġbooks": 5028,
      "ÐŀÐ±ÑĢÐ°Ð±Ð¾ÑĤÐºÐ°": 5029,
      "Ġbegin": 5030,
      "Ġnotify": 5031,
      "Ġrectangle": 5032,
      "ĠÐºÐ¾ÑįÑĦÑĦÐ¸ÑĨÐ¸ÐµÐ½ÑĤ": 5033,
      "Ġmemset": 5034,
      "ĠÑģÑĩÐµÑĤÑĩÐ¸Ðº": 5035,
      "ĠÐ·Ð°Ð´Ð°ÑĩÐ¸": 5036,
      "Using": 5037,
      "ĠÑģÐ¾Ð¾Ð±ÑīÐµÐ½Ð¸Ðµ": 5038,
      "ternative": 5039,
      "199": 5040,
      "CAL": 5041,
      "Callable": 5042,
      "Failed": 5043,
      "OP": 5044,
      "ODE": 5045,
      "TTP": 5046,
      "erent": 5047,
      "fl": 5048,
      "mark": 5049,
      "uce": 5050,
      "view": 5051,
      "complex": 5052,
      "recursive": 5053,
      "enqueue": 5054,
      "ÑĢÐµÑģ": 5055,
      "ÑĢÑĭÑĤ": 5056,
      "Ġmultiplier": 5057,
      "Ġneuron": 5058,
      "Ġca": 5059,
      "Ġbind": 5060,
      "Ġbuf": 5061,
      "ÐµÐ½ÐµÑĢ": 5062,
      "ÑĩÐ°Ð½Ð¸Ñİ": 5063,
      "ĠÐ¿ÑĥÑĤ": 5064,
      "example": 5065,
      "ĠCRC": 5066,
      "Ġcommon": 5067,
      "Ġcoffee": 5068,
      "Ð°Ð½ÑĤ": 5069,
      "Ð¾Ð»ÑĩÐ°Ð½Ð¸Ñİ": 5070,
      "setState": 5071,
      "Ġxor": 5072,
      "Ð¾ÑĢÐ¾": 5073,
      "Ġ',": 5074,
      "oman": 5075,
      "elf": 5076,
      "ĠmaxCount": 5077,
      "ÑģÑĤÑĢÐ¾": 5078,
      "ĠÐ¾Ð±ÑħÐ¾Ð´": 5079,
      "ĠStatistics": 5080,
      "ĠcacheList": 5081,
      "ĠWeekday": 5082,
      "Ġquot": 5083,
      "({\\\"": 5084,
      "ÑĥÐ¿ÑĢ": 5085,
      "ARY": 5086,
      "ANG": 5087,
      "MPLE": 5088,
      "ÑıÐ¼Ð±": 5089,
      "ĠÐ²ÐµÐºÑĤÐ¾ÑĢÐ°": 5090,
      "ĠĠĠĠĠĠĠĠĠĠĠĠĠĠĠĠĠĠĠĠĠĠĠĠĠĠ": 5091,
      "Model": 5092,
      "parse": 5093,
      "ĠPluginManager": 5094,
      "Ð¿ÑĢÐµÐ´ÐµÐ»ÐµÐ½Ð¸Ðµ": 5095,
      ".','.','": 5096,
      "Ð¾ÑģÑĤÐ°ÑĤÐ¾ÑĩÐ½Ð¾": 5097,
      "ĠÑĥÐ¼Ð¾Ð»ÑĩÐ°Ð½Ð¸Ñİ": 5098,
      "31": 5099,
      "ASE": 5100,
      "Dynamic": 5101,
      "GIN": 5102,
      "Handle": 5103,
      "Image": 5104,
      "LI": 5105,
      "Operation": 5106,
      "multiply": 5107,
      "normal": 5108,
      "rd": 5109,
      "sm": 5110,
      "ÐĻ": 5111,
      "reet": 5112,
      "()]": 5113,
      "alternative": 5114,
      "oned": 5115,
      "conn": 5116,
      "Ġtv": 5117,
      "Ġtriangle": 5118,
      "Ð»Ð¸Ðº": 5119,
      "Ġare": 5120,
      "Ġbutton": 5121,
      "Ġ180": 5122,
      "ÐµÐ½Ð´": 5123,
      "tell": 5124,
      "itions": 5125,
      "Ġcomm": 5126,
      "Ġcourse": 5127,
      "ĠÐ²Ð°Ð»Ð¸Ð´": 5128,
      "ÑĢÐ°Ðº": 5129,
      "reading": 5130,
      "Ġprom": 5131,
      "ĠÑĤÐ¾Ð»ÑĮÐºÐ¾": 5132,
      "Ð°ÑģÑĪ": 5133,
      "ĠRAII": 5134,
      "ĠNot": 5135,
      "access": 5136,
      "rency": 5137,
      "timeout": 5138,
      "Change": 5139,
      "Ð¢ÐµÑģÑĤ": 5140,
      "displayInfo": 5141,
      "ÐµÐ²Ð¾Ð¹": 5142,
      "ĠÐĿÐµ": 5143,
      "compressed": 5144,
      "formance": 5145,
      "ĠÐ´Ð¾Ð»Ð¶Ð½Ð°": 5146,
      "Checked": 5147,
      "Ġpartition": 5148,
      "ÐºÐ»ÑİÑĩÐµÐ½": 5149,
      "ĠSmartPointer": 5150,
      "content": 5151,
      "ĠÐ²ÐµÑĢÑĪÐ¸Ð½": 5152,
      "Ġforwarding": 5153,
      "mplementation": 5154,
      "ptrToPtr": 5155,
      "Ġmedian": 5156,
      "84": 5157,
      "BE": 5158,
      "CP": 5159,
      "II": 5160,
      "Pol": 5161,
      "acle": 5162,
      "ĠÐµÑģÐ»Ð¸": 5163,
      "ÑĢÐ¸": 5164,
      "Ġmismatch": 5165,
      "sil": 5166,
      "Ġpayment": 5167,
      "Ġcy": 5168,
      "Ġcross": 5169,
      "Ġcarry": 5170,
      "entity": 5171,
      "pable": 5172,
      "ĠSSL": 5173,
      "strcpy": 5174,
      "Ġchain": 5175,
      "Ġchoice": 5176,
      "ĠPair": 5177,
      "eta": 5178,
      "Ġgood": 5179,
      "opping": 5180,
      "addable": 5181,
      "Ð·Ð²Ð»": 5182,
      "terminant": 5183,
      "esar": 5184,
      "Ġadvance": 5185,
      "ell": 5186,
      "ĠÐ¿ÑĢÐ¸Ð¼ÐµÑĢ": 5187,
      "Ð¾Ð¿ÑĢÐµÐ´ÐµÐ»": 5188,
      "ÐłÐķ": 5189,
      "ÐłÐ°ÑģÑģÑĤÐ¾ÑıÐ½Ð¸Ðµ": 5190,
      "ĠÐ¡ÑĢÐ°Ð²Ð½ÐµÐ½Ð¸Ðµ": 5191,
      "ĠRequest": 5192,
      "memset": 5193,
      "prev": 5194,
      "ĠfindMax": 5195,
      "Ð¾ÑģÐ¾Ð±": 5196,
      "ÑıÑĤÐ¸": 5197,
      "ĠÑĤÑĢÐ¸": 5198,
      "Another": 5199,
      "Addr": 5200,
      "Ġ\\\"*\\\"": 5201,
      "bitset": 5202,
      "Enter": 5203,
      "ĠÑĥÐºÐ°Ð·Ð°ÑĤÐµÐ»Ñı": 5204,
      "ircuit": 5205,
      "itespace": 5206,
      "Ġpermutations": 5207,
      "divide": 5208,
      "Discount": 5209,
      "Ð²ÐµÐ»Ð¸Ñĩ": 5210,
      "seekg": 5211,
      "copeGuard": 5212,
      "olatile": 5213,
      "ĠDemonstration": 5214,
      "MPLEMENT": 5215,
      "BO": 5216,
      "CH": 5217,
      "Here": 5218,
      "NING": 5219,
      "Ste": 5220,
      "Weight": 5221,
      "bn": 5222,
      "json": 5223,
      "step": 5224,
      "inte": 5225,
      "ingHere": 5226,
      "Ð»Ð°Ð´": 5227,
      "anc": 5228,
      "Ġsensor": 5229,
      "ÐºÐ°Ð¼Ð¸": 5230,
      "ĠSuffix": 5231,
      "ĠÐ½ÐµÐ²": 5232,
      "strate": 5233,
      "strong": 5234,
      "Ġ'[": 5235,
      "Ð¸ÑĤÐ°ÑĨÐ¸Ñı": 5236,
      "ĠPar": 5237,
      "ĠPattern": 5238,
      "aged": 5239,
      "ĠisOpen": 5240,
      "ĠÑĩÑĤ": 5241,
      "Ġextra": 5242,
      "achine": 5243,
      "Aligned": 5244,
      "crease": 5245,
      "ody": 5246,
      "ĠConst": 5247,
      "Ġsequence": 5248,
      "Ð¢Ð¸Ð¿": 5249,
      "Ð¸Ð·Ð²ÐµÑģÑĤ": 5250,
      "Ġ[\\\"": 5251,
      "ÐĲÐ½": 5252,
      "ĠlogFile": 5253,
      "Users": 5254,
      "ĠÐ³Ð»": 5255,
      "ĠÑģÑģÑĭÐ»Ð¾Ðº": 5256,
      "ĠÑģÑģÑĭÐ»ÐºÐµ": 5257,
      "ĠÑģÑĤÐ¾Ð¸Ð¼Ð¾ÑģÑĤÑĮ": 5258,
      "Ġready": 5259,
      "Ð°Ð»Ð¸Ð·Ð°ÑĨÐ¸Ð¸": 5260,
      "Ġcodes": 5261,
      "ĠÑĨÐ¸ÐºÐ»": 5262,
      "Codes": 5263,
      "Ð°ÑħÐ²": 5264,
      "EndingHere": 5265,
      "Ġ[&](": 5266,
      "ĠÐ°ÑĢÐ³ÑĥÐ¼ÐµÐ½ÑĤ": 5267,
      "ĠÐ±Ð¾Ð»ÑĮÑĪÐµ": 5268,
      "ĠÐ¿ÑĢÐ¸ÑģÐ²Ð°": 5269,
      "andidate": 5270,
      "ĠÐºÐ¾Ð¾ÑĢÐ´Ð¸Ð½Ð°ÑĤÑĭ": 5271,
      "password": 5272,
      "Ġcharacters": 5273,
      "Ġ3600": 5274,
      ")));\\": 5275,
      "71": 5276,
      "Fahrenheit": 5277,
      "Library": 5278,
      "Renderer": 5279,
      "Write": 5280,
      "aused": 5281,
      "bb": 5282,
      "category": 5283,
      "fcntl": 5284,
      "heap": 5285,
      "prom": 5286,
      "Ġ\\\"(": 5287,
      "ĠÐ¥": 5288,
      "Ð½Ð¸Ð¼": 5289,
      "Ġremaining": 5290,
      "onitor": 5291,
      "ctx": 5292,
      "unch": 5293,
      "ÐµÐ½Ð½ÑĭÑħ": 5294,
      "ĠconstRef": 5295,
      "getData": 5296,
      "Ð²Ð¾": 5297,
      "igen": 5298,
      "ĠÑģÑĢÐµÐ´": 5299,
      "Ġdecorator": 5300,
      "Registered": 5301,
      "ĠÐ²Ð¸ÑģÐ¾ÐºÐ¾Ñģ": 5302,
      "Ġ'/": 5303,
      "Ð¸ÑĤÐµÑĢ": 5304,
      "Ð¿Ð»": 5305,
      "ĠÐ·Ð°ÑħÐ²": 5306,
      "printable": 5307,
      "ĠÑĥÑĢÐ°Ð²Ð½ÐµÐ½Ð¸Ðµ": 5308,
      "tolower": 5309,
      "ĠEmail": 5310,
      "Protocol": 5311,
      "ixel": 5312,
      "roman": 5313,
      "ĠIP": 5314,
      "ÐµÐ¹Ð½ÐµÑĢ": 5315,
      "Strings": 5316,
      "jection": 5317,
      "ĠÐ»Ð¸": 5318,
      "Ð¾Ð±Ð°Ð²Ð»ÐµÐ½": 5319,
      "Ġ256": 5320,
      "ÑĤÐµÑĢÐ½": 5321,
      "ĠCompare": 5322,
      "MPLET": 5323,
      "FILE": 5324,
      "ĠÐ¿Ð¾Ð·Ð¸ÑĨÐ¸Ñı": 5325,
      "ĠÑģÑĤÑĢÑĥÐºÑĤ": 5326,
      "ergy": 5327,
      "Ġalignof": 5328,
      "ÐľÐ¸Ð½Ð¸Ð¼Ð°Ð»ÑĮ": 5329,
      "ÑģÑĤÐ°Ð½Ð°Ð²Ð»Ð¸Ð²Ð°ÐµÐ¼": 5330,
      "02": 5331,
      "60": 5332,
      "85": 5333,
      "96": 5334,
      "Header": 5335,
      "Machine": 5336,
      "SA": 5337,
      "ggle": 5338,
      "ohn": 5339,
      "success": 5340,
      "tri": 5341,
      "table": 5342,
      "Ġup": 5343,
      "ins": 5344,
      "return": 5345,
      "Ġ(&": 5346,
      "Ġcached": 5347,
      "Ġbfs": 5348,
      "ĠSpecification": 5349,
      "Rest": 5350,
      "Ġindent": 5351,
      "ĠPer": 5352,
      "Ġstrategy": 5353,
      "()));\\": 5354,
      "ĠÐ¸ÑĤÐµÑĢ": 5355,
      "Initial": 5356,
      "ĠĠĠĠĠĠĠĠĠĠĠĠĠĠĠĠĠĠ": 5357,
      "abled": 5358,
      "Ð¡ÑĩÐµÑĤ": 5359,
      "rightness": 5360,
      "ĠprintAll": 5361,
      "ĠNew": 5362,
      "Ġcompare": 5363,
      "Chain": 5364,
      "ĠOperation": 5365,
      "Ġtimestamp": 5366,
      "ĠÐ³ÑĢÐ°Ð½Ð¸ÑĨ": 5367,
      "And": 5368,
      "Ġinitialize": 5369,
      "Allocated": 5370,
      "Interval": 5371,
      "Students": 5372,
      "ĠConnectionPool": 5373,
      "chedule": 5374,
      "ecuted": 5375,
      "ĠÐĺÐ½Ð¸ÑĨÐ¸": 5376,
      "ÐµÑĢÐµÐ´ÑĮ": 5377,
      "<>\\": 5378,
      "Break": 5379,
      "Down": 5380,
      "Opt": 5381,
      "UL": 5382,
      "_;": 5383,
      "ired": 5384,
      "Ðĸ": 5385,
      "Ġor": 5386,
      "Ġ\\\"//": 5387,
      "reed": 5388,
      "ermo": 5389,
      "intValue": 5390,
      "orph": 5391,
      "orary": 5392,
      "endance": 5393,
      "Ġreservation": 5394,
      "Ġremainder": 5395,
      "ÑĢÐ¸Ð³": 5396,
      "ÑģÑĩÐµÑĤ": 5397,
      "Ġ(-": 5398,
      "sect": 5399,
      "Ġfact": 5400,
      "Ġfcntl": 5401,
      "ĠtwinPrimes": 5402,
      "ceive": 5403,
      "Ġspec": 5404,
      "ential": 5405,
      "ÑĮÑİÑĤ": 5406,
      "ÐµÑĢÑħ": 5407,
      "Ġ23": 5408,
      "ĠSh": 5409,
      "Ġdevice": 5410,
      "Ġdecoded": 5411,
      "Ð°Ð½Ð´": 5412,
      "Ġxml": 5413,
      "ĠÐ½ÐµÐ´": 5414,
      "ĠÐ½Ð°Ð»": 5415,
      "ffic": 5416,
      "Ġ'*": 5417,
      "indent": 5418,
      "ĠDynamic": 5419,
      "ĠDFS": 5420,
      "ops": 5421,
      "ÐŁÐ¾Ð¸ÑģÐº": 5422,
      "Ð¸Ð¼ÑĥÐ»Ñı": 5423,
      "plit": 5424,
      "ÐµÐºÑĥÑĢÑģ": 5425,
      "database": 5426,
      "resent": 5427,
      "pheric": 5428,
      "Ð¡Ð»": 5429,
      "ÐŀÐĶ": 5430,
      "Ð¸ÑģÑĮ": 5431,
      "):\\\";\\": 5432,
      "ĠÐŀÑģ": 5433,
      "ĠÑĢÐ°Ð·Ð½ÑĭÑħ": 5434,
      "Ġshould": 5435,
      "completed": 5436,
      "Ġserializer": 5437,
      "ĠÐ½Ð°Ð¹Ð´ÐµÐ½Ð°": 5438,
      "ĠÑģÐ¸Ð¼Ð²Ð¾Ð»Ñĭ": 5439,
      "Ġinstances": 5440,
      "ĠSOL": 5441,
      "Ġchildren": 5442,
      "Reading": 5443,
      "ĠÐ·Ð°Ð²Ð¸Ñģ": 5444,
      "ĠÐ´Ð¾ÑģÑĤÑĥÐ¿Ð°": 5445,
      "Move": 5446,
      "ÑĥÐ±Ð»Ð¸Ðº": 5447,
      "ĠÑĢÐ°Ð²Ð½Ñĭ": 5448,
      "ĠÐ°ÑĢÐ¸ÑĦÐ¼ÐµÑĤ": 5449,
      "Position": 5450,
      "ĠallocatedBlocks": 5451,
      "ĠÐ¿Ð°Ð¼ÑıÑĤÐ¸": 5452,
      "SOCKET": 5453,
      "ilograms": 5454,
      "ĠÐ´ÐµÐ¼Ð¾Ð½ÑģÑĤÑĢÐ°ÑĨÐ¸Ð¸": 5455,
      "ermostat": 5456,
      "pherical": 5457,
      "ÑĥÐ±Ð»Ð¸ÐºÐ°ÑĤ": 5458,
      "*()": 5459,
      "-%": 5460,
      "90": 5461,
      "Bound": 5462,
      "Capacity": 5463,
      "Drawing": 5464,
      "Full": 5465,
      "Factorial": 5466,
      "Ident": 5467,
      "Multiply": 5468,
      "Smart": 5469,
      "ccur": 5470,
      "dated": 5471,
      "group": 5472,
      "oth": 5473,
      "pq": 5474,
      "rbegin": 5475,
      "wrapper": 5476,
      "Ð¥": 5477,
      "ĠÐ°Ð½": 5478,
      "Ġstorage": 5479,
      "deallocate": 5480,
      "Ġregex": 5481,
      "onal": 5482,
      "ctl": 5483,
      "Ġcap": 5484,
      "Ġcalle": 5485,
      "ĠĠĠĠĠĠĠĠĠĠ": 5486,
      "ÑıÑĢ": 5487,
      "ulate": 5488,
      "nput": 5489,
      "Ġdegrees": 5490,
      "Ð°Ð½Ð½ÑĭÐµ": 5491,
      "andard": 5492,
      "ĠMiddle": 5493,
      "Ð¾ÑĤÐ¾ÑĢ": 5494,
      "query": 5495,
      "Ġoperators": 5496,
      "ĠÐ·Ð°Ð¼": 5497,
      "ĠÐ±Ð°Ð»Ð°Ð½Ñģ": 5498,
      "ĠptrTo": 5499,
      "ÐµÑģÑĮ": 5500,
      "Ġcloned": 5501,
      "Ġminor": 5502,
      "foo": 5503,
      "ĠÐŀÑĩ": 5504,
      "Ð°Ð¿ÑĢ": 5505,
      "ĠWindow": 5506,
      "ĠÐ³ÑĢÐ°Ð´": 5507,
      "ĠÐ»ÐµÑĤ": 5508,
      "Plugins": 5509,
      "Ð¡ÑĤÑĥÐ´ÐµÐ½ÑĤ": 5510,
      "ÐºÑĢÐµÑĤ": 5511,
      "Ġfibonacci": 5512,
      "ĠÐ´Ð²Ñĥ": 5513,
      "ĠÐ¿Ð¾Ð»ÑĮÐ·Ð¾Ð²Ð°ÑĤÐµÐ»ÑĮ": 5514,
      "AGE": 5515,
      "Ġentries": 5516,
      "App": 5517,
      "ĠÐ²ÐµÑĢÑĪÐ¸Ð½Ñĭ": 5518,
      "ĠÐ¾Ð±ÑĢÐ°Ð±Ð¾ÑĤÐºÐ¸": 5519,
      "Ð¾Ð´Ð¸ÑĦÐ¸ÐºÐ°ÑĨÐ¸Ñı": 5520,
      "ĠÐ¿ÑĢÐ¾Ð±ÐµÐ»": 5521,
      "ĠÑĥÐ¼Ð½Ð¾Ð¶ÐµÐ½Ð¸Ñı": 5522,
      "Ġrandom": 5523,
      "ĠÐ·Ð½Ð°Ðº": 5524,
      "ubbleSort": 5525,
      "SQL": 5526,
      "risky": 5527,
      "Ġcalled": 5528,
      "*[": 5529,
      "21": 5530,
      "Celsius": 5531,
      "FL": 5532,
      "Five": 5533,
      "GS": 5534,
      "derived": 5535,
      "head": 5536,
      "ipe": 5537,
      "ited": 5538,
      "pn": 5539,
      "Ð¬": 5540,
      "command": 5541,
      "enu": 5542,
      "Ġmoney": 5543,
      "Ġtuple": 5544,
      "sis": 5545,
      "Ġpas": 5546,
      "another": 5547,
      "Ġspan": 5548,
      "Ġostream": 5549,
      "getTotal": 5550,
      "ĠÑģÐ±": 5551,
      "Reload": 5552,
      "etch": 5553,
      "Ġguest": 5554,
      "owels": 5555,
      "ÐĴÐ¾Ð·": 5556,
      "Ġoperations": 5557,
      "ĠmaxValue": 5558,
      "printStats": 5559,
      "ĠÐ±Ð°Ð»Ð»": 5560,
      "ĠFibonacci": 5561,
      "ĠÑĥÐ·": 5562,
      "ÐĿÐµÐ´": 5563,
      "ĠÐ¿ÑĢÐ¾Ð´": 5564,
      "Ġsetsockopt": 5565,
      "ĠLO": 5566,
      "Ġ10000": 5567,
      "ĠtotalSeconds": 5568,
      "Ġselect": 5569,
      "Ġused": 5570,
      "Ġalarm": 5571,
      "ĠStorage": 5572,
      "ĠÑĢÐ°Ð·Ð´ÐµÐ»": 5573,
      "ÐĹÐ°Ð´Ð°Ñĩ": 5574,
      "Ġreader": 5575,
      "Ġ\\\"-\\\"": 5576,
      "Ġpositive": 5577,
      "Ġinputs": 5578,
      "ĠÐ¾ÑĪÐ¸Ð±ÐºÐ°": 5579,
      "Ġmodify": 5580,
      "Ð¡ÑĤÐµÐº": 5581,
      "ĠÑģÐºÐ¾Ð¿Ð¸ÑĢÐ¾Ð²Ð°Ð½": 5582,
      "Ġlisten": 5583,
      "weights": 5584,
      "ITE": 5585,
      "ĠColleague": 5586,
      "Ġmerged": 5587,
      "Ġsuccessful": 5588,
      "cartesian": 5589,
      "ĲâķĲâķĲâķĲâķĲâķĲâķĲâķĲâķĲâķĲâķĲâķĲâķĲâķĲâķĲâķĲâķ": 5590,
      "ĠÐ´Ð¾Ð±Ð°Ð²Ð»ÐµÐ½Ð¸Ñı": 5591,
      "Ġsession": 5592,
      "ĠÐ¾ÑĤÐºÑĢÑĭÑĤ": 5593,
      "ÑĢÐ¾Ð±ÑĮ": 5594,
      "Ġrecommendations": 5595,
      "ĠActor": 5596,
      "ĠRoomType": 5597,
      "19937": 5598,
      "silon": 5599,
      "Aggregate": 5600,
      "NON": 5601,
      "OT": 5602,
      "So": 5603,
      "Segment": 5604,
      "hour": 5605,
      "nÐĺ": 5606,
      "olog": 5607,
      "rink": 5608,
      "speed": 5609,
      "tom": 5610,
      "ĠUn": 5611,
      "ĠQueue": 5612,
      "\\\"});\\": 5613,
      "Ġrecord": 5614,
      "Ġvariant": 5615,
      "Ġbig": 5616,
      "ang": 5617,
      "Ġsl": 5618,
      "room": 5619,
      "execution": 5620,
      "Ġworld": 5621,
      "Ġdeterminant": 5622,
      "ĠÐ½Ð¾Ð»ÑĮ": 5623,
      "Ġinver": 5624,
      "Ġrw": 5625,
      "ĠBuffer": 5626,
      "ĠnewData": 5627,
      "ivity": 5628,
      "ÑĦÐ¾ÑĢÐ¼": 5629,
      "Ð¸Ð½Ð³": 5630,
      "ĠVec": 5631,
      "Ð°Ð·Ð²": 5632,
      "ĠRED": 5633,
      "Ġtypes": 5634,
      "ÐµÑģÑĤÑĮ": 5635,
      "ĠElement": 5636,
      "Ġsem": 5637,
      "Ġcomplete": 5638,
      "ÐļÐĲ": 5639,
      "ĠÑįÑĤÐ¾": 5640,
      "ĠÐ¿ÐµÑĢÐµ": 5641,
      "ETH": 5642,
      "ĠfindMin": 5643,
      "ĠÑģÑĤÐ°ÑĢ": 5644,
      "launch": 5645,
      "ĠÐºÐ¾Ð½ÑģÑĤÑĢÑĥÐºÑĤÐ¾ÑĢ": 5646,
      "Charlie": 5647,
      "Client": 5648,
      "Ġtopolog": 5649,
      "ught": 5650,
      "OUNT": 5651,
      "ĠĠĠĠĠĠĠĠĠĠĠĠĠĠĠĠĠĠĠĠĠĠĠĠĠ": 5652,
      "ĠÐ¿ÐµÑĢÐµÐ¼ÐµÐ½Ð½ÑĥÑİ": 5653,
      "ĠÑĥÐºÐ°Ð·Ð°ÑĤÐµÐ»ÐµÐ¹": 5654,
      "withdraw": 5655,
      "ircum": 5656,
      "ĠAlloc": 5657,
      "Ġfutures": 5658,
      "Ġfields": 5659,
      "ÑģÐºÐ¸Ð¹": 5660,
      "ĠÐ²ÐµÑĢÑħ": 5661,
      "ĠÑĢÐ°Ð·ÑĢÑĥÑĪÐµÐ½": 5662,
      "ĠSettings": 5663,
      "Ġrotate": 5664,
      "1234567890": 5665,
      "ĠÐĺÐ·Ð¼ÐµÐ½ÐµÐ½Ð¸Ðµ": 5666,
      "ĠÑĤÐ¾Ð²Ð°ÑĢÐ°": 5667,
      "Ð¸ÑĤÐµÑĢÐ°Ð»": 5668,
      "Ġtopological": 5669,
      "Cy": 5670,
      "Cart": 5671,
      "CAP": 5672,
      "Digits": 5673,
      "LU": 5674,
      "Msg": 5675,
      "Row": 5676,
      "Source": 5677,
      "cc": 5678,
      "history": 5679,
      "lvin": 5680,
      "nap": 5681,
      "run": 5682,
      "share": 5683,
      "store": 5684,
      "inate": 5685,
      "common": 5686,
      "rection": 5687,
      "Ð°ÑĨÐ¸Ð¹": 5688,
      "contains": 5689,
      "Ġve": 5690,
      "Ð»Ð°": 5691,
      "Ġpolynomial": 5692,
      "ĠpImpl": 5693,
      "Ġ14": 5694,
      "ÑıÐ·": 5695,
      "iod": 5696,
      "Ð¾Ð²ÑĭÑħ": 5697,
      "Ġ27": 5698,
      "Ġstringstream": 5699,
      "ĠÐ²Ð¾": 5700,
      "ĠÐ½ÐµÑģÐº": 5701,
      "ĠÐ´ÑĥÐ±Ð»Ð¸ÐºÐ°ÑĤ": 5702,
      "kelvin": 5703,
      "ÐµÑĤÐ°": 5704,
      "Ġinline": 5705,
      "ÑĢÐ°Ð±": 5706,
      "ĠÐºÐ°Ð¶Ð´": 5707,
      "opped": 5708,
      "ĠÐ¸ÑģÐ¿Ð¾Ð»ÑĮÐ·Ð¾Ð²Ð°Ð½Ð¸Ðµ": 5709,
      "backup": 5710,
      "vals": 5711,
      "ĠÐ¼ÐµÐ½": 5712,
      "Ġextract": 5713,
      "Ð°ÐºÐ°Ð·": 5714,
      "ÐļÐ¾Ð½": 5715,
      "ÐļÐ²Ð°Ð´ÑĢÐ°ÑĤ": 5716,
      "ĠÑĢÐµÐ±": 5717,
      "ĠÐ¾Ð±Ñī": 5718,
      "ĠÐ³ÑĢÐ°ÑĦ": 5719,
      "ÐµÑĪÐµÐ½Ð¸Ðµ": 5720,
      "originator": 5721,
      "Ġemployees": 5722,
      "shot": 5723,
      "Quotes": 5724,
      "Sequence": 5725,
      "Ġdistances": 5726,
      "ĠComponent": 5727,
      "ĠSimpleSpan": 5728,
      "abcdef": 5729,
      "ĠTesting": 5730,
      "ĠExpressionException": 5731,
      "csv": 5732,
      "nÐŁÑĢÐ¾Ð²ÐµÑĢÐºÐ°": 5733,
      "ĠQuaternion": 5734,
      "ĠÐ¼Ð¸Ð½Ð¸Ð¼ÑĥÐ¼": 5735,
      "Created": 5736,
      "ĠÑĢÐµÑĪÐµÐ½Ð¸Ñı": 5737,
      "Ġreduce": 5738,
      "decimal": 5739,
      "DoorState": 5740,
      "transform": 5741,
      "Ġconverter": 5742,
      "ĠPaymentRequest": 5743,
      "ĠÐ°Ð»Ð³Ð¾ÑĢÐ¸ÑĤÐ¼": 5744,
      "INFO": 5745,
      "ĠÐ´Ð¸Ð°Ð¿Ð°Ð·Ð¾Ð½Ðµ": 5746,
      "ĠÐłÐ°Ð±Ð¾ÑĤÐ°": 5747,
      "ĠBUFFER": 5748,
      "orphic": 5749,
      "napshot": 5750,
      "'\\": 5751,
      "AIN": 5752,
      "Author": 5753,
      "GR": 5754,
      "LY": 5755,
      "SU": 5756,
      "UN": 5757,
      "bra": 5758,
      "fir": 5759,
      "tion": 5760,
      "Ġregistered": 5761,
      "Ġflist": 5762,
      "Ġfilter": 5763,
      "sity": 5764,
      "Ġbattery": 5765,
      "Ġbetween": 5766,
      "versity": 5767,
      "ĠCO": 5768,
      "ĠSensor": 5769,
      "Ġhealth": 5770,
      "Ġinner": 5771,
      "istic": 5772,
      "ĠDi": 5773,
      "Ġguard": 5774,
      "ĠisPalindrome": 5775,
      "ĠisLeap": 5776,
      "Ġ&&\\": 5777,
      "Ð¾ÐºÐ°Ð·": 5778,
      "ested": 5779,
      "ĠFinal": 5780,
      "Ġ||\\": 5781,
      "locity": 5782,
      "ĠRGB": 5783,
      "Ġ64": 5784,
      "Ġ%=": 5785,
      "ĠER": 5786,
      "timestamp": 5787,
      "ĠÑįÑĤ": 5788,
      "ĠÑĢÐµÐ³Ð¸ÑģÑĤÑĢ": 5789,
      "Ġ2024": 5790,
      "ĠÐĺÐ¼": 5791,
      "Ġleg": 5792,
      "Ð»ÑİÐ´": 5793,
      "LOG": 5794,
      "ĠÐ¸Ð½ÑĤÐµÑĢ": 5795,
      "ElementA": 5796,
      "ÐĽÐĺ": 5797,
      "Squares": 5798,
      "isspace": 5799,
      "ĠÑħÐµÑĪ": 5800,
      "ĠÑĤÐµÐºÑĥÑī": 5801,
      "Ġmemcpy": 5802,
      "ĠÐ²ÑĭÐ¿Ð¾Ð»Ð½ÐµÐ½Ð¸Ñı": 5803,
      "JsonNode": 5804,
      "Ð°Ð»Ð»ÐµÐ»ÑĮ": 5805,
      "ĠÐĶÐ¾Ð¿Ð¾Ð»Ð½Ð¸ÑĤÐµÐ»ÑĮÐ½ÑĭÐµ": 5806,
      "Ð¸ÑĩÐµÑģÐºÐ¸Ðµ": 5807,
      "ĠÐĴÑĭÑĩÐ¸ÑģÐ»ÐµÐ½Ð¸Ðµ": 5808,
      "ĠÐĴÑĭÑĩÐ¸ÑģÐ»ÑıÐµÐ¼": 5809,
      "Ġmagnitude": 5810,
      "ÐµÑģÑıÑĨ": 5811,
      "TEMP": 5812,
      "ĠÐµÐ´Ð¸Ð½Ð¸ÑĨ": 5813,
      "ĠClient": 5814,
      "ĠÐ·Ð°ÑħÐ²Ð°ÑĤ": 5815,
      "firm": 5816,
      "!\\\");\\": 5817,
      "Box": 5818,
      "Math": 5819,
      "Mana": 5820,
      "OS": 5821,
      "Pre": 5822,
      "Pattern": 5823,
      "SV": 5824,
      "WR": 5825,
      "Width": 5826,
      "eb": 5827,
      "gency": 5828,
      "rin": 5829,
      "ump": 5830,
      "ĠExpr": 5831,
      "ĠÐµÑģÑĤÑĮ": 5832,
      "inanc": 5833,
      "\\\"}\\": 5834,
      "urch": 5835,
      "seq": 5836,
      "Ġfo": 5837,
      "Ġfuel": 5838,
      "Ð»Ð¾": 5839,
      "Ġbin": 5840,
      "strings": 5841,
      "ritical": 5842,
      "transition": 5843,
      "Ġed": 5844,
      "adr": 5845,
      "->()": 5846,
      "vertex": 5847,
      "ĠÑģÑĢÐ°Ð²Ð½ÐµÐ½Ð¸Ðµ": 5848,
      "ĠÑģÑĢÐ°Ð²Ð½ÐµÐ½Ð¸Ñı": 5849,
      "ĠÑģÐ´Ð²Ð¸Ð³": 5850,
      "ĠCSV": 5851,
      "Ġcom": 5852,
      "ĠStr": 5853,
      "Repe": 5854,
      "ĠÐ²Ð·": 5855,
      "ĠÐ½Ð¾Ð¼ÐµÑĢ": 5856,
      "Ð¾ÑĢÐ¾Ð´": 5857,
      "Ġrating": 5858,
      "ĠgetTotal": 5859,
      "ĠÐºÐ»Ð¸ÐµÐ½ÑĤ": 5860,
      "ĠÐ¸ÑģÐ¿Ð¾Ð»ÑĮÐ·ÑĥÐµÐ¼": 5861,
      "ĠAudio": 5862,
      "term": 5863,
      "ĠÐ¼Ð¾Ð´Ð¸ÑĦÐ¸Ðº": 5864,
      "ĠÐ¼ÑĮÑİÑĤ": 5865,
      "keys": 5866,
      "ĠmaxEndingHere": 5867,
      "ĠÑĤÐ°Ð¹": 5868,
      "Ð¾Ð½ÐµÐ½ÑĤ": 5869,
      "ĠÑĥÑģÐ»Ð¾Ð²": 5870,
      "signment": 5871,
      "ĠtotalArea": 5872,
      "Ġseg": 5873,
      "ÐļÐ½Ð¸Ð³": 5874,
      "ĠIs": 5875,
      "ĠItem": 5876,
      "ĠIMPLEMENT": 5877,
      "ToId": 5878,
      "ĠÐ¿ÐµÑĢÐµÑģÑĤ": 5879,
      "Ġ70": 5880,
      "ĠÐŀÐ¿ÐµÑĢ": 5881,
      "Ġsubtract": 5882,
      "ĠÑģÑĤÐµÐ¿": 5883,
      "Ġatomic": 5884,
      "ÐºÐ°Ð·Ð°ÑĤÐµÐ»ÑĮ": 5885,
      "curring": 5886,
      "ĠÐ»Ð¾Ð³": 5887,
      "ĠJsonObject": 5888,
      "ĠÐľÐ¾Ð´Ð¸ÑĦÐ¸ÐºÐ°ÑĨÐ¸Ñı": 5889,
      "Ġmonthly": 5890,
      "ĠTypeErased": 5891,
      "OfDay": 5892,
      "center": 5893,
      "ÐĿÐµÐ¸Ð·Ð²ÐµÑģÑĤ": 5894,
      "ollars": 5895,
      "TRACT": 5896,
      "ĠÐºÐ¾ÑĢÑĢÐµÐºÑĤ": 5897,
      "ĠÐ¾Ð±ÑĬÐµÐºÑĤÐ¾Ð²": 5898,
      "Ġdivide": 5899,
      "ĠmemoryPool": 5900,
      "ĠÐ¿ÐµÑĢÐµÐ¼ÐµÐ½Ð½Ð¾Ð¹": 5901,
      "Ġ__": 5902,
      "Ġneighbors": 5903,
      "Creating": 5904,
      "ĠÐ¿ÐµÑĢÐµÐ¼ÐµÑīÐµÐ½Ð¸Ñı": 5905,
      "Permutations": 5906,
      "Parser": 5907,
      "ĠÑĤÑĢÐµÑĥÐ³Ð¾Ð»ÑĮÐ½Ð¸ÐºÐ°": 5908,
      "ĠÐ¿Ð¾Ð»ÑĮÐ·Ð¾Ð²Ð°ÑĤÐµÐ»Ñı": 5909,
      "ĠÑģÐ¾Ð±ÑĭÑĤÐ¸Ð¹": 5910,
      "BUG": 5911,
      "CLARE": 5912,
      "Dependencies": 5913,
      "ĠÐ°Ð´ÑĢÐµÑģ": 5914,
      "Policy": 5915,
      "ipeline": 5916,
      "inancial": 5917,
      "urchase": 5918,
      "ĠÐ¼Ð¾Ð´Ð¸ÑĦÐ¸ÐºÐ°ÑĨÐ¸Ð¸": 5919,
      ")-": 5920,
      "Ca": 5921,
      "Oper": 5922,
      "Ratio": 5923,
      "Sm": 5924,
      "Spec": 5925,
      "db": 5926,
      "eed": 5927,
      "nÐ£": 5928,
      "nÐĴÑĭ": 5929,
      "nÐĶÐ¾": 5930,
      "ĠÂ": 5931,
      "Ġ...": 5932,
      "atis": 5933,
      "Ġreport": 5934,
      "urpose": 5935,
      "unlock": 5936,
      "Ġblue": 5937,
      "Ġ120": 5938,
      "ÑıÑİÑī": 5939,
      "umulate": 5940,
      "peek": 5941,
      "isPrime": 5942,
      "Ð²Ð°ÑĢ": 5943,
      "ĠÐ¿ÑĢÐ¾Ð²ÐµÑĢÐºÐ°": 5944,
      "exit": 5945,
      "Ġwater": 5946,
      "ĠSafe": 5947,
      "Ð°Ð½Ð°": 5948,
      "ĠÐ²Ð¸Ð´": 5949,
      "ÐµÐ½Ð¸Ð¸": 5950,
      "percent": 5951,
      "ÐµÑĤÑĮ": 5952,
      "Ġ'}": 5953,
      "Ġrd": 5954,
      "ĠgetData": 5955,
      "());": 5956,
      "ÐŁÐ¾Ð»": 5957,
      "Ð¾ÑĤÑĥ": 5958,
      "agonal": 5959,
      "response": 5960,
      "ÐŀÑĩ": 5961,
      "acter": 5962,
      "ĠFunc": 5963,
      "locale": 5964,
      "ifi": 5965,
      "ÐĶÐ¾Ð±Ð°Ð²Ð»ÐµÐ½": 5966,
      "Ġ1000000": 5967,
      "toupper": 5968,
      "ĠRegistry": 5969,
      "ĠContext": 5970,
      "ĠÐĶÐ¾ÑģÑĤÑĥÐ¿": 5971,
      "ĠOther": 5972,
      "LECT": 5973,
      "Ġclosed": 5974,
      "ĠÑĤÐ¸Ð¿Ñĭ": 5975,
      "ÐŁÑĢÐ¸Ð²": 5976,
      "The": 5977,
      "ĠResourcePool": 5978,
      "Ð°Ð±Ð»ÑİÐ´": 5979,
      "ĠÐ¸Ð½Ð¸ÑĨÐ¸": 5980,
      "Ġactual": 5981,
      "Ġappro": 5982,
      "ĠStringWrapper": 5983,
      "operators": 5984,
      "ĠÐ¼Ð¸Ð½Ð¸Ð¼Ð°Ð»ÑĮ": 5985,
      "ĠSmartArray": 5986,
      "ĠAligned": 5987,
      "Ð¸ÑģÑĤÐµÐ¼Ð°": 5988,
      "ÐŃÐ»ÐµÐ¼ÐµÐ½ÑĤÑĭ": 5989,
      "Ð¸Ð°Ð½ÑĤ": 5990,
      "Ð¨Ð°Ð³": 5991,
      "ĠÑĢÐµÑĪÐµÐ½Ð¸Ð¹": 5992,
      "Ġdecimal": 5993,
      "ferred": 5994,
      "Ð¿ÑĢÐµÐ´ÐµÐ»Ð¸ÑĤÐµÐ»ÑĮ": 5995,
      "ĠÐ¾ÑģÐ½Ð¾Ð²": 5996,
      "Ð½ÑĥÑĤÑĢÐ¸": 5997,
      "Ġchanged": 5998,
      "ĠÑģÑĤÑĥÐ´ÐµÐ½ÑĤÐ¾Ð²": 5999,
      "ccurrence": 6000,
      "ĠÐ³ÑĢÐ°Ð´ÑĥÑģ": 6001,
      "ircumference": 6002,
      "ĠERROR": 6003,
      "atisf": 6004,
      ".\\\";\\": 6005,
      "ACK": 6006,
      "Abs": 6007,
      "AME": 6008,
      "Cipher": 6009,
      "EE": 6010,
      "FIG": 6011,
      "Filter": 6012,
      "Frequent": 6013,
      "GET": 6014,
      "ML": 6015,
      "Mem": 6016,
      "Ops": 6017,
      "Phone": 6018,
      "Pending": 6019,
      "RAII": 6020,
      "Tuple": 6021,
      "Vertex": 6022,
      "byte": 6023,
      "doc": 6024,
      "eam": 6025,
      "jug": 6026,
      "lish": 6027,
      "nÐĴÐ²ÐµÐ´Ð¸ÑĤÐµ": 6028,
      "noexcept": 6029,
      "sv": 6030,
      "triangle": 6031,
      "ured": 6032,
      "ĠÐµÑī": 6033,
      "Ġ\\\"\\\",": 6034,
      "Ġstats": 6035,
      "ern": 6036,
      "Ġms": 6037,
      "the": 6038,
      "ÑĥÐµÐ¼": 6039,
      "trics": 6040,
      "peak": 6041,
      "ÑĮÑİ": 6042,
      "Ġwill": 6043,
      "very": 6044,
      "Ġlst": 6045,
      "ĠTR": 6046,
      "Ġdeposit": 6047,
      "Ġdepend": 6048,
      "Reservation": 6049,
      "ket": 6050,
      "Ġ']": 6051,
      "ĠPool": 6052,
      "ĠDis": 6053,
      "ĠDep": 6054,
      "ÑħÑĢÐ°Ð½": 6055,
      "InMonth": 6056,
      "ĠÐ¼Ð¸ÑĢ": 6057,
      "Ġchars": 6058,
      "printStatus": 6059,
      "imed": 6060,
      "Ġ===\\\\": 6061,
      "ÐĿÐ°Ñĩ": 6062,
      "Ð¸Ð²Ð°Ð½Ð¸Ñı": 6063,
      "ĠcurrentTemp": 6064,
      "Ð°ÐºÑĤÐ¾ÑĢ": 6065,
      "logger": 6066,
      "Ġseq": 6067,
      "antType": 6068,
      "Ġaligned": 6069,
      "ĠÑįÐº": 6070,
      "ĠÐ¾Ð±Ð½Ð¾Ð²": 6071,
      "queueMutex": 6072,
      "Ð¸Ð·Ð²Ð¾Ð´": 6073,
      "ĠÐŀÐ¿ÑĢÐµÐ´ÐµÐ»ÐµÐ½Ð¸Ðµ": 6074,
      "Ġanimal": 6075,
      "scape": 6076,
      "ĠÑĢÐ°Ð·Ð½ÑĭÐ¼Ð¸": 6077,
      "results": 6078,
      "ĠÐļÐ¾Ð¿": 6079,
      "Ġcontroller": 6080,
      "ABABC": 6081,
      "Ð¸ÑĢÐ¾Ð²Ð°Ð½Ð°": 6082,
      "Ð¸ÑĢÐ¾Ð²Ð°Ð½Ð½Ð°Ñı": 6083,
      "ĠcheckOut": 6084,
      "Ð¼Ð°ÑĥÑĤ": 6085,
      "aker": 6086,
      "LOW": 6087,
      "ÐµÐ¿Ð¾Ð»Ð½": 6088,
      "Ġmemo": 6089,
      "Ð°ÑĩÐ°": 6090,
      "greater": 6091,
      "Ġstopped": 6092,
      "Ġinsertions": 6093,
      "SSL": 6094,
      "ĠÑģÐºÐ¾ÑĢ": 6095,
      "celer": 6096,
      "Ġroute": 6097,
      "ACC": 6098,
      "ĠConcreteObserver": 6099,
      "ĠÑĥÐ´Ð°Ð»ÐµÐ½": 6100,
      "pository": 6101,
      "ĠdaysInMonth": 6102,
      "Ġdocs": 6103,
      "ĠÐºÐ¾ÑĢÐ½Ñı": 6104,
      "ĠwindowSize": 6105,
      "ĠfreeList": 6106,
      "ÑĢÑĥÐ¶ÐµÑģÑĤÐ²": 6107,
      "Ġdomain": 6108,
      "Interests": 6109,
      "ĠÐ¢ÐµÑģÑĤÐ¸ÑĢÐ¾Ð²Ð°Ð½Ð¸Ðµ": 6110,
      "Ġfsm": 6111,
      "ĠÐ²ÑĤÐ¾ÑĢÐ¾Ð³Ð¾": 6112,
      "discriminant": 6113,
      "BinaryOp": 6114,
      "ĠÐ¸ÑģÐ¿Ð¾Ð»ÑĮÐ·Ð¾Ð²Ð°Ð½Ð¸ÐµÐ¼": 6115,
      "ĠCONFIG": 6116,
      "ASK": 6117,
      "Ġ\\\"âľĹ": 6118,
      "soleLogger": 6119,
      "ĠÐ¸Ð·Ð¼ÐµÐ½Ð¸ÑĤÑĮ": 6120,
      "Ġdispatcher": 6121,
      "POLL": 6122,
      "ĠÐ¨Ð°Ð±Ð»Ð¾Ð½Ð½Ð°Ñı": 6123,
      "ĠBitSet": 6124,
      "Ġlayers": 6125,
      "ÑĥÐ¿ÑĢÐµÐ¶Ð´": 6126,
      "tellg": 6127,
      "Ġcommit": 6128,
      "Ð·Ð²Ð»ÐµÑĩ": 6129,
      "promise": 6130,
      "MPLETED": 6131,
      "ĠÐ¿Ð¾Ð·Ð¸ÑĨÐ¸ÑıÑħ": 6132,
      "ĠÐ½Ð°Ð»Ð¸Ñĩ": 6133,
      "ĠRGBColor": 6134,
      "ĠÐĺÐ¼Ð¸ÑĤÐ°ÑĨÐ¸Ñı": 6135,
      "jugate": 6136,
      ")/": 6137,
      "AE": 6138,
      "Far": 6139,
      "Flags": 6140,
      "Guest": 6141,
      "Mass": 6142,
      "Payment": 6143,
      "Speed": 6144,
      "asic": 6145,
      "build": 6146,
      "mt": 6147,
      "null": 6148,
      "yes": 6149,
      "delete": 6150,
      "sell": 6151,
      "Ġfinal": 6152,
      "Ġvia": 6153,
      "Ġdown": 6154,
      "Ġpost": 6155,
      "ged": 6156,
      "Ġsr": 6157,
      "ummy": 6158,
      "ÑĩÐ¸ÑĤ": 6159,
      "Ġ2000": 6160,
      "++];\\": 6161,
      "ĠÑģÑĢÐµÐ´Ð½": 6162,
      "Ġltm": 6163,
      "Ð¼Ð°ÑģÑģÐ¸Ð²": 6164,
      "Ġdeallocate": 6165,
      "Ð¾ÑĢÐ¾Ð½": 6166,
      "ÐµÐ»ÐµÐ½Ð¸Ðµ": 6167,
      "Ġ';\\": 6168,
      "Ġ50000": 6169,
      "ĠMo": 6170,
      "ÑĦÐ¾ÑĢ": 6171,
      "apsed": 6172,
      "Ð¡Ð°Ð¼": 6173,
      "ĠÑĤÐµÐ¿ÐµÑĢÑĮ": 6174,
      "ĠVariant": 6175,
      "Ġtemperature": 6176,
      "Ġminute": 6177,
      "Algorithm": 6178,
      "Ġsegment": 6179,
      "ible": 6180,
      "ERS": 6181,
      "Ġshutdown": 6182,
      "ĠÐłÐķ": 6183,
      "Ġ\\\"):\\\"": 6184,
      "ĠsideB": 6185,
      "ĠsideC": 6186,
      "events": 6187,
      "ĠJsonArray": 6188,
      "ÑĭÐ²Ð°ÐµÑĤ": 6189,
      "script": 6190,
      "Select": 6191,
      "ĠÑģÐ¾ÐµÐ´Ð¸Ð½": 6192,
      "ĠÑĥÐ´Ð°Ð»Ð¾ÑģÑĮ": 6193,
      "ĠÐ·Ð°Ð¿ÑĢÐ¾Ñģ": 6194,
      "floating": 6195,
      "ĠÐ¿ÐµÑĢÐ²ÑĭÐ¹": 6196,
      "ĠÐŀÐ±Ð½Ð¾Ð²": 6197,
      "allel": 6198,
      "ĠÐ¿ÑĢÐ¾Ð¸Ð·Ð²ÐµÐ´ÐµÐ½Ð¸Ðµ": 6199,
      "ĠÐ¿ÑĢÐµÐ´ÑģÑĤÐ°Ð²": 6200,
      "Ġtokens": 6201,
      "Ð¿ÑĢÐ¾Ñī": 6202,
      "VALUE": 6203,
      "Ġepsilon": 6204,
      "attach": 6205,
      "ĠSerializable": 6206,
      "HECK": 6207,
      "ĠÐ¾Ð±ÑĢÐ°ÑĤÐ½Ð¾Ð¼": 6208,
      "ĠÐ¾Ð´Ð¸Ð½Ð°Ðº": 6209,
      "ĠPrinter": 6210,
      "ĠÑģÐ»ÑĥÑĩÐ°Ð¹": 6211,
      "arrival": 6212,
      "ÐĴÐ¾Ð·ÑĢÐ°ÑģÑĤ": 6213,
      "ĠÐµÑīÐµ": 6214,
      ")>;\\": 6215,
      "Ax": 6216,
      "Ada": 6217,
      "Be": 6218,
      "Dir": 6219,
      "Fibonacci": 6220,
      "ISS": 6221,
      "PS": 6222,
      "PLAY": 6223,
      "TokenType": 6224,
      "average": 6225,
      "budget": 6226,
      "eve": 6227,
      "grid": 6228,
      "hen": 6229,
      "lf": 6230,
      "lind": 6231,
      "lines": 6232,
      "nx": 6233,
      "rical": 6234,
      "tected": 6235,
      "taker": 6236,
      "µs": 6237,
      "Ġctx": 6238,
      "Ġ\\\"):": 6239,
      "reap": 6240,
      "rees": 6241,
      "Ð½Ð¸Ñĩ": 6242,
      "ÑĤÐ¾Ð¶": 6243,
      "ÑĢÐµ": 6244,
      "ÑĢÐµÐ·": 6245,
      "Ġmst": 6246,
      "Ġvars": 6247,
      "Ġpoly": 6248,
      "annel": 6249,
      "gebra": 6250,
      "ection": 6251,
      "Ġ150": 6252,
      "cho": 6253,
      "ileage": 6254,
      "ĠCOL": 6255,
      "ĠSegment": 6256,
      "serve": 6257,
      "ĠgetMax": 6258,
      "ĠPhone": 6259,
      "ĠPRI": 6260,
      "aretaker": 6261,
      ">(*": 6262,
      "Ð¿Ð¾": 6263,
      "ĠBSTNode": 6264,
      "Ġgpa": 6265,
      "ĠÐºÐ¾ÑĤÐ¾ÑĢ": 6266,
      "ands": 6267,
      "Ð°Ð»Ð°": 6268,
      "Ġthreshold": 6269,
      "ĠÐ¼Ð½Ð¾Ð³Ð¾": 6270,
      "ĠÐ¼ÐµÑģÑıÑĨ": 6271,
      "Ġproject": 6272,
      "TypeInfo": 6273,
      "Ð¡Ð¾": 6274,
      "ĠÐ·Ð°Ð´": 6275,
      "Ġexit": 6276,
      "imited": 6277,
      "ĠÐ¿ÑĢÐ¸Ð½": 6278,
      "ĠRoman": 6279,
      "tempts": 6280,
      "Ð¾Ð¶Ð½Ð¾": 6281,
      "ĠEPOLL": 6282,
      "Algebra": 6283,
      "Ð°ÑĢÐ¿Ð»": 6284,
      "rivial": 6285,
      "Ġenergy": 6286,
      "ipient": 6287,
      "Ġ2023": 6288,
      "ĠÐ·Ð½Ð°ÑĩÐµÐ½Ð¸Ð¹": 6289,
      "ĠuserManager": 6290,
      "osthen": 6291,
      "Subject": 6292,
      "rectangle": 6293,
      "Transition": 6294,
      "ÐĽÐ¬": 6295,
      "Tests": 6296,
      "255": 6297,
      "ACE": 6298,
      "Ġbackup": 6299,
      "position": 6300,
      "connections": 6301,
      "Ġintersection": 6302,
      "ĠÐ¼ÐµÑĤÐ¾Ð´Ð°": 6303,
      "ĠConfigException": 6304,
      "Entity": 6305,
      "euristic": 6306,
      "Ġgenerator": 6307,
      "Serializ": 6308,
      "partition": 6309,
      "elements": 6310,
      "targets": 6311,
      "ĠDatabaseConnection": 6312,
      "ĠÐ¾ÑĪÐ¸Ð±Ð¾Ðº": 6313,
      "ĠGameState": 6314,
      "Ð°ÑİÑīÐ°Ñı": 6315,
      "ĠÐ¸ÑģÐ¿Ð¾Ð»ÑĮÐ·Ð¾Ð²Ð°Ð½Ð¸Ñı": 6316,
      "ĠMemoryTracker": 6317,
      "ĠÐ´Ð»Ð¸Ð½Ñĥ": 6318,
      "Usage": 6319,
      "Traversal": 6320,
      "ĠInterface": 6321,
      "ĠValidationResult": 6322,
      "ĠmostFrequent": 6323,
      "Modified": 6324,
      "ĠÐ±ÑĥÐºÐ²Ñĭ": 6325,
      "Coordinate": 6326,
      "Ġrender": 6327,
      "inished": 6328,
      "apability": 6329,
      "ĠProcessing": 6330,
      "ooleanExpression": 6331,
      "Ġcaesar": 6332,
      "ÐĿÐµÐ´Ð¾ÑģÑĤÐ°ÑĤÐ¾ÑĩÐ½Ð¾": 6333,
      "ĠÂµs": 6334,
      "Axis": 6335,
      "Adapter": 6336,
      "lindrical": 6337,
      "reapNode": 6338,
      "Algebraic": 6339,
      "osthenes": 6340,
      ")]": 6341,
      "82": 6342,
      "IAL": 6343,
      "OOL": 6344,
      "YES": 6345,
      "apt": 6346,
      "gb": 6347,
      "off": 6348,
      "suffix": 6349,
      "Ġerrno": 6350,
      "Ġ{-": 6351,
      "Ð¸Ð°Ð³": 6352,
      "less": 6353,
      "leter": 6354,
      "Ġver": 6355,
      "Ġpl": 6356,
      "Ġcalcul": 6357,
      "Ġbob": 6358,
      "Ġ17": 6359,
      "usage": 6360,
      "lot": 6361,
      "isEmpty": 6362,
      "exist": 6363,
      "race": 6364,
      "ĠSe": 6365,
      "Ġlvalue": 6366,
      "Ġlargest": 6367,
      "Ð¼Ñĭ": 6368,
      "Ġhuffman": 6369,
      "service": 6370,
      "ĠgetDescription": 6371,
      "ÐŁÑĢÐµÐ´": 6372,
      "ĠÐ¸ÑģÑħÐ¾Ð´": 6373,
      "ĠprintSize": 6374,
      "printAll": 6375,
      "ĠRT": 6376,
      "andling": 6377,
      "Ð°ÑĢÐ¸Ð°Ð½ÑĤ": 6378,
      "ĠÑĢÐµÐ¶Ð¸Ð¼": 6379,
      "ĠÐŁÑĢÐµÐ´": 6380,
      "ĠÐŁÑĢÐ¾ÑģÑĤ": 6381,
      "150": 6382,
      "ĠdisplayInfo": 6383,
      "999": 6384,
      "joinable": 6385,
      "Ġsender": 6386,
      "Ġbackend": 6387,
      "ĠThreadPool": 6388,
      "Ð¸Ð°Ð¿Ð°Ð·Ð¾Ð½": 6389,
      "bitmask": 6390,
      "ĠÐ¾Ð¿ÐµÑĢÐ°ÑĨÐ¸Ð¸": 6391,
      "ĠbadChar": 6392,
      "ĠÐļÐ¾Ð½ÐºÑĢÐµÑĤ": 6393,
      "192": 6394,
      "ĠÐ²ÑĤÐ¾ÑĢÐ¾Ð¹": 6395,
      "ÐķÐĿÐĺÐķ": 6396,
      "ĠquickSort": 6397,
      "ĠÐ°Ð²ÑĤÐ¾Ð¼Ð°ÑĤ": 6398,
      "ĠÑģÐ¸ÑģÑĤÐµÐ¼Ñĭ": 6399,
      "ĠdotProduct": 6400,
      "ĠÐ¿Ð¾Ð´ÑģÑĤÑĢÐ¾ÐºÐ¸": 6401,
      "Ġ1900": 6402,
      "adjacency": 6403,
      "Ġquotient": 6404,
      "Serializable": 6405,
      "432": 6406,
      "87": 6407,
      "Bonus": 6408,
      "Flag": 6409,
      "Fraction": 6410,
      "Form": 6411,
      "Generic": 6412,
      "Heap": 6413,
      "Health": 6414,
      "Paren": 6415,
      "SharedPtr": 6416,
      "Scheduler": 6417,
      "Term": 6418,
      "^\\\"": 6419,
      "available": 6420,
      "lvalue": 6421,
      "ns": 6422,
      "nAfter": 6423,
      "two": 6424,
      "wd": 6425,
      "Ġ)": 6426,
      "Ġoriginator": 6427,
      "reserve": 6428,
      "()>>": 6429,
      "Ð¸Ñİ": 6430,
      "secret": 6431,
      "Ġtx": 6432,
      "Ġdst": 6433,
      "ĠdueDate": 6434,
      "sid": 6435,
      "ube": 6436,
      "Ġparen": 6437,
      "Ġbrand": 6438,
      "Ġsound": 6439,
      "Ġsplit": 6440,
      "ulus": 6441,
      "Ġescape": 6442,
      "ĠdoubleValue": 6443,
      "isOn": 6444,
      "ĠScopeGuard": 6445,
      "Ġ\\\"\\\\\\\\": 6446,
      "Ġdev": 6447,
      "Ġhotel": 6448,
      "asing": 6449,
      "ĠPI": 6450,
      "Stage": 6451,
      "ĠÐºÑĢÑĥÐ³": 6452,
      "ĠÐ¸ÑģÐºÐ»ÑİÑĩ": 6453,
      "Insert": 6454,
      "ĠAsync": 6455,
      "Ġthermostat": 6456,
      "ĠisS": 6457,
      "ĠÐ¼Ð¾Ð³": 6458,
      "ĠÐ¼ÐµÐ½ÑĮ": 6459,
      "ĠÐ¼Ð°ÐºÑģÐ¸Ð¼ÑĥÐ¼": 6460,
      "ĠÐŁÐ°ÑĢ": 6461,
      "Ð¡Ð¿": 6462,
      "Ð¡Ð¸Ð¼Ð²Ð¾Ð»": 6463,
      "Ġexecuted": 6464,
      "ather": 6465,
      "ĠÐ±Ð°Ð·": 6466,
      "ÐŀÐ¿ÑĢÐµÐ´ÐµÐ»Ð¸ÑĤÐµÐ»ÑĮ": 6467,
      "ĠFlyweight": 6468,
      "ĠÑĥÐ²ÐµÐ»Ð¸Ñĩ": 6469,
      "Ð¸Ð½ÐµÐ¹": 6470,
      "ÐĿÐ«": 6471,
      "ĠLe": 6472,
      "ĠtypeStr": 6473,
      "ĠtextHash": 6474,
      "ĠÐ¡ÑĤÐ°ÑĤÐ¸ÑģÑĤÐ¸ÐºÐ°": 6475,
      "Alarm": 6476,
      "Ġacquire": 6477,
      "Ġlocked": 6478,
      "magnitude": 6479,
      "Ġenable": 6480,
      "ÑħÐ¾Ð´Ð¸Ð¼": 6481,
      "Ġansw": 6482,
      "ĠGU": 6483,
      "LEN": 6484,
      "ĠÐļÐ»Ð°ÑģÑģ": 6485,
      "Acc": 6486,
      "Ġtargets": 6487,
      "Ġdictionary": 6488,
      "ariance": 6489,
      "ÐĹÐ°Ð¿": 6490,
      "Character": 6491,
      "Ð°Ð±ÑĢ": 6492,
      "ĠÐ¤Ð¾ÑĢÐ¼": 6493,
      "ShapeVisitor": 6494,
      "ARGS": 6495,
      "ĠÑģÐ»ÐµÐ´ÑĥÑİÑī": 6496,
      "ElementB": 6497,
      "conditional": 6498,
      "Animal": 6499,
      "servations": 6500,
      "Ġapple": 6501,
      "IGH": 6502,
      "Ġtranspose": 6503,
      "Ġinterpret": 6504,
      "ThreadSafe": 6505,
      "Words": 6506,
      "ĠÐ¼ÐµÑĤÐ¾Ð´Ð¾Ð²": 6507,
      "TRACE": 6508,
      "Ð½Ð¾Ð¶ÐµÑģÑĤÐ²": 6509,
      "ĠÐ¼Ð°ÑĤÑĢÐ¸ÑĨÐ°": 6510,
      "rollback": 6511,
      "ĠÐ·Ð°ÐºÑĢÑĭÑĤ": 6512,
      "ĠÑĦÑĥÐ½ÐºÑĨÐ¸Ñİ": 6513,
      "ĠÐ¨Ð°Ð³": 6514,
      "ĠÑĢÐ°Ð´Ð¸Ð°Ð½": 6515,
      "ĠSerialization": 6516,
      "Ġsessions": 6517,
      "ĠÐ½ÑĥÐ¶": 6518,
      "ĠÑģÐ¾Ð²Ð¿Ð°Ð´Ð°ÑİÑĤ": 6519,
      "ÐµÑĦÐ¸ÐºÑģ": 6520,
      "ĠPROT": 6521,
      "Pages": 6522,
      "ÑĢÑĥÐ·ÐºÐ°": 6523,
      "ÐĲÐ½Ð½Ð°": 6524,
      "enuItem": 6525,
      "ÐĹÐ°Ð´Ð°ÑĩÐ°": 6526,
      "SoFar": 6527,
      "ĠtopologicalSort": 6528,
      "ĠÐ¿ÐµÑĢÐµÑģÑĤÐ°Ð½Ð¾Ð²": 6529,
      "ÐŁÑĢÐ¸Ð²ÐµÑĤ": 6530,
      "Absolute": 6531,
      "ABABCABAB": 6532,
      "Selector": 6533,
      "Ð½Ð¸ÑĩÑĤÐ¾Ð¶": 6534,
      "ĠPRIME": 6535,
      "ĠRomanNumber": 6536,
      "Ġanswers": 6537,
      "DB": 6538,
      "HTTP": 6539,
      "Input": 6540,
      "John": 6541,
      "Off": 6542,
      "Pass": 6543,
      "Playing": 6544,
      "Sign": 6545,
      "Virtual": 6546,
      "]();\\": 6547,
      "bies": 6548,
      "cb": 6549,
      "factorial": 6550,
      "malloc": 6551,
      "ny": 6552,
      "nlong": 6553,
      "ostringstream": 6554,
      "ĠName": 6555,
      "ĠInteger": 6556,
      "Ġreinterpret": 6557,
      "align": 6558,
      "arable": 6559,
      "Ġmt": 6560,
      "Ġman": 6561,
      "Ġno": 6562,
      "construct": 6563,
      "Ġcmp": 6564,
      "Ġack": 6565,
      "Ġsleep": 6566,
      "tered": 6567,
      "ÑĩÐ»ÐµÐ½": 6568,
      "Ġdestructor": 6569,
      "Report": 6570,
      "Ð´ÐµÐ¼": 6571,
      "ĠÐ´Ð»Ð¸Ð½Ð°": 6572,
      "Ð°ÑĤÐ¾Ðº": 6573,
      "ÐµÑĤÑĢÐ¾Ð²": 6574,
      "ĠPerm": 6575,
      "ĠButton": 6576,
      "Ð°Ð»ÑıÑĢ": 6577,
      "Ġtransitions": 6578,
      "erry": 6579,
      "ĠÑĩÐ°Ñģ": 6580,
      "ÐµÐºÐ¾Ð¼": 6581,
      "Ġprogramming": 6582,
      "Ð¡ÑĢÐµÐ´": 6583,
      "Ġexist": 6584,
      "ĠÐ±Ð»Ð¾Ðº": 6585,
      "Ð¾Ð¿ÑĥÑģÑĤ": 6586,
      "ÐĺÐ·Ð²Ð»ÐµÑĩ": 6587,
      "rend": 6588,
      "memcpy": 6589,
      "username": 6590,
      "ÐĲÐ¢": 6591,
      "Ð°Ð»ÑĮÐ½Ð¾Ðµ": 6592,
      "ÑģÑĤÑĢÐ¾ÐºÐ°": 6593,
      "words": 6594,
      "Complete": 6595,
      "Ġunion": 6596,
      "ostgre": 6597,
      "ĠÐ¢Ð¸Ð¿": 6598,
      "Minutes": 6599,
      "ĠtopIndex": 6600,
      "ÑĥÐ³Ð¾Ð»ÑĮÐ½ÑĭÐ¹": 6601,
      "Setting": 6602,
      "DatabaseConnection": 6603,
      "obbies": 6604,
      "ĠÐ²Ð¾Ð·Ð¼Ð¾Ð¶": 6605,
      "ĠÑĦÐ°Ð¹Ð»Ð¾Ð²": 6606,
      "ÑİÑĤÑģÑı": 6607,
      "ÐŃÑĤÐ¾": 6608,
      "ĠÐºÐ¾Ð¼Ð¿Ð»ÐµÐºÑģ": 6609,
      "ĠÐĳÐµÐ·Ð¾Ð¿Ð°Ñģ": 6610,
      "ĠÑĪÐ°Ð±Ð»Ð¾Ð½": 6611,
      "ĠÐºÐ¾ÑĢÐµÐ½ÑĮ": 6612,
      "ĠConfiguration": 6613,
      "ĠÐ¾ÑĤÑĢÐ¸ÑĨÐ°ÑĤÐµÐ»ÑĮÐ½ÑĭÐ¼": 6614,
      "ĠÐ¿Ð¾Ð»ÑĥÑĩÐ¸ÑĤÑĮ": 6615,
      "ĠÐ´ÐµÐ»ÐµÐ½Ð¸Ðµ": 6616,
      "mulate": 6617,
      "Ġpopulation": 6618,
      "ĠÑĩÐµÑĤÐ½ÑĭÑħ": 6619,
      "Customer": 6620,
      "ĠÐ¿Ð¾ÑģÐ»ÐµÐ´Ð¾Ð²Ð°ÑĤÐµÐ»ÑĮ": 6621,
      "Ġ\\\"âľĵ": 6622,
      "Ð¾Ð³ÑĢÐµÑĪ": 6623,
      "ĠÐ´ÐµÑĢÐµÐ²Ð°": 6624,
      "Ġdimensions": 6625,
      "Ġcallback": 6626,
      "ÐŀÐ±ÑĬÐµÐ¼": 6627,
      "ANGLE": 6628,
      "ĠÑģÑĤÑĢÑĥÐºÑĤÑĥÑĢ": 6629,
      "NONBLOCK": 6630,
      "ostgreSQL": 6631,
      ")...": 6632,
      "Ad": 6633,
      "Action": 6634,
      "Float": 6635,
      "Hours": 6636,
      "ILogger": 6637,
      "Rect": 6638,
      "Rot": 6639,
      "Specification": 6640,
      "USE": 6641,
      "bound": 6642,
      "gener": 6643,
      "light": 6644,
      "nÐł": 6645,
      "rank": 6646,
      "titude": 6647,
      "world": 6648,
      "Ġlower": 6649,
      "Ġroman": 6650,
      "ined": 6651,
      "coped": 6652,
      "Ġsteady": 6653,
      "rever": 6654,
      "received": 6655,
      "():": 6656,
      "depend": 6657,
      "atted": 6658,
      "clic": 6659,
      "ÑĢÐ¾Ð½": 6660,
      "Ġnull": 6661,
      "Ġnorm": 6662,
      "Ð»Ð°Ð³": 6663,
      "ublish": 6664,
      "Ġpred": 6665,
      "ÑĭÑĪ": 6666,
      "tein": 6667,
      "Ġfork": 6668,
      "Ð¾Ð²Ð°": 6669,
      "ĠÐ¿Ð°Ðº": 6670,
      "Ġ29": 6671,
      "Ġcoeff": 6672,
      "otReload": 6673,
      "ĠTra": 6674,
      "ĠÐ²Ð¼ÐµÑģÑĤ": 6675,
      "ĠnumStr": 6676,
      "Ġindegree": 6677,
      "Ġrvalue": 6678,
      "ÐµÐ´Ð°ÑĩÐ°": 6679,
      "ĠProt": 6680,
      "Ġstrs": 6681,
      "ĠÐºÐ¼": 6682,
      "ĠMediator": 6683,
      "ĠMOD": 6684,
      "ÐĴÑĢÐµÐ¼Ñı": 6685,
      "ivation": 6686,
      "Ġoverdue": 6687,
      "Ġconv": 6688,
      "orders": 6689,
      "ĠisEmpty": 6690,
      "quential": 6691,
      "Ð¾ÐºÑĥÐ¼ÐµÐ½ÑĤ": 6692,
      "ession": 6693,
      "ĠÑĤÐ°Ðº": 6694,
      "Conver": 6695,
      "Ð±ÑĭÐ²": 6696,
      "ĠÐ¿ÑĢÑıÐ¼Ð¾ÑĥÐ³Ð¾Ð»ÑĮÐ½Ð¸Ðº": 6697,
      "ĠsetValue": 6698,
      "ĠRatio": 6699,
      "ÑģÑĤÑĢÐµÑĩ": 6700,
      "ÐµÑģÐµÑĩ": 6701,
      "today": 6702,
      "Ð¾ÑģÑĤÐ¸": 6703,
      "Ð¸ÑĢÐ¾Ð²ÐºÐ°": 6704,
      "Ġkilograms": 6705,
      "Ġuow": 6706,
      "',\\": 6707,
      "ĠImage": 6708,
      "preter": 6709,
      "ĠÑĢÐ°Ð·Ð±": 6710,
      "Expensive": 6711,
      "Ġsocklen": 6712,
      "Ġpairs": 6713,
      "Ð¼ÐµÐ½ÑĮ": 6714,
      "pointer": 6715,
      "rolled": 6716,
      "ĠHuffmanNode": 6717,
      "prime": 6718,
      "ÐłÐ°Ð·Ð½Ð¸ÑĨÐ°": 6719,
      "ARNING": 6720,
      "Minute": 6721,
      "ÐµÑīÐµÐ½Ð¸Ðµ": 6722,
      "OfFive": 6723,
      "centage": 6724,
      "racked": 6725,
      "1111": 6726,
      "Ġstoppable": 6727,
      "ĠThis": 6728,
      "OrderDerived": 6729,
      "Constant": 6730,
      "LACK": 6731,
      "Ġheapify": 6732,
      "aves": 6733,
      "ĠÐ¿Ð¾ÑĤÐ¾ÐºÐ¾Ð²": 6734,
      "Ġasync": 6735,
      "Ġtransactions": 6736,
      "MyResource": 6737,
      "ĠÐ¿ÑĥÑģÑĤÐ°": 6738,
      "ĠÐ±ÐµÐ·Ð¾Ð¿Ð°Ñģ": 6739,
      "perms": 6740,
      "Ġprocessors": 6741,
      "ĠMyClass": 6742,
      "Ġbitmask": 6743,
      "caten": 6744,
      "ÐľÐ°ÐºÑģÐ¸Ð¼Ð°Ð»ÑĮÐ½ÑĭÐ¹": 6745,
      "ĠSorting": 6746,
      "ĠLineSegment": 6747,
      "Ġcatal": 6748,
      "Att": 6749,
      "ĠÑĨÐ¸ÑĦÑĢÑĭ": 6750,
      "Ġ12345": 6751,
      "Ġtransformed": 6752,
      "ĠÐºÐ¾Ð½ÑĤÐµÐ¹Ð½ÐµÑĢ": 6753,
      "Ġphi": 6754,
      "ÐŁÐ¾Ð´ÑģÑĤÑĢÐ¾ÐºÐ°": 6755,
      "ĠÐ¡Ð¿ÐµÑĨÐ¸": 6756,
      "ĠÑģÐ¾Ð´ÐµÑĢÐ¶Ð¸ÑĤ": 6757,
      "ĠEncryptionSystem": 6758,
      "ĠÐ²Ð¸ÑģÐ¾ÐºÐ¾ÑģÐ½ÑĭÐ¹": 6759,
      "ÑĤÐµÑĢÐ½Ð°ÑĤ": 6760,
      "ĠÐĺÐ½Ð¸ÑĨÐ¸Ð°Ð»Ð¸Ð·Ð°ÑĨÐ¸Ñı": 6761,
      "Ð°Ð·Ð²Ð°Ð½Ð¸Ðµ": 6762,
      "Ġlegacy": 6763,
      "ĠÐ¼ÑĮÑİÑĤÐµÐºÑģ": 6764,
      "ÐŀÑĩÐµÑĢÐµÐ´ÑĮ": 6765,
      "reversed": 6766,
      ").\\\"": 6767,
      ">().": 6768,
      "Fail": 6769,
      "Front": 6770,
      "METH": 6771,
      "Pow": 6772,
      "Sample": 6773,
      "Wh": 6774,
      "]:": 6775,
      "cap": 6776,
      "fut": 6777,
      "ful": 6778,
      "hs": 6779,
      "jk": 6780,
      "nan": 6781,
      "Ġturn": 6782,
      "ĠÐ¾Ð¶": 6783,
      "description": 6784,
      "ond": 6785,
      "Ġdim": 6786,
      "Ġdummy": 6787,
      "sible": 6788,
      "Ð»ÐµÑĤ": 6789,
      "Ġcent": 6790,
      "ider": 6791,
      "Ġbuilder": 6792,
      "ullo": 6793,
      "chunk": 6794,
      "ilk": 6795,
      "Remo": 6796,
      "ĠÐ½Ð¾": 6797,
      "Ġ'('": 6798,
      "counts": 6799,
      "Inside": 6800,
      "Ð·Ð½Ð°Ñĩ": 6801,
      "ters": 6802,
      ">>;\\": 6803,
      "Ð¡Ð¾Ð²": 6804,
      "ĠFilter": 6805,
      "ĠÑĥÐ³Ð¾Ð»": 6806,
      "Ð¸Ð½Ð¾Ð¼": 6807,
      "Ġsec": 6808,
      "Ð¶Ð¸Ð´": 6809,
      "Ġenv": 6810,
      "Ġmore": 6811,
      "Ġmovie": 6812,
      "Ð¸ÑĤÐµÐ»ÑĮÐ½Ð°Ñı": 6813,
      "ĠÐĿÐ°": 6814,
      "Ð§ÐµÑĤ": 6815,
      "ization": 6816,
      "Query": 6817,
      "ÐĺÑģÑħÐ¾Ð´Ð½Ð¾Ðµ": 6818,
      "ĠÐ¾ÑĨÐµÐ½ÐºÐ°": 6819,
      "Ġperfect": 6820,
      "Blocked": 6821,
      "ĠÐĴÑĭÐ·Ð¾Ð²": 6822,
      "ridges": 6823,
      "ĠTaskStatus": 6824,
      "Ð¦Ðĺ": 6825,
      "ITY": 6826,
      "Ð¾Ð½Ð°Ð»ÑĮ": 6827,
      "Ð¾ÑģÐ»ÐµÐ´Ð¾Ð²Ð°ÑĤÐµÐ»ÑĮ": 6828,
      "nÐŁÐ¾Ð¸ÑģÐº": 6829,
      "ĠÑħÑĢÐ°Ð½": 6830,
      "ĠValidator": 6831,
      "--------------------------------": 6832,
      "bstacle": 6833,
      "ĠÑģÐ»Ð¾Ð²Ð¾": 6834,
      "ĠÐ°Ð²ÑĤÐ¾ÑĢ": 6835,
      "Ð¾Ð¶Ð´ÐµÐ½Ð¸Ñı": 6836,
      "Ġdemonstration": 6837,
      "ĠÐŁÐ¾Ð´ÑģÑĩÐµÑĤ": 6838,
      "Ġletters": 6839,
      "ĠÑģÑĥÑīÐµÑģÑĤÐ²ÑĥÐµÑĤ": 6840,
      "Duplicates": 6841,
      "Changed": 6842,
      "ĠÐ´Ð²ÑĥÑħ": 6843,
      "ĠÐ´ÑĥÐ±Ð»Ð¸ÐºÐ°ÑĤÐ¾Ð²": 6844,
      "ÐļÐ½Ð¸Ð³Ð°": 6845,
      "Caught": 6846,
      "ĠÐ³ÑĢÐ°Ð´ÑĥÑģÐ¾Ð²": 6847,
      "atisfied": 6848,
      "ĠTRANS": 6849,
      "ĠRTTI": 6850,
      "ĠÐ¾Ð¶Ð¸Ð´": 6851,
      "ullopt": 6852,
      "'};\\": 6853,
      "GPU": 6854,
      "IUM": 6855,
      "Largest": 6856,
      "PTRACE": 6857,
      "Volume": 6858,
      "dog": 6859,
      "gain": 6860,
      "kar": 6861,
      "li": 6862,
      "sensor": 6863,
      "save": 6864,
      "week": 6865,
      "xed": 6866,
      "}});\\": 6867,
      "Ñĳ": 6868,
      "Ġur": 6869,
      "stoi": 6870,
      "income": 6871,
      "ÐµÑģÑĤÑĢÑĥÐºÑĤÐ¾ÑĢ": 6872,
      "eriv": 6873,
      "Ġrecursive": 6874,
      "Ġrequired": 6875,
      "ÑĤÐ¾Ð³": 6876,
      "amt": 6877,
      "Ġdt": 6878,
      "ced": 6879,
      "Ġcalculator": 6880,
      "unted": 6881,
      "Ġscores": 6882,
      "ÑĥÐ¶": 6883,
      "Ġem": 6884,
      "ading": 6885,
      "choice": 6886,
      "ÐºÐ»": 6887,
      "isOverdue": 6888,
      "Ġ21": 6889,
      "Ġ28": 6890,
      "ĠSim": 6891,
      "ĠToken": 6892,
      "utoff": 6893,
      "Ð¾Ð»Ñı": 6894,
      "ĠÐ²ÑģÑĤÐ°Ð²": 6895,
      "Ð´ÑĢÐ°": 6896,
      "ĠÐ½Ð¾Ð²ÑĭÐ¹": 6897,
      "Ġnuma": 6898,
      "Ġinventory": 6899,
      "ĠgetRegistry": 6900,
      "ĠgetField": 6901,
      "ĠPacket": 6902,
      "ĠPimplExample": 6903,
      "ĠcharCount": 6904,
      "Ġ|=": 6905,
      "append": 6906,
      "Ġprotected": 6907,
      "names": 6908,
      "ĠÐ·Ð°Ð³": 6909,
      "ĠÐ±Ð¾Ð»ÐµÐµ": 6910,
      "ĠÑĥÐ½Ð¸Ðº": 6911,
      "ĠÑĥÐ½Ð¸ÑĩÑĤÐ¾Ð¶": 6912,
      "ĠÑĥÐ±ÑĭÐ²": 6913,
      "Ð¸Ð½Ð°Ð¼": 6914,
      "ÐĿÐĲ": 6915,
      "ĠcurrentLength": 6916,
      "Ġ65": 6917,
      "Ġkm": 6918,
      "ĠtestData": 6919,
      "ĠÐ½ÐµÑĩÐµÑĤ": 6920,
      "Ġcompany": 6921,
      "Choice": 6922,
      "ÐļÐ¾Ð¼Ð¿": 6923,
      "Ġalice": 6924,
      "ĠtaskQueue": 6925,
      "ĠfindLongest": 6926,
      "ĠComplexMatrix": 6927,
      "ERIAL": 6928,
      "egacy": 6929,
      "ResourceWrapper": 6930,
      "Ġwithdraw": 6931,
      "laxed": 6932,
      "Ġleak": 6933,
      "CTX": 6934,
      "ORY": 6935,
      "Ð§Ð°ÑģÑĤ": 6936,
      "ĠHash": 6937,
      "Ð¸ÑģÑĤÐºÐ°": 6938,
      "Ð¸ÑģÑĤÐ¸Ðº": 6939,
      "ÐµÐ¿Ð¾ÑĩÐºÐ°": 6940,
      "EDIUM": 6941,
      "1234": 6942,
      "Testing": 6943,
      "ĠÐ´Ð¾Ð»Ð¶Ð½Ñĭ": 6944,
      "ĠÐ¿Ð¾Ð´Ð´": 6945,
      "racket": 6946,
      "Maximum": 6947,
      "checks": 6948,
      "ĠÐ¾Ð±ÑĬÑıÐ²": 6949,
      "Ð¾ÑıÐ½Ð¸Ñı": 6950,
      "Ġabsolute": 6951,
      "Ġnormalized": 6952,
      "ĠÑģÐ¿Ð¸ÑģÐ¾Ðº": 6953,
      "aving": 6954,
      "avings": 6955,
      "ircular": 6956,
      "Ġterms": 6957,
      "ĠÐ´ÐµÐ»ÐµÐ½Ð¸Ñı": 6958,
      "imension": 6959,
      "Ġgreen": 6960,
      "Ġgreet": 6961,
      "Ġsteps": 6962,
      "bstraction": 6963,
      "ĠÐ¾ÑģÑĤÐ°Ð½Ð¾Ð²": 6964,
      "ÐľÐ°ÐºÑģÐ¸Ð¼Ð°Ð»ÑĮÐ½Ð°Ñı": 6965,
      "Ġpercentage": 6966,
      "ĠÑģÑĤÑĥÐ´ÐµÐ½ÑĤÐ°": 6967,
      "ruits": 6968,
      "ergency": 6969,
      "ĠÐ·Ð°ÐºÐ°Ð·Ð¾Ð²": 6970,
      "ĠÑģÑĥÐ¼Ð¼Ñĥ": 6971,
      "ĠÐ¿ÑĢÐ¾ÑĨÐµÐ½ÑĤ": 6972,
      "ĠÐ¿ÑĢÐ¾ÑĨÐµÑģÑģ": 6973,
      "ĠÐ½Ð°ÑĩÐ°Ð»Ð¾": 6974,
      "Ġdimension": 6975,
      "ĠSystemConfig": 6976,
      "Ð¾Ð³ÑĢÐ°Ð¼Ð¼Ð°": 6977,
      "ĠÐĴÐ¾Ð·Ð²ÑĢÐ°Ñī": 6978,
      "ĠÐ¶Ðµ": 6979,
      "ĠÐĳÐ°Ð·Ð¾Ð²ÑĭÐ¹": 6980,
      "ĠÐºÐ¾ÑįÑĦÑĦÐ¸ÑĨÐ¸ÐµÐ½ÑĤÑĭ": 6981,
      "ÑıÐ¼Ð±Ð´Ð°": 6982,
      "small": 6983,
      "ĠFibonacciGenerator": 6984,
      "GRAM": 6985,
      "Ð°ÐºÑĤÐ¾ÑĢÐ¸": 6986,
      "Ð°ÑĢÐ¿Ð»Ð°ÑĤÐ°": 6987,
      "ĠÐ¼ÐµÐ½ÑĮÑĪÐµ": 6988,
      "'))": 6989,
      "70": 6990,
      "ATION": 6991,
      "Get": 6992,
      "IO": 6993,
      "IV": 6994,
      "Last": 6995,
      "Radians": 6996,
      "]--;\\": 6997,
      "gcd": 6998,
      "score": 6999,
      "spec": 7000,
      "timer": 7001,
      "Ġra": 7002,
      "Ġ...);\\": 7003,
      "desc": 7004,
      "Ð½ÐµÐ¼": 7005,
      "alnum": 7006,
      "connection": 7007,
      ">\\\\": 7008,
      "Ġmalloc": 7009,
      "Ġmark": 7010,
      "Ġplayer": 7011,
      "thing": 7012,
      "Ġsame": 7013,
      "Ġostringstream": 7014,
      "rip": 7015,
      "admin": 7016,
      "isPalindrome": 7017,
      "pages": 7018,
      "ird": 7019,
      "Ġdecrement": 7020,
      "Ġhold": 7021,
      "ĠÐ²Ð²Ð¾Ð´": 7022,
      "ĠÐ´Ð»Ð¸": 7023,
      "Ð¾ÑĢÑĦ": 7024,
      "Ġrsa": 7025,
      "Ð½Ð¾Ñģ": 7026,
      "[]>": 7027,
      "ÑĦÐ¸Ð³": 7028,
      "ÐŀÐł": 7029,
      "temperature": 7030,
      "ĠtotalSize": 7031,
      "Ġcompile": 7032,
      "ÐľÐ°ÐºÑģÐ¸Ð¼ÑĥÐ¼": 7033,
      "ÐļÐ°Ðº": 7034,
      "oneable": 7035,
      "ĠÑĢÐ°ÑģÑģÑĤ": 7036,
      "...(": 7037,
      "Ġtimeval": 7038,
      "ĠGRE": 7039,
      "ĠÐļÐ¾Ð¼Ð¿": 7040,
      "Compare": 7041,
      "Compression": 7042,
      "READ": 7043,
      "ONE": 7044,
      "ĠÑģÑĤÐ¾ÑĢÐ¾": 7045,
      "Ġ\\\"[\\\";\\": 7046,
      "formation": 7047,
      "Ġyears": 7048,
      "Results": 7049,
      "LOS": 7050,
      "ĠÐ¢ÐµÐ¿ÐµÑĢÑĮ": 7051,
      "ĠTypeInfo": 7052,
      "ĠAnother": 7053,
      "bined": 7054,
      "TICAL": 7055,
      "green": 7056,
      "cents": 7057,
      "ĠÐĲÐ²": 7058,
      "ĠTrans": 7059,
      "Ġsquares": 7060,
      "Ð¾Ð»ÑĮÐ·Ð¾Ð²Ð°ÑĤÐµÐ»ÑĮ": 7061,
      "ĠÐºÐ¾Ð½ÑģÑĤÐ°Ð½ÑĤÐ½ÑĥÑİ": 7062,
      "OLD": 7063,
      "ĠinorderTraversal": 7064,
      "ĠÐ¾ÑĪÐ¸Ð±ÐºÐ¸": 7065,
      "ĠÑĢÐµÐ·ÑĥÐ»ÑĮÑĤÐ°ÑĤÐ°": 7066,
      "VALID": 7067,
      "RITICAL": 7068,
      "Ġuniform": 7069,
      "Ġfailure": 7070,
      "ĠÐ¿ÑĢÐ°Ð²Ð¸Ð»ÑĮ": 7071,
      "Ð¸ÑĤÐµÐ»Ñı": 7072,
      "ĠÐ¾ÐºÑĢÑĥÐ¶": 7073,
      "Ġtags": 7074,
      "ĠloadedPlugins": 7075,
      "ĠÑģÐ»ÑĥÑĩÐ°": 7076,
      "Ġdemonstrate": 7077,
      "Ġflush": 7078,
      "ĠÑģÐºÐ¸Ð´ÐºÐ°": 7079,
      "ĠCreating": 7080,
      "BEGIN": 7081,
      "fficLight": 7082,
      "celeration": 7083,
      "ĠÐ¿ÑĢÐµÐ´ÑģÑĤÐ°Ð²Ð»ÐµÐ½Ð¸Ðµ": 7084,
      "Ð¾Ð¿ÑĥÑģÑĤÐ¸Ð¼": 7085,
      "Ġholds": 7086,
      "ĠÐ´Ð»Ð¸Ð½Ñĭ": 7087,
      "ĠÑģÑĤÐ¾ÑĢÐ¾Ð½Ñĭ": 7088,
      "([]()": 7089,
      ")];\\": 7090,
      ")...);\\": 7091,
      "29": 7092,
      "Auto": 7093,
      "Async": 7094,
      "Bank": 7095,
      "CD": 7096,
      "Dec": 7097,
      "EY": 7098,
      "Hits": 7099,
      "MODE": 7100,
      "NET": 7101,
      "Pay": 7102,
      "Secret": 7103,
      "Two": 7104,
      "Vertices": 7105,
      "VirtualBase": 7106,
      "Water": 7107,
      "Whe": 7108,
      "blue": 7109,
      "dot": 7110,
      "dices": 7111,
      "dimension": 7112,
      "eels": 7113,
      "kopecks": 7114,
      "lor": 7115,
      "non": 7116,
      "nDE": 7117,
      "oStack": 7118,
      "pImpl": 7119,
      "salary": 7120,
      "smart": 7121,
      "uage": 7122,
      "xor": 7123,
      "yer": 7124,
      "});": 7125,
      "Ġrisky": 7126,
      "Ġ\\\"|": 7127,
      "relaxed": 7128,
      "ĠÐ¯": 7129,
      "Ð¸Ñī": 7130,
      "ÑĢÐ¾Ð¶Ð´ÐµÐ½": 7131,
      "ÑģÐ¾Ð»": 7132,
      "amage": 7133,
      "onment": 7134,
      "Ġfull": 7135,
      "Ġvacation": 7136,
      "Ġvowels": 7137,
      "Ð»Ð¸Ð¶": 7138,
      "Ġcandidate": 7139,
      "ĠintValue": 7140,
      "Ġaggregate": 7141,
      "Ġsq": 7142,
      "Ġsup": 7143,
      "ÑĥÑĦÑĦ": 7144,
      "ÑĥÑĦÐµÑĢ": 7145,
      "ÑıÐµÑĤÑģÑı": 7146,
      "Ġequal": 7147,
      "\\\\\\\",": 7148,
      "ÐºÑĤ": 7149,
      "ÐºÐ¾ÑģÑĤÑĮ": 7150,
      "getC": 7151,
      "ÑģÑĤÐ¾Ð¹": 7152,
      "isAvailable": 7153,
      "ironment": 7154,
      "(\\\".": 7155,
      "ĠShared": 7156,
      "Ġlink": 7157,
      "ĠTuple": 7158,
      "Ġdecompressed": 7159,
      "ĠÐ´Ð½ÐµÐ¹": 7160,
      "Ġinc": 7161,
      "ayThrow": 7162,
      "aylor": 7163,
      "Ð¸ÑĤÐ°": 7164,
      "ĠgetD": 7165,
      "ĠgetState": 7166,
      "ĠgetNext": 7167,
      "abab": 7168,
      "Store": 7169,
      "Ð°Ð»Ð¾": 7170,
      "ĠnewValue": 7171,
      "locked": 7172,
      "ĠisEven": 7173,
      "ĠĠĠĠĠĠĠĠĠĠĠĠĠĠĠĠĠĠĠĠĠĠĠĠĠĠĠĠĠĠĠĠĠĠĠĠĠĠ": 7174,
      "Ð¾Ð±ÐµÐ´": 7175,
      "esc": 7176,
      "Ġprogress": 7177,
      "Ġprototype": 7178,
      "ĠprintValue": 7179,
      "ĠÑĥÑĢÐ°Ð²Ð½ÐµÐ½Ð¸Ñı": 7180,
      "redit": 7181,
      "1010": 7182,
      "ĠRenderer": 7183,
      "ĠcurrentNode": 7184,
      "ÐłÐ°Ð²": 7185,
      "Ð¶Ð°ÑĤ": 7186,
      "Ġcompress": 7187,
      "ÐľÐ°ÑĢ": 7188,
      "filesystem": 7189,
      "ĠprocessData": 7190,
      "ĠÐ¿ÐµÑĢÐµÐ¿Ð¾Ð»Ð½": 7191,
      "ĠOK": 7192,
      "ÐµÐ¹ÑĤ": 7193,
      "Ġcreation": 7194,
      "ERT": 7195,
      "Ð½Ð¾ÑģÑĤÐ¾ÑĢÐ¾Ð½": 7196,
      "prod": 7197,
      "HelloPlugin": 7198,
      "currentState": 7199,
      "orderLevel": 7200,
      "ĠtargetTemp": 7201,
      "ĠuserService": 7202,
      "Enabled": 7203,
      "topIndex": 7204,
      "ĠbaseSalary": 7205,
      "ĠcheckIn": 7206,
      "ĠÐºÐ¾Ð½ÑĨ": 7207,
      "ALARY": 7208,
      "loadPlugin": 7209,
      "short": 7210,
      "ĠswapValues": 7211,
      "ÐĳÐµÐ·": 7212,
      "interval": 7213,
      "ĠComputation": 7214,
      "ÐµÑīÐ°ÐµÐ¼": 7215,
      "ĠtopNode": 7216,
      "ĠÐ¿Ð¾Ð´Ð¼Ð½Ð¾Ð¶": 7217,
      "ĠFileHandler": 7218,
      "ÑģÑĤÐ²Ð°": 7219,
      "ACITY": 7220,
      "Ġgeneration": 7221,
      "ĠInventory": 7222,
      "ĠSingletonLogger": 7223,
      "Ð¦ÐµÐ»": 7224,
      "ĠÐ¾Ð¿ÐµÑĢÐ°ÑĨÐ¸Ð¹": 7225,
      "ĠNetworkPacket": 7226,
      "Ġtrain": 7227,
      "issing": 7228,
      "ĠArrayIterator": 7229,
      "initializer": 7230,
      "ĠÑĩÐ°ÑģÑĤÐ¸": 7231,
      "Locking": 7232,
      "ĠÐºÐ¾Ð¿Ð¸ÑĢÐ¾Ð²Ð°Ð½Ð¸Ðµ": 7233,
      "ĠÐ¿Ð¾Ð»ÑĥÑĩÐµÐ½Ð¸Ñı": 7234,
      "CurrentState": 7235,
      "grades": 7236,
      "ÑĢÐ°Ð½Ð¸Ñĩ": 7237,
      "ĠMemento": 7238,
      "ĠusersById": 7239,
      "ĠreceivedData": 7240,
      "ĠExample": 7241,
      "Ġuniversity": 7242,
      "Ġscaled": 7243,
      "Permission": 7244,
      "uleOfFive": 7245,
      "fieldCount": 7246,
      "ĠÐ¿Ð°Ð¼ÑıÑĤÑĮ": 7247,
      "ĠListNode": 7248,
      "ĠLazyValue": 7249,
      "ĠÐ¿Ð°ÑĢÐ°Ð¼ÐµÑĤÑĢ": 7250,
      "Locator": 7251,
      "ĠCoffeeDecorator": 7252,
      "Ġvehicles": 7253,
      "Ġbounds": 7254,
      "ĠShopping": 7255,
      "Ð°Ð½Ð´Ð°ÑĢÑĤ": 7256,
      "ĠDynamicArray": 7257,
      "ĠÐ¿Ð¾Ð»ÑĮÐ·Ð¾Ð²Ð°ÑĤÐµÐ»ÑĮÑģÐº": 7258,
      "anguage": 7259,
      "sidual": 7260,
      "ĠSerializationRegistry": 7261,
      "ĠPermission": 7262,
      "ĠPrototype": 7263,
      "ÑģÐ¾Ð»ÑİÑĤ": 7264,
      "Ð½Ð¾ÑģÑĤÐ¾ÑĢÐ¾Ð½Ð½Ð¸Ð¹": 7265,
      "ĠÐ¿Ð¾Ð´Ð¼Ð½Ð¾Ð¶ÐµÑģÑĤÐ²": 7266,
      "BLE": 7267,
      "Cast": 7268,
      "Factor": 7269,
      "History": 7270,
      "ILE": 7271,
      "Limit": 7272,
      "OK": 7273,
      "RD": 7274,
      "UT": 7275,
      "ZER": 7276,
      "ai": 7277,
      "half": 7278,
      "rute": 7279,
      "volume": 7280,
      "Ġut": 7281,
      "ĠĠĠĠĠ": 7282,
      "intPtr": 7283,
      "endif": 7284,
      "Ð½ÐµÐµ": 7285,
      "aligned": 7286,
      "urses": 7287,
      "ÑĢÐ°Ñģ": 7288,
      "Ġva": 7289,
      "Ġdollars": 7290,
      "Ġcipher": 7291,
      "Ġbyte": 7292,
      "Ġbrute": 7293,
      "ious": 7294,
      "Ġ**": 7295,
      "ract": 7296,
      "ĠSH": 7297,
      "ĠÐ´ÐµÐº": 7298,
      "Coeffs": 7299,
      "abel": 7300,
      "ftime": 7301,
      "ĠArea": 7302,
      "Ġisbn": 7303,
      "plugin": 7304,
      "Ġproxy": 7305,
      "ĠmaxSoFar": 7306,
      "INE": 7307,
      "ĠÐ¿ÑĢÐµÑĦÐ¸ÐºÑģ": 7308,
      "aca": 7309,
      "Proxy": 7310,
      "Ġself": 7311,
      "):\\\\": 7312,
      "Ġmoving": 7313,
      "ÐĲÐ²": 7314,
      "progress": 7315,
      "LED": 7316,
      "ĠÐ·Ð½Ð°ÑĩÐµÐ½Ð¸ÐµÐ¼": 7317,
      "RED": 7318,
      "9999": 7319,
      "formatted": 7320,
      "ÑĢÐ°Ð²Ð½Ð¸Ð²Ð°Ð½Ð¸Ðµ": 7321,
      "ORT": 7322,
      "Ð°Ð¹ÑĤÐ¸": 7323,
      "Truck": 7324,
      "ĠÐ¾ÑĨÐµÐ½": 7325,
      "ĠdistanceTo": 7326,
      "0001": 7327,
      "ĠDevice": 7328,
      "cell": 7329,
      "Ġrobot": 7330,
      "Address": 7331,
      "ĠTimeInterval": 7332,
      "OUBLE": 7333,
      "ÑĥÐ»Ð°": 7334,
      "Ġassignment": 7335,
      "Outer": 7336,
      "middle": 7337,
      "ĠÐ¼Ð¸Ð½ÑĥÑĤ": 7338,
      "Ð¾Ð±ÑīÐµÐ½Ð¸Ðµ": 7339,
      "ĠÐ·Ð°Ð²ÐµÑĢÑĪÐµÐ½Ð¸Ñı": 7340,
      "Deposit": 7341,
      "bstract": 7342,
      "ĠÑĢÐ°Ð²ÐµÐ½": 7343,
      "ĠÑĢÐµÐ°Ð»Ð¸Ð·Ð°ÑĨÐ¸Ñı": 7344,
      "ĠÐ§ÑĤÐµÐ½Ð¸Ðµ": 7345,
      "ultiple": 7346,
      "Transform": 7347,
      "ĠÐ¿Ð¾Ð»ÑĮÐ·Ð¾Ð²Ð°ÑĤÐµÐ»ÐµÐ¹": 7348,
      "SETFL": 7349,
      "Ġremoved": 7350,
      "ÐŁÑĢÐ¾Ð¸Ð·Ð²ÐµÐ´ÐµÐ½Ð¸Ðµ": 7351,
      "COMPLETED": 7352,
      "ĠÐ²Ð¾Ð·Ð²ÑĢÐ°ÑīÐ°ÐµÐ¼": 7353,
      "Ð¾Ð³ÑĢÐµÑģÑģ": 7354,
      "ĠÑģÐµÑĢÐ²ÐµÑĢ": 7355,
      "FINE": 7356,
      "ĠÐ²ÑĭÑģÐ¾ÑĤÑĥ": 7357,
      "ĠÐŁÐ¾Ð»ÑĥÑĩÐµÐ½Ð¸Ðµ": 7358,
      "ĠÐ´ÐµÐ¹ÑģÑĤÐ²Ð¸ÑĤÐµÐ»ÑĮÐ½ÑĭÑħ": 7359,
      "Step": 7360,
      "ĠLOG": 7361,
      "Operator": 7362,
      "aptop": 7363,
      "ĠTrafficLight": 7364,
      "METHOD": 7365,
      "ĠHashTable": 7366,
      "ÑĦÐ¸Ð³ÑĥÑĢÐ°": 7367,
      "ĠGREEN": 7368,
      "ZERO": 7369,
      "*\\\"": 7370,
      "44": 7371,
      "79": 7372,
      "BooleanExpression": 7373,
      "Critical": 7374,
      "DA": 7375,
      "DD": 7376,
      "Db": 7377,
      "Ed": 7378,
      "IS": 7379,
      "ITION": 7380,
      "Low": 7381,
      "Man": 7382,
      "Mouse": 7383,
      "PimplExample": 7384,
      "RA": 7385,
      "Root": 7386,
      "Sw": 7387,
      "VD": 7388,
      "WOU": 7389,
      "Watermark": 7390,
      "dq": 7391,
      "factor": 7392,
      "gth": 7393,
      "gion": 7394,
      "large": 7395,
      "lision": 7396,
      "mise": 7397,
      "ng": 7398,
      "sym": 7399,
      "ux": 7400,
      "zer": 7401,
      "Ġge": 7402,
      "Ġerr": 7403,
      "Ġupper": 7404,
      "Ġorders": 7405,
      "Ð¾ÑįÑĦÑĦÐ¸ÑĨÐ¸ÐµÐ½ÑĤ": 7406,
      "ĠÐĸ": 7407,
      "deposit": 7408,
      "ÑģÐ°": 7409,
      "Ġmana": 7410,
      "Ġdf": 7411,
      "Ġderiv": 7412,
      "Ð»Ð¸Ð²": 7413,
      "Ġpb": 7414,
      "Ġpack": 7415,
      "Ġpolar": 7416,
      "Ġcsv": 7417,
      "Ġsingle": 7418,
      "Ġoff": 7419,
      "road": 7420,
      "cherry": 7421,
      "isNegative": 7422,
      "ĠÐ¿Ð»": 7423,
      "ĠÐ¿Ð¾Ñģ": 7424,
      "expen": 7425,
      "Ġweek": 7426,
      "ĠÑģÐ¼": 7427,
      "ĠÑģÑĥÑĦÑĦ": 7428,
      "ĠCat": 7429,
      "ĠSpan": 7430,
      "ottom": 7431,
      "mac": 7432,
      "Ð¼Ð¸": 7433,
      "Ġ})\\": 7434,
      "Ð¾Ð»ÑģÑĤÐ¾Ð¹": 7435,
      "asSize": 7436,
      "ĠÐ½ÐµÑģ": 7437,
      "ĠÐ½ÐµÐºÐ¾ÑĢÑĢÐµÐºÑĤ": 7438,
      "ĠÐ´Ð¸Ð°Ð³": 7439,
      "html": 7440,
      "ĠPurchase": 7441,
      "pton": 7442,
      "ability": 7443,
      ">([](": 7444,
      "ĠstrData": 7445,
      "Ġstrncpy": 7446,
      "ĠÐºÐ¾Ð»": 7447,
      "ĠÐºÐ¾Ð»Ð¸ÑĩÐµÑģÑĤÐ²": 7448,
      "ÑĪÐµÐ½": 7449,
      "ĠÐ¸ÑģÑĤ": 7450,
      "ĠÐ¸ÑģÐ¿Ð¾Ð»ÑĮÐ·Ñĥ": 7451,
      "Ġexact": 7452,
      "Ð°Ð½Ð¸ÑĨ": 7453,
      "ĠÑĤÐ°Ð±Ð»": 7454,
      "Ġtolower": 7455,
      "ĠField": 7456,
      "ÐĿÐ¾Ð²ÑĭÐ¹": 7457,
      "ĠVariable": 7458,
      "ĠLength": 7459,
      "ĠLimited": 7460,
      "Ð°Ð¹ÑĪ": 7461,
      "ĠaddTo": 7462,
      "Ð¾Ð·Ð¸": 7463,
      "ĠEdge": 7464,
      "ĠEAG": 7465,
      "ĠEWOU": 7466,
      "ĠÐ¡Ð¾": 7467,
      "Ð¸ÑĢÐ¾Ð²Ð°ÑĤÑĮ": 7468,
      "Ġits": 7469,
      "Promise": 7470,
      "rength": 7471,
      "ĠkeyMap": 7472,
      "StateA": 7473,
      "ĠÐ¾Ð±Ð°": 7474,
      "ĠStream": 7475,
      "ĠtaskDependencies": 7476,
      "Ð¸Ð±Ð¾": 7477,
      "ĠOper": 7478,
      "ĠtimeOfDay": 7479,
      "STAN": 7480,
      "127": 7481,
      "Ġouter": 7482,
      "ÐķÐ¢": 7483,
      "ĠÐ³Ð¾ÑĢÐ¾Ð´": 7484,
      "ONLY": 7485,
      "This": 7486,
      "ĠÐłÐµÐºÑĥÑĢÑģ": 7487,
      "ÑĢÐ°Ð²Ð½ÐµÐ½Ð¸Ð¹": 7488,
      "ĠbookCount": 7489,
      "ART": 7490,
      "Quantity": 7491,
      "Ġmodified": 7492,
      "Ġmodulus": 7493,
      "Ð¸ÑĩÐµÑģÐºÐ¾Ð³Ð¾": 7494,
      "456": 7495,
      "Checksum": 7496,
      "ĠÐ´Ð¾ÑħÐ¾Ð´": 7497,
      "ĠÑģÐºÐ¾Ð±": 7498,
      "Ð¸ÑĢÑĥÑİÑī": 7499,
      "Ð½Ð¾Ð²Ð½Ð¾Ð¹": 7500,
      "ĠRationalMatrix": 7501,
      "totalAmount": 7502,
      "ExprNode": 7503,
      "ĠConcreteColleague": 7504,
      "maton": 7505,
      "Ġbacktrack": 7506,
      "IGN": 7507,
      "Threads": 7508,
      "Ġpartitions": 7509,
      "edges": 7510,
      "Starting": 7511,
      "ĠNetworkException": 7512,
      "Ġsmallest": 7513,
      "Serialize": 7514,
      "Ġoptimized": 7515,
      "ĠÐ¿Ð¾Ð²ÐµÑĢÑħ": 7516,
      "destination": 7517,
      "ributes": 7518,
      "ĠÑĤÐ¾ÑĩÐºÐ¸": 7519,
      "ĠMultip": 7520,
      "Ġgreater": 7521,
      "ĠAnyCallable": 7522,
      "decay": 7523,
      "Ġsieve": 7524,
      "ĠÑģÑĤÑĢÐ°Ð½Ð¸ÑĨ": 7525,
      "omething": 7526,
      "Ð¸ÑĦÑĢÐ¾Ð²Ð°Ð½Ð½ÑĭÐ¹": 7527,
      "ĠMathError": 7528,
      "CCESS": 7529,
      "Ð¢ÐµÐºÑģÑĤ": 7530,
      "ĠÑĢÐ°Ð·ÑĢÑĥÑĪÐµÐ½Ð°": 7531,
      "ĠÐ½Ð¾Ð²Ð¾Ð³Ð¾": 7532,
      "ĠObjectTracker": 7533,
      "Ð¼ÐµÑģÑĤÐ¸Ð¼": 7534,
      "Ġrenderer": 7535,
      "Ð°ÐºÑĤÐ¸Ð²": 7536,
      "FINAE": 7537,
      "LDBLOCK": 7538,
      "Ġattendance": 7539,
      "ECTOR": 7540,
      "ooter": 7541,
      "ĠoddCount": 7542,
      "viction": 7543,
      "CheckedLocking": 7544,
      "igenere": 7545,
      "ĠÐ³ÑĢÐ°ÑĦÐ°": 7546,
      "ĠÑĤÐ°Ð¹Ð¼Ð°ÑĥÑĤ": 7547,
      "ĠÐŀÐ¿ÐµÑĢÐ°ÑĤÐ¾ÑĢ": 7548,
      "inancialAccount": 7549,
      "ÑĥÐ¿ÑĢÐµÐ¶Ð´ÐµÐ½Ð¸Ðµ": 7550,
      "ĠÐŀÐ±Ð½Ð¾Ð²Ð»ÑıÐµÐ¼": 7551,
      "ĠCOLS": 7552,
      "ĠÐ¿ÑĢÐ¸Ð½Ð¸Ð¼": 7553,
      "Ġtxn": 7554,
      "Insertions": 7555,
      "ĠÐ¼Ð¾Ð³ÑĥÑĤ": 7556,
      "ublisher": 7557,
      "ĠÐ¾ÐºÑĢÑĥÐ¶Ð½Ð¾ÑģÑĤÐ¸": 7558,
      "Wheels": 7559,
      "roadcast": 7560,
      "ĠEAGAIN": 7561,
      "ĠEWOULDBLOCK": 7562,
      "78": 7563,
      "Cle": 7564,
      "Call": 7565,
      "Head": 7566,
      "Money": 7567,
      "Parent": 7568,
      "SH": 7569,
      "Sensor": 7570,
      "Wait": 7571,
      "aive": 7572,
      "istringstream": 7573,
      "nname": 7574,
      "public": 7575,
      "power": 7576,
      "}\\\";\\": 7577,
      "Ġctime": 7578,
      "Ġ\\\"!": 7579,
      "Ġ\\\"&": 7580,
      "Ġ\\\"<": 7581,
      "Ġ\\\"...\\\"": 7582,
      "Ġ\\\"---": 7583,
      "Ð°ÑĨÐ¸Ñİ": 7584,
      "dequeue": 7585,
      "decrypted": 7586,
      "Ð¸Ð¾ÑĢÐ¸ÑĤÐµÑĤ": 7587,
      "Ð¸ÐµÑģÑı": 7588,
      "Ð½ÐµÑģ": 7589,
      "Ð½ÐµÐ³Ð¾": 7590,
      "Ġnetwork": 7591,
      "Ġasc": 7592,
      "ÑıÑī": 7593,
      "rit": 7594,
      "ÐµÐ½Ð½Ð¾Ð³Ð¾": 7595,
      "mport": 7596,
      "getAccount": 7597,
      "isalnum": 7598,
      "ĠÐ¿Ð¾Ð¼": 7599,
      "version": 7600,
      "ĠCop": 7601,
      "paces": 7602,
      "Rec": 7603,
      "\\\",\\\"": 7604,
      "ĠÐ½Ð¸Ð¶": 7605,
      "ĠÐ½Ð°Ð±Ð»ÑİÐ´": 7606,
      "Ð¾ÑĢÐ¾Ð²": 7607,
      "Ġ');\\": 7608,
      "ĠgetAll": 7609,
      "ĠgetBalance": 7610,
      "ĠBLOCK": 7611,
      "Ġgame": 7612,
      "ĠÐºÐ°ÑĤ": 7613,
      "ĠMIN": 7614,
      "ĠManager": 7615,
      "addItem": 7616,
      "Ð¸Ð¼Ð¸": 7617,
      "Ð¹ÑĤÐµ": 7618,
      "ĠAll": 7619,
      "Nodes": 7620,
      "Ġcharge": 7621,
      "Ð¾ÑĤÐ¾Ð²": 7622,
      "Ġproto": 7623,
      "beg": 7624,
      "Ð¾Ð¼Ñĥ": 7625,
      "Ð¾Ð¼Ð±": 7626,
      "Ð¾Ð½Ð¸Ð¼": 7627,
      "Ð¾Ð½ÐµÑĩ": 7628,
      "ĠÐ±ÑĥÐ´": 7629,
      "ÐŀÐ¶Ð¸Ð´": 7630,
      "ĠFunction": 7631,
      "Ġwheels": 7632,
      "ÐĺÐ¡": 7633,
      "ÐĺÐľ": 7634,
      "ĠsumOf": 7635,
      "ĠRest": 7636,
      "ĠReport": 7637,
      "Ð°ÑĢÐ°": 7638,
      "Ð°ÑĢÑı": 7639,
      "fahrenheit": 7640,
      "ĠÑĢÐ°ÑģÑģÑĤÐ¾ÑıÐ½Ð¸Ðµ": 7641,
      "ToRemove": 7642,
      "Ð¸Ð±Ð¾Ð»ÑĮÑĪ": 7643,
      "ĠwordCount": 7644,
      "Ð°Ð¿ÑĢÐ°Ð²": 7645,
      "Ð¸ÑĤÐµÐ»ÑĮÐ½Ð¾": 7646,
      "Ġsubset": 7647,
      "ĠGPU": 7648,
      "Comparison": 7649,
      "complete": 7650,
      "compute": 7651,
      "Device": 7652,
      "Ġattempts": 7653,
      "hasNext": 7654,
      "Ġmonths": 7655,
      "ÐŀÐ±ÑĢÐ°ÑĤ": 7656,
      "Ð°Ð³ÑĢÐ°Ð¼": 7657,
      "Cloneable": 7658,
      "Elements": 7659,
      "ÑıÐ¼Ð¸": 7660,
      "ÑıÐ¼Ð¾Ð¹": 7661,
      "cstdio": 7662,
      "ACH": 7663,
      "positions": 7664,
      "Ġintern": 7665,
      "ĠÐ¿Ð¾Ð»Ð¾Ð¶Ð¸ÑĤÐµÐ»ÑĮÐ½Ð¾Ð¹": 7666,
      "ĠÑĪÐ°Ð³": 7667,
      "ĠÐ¿ÑĢÐµÐ´Ð¼ÐµÑĤ": 7668,
      "Windows": 7669,
      "Ð¾ÑĢÑĤÐ¸ÑĢÐ¾Ð²ÐºÐ°": 7670,
      "Ġinteger": 7671,
      "ĠÑĩÐ°ÑģÑĤÑĮ": 7672,
      "distanceTo": 7673,
      "Substrings": 7674,
      "ĠÑģÐ¾ÑĢÑĤÐ¸ÑĢÐ¾Ð²ÐºÐ°": 7675,
      "ĠinterestRate": 7676,
      "ĠÐ¾ÑģÐ²Ð¾Ð±": 7677,
      "detailed": 7678,
      "ĠÐ¡ÑģÑĭÐ»ÐºÐ¸": 7679,
      "ĠÑĤÐµÐºÑģÑĤÐ°": 7680,
      "ĠÐ¿ÑĢÐ¾ÑģÑĤÐ¾Ðµ": 7681,
      "ÑĭÐ¼Ð¸": 7682,
      "Difference": 7683,
      "ĠÐ²ÑĭÐ·Ð¾Ð²Ð°": 7684,
      "enabled": 7685,
      "ÐµÑģÐºÐ¾Ð½ÐµÑĩ": 7686,
      "istreambuf": 7687,
      "ĠÐ²ÑĭÑĢÐ°Ð¶ÐµÐ½Ð¸Ðµ": 7688,
      "Ð¸Ð½Ð°Ð»ÑĮÐ½Ð¾Ðµ": 7689,
      "ĠÐ¿ÑĥÑĤÐ¸": 7690,
      "Ð¾Ð³ÑĢÐµÑĪÐ½Ð¾ÑģÑĤÑĮ": 7691,
      "nnamespace": 7692,
      "mportant": 7693,
      "&&)": 7694,
      "='": 7695,
      ">,\\": 7696,
      "But": 7697,
      "Deg": 7698,
      "LBuffer": 7699,
      "Large": 7700,
      "MS": 7701,
      "NAME": 7702,
      "PR": 7703,
      "QU": 7704,
      "SALARY": 7705,
      "Taylor": 7706,
      "VA": 7707,
      "Weekday": 7708,
      "XX": 7709,
      "ding": 7710,
      "fra": 7711,
      "global": 7712,
      "matic": 7713,
      "sing": 7714,
      "sent": 7715,
      "tag": 7716,
      "tree": 7717,
      "tail": 7718,
      "uge": 7719,
      "volatile": 7720,
      "Ġrollback": 7721,
      "storage": 7722,
      "Ġ\\\"\\\");\\": 7723,
      "rerror": 7724,
      "recurring": 7725,
      "rekar": 7726,
      "env": 7727,
      "()->": 7728,
      "ors": 7729,
      "deque": 7730,
      "Ġreceive": 7731,
      "Ġresidual": 7732,
      "ÑĢÐµÐ±": 7733,
      "seg": 7734,
      "ctet": 7735,
      "Ġflyweight": 7736,
      "Ġnaive": 7737,
      "Ġvariable": 7738,
      "Ð»Ð°Ñģ": 7739,
      "Ġpay": 7740,
      "Ġcallable": 7741,
      "Ġcube": 7742,
      "three": 7743,
      "Ġbrightness": 7744,
      "Ġbottom": 7745,
      "Ġsample": 7746,
      "ÑĥÐ·": 7747,
      "ÑıÐµÑĤ": 7748,
      "streamsize": 7749,
      "ader": 7750,
      "edy": 7751,
      "irth": 7752,
      "ĠCAP": 7753,
      "ĠCircular": 7754,
      "ĠSum": 7755,
      "ĠSIG": 7756,
      "ĠSocket": 7757,
      "ĠSERIAL": 7758,
      "ĠSFINAE": 7759,
      "ĠTensor": 7760,
      "ĠTreapNode": 7761,
      "Ð¼Ð¸Ð½": 7762,
      "002": 7763,
      "Ġholder": 7764,
      "ĠÐ²Ð½ÑĥÑĤÑĢÐ¸": 7765,
      "ÐµÐ½Ð¸Ñİ": 7766,
      "Core": 7767,
      "Counted": 7768,
      "Ġ'_": 7769,
      "ĠPassword": 7770,
      "tyEntities": 7771,
      "Ġ59": 7772,
      ">('": 7773,
      "ÑħÑĢÐ¾Ð½": 7774,
      "ĠMultiplier": 7775,
      "ĠMAP": 7776,
      "uniform": 7777,
      "Ġ>>=": 7778,
      "ĠAd": 7779,
      "Ġthen": 7780,
      "Ð·Ð°Ðº": 7781,
      "Ġconfirm": 7782,
      "ĠĠĠĠĠĠĠĠĠĠĠĠĠĠĠĠĠĠĠĠĠĠĠĠĠĠĠĠĠ": 7783,
      "ÑĢÐ¾Ð²ÐµÐ½ÑĮ": 7784,
      "agram": 7785,
      "aprekar": 7786,
      "ÐµÐºÐ°": 7787,
      "ÑİÐ±": 7788,
      "best": 7789,
      "Ġ101": 7790,
      "ĠcountIn": 7791,
      "Ð¸Ð½ÑħÑĢÐ¾Ð½": 7792,
      "ĠROW": 7793,
      "ĠLock": 7794,
      "ĠCore": 7795,
      "ĠNo": 7796,
      "Ð¸ÑĩÐ½Ð¾Ð¹": 7797,
      "ÐĶÑĢÐ¾Ð±ÑĮ": 7798,
      "ÑĢÑĥÐ¿": 7799,
      "Ð¢ÑĢÐµ": 7800,
      "ÐºÐ¸Ñħ": 7801,
      "ĠÐ²ÑĭÑħÐ¾Ð´": 7802,
      "Ġ75": 7803,
      "Ð¸Ð·Ñĥ": 7804,
      "IZABLE": 7805,
      "ĠhasDigit": 7806,
      "Ð»ÑĮÑĤÐµÑĢÐ½Ð°ÑĤ": 7807,
      "Ð¸ÑĨÑĭ": 7808,
      "subtract": 7809,
      "REUSE": 7810,
      "Ġdiag": 7811,
      "ĠÐ¼Ð°ÑģÑģÐ¸Ð²Ð¾Ð²": 7812,
      "ByType": 7813,
      "Ġstructure": 7814,
      "allocations": 7815,
      "Indexed": 7816,
      "Ð¾ÑĢÑĤÐ¸ÑĢÑĥÐµÐ¼": 7817,
      "ignore": 7818,
      "ORD": 7819,
      "Subsequence": 7820,
      "Ġvalidator": 7821,
      "sumer": 7822,
      "ucer": 7823,
      "','.','.','": 7824,
      "ĠTypeChecker": 7825,
      "Ġclassname": 7826,
      "ĠÐ£ÐºÐ°Ð·Ð°ÑĤÐµÐ»ÑĮ": 7827,
      "ĠÐ£Ð¿ÑĢÐ¾Ñī": 7828,
      "ÐĳÐµÐ·Ð¾Ð¿Ð°Ñģ": 7829,
      "eratosthenes": 7830,
      "ĠComposite": 7831,
      "ĠUDP": 7832,
      "DEBUG": 7833,
      "Ġdetach": 7834,
      "ĠDecorator": 7835,
      "RUN": 7836,
      "ĠÐĲÐ»ÑĮÑĤÐµÑĢÐ½Ð°ÑĤ": 7837,
      "expired": 7838,
      "ĠTaskScheduler": 7839,
      "azine": 7840,
      "Ġtransfer": 7841,
      "cerrno": 7842,
      "directory": 7843,
      "OUT": 7844,
      "Ġrecipient": 7845,
      "ĠÑıÐ²Ð»ÑıÑİÑĤÑģÑı": 7846,
      "Percentage": 7847,
      "ĠÐŁÐµÑĢÐµÐ´Ð°ÑĩÐ°": 7848,
      "Control": 7849,
      "Ġconstructed": 7850,
      "ĠArrayView": 7851,
      "hosts": 7852,
      "param": 7853,
      "ĠÑģÐ¿ÐµÑĨÐ¸": 7854,
      "ĠÑģÐ¿Ð¾ÑģÐ¾Ð±": 7855,
      "ĠMyString": 7856,
      "blocks": 7857,
      "Ġlocaltime": 7858,
      "ĠcardNumber": 7859,
      "ometric": 7860,
      "ĠThreadSafeFile": 7861,
      "Months": 7862,
      "Ġepoll": 7863,
      "ÐľÐ°ÐºÑģÐ¸Ð¼Ð°Ð»ÑĮÐ½Ð¾Ðµ": 7864,
      "Ġquicksort": 7865,
      "USD": 7866,
      "ĠServiceLocator": 7867,
      "ĠÑģÐ¾ÑģÑĤÐ¾ÑıÐ½Ð¸Ðµ": 7868,
      "Ġtrim": 7869,
      "UniquePtr": 7870,
      "ĠÐ¿ÑĢÐ¸ÑģÐ²Ð¾": 7871,
      "ĠundoStack": 7872,
      "ĠÑģÑĥÐ¼Ð¼Ñĭ": 7873,
      "andidates": 7874,
      "ĠbestPath": 7875,
      "Ġrecommendation": 7876,
      "Ð»Ð¾Ð¶ÐµÐ½Ð¸Ðµ": 7877,
      "Ð¾Ð¶Ð´ÐµÐ½Ð¸Ðµ": 7878,
      "ĠÐ´ÐµÑĢÐµÐ²Ð¾": 7879,
      "ĠÐºÑįÑĪÐ°": 7880,
      "Local": 7881,
      "iteral": 7882,
      "ĠApp": 7883,
      "Closed": 7884,
      "interest": 7885,
      "ĠÑĩÑĤÐµÐ½Ð¸Ñı": 7886,
      "ĠConstantType": 7887,
      "ĠÐ°ÑĢÐ³ÑĥÐ¼ÐµÐ½ÑĤÐ¾Ð²": 7888,
      "LibraryItem": 7889,
      "ÐľÐ¸Ð½Ð¸Ð¼Ð°Ð»ÑĮÐ½ÑĭÐ¹": 7890,
      "Optimized": 7891,
      "ULT": 7892,
      "Ð¸Ð¼ÑĥÐ»ÑıÑĨÐ¸Ñı": 7893,
      "SmartPointer": 7894,
      "ĠÐŀÑĩÐ¸ÑģÑĤÐºÐ°": 7895,
      "CAPACITY": 7896,
      "Ġ273": 7897,
      "ÑĢÐ°Ð±Ð°ÑĤ": 7898,
      "ĠTypeErasedContainer": 7899,
      "Ð²Ð°ÑĢÐ¸ÑĤÐµÐ»ÑĮ": 7900,
      "Ġcommitted": 7901,
      "ISSET": 7902,
      "ĠAsyncTask": 7903,
      "Ð°Ð»ÑıÑĢÐ½Ð¾Ðµ": 7904,
      "Ġpredi": 7905,
      "Ġcents": 7906,
      "ĠTRANSITION": 7907,
      "ĠÑĥÐ½Ð¸ÐºÐ°Ð»ÑĮ": 7908,
      "ĠPermissionSet": 7909,
      "ĠÑģÑĥÑĦÑĦÐ¸ÐºÑģ": 7910,
      "Ð¾Ð·Ð¸ÑĨÐ¸Ñı": 7911,
      "ĠÐ¿Ð¾Ð²ÐµÑĢÑħÐ½Ð¾ÑģÑĤÐ¸": 7912,
      "ĠCopy": 7913,
      "ButCloneable": 7914,
      "ĠROWS": 7915,
      "REUSEADDR": 7916,
      "!\\": 7917,
      "'},": 7918,
      "03": 7919,
      "48": 7920,
      "As": 7921,
      "EW": 7922,
      "FAI": 7923,
      "Gre": 7924,
      "IDatabase": 7925,
      "Mag": 7926,
      "NS": 7927,
      "Other": 7928,
      "Sorter": 7929,
      "VEL": 7930,
      "csignal": 7931,
      "dynamic": 7932,
      "fg": 7933,
      "fit": 7934,
      "good": 7935,
      "mission": 7936,
      "oe": 7937,
      "scores": 7938,
      "uper": 7939,
      "ĠÏ": 7940,
      "ĠExpected": 7941,
      "ĠĠĠĠĠĠ": 7942,
      "inner": 7943,
      "inUse": 7944,
      "record": 7945,
      "replace": 7946,
      "ints": 7947,
      "()];\\": 7948,
      "debug": 7949,
      "Ð¸Ð»Ð¸": 7950,
      "Ġrevenue": 7951,
      "alty": 7952,
      "select": 7953,
      "Ġmonitor": 7954,
      "Ġvertex": 7955,
      "Ġpeek": 7956,
      "theta": 7957,
      "Ġbonus": 7958,
      "round": 7959,
      "isOpen": 7960,
      "ĠÐ¿Ð°ÑĤ": 7961,
      "exchange": 7962,
      "++()": 7963,
      "ĠÑģÐ²": 7964,
      "Ġdep": 7965,
      "Ġ};": 7966,
      "Ġhr": 7967,
      "Ġheuristic": 7968,
      "ĠÐ²Ð²ÐµÐ»": 7969,
      "setValue": 7970,
      "asure": 7971,
      "strncpy": 7972,
      "ĠÐ´ÐµÐ½ÑĮ": 7973,
      "Ġnumeric": 7974,
      "Ġincrease": 7975,
      "ĠgetCounter": 7976,
      "ĠgetIs": 7977,
      "ĠPA": 7978,
      "ĠPart": 7979,
      "ĠDist": 7980,
      "ĠÐºÑĢÐ°ÑĤ": 7981,
      "Ġtruck": 7982,
      "omorphic": 7983,
      "ĠAL": 7984,
      "Ġconcaten": 7985,
      "ĠisEqual": 7986,
      "Ð¾Ð±Ñĭ": 7987,
      "ecure": 7988,
      "Ð¾ÐºÐ¸Ð¹": 7989,
      "ĠÐ·Ð°Ð½": 7990,
      "Ġtoggle": 7991,
      "ÐŀÐľ": 7992,
      "Ð±ÐµÑĢ": 7993,
      "Ð¸Ð½Ñĥ": 7994,
      "ĠÐ¿ÑĢÐ¾Ð¼": 7995,
      "ĠÐ¿ÑĢÐ¸Ð±": 7996,
      "ĠÐ¿ÑĢÐ¾Ð³ÑĢÐµÑģÑģ": 7997,
      "Ð¸ÑĩÐ½Ð¾Ðµ": 7998,
      "ÐłÐµÑģÑĥÑĢÑģ": 7999,
      "ĠÐ¡Ð¾ÑĢÑĤÐ¸ÑĢÐ¾Ð²ÐºÐ°": 8000,
      "Ġkopecks": 8001,
      "odd": 8002,
      "finder": 8003,
      "Progress": 8004,
      "Ġsell": 8005,
      "Ġcomposite": 8006,
      "============": 8007,
      "Ġ85": 8008,
      "Ð¢ÐµÐ¼Ð¿ÐµÑĢÐ°ÑĤÑĥÑĢÐ°": 8009,
      "ĠÐ²ÑĭÑĪÐµ": 8010,
      "ĠOpen": 8011,
      "prefix": 8012,
      "ĠÐ¾ÑĤÐ´": 8013,
      "Ġanaly": 8014,
      "STR": 8015,
      "ĠÑĢÐ°Ð·ÑĢ": 8016,
      "ĠÑĢÐ°Ð·Ð½ÑĭÐµ": 8017,
      "ĠÑĢÐ°Ð·Ð»Ð¸Ñĩ": 8018,
      "ally": 8019,
      "ÐµÐ³ÑĢÑĥÐ·ÐºÐ°": 8020,
      "usec": 8021,
      "whitespace": 8022,
      "Developer": 8023,
      "Ð¸ÑĢÐ¾Ð²Ð°Ð½Ð½ÑĭÐ¹": 8024,
      "ĠÐ»Ð¸ÑĤÐµÑĢÐ°Ð»": 8025,
      "eventType": 8026,
      "ĠProxy": 8027,
      "borrow": 8028,
      "Ġadjust": 8029,
      "Ð°Ð»Ð¸Ð·Ð¾Ð²": 8030,
      "ÐłÐ°Ð·Ð½Ð¾ÑģÑĤÑĮ": 8031,
      "lying": 8032,
      "ĠÑĤÑĢÐµÐ±": 8033,
      "Ð½Ð¾ÑģÑĤÑĮÑİ": 8034,
      "Checkbox": 8035,
      "ĠÐĴÑĭÐ±Ð¾ÑĢ": 8036,
      "ATA": 8037,
      "Ð¦ÐµÐ½Ð°": 8038,
      "ĠmyCar": 8039,
      "Perimeter": 8040,
      "nÐ¡ÑĤÐ°ÑĤÐ¸ÑģÑĤÐ¸ÐºÐ°": 8041,
      "ÐŁÐµÑĢÐ²Ð¾Ðµ": 8042,
      "Ð¸Ð°Ð½Ð°": 8043,
      "ĠbinarySearch": 8044,
      "ĠStateMachine": 8045,
      "Ġbitset": 8046,
      "mulator": 8047,
      "ĠÐĶÐ¾Ð¿Ð¾Ð»Ð½Ð¸ÑĤÐµÐ»ÑĮÐ½Ð°Ñı": 8048,
      "Ð¸ÑĩÐµÑģÐºÐ¸Ñħ": 8049,
      "Ġrooms": 8050,
      "ĠExtended": 8051,
      "ĠÐ²ÐµÑĢÑģÐ¸Ñı": 8052,
      "ĠÐ²Ð¾Ð·ÑĢÐ°ÑģÑĤÐ°Ð½Ð¸Ñİ": 8053,
      "Shift": 8054,
      "CSV": 8055,
      "Notification": 8056,
      "ÐŀÐ±ÑīÐ°Ñı": 8057,
      "ĠFixedVector": 8058,
      "Vehicles": 8059,
      "SIGINT": 8060,
      "ĠÐ¿ÑĢÐ¸Ð²ÐµÐ´": 8061,
      "Ð¢ÐµÐºÑĥÑīÐ¸Ð¹": 8062,
      "Ð¢ÐµÐºÑĥÑīÐµÐµ": 8063,
      "overflow": 8064,
      "ĠÐ²ÑĭÐ²Ð¾Ð´Ð°": 8065,
      "flush": 8066,
      "ĠNotification": 8067,
      "ĠÐ½ÐµÐ²Ð°Ð»Ð¸Ð´": 8068,
      "ĠÐ³Ð»ÑĥÐ±": 8069,
      "Ġeditor": 8070,
      "ĠDepend": 8071,
      "Before": 8072,
      "Ġcalculations": 8073,
      "ĠÐŁÐ°ÑĢÐ°Ð»Ð»ÐµÐ»ÑĮ": 8074,
      "ÑģÑĤÑĢÐµÑĩÐ°ÐµÑĤÑģÑı": 8075,
      "Ð°ÐºÑĤÐ¾ÑĢÐ¸Ð°Ð»": 8076,
      "ĠÐ¯Ð²": 8077,
      "Ġprototypes": 8078,
      "acade": 8079,
      "ĠÐĸÐ´ÐµÐ¼": 8080,
      "ÑĢÑĥÐ¿Ð¿": 8081,
      "ĠÐ²Ð²ÐµÐ»Ð¸": 8082,
      "Bit": 8083,
      "BSTNode": 8084,
      "CESS": 8085,
      "CII": 8086,
      "Echo": 8087,
      "FA": 8088,
      "Frequency": 8089,
      "HO": 8090,
      "Handlers": 8091,
      "KEY": 8092,
      "Lower": 8093,
      "Main": 8094,
      "MST": 8095,
      "Multiplication": 8096,
      "MORY": 8097,
      "MEDIUM": 8098,
      "OFF": 8099,
      "OPEN": 8100,
      "Observable": 8101,
      "Prefix": 8102,
      "Player": 8103,
      "Paused": 8104,
      "Pipeline": 8105,
      "Target": 8106,
      "]]++;\\": 8107,
      "^(": 8108,
      "_;\\": 8109,
      "_\\\"": 8110,
      "aN": 8111,
      "bo": 8112,
      "ders": 8113,
      "fact": 8114,
      "fund": 8115,
      "gpa": 8116,
      "gable": 8117,
      "ian": 8118,
      "lack": 8119,
      "longest": 8120,
      "md": 8121,
      "nRe": 8122,
      "neuron": 8123,
      "nÐľÐµÑĤÐ¾Ð´": 8124,
      "nÐ¨Ð°Ð³": 8125,
      "rpn": 8126,
      "tl": 8127,
      "vable": 8128,
      "ware": 8129,
      "ĠÐ°Ð±": 8130,
      "stma": 8131,
      "Ġ\\\"...": 8132,
      "cow": 8133,
      "rear": 8134,
      "reservation": 8135,
      "encoded": 8136,
      "default": 8137,
      "deserialize": 8138,
      "Ġimplementation": 8139,
      "Ġfil": 8140,
      "Ġneg": 8141,
      "Ġvm": 8142,
      "Ġvolatile": 8143,
      "Ġvariance": 8144,
      "sident": 8145,
      "Ġcal": 8146,
      "Ġcutoff": 8147,
      "unro": 8148,
      "idence": 8149,
      "amel": 8150,
      "Ġspherical": 8151,
      "ristma": 8152,
      "ubles": 8153,
      "lope": 8154,
      "getAmount": 8155,
      "Ð²Ð¸Ñģ": 8156,
      "metric": 8157,
      "Ġwstring": 8158,
      "Ġweekday": 8159,
      "ota": 8160,
      "Ġlib": 8161,
      "Ġlambda": 8162,
      "Ġlabel": 8163,
      "Ġstrings": 8164,
      "ÐµÐ¼Ð°": 8165,
      "Ġdeserialize": 8166,
      "Ð°Ð½Ñĭ": 8167,
      "Ġ34": 8168,
      "Ð´Ð»Ñı": 8169,
      "perimeter": 8170,
      "ntypename": 8171,
      "ĠnumThreads": 8172,
      "Ġ'(": 8173,
      "ĠgetC": 8174,
      "ĠPtr": 8175,
      "eter": 8176,
      "Stock": 8177,
      "ĠDown": 8178,
      "Ð½Ð°Ð»Ð¸Ð·": 8179,
      "ĠÐºÐ¾ÑĢÑĤ": 8180,
      "ÑħÐ¾Ð¶Ð´ÐµÐ½Ð¸Ñı": 8181,
      "doubleValue": 8182,
      "ĠnewSize": 8183,
      "ĠnewArr": 8184,
      "Ð¸Ð¼Ð¾ÑĢÑĦ": 8185,
      "\\\"))": 8186,
      "quant": 8187,
      "mouse": 8188,
      "phi": 8189,
      "rigger": 8190,
      "ĠmaxMana": 8191,
      "ĠmaxHealth": 8192,
      "Ð¾Ð¼ÐµÑĤÑĢ": 8193,
      "ĠÐ±Ð¸Ð½Ð°ÑĢ": 8194,
      "ĠRuleOfFive": 8195,
      "ÐĶÐµÐ»ÐµÐ½Ð¸Ðµ": 8196,
      "ĠtotalValue": 8197,
      "ĠtotalWeight": 8198,
      "Ġseen": 8199,
      "epoch": 8200,
      "ÐľÐ½Ð¾Ð³Ð¾": 8201,
      "ĠprocessReference": 8202,
      "Ð¢Ð¾Ñĩ": 8203,
      "Ð¢ÐĲÐ¢": 8204,
      "ToConst": 8205,
      "ĠÐĴÐ°ÑĢÐ¸Ð°Ð½ÑĤ": 8206,
      "ĠbufferSize": 8207,
      "Ð°Ð¼ÐµÐ½": 8208,
      "START": 8209,
      "subspan": 8210,
      "ĠWeak": 8211,
      "minute": 8212,
      "Ġsubscribe": 8213,
      "prover": 8214,
      "ĠÐļÐ¾ÑĢÑĢÐµÐºÑĤ": 8215,
      "ĠÐĿÐ°Ð·Ð²Ð°Ð½Ð¸Ðµ": 8216,
      "ÐŁÑĢÑıÐ¼Ð¾ÑĥÐ³Ð¾Ð»ÑĮÐ½Ð¸Ðº": 8217,
      "ĠeventType": 8218,
      "Demo": 8219,
      "Ġattr": 8220,
      "ÐĹÐ°ÐºÐ°Ð·": 8221,
      "allocated": 8222,
      "ĠÐłÐ°Ñģ": 8223,
      "ĠcheckType": 8224,
      "Ġchecksum": 8225,
      "Ð»ÐµÐ½Ð½ÑĭÐ¹": 8226,
      "Ð¸Ð´Ð°": 8227,
      "shtein": 8228,
      "ÐµÐ¶ÑĥÑĤ": 8229,
      "ÐŀÐ±Ð½Ð¾Ð²": 8230,
      "Ġbefore": 8231,
      "Ġperf": 8232,
      "Orders": 8233,
      "ĠÑģÐ¸Ð¼Ð²Ð¾Ð»Ð°": 8234,
      "OfTwo": 8235,
      "OnWrite": 8236,
      "ĠmodPow": 8237,
      "aterial": 8238,
      "ÐµÑĩÐ°ÑĤ": 8239,
      "Withdraw": 8240,
      "ĠBookStatus": 8241,
      "ĠÐĴÑĭÐ¿Ð¾Ð»Ð½": 8242,
      "Ġdifferent": 8243,
      "ickSort": 8244,
      "Any": 8245,
      "Directory": 8246,
      "ĠcalculateSalary": 8247,
      "ACHE": 8248,
      "Ġinterpreter": 8249,
      "ĠÐ¼ÐµÑĤÐ¾Ð´Ð¾Ð¼": 8250,
      "ĠÐ¿Ð¾Ð»Ð¾Ð¶Ð¸ÑĤÐµÐ»ÑĮÐ½ÑĭÐ¼Ð¸": 8251,
      "ĠÐ¾Ð´Ð½Ð¾Ð³Ð¾": 8252,
      "ĠÑĪÑĤ": 8253,
      "ĠangleDeg": 8254,
      "ĠlongestCommon": 8255,
      "ĠÐ¿ÐµÑĢÐµÐ¼ÐµÐ½Ð½ÑĭÑħ": 8256,
      "Ġ{{\\\"": 8257,
      "SearchTree": 8258,
      "ĠÐŁÐµÑĢÐµÐ¼": 8259,
      "ĠÑĩÐ°ÑģÑĤÐ¾ÑĤ": 8260,
      "Pairs": 8261,
      "parts": 8262,
      "ÐŁÐµÑĢÐ²ÑĭÐµ": 8263,
      "ĠcanHandle": 8264,
      "ĠloadData": 8265,
      "nÐĶÐµÐ¼Ð¾Ð½ÑģÑĤÑĢÐ°ÑĨÐ¸Ñı": 8266,
      "ĠÐĵÐµÐ½ÐµÑĢ": 8267,
      "ĠGameCharacter": 8268,
      "4096": 8269,
      "ĠXML": 8270,
      "Ġepoch": 8271,
      "ĠÐ¿ÑĢÐ¾ÑģÑĤÑĭÑħ": 8272,
      "ĠcudaSuccess": 8273,
      "Positions": 8274,
      "ĠCONTRACT": 8275,
      "PENSE": 8276,
      "ĠÐłÐ°Ð·Ð¼ÐµÑĢ": 8277,
      "Ġremote": 8278,
      "ÐĺÐ½Ð´ÐµÐºÑģ": 8279,
      "ĠInterval": 8280,
      "ÐŀÐ±ÑīÐ¸Ð¹": 8281,
      "Ġdifferences": 8282,
      "OWN": 8283,
      "ĠÐ·Ð°Ð¿Ð¸ÑģÐ¸": 8284,
      "ĠÐ¿Ð¾Ð²ÑĤÐ¾ÑĢÑıÑİÑī": 8285,
      "ĠdirtyEntities": 8286,
      "CVV": 8287,
      "ĠskipWh": 8288,
      "Ġsignatures": 8289,
      "Ġ\\\"================================================": 8290,
      "ĠDoubleCheckedLocking": 8291,
      "ĠusageOrder": 8292,
      "Connections": 8293,
      "Ġneurons": 8294,
      "ÑĢÐ°ÐºÑĤ": 8295,
      "Ġcylindrical": 8296,
      "ĠÑģÑĢÐµÐ´ÑģÑĤÐ²": 8297,
      "ĠActorRef": 8298,
      "OTAL": 8299,
      "ÑĦÐ¾ÑĢÐ¼Ð°ÑĨÐ¸Ñı": 8300,
      "Ġvelocity": 8301,
      "adratic": 8302,
      "ĠStrategy": 8303,
      "ĠAudioSample": 8304,
      "Ġapproved": 8305,
      "PLAYERS": 8306,
      "Ġverify": 8307,
      "ĠÐļÐ¾Ð½ÐºÑĢÐµÑĤÐ½ÑĭÐµ": 8308,
      "ĠtopologicalSortUtil": 8309,
      "Ð¡ÑĢÐµÐ´Ð½Ð¸Ð¹": 8310,
      "ĠÐ²Ð¼ÐµÑģÑĤÐ¾": 8311,
      "Ð¼ÐµÐ½ÑĮÑĪ": 8312,
      "ConstantNode": 8313,
      "ĠÐĿÐ°ÑħÐ¾Ð´Ð¸Ð¼": 8314,
      "ĠÑĥÐ±ÑĭÐ²Ð°Ð½Ð¸Ñİ": 8315,
      "expenses": 8316,
      "ĠPurchaseRequest": 8317,
      "HOST": 8318,
      "unroof": 8319,
      "ristmas": 8320,
      "ĠÐºÐ¾ÑĢÑĤÐµÐ¶": 8321,
      "ĠangleDegrees": 8322,
      "ĠskipWhitespace": 8323,
      ")*": 8324,
      ")++;\\": 8325,
      ".*": 8326,
      "987": 8327,
      ">*>(": 8328,
      "Denominator": 8329,
      "Emulator": 8330,
      "Game": 8331,
      "GRE": 8332,
      "HIGH": 8333,
      "ION": 8334,
      "Obj": 8335,
      "Public": 8336,
      "Polynomial": 8337,
      "Sorted": 8338,
      "Sending": 8339,
      "Session": 8340,
      "]{": 8341,
      "]\\\"": 8342,
      "call": 8343,
      "elem": 8344,
      "ging": 8345,
      "her": 8346,
      "nTotal": 8347,
      "palindrome": 8348,
      "shape": 8349,
      "stl": 8350,
      "inorder": 8351,
      "Ġ\\\"^\\\"": 8352,
      "Ġ\\\"--------------------------------": 8353,
      "cost": 8354,
      "uted": 8355,
      "erred": 8356,
      "()),\\": 8357,
      "attr": 8358,
      "Ġnn": 8359,
      "Ġdocument": 8360,
      "Ġcgroup": 8361,
      "undex": 8362,
      "Ġ+\\": 8363,
      "Ġconstants": 8364,
      "trl": 8365,
      "getBalance": 8366,
      "Ð¾Ð²Ð¾Ð¹": 8367,
      "isupper": 8368,
      "isinf": 8369,
      "page": 8370,
      "Ð²Ð°Ð»": 8371,
      "raft": 8372,
      "Ġcor": 8373,
      "ĠSign": 8374,
      "Ġlamp": 8375,
      "Ġhalf": 8376,
      "Ġ35": 8377,
      "ĠÐ²Ð½Ðµ": 8378,
      "ĠÐ½Ð¾ÑĢÐ¼": 8379,
      "Ġindices": 8380,
      "ĠPower": 8381,
      "Standard": 8382,
      "ĠDOUBLE": 8383,
      "addGrade": 8384,
      "backend": 8385,
      "ÐĴÐĲ": 8386,
      "Ð¸Ð¼Ð¾Ðµ": 8387,
      "ĠÐ¼Ð¾Ð´": 8388,
      "Ð¾ÑĤÐ²ÐµÑĤ": 8389,
      "ĠÐŁÑĢÐ°Ð²": 8390,
      "ufficient": 8391,
      "typeindex": 8392,
      "rong": 8393,
      "Ð¡Ð¾Ð·Ð´": 8394,
      "ÑīÐµ": 8395,
      "Ġprinter": 8396,
      "charPtr": 8397,
      "Ð°Ð½Ð¸Ð¸": 8398,
      "Ġtoupper": 8399,
      "ÐŀÑĨÐµÐ½ÐºÐ°": 8400,
      "ÐŀÑĢÐ¸Ð³": 8401,
      "Executing": 8402,
      "ĠsetState": 8403,
      "Ġsetfill": 8404,
      "ĠLCS": 8405,
      "Ð¸ÑĩÐ½ÑĭÐ¹": 8406,
      "Ġtexture": 8407,
      "ÐĺÐ¢": 8408,
      "ÑįÐ»ÐµÐ¼ÐµÐ½ÑĤ": 8409,
      "ÑįÐ´ÑĢÐ°": 8410,
      "creasing": 8411,
      "ĠCont": 8412,
      "ĠÐŀÑģÑĤ": 8413,
      "ĠfindS": 8414,
      "displayAll": 8415,
      "Compress": 8416,
      "ResourceHolder": 8417,
      "Ġdirector": 8418,
      "rying": 8419,
      "ÐŁÑĢÐ¾ÑģÑĤ": 8420,
      "comparable": 8421,
      "Debug": 8422,
      "Than": 8423,
      "ĠÐłÐµ": 8424,
      "ĠÐłÐµÐ·ÑĥÐ»ÑĮÑĤÐ°ÑĤ": 8425,
      "ĠsideA": 8426,
      "ĠÐ»ÑİÐ±": 8427,
      "ĠHandle": 8428,
      "ĠerrorCode": 8429,
      "Unexpected": 8430,
      "Ġ'\\\\\\\\": 8431,
      "ĠÑģÐ¾Ð·Ð´Ð°Ð½Ð¸Ñı": 8432,
      "Ġdisconnected": 8433,
      "Minimum": 8434,
      "ĠÐ¿Ð¾Ð´Ð¼Ð°ÑģÑģÐ¸Ð²": 8435,
      "Temporary": 8436,
      "ÑĥÑģÑĤÐ¾Ð¹": 8437,
      "ĠÑģÐºÐ»Ð°Ð´": 8438,
      "Ð¾ÑıÐ½Ð¸Ð¹": 8439,
      "8080": 8440,
      "expression": 8441,
      "ugh": 8442,
      "positive": 8443,
      "ThreadPool": 8444,
      "Ð°Ð±Ð»Ð¾Ðº": 8445,
      "ĠÐ¿ÐµÑĢÐ²Ð¾Ðµ": 8446,
      "Balanced": 8447,
      "ÑĢÐ°Ð·Ð¼ÐµÑĢ": 8448,
      "ĠÑĪÐ¸ÑĢ": 8449,
      "ÐĵÐ¾Ð´": 8450,
      "ĠÐ¸Ð·Ð¼ÐµÐ½ÐµÐ½": 8451,
      "Ð¾ÑģÐ»ÐµÐ´Ð½Ð¸Ð¹": 8452,
      "ĠÐ¿ÑĢÐµÐ´ÐµÐ»": 8453,
      "ĠÐ¿Ð¾ÑĤÐ¾ÐºÐ°": 8454,
      "ĠÐ¿Ð¾ÑĤÐ¾ÐºÐ¸": 8455,
      "Controller": 8456,
      "ĠÑĦÑĥÐ½ÐºÑĨÐ¸Ð¹": 8457,
      "ribute": 8458,
      "ĠÐ·Ð°Ð²ÐµÑĢÑĪÐ¸Ð»": 8459,
      "Divide": 8460,
      "Ġ^=": 8461,
      "Ð°ÑĢÑĤÐ°": 8462,
      "ĠÑĢÐµÐ·ÑĥÐ»ÑĮÑĤÐ°ÑĤÐ¾Ð²": 8463,
      "Ð¸ÑĦÑĢÐ¾Ð²Ð°Ð½Ð¸Ðµ": 8464,
      "CalculatorPlugin": 8465,
      "Ġsaved": 8466,
      "ĠownerName": 8467,
      "ĠSortStrategy": 8468,
      "Traits": 8469,
      "Ġconversion": 8470,
      "ĠÐ¾ÑĤÐºÑĢÑĭÑĤÑĮ": 8471,
      "ĠÑģÐ¾Ð±ÑĭÑĤÐ¸Ñı": 8472,
      "ĠÑĩÐ»ÐµÐ½Ð¾Ð²": 8473,
      "ÐŁÑĢÐ¾ÑĨ": 8474,
      "ĠDECLARE": 8475,
      "ĠÐ¾Ð¿ÐµÑĢÐ°ÑĤÐ¾ÑĢÐ°": 8476,
      "ĠÑģÐ»Ð¾Ð¶ÐµÐ½Ð¸Ñı": 8477,
      "Duplicate": 8478,
      "ĠÐļÐ¾Ð½ÑģÑĤÐ°Ð½ÑĤÐ½Ð°Ñı": 8479,
      "Ġ'{')": 8480,
      "ĠÐ¿ÑĢÐµÐ¾Ð±ÑĢÐ°Ð·Ð¾Ð²Ð°Ð½Ð¸Ñı": 8481,
      "ĠÐ¿ÑĥÑĤÑĮ": 8482,
      "normalize": 8483,
      "integer": 8484,
      "ĠÑĩÑĤÐ¾Ð±Ñĭ": 8485,
      "ĠÐ¿ÑĢÐ¸ÑģÐ²Ð°Ð¸Ð²Ð°Ð½Ð¸Ðµ": 8486,
      "ĠÐ¿ÑĢÐ¸ÑģÐ²Ð°Ð¸Ð²Ð°Ð½Ð¸Ñı": 8487,
      "Identifier": 8488,
      "ĠÑģÑĤÐµÐ¿ÐµÐ½Ð¸": 8489,
      "Smallest": 8490,
      "ĠDiscount": 8491,
      "Ð¡Ð¾Ð¾Ð±ÑīÐµÐ½Ð¸Ðµ": 8492,
      "Ð¡Ð¿Ð¸ÑģÐ¾Ðº": 8493,
      "Ġtransposed": 8494,
      "ostgreSQLDatabase": 8495,
      "cedence": 8496,
      "ĠÐĲÐ²ÑĤÐ¾Ð¼Ð°ÑĤ": 8497,
      "ÐľÐ°ÑĢÐ¸Ñı": 8498,
      "ĠÐ¾ÑĤÐ´ÐµÐ»ÑĮ": 8499,
      "ĠÐ°Ð±ÑģÐ¾Ð»ÑİÑĤ": 8500,
      "ĠSignal": 8501,
      "18": 8502,
      "66": 8503,
      "75": 8504,
      "ASTNode": 8505,
      "Back": 8506,
      "Dot": 8507,
      "DVD": 8508,
      "EST": 8509,
      "Flying": 8510,
      "GPA": 8511,
      "HuffmanNode": 8512,
      "Sunroof": 8513,
      "Trig": 8514,
      "Upper": 8515,
      "Vacation": 8516,
      "VECTOR": 8517,
      "bed": 8518,
      "cip": 8519,
      "hi": 8520,
      "mday": 8521,
      "nc": 8522,
      "rame": 8523,
      "srand": 8524,
      "spherical": 8525,
      "ucl": 8526,
      "vd": 8527,
      "watch": 8528,
      "xml": 8529,
      "zA": 8530,
      "inQuotes": 8531,
      "Ġ\\\"â": 8532,
      "Ġ\\\");\\": 8533,
      "Ġ\\\"!\\\"": 8534,
      "Ġ\\\"âķ": 8535,
      "coding": 8536,
      "Ġstk": 8537,
      "Ð°ÑĢÐ°Ðº": 8538,
      "Ð½Ð¸Ðµ": 8539,
      "leg": 8540,
      "amma": 8541,
      "Ġmx": 8542,
      "Ġfraction": 8543,
      "Ġfinished": 8544,
      "Ġtmp": 8545,
      "Ð»Ð³Ð¾ÑĢÐ¸ÑĤÐ¼": 8546,
      "Ġpe": 8547,
      "Ġpthread": 8548,
      "Ġpublisher": 8549,
      "idual": 8550,
      "Ġborder": 8551,
      "Ġbridges": 8552,
      "angular": 8553,
      "Ġsb": 8554,
      "Ġspeak": 8555,
      "Ġol": 8556,
      "Ġmass": 8557,
      "ÑĥÐµÑĤÑģÑı": 8558,
      "rocal": 8559,
      "Ġeat": 8560,
      "entic": 8561,
      "ÑģÑĤÑģÑı": 8562,
      "ĠvoidPtr": 8563,
      "ĠÐ¿Ð»Ð¾ÑīÐ°Ð´ÑĮ": 8564,
      "ĠÑģÐ¾Ðº": 8565,
      "ĠCipher": 8566,
      "ĠSU": 8567,
      "Ġlcm": 8568,
      "ĠTOTAL": 8569,
      "Ġdead": 8570,
      "iler": 8571,
      "Rep": 8572,
      "Real": 8573,
      "Received": 8574,
      "Ġhandling": 8575,
      "oolType": 8576,
      "ĠÐ²ÐºÐ»ÑİÑĩ": 8577,
      "ĠÐ´Ð½Ñı": 8578,
      "Ġelapsed": 8579,
      "Ġ'<": 8580,
      "ĠPAGE": 8581,
      "etter": 8582,
      "ared": 8583,
      "ĠyVal": 8584,
      "Ð½Ð°ÑĢÑĥÐ¶": 8585,
      "][\\\"": 8586,
      "ĠMODE": 8587,
      "ople": 8588,
      "ÑĨÐ¸ÐµÐ¹": 8589,
      "addition": 8590,
      "ĠnewChar": 8591,
      "ĠnewEntities": 8592,
      "ÐĴÐ¾Ð¹": 8593,
      "ĠisNegative": 8594,
      "ĠÐ¼Ð½Ð¾Ð¶ÐµÑģÑĤÐ²": 8595,
      "ĠÐŁÐłÐŀ": 8596,
      "ĠÐŁÐ¾Ð»ÑĮÐ·Ð¾Ð²Ð°ÑĤÐµÐ»ÑĮ": 8597,
      "Ġadvice": 8598,
      "else": 8599,
      "Ð¡Ð¾Ð´ÐµÑĢÐ¶": 8600,
      "ĠprintTree": 8601,
      "ĠprintTypeInfo": 8602,
      "charValue": 8603,
      "ÐŀÐº": 8604,
      "ĠÑĥÐ´Ð°": 8605,
      "ĠÐ¿ÑĢÐµÐ²": 8606,
      "Ġident": 8607,
      "Ġadditional": 8608,
      "ĠNested": 8609,
      "ÐłÐ°Ð´": 8610,
      "ĠminInsertions": 8611,
      "toggle": 8612,
      "ĠReal": 8613,
      "ĠReverse": 8614,
      "Ġcomparison": 8615,
      "ĠBaseException": 8616,
      "Ð¢Ð¾Ð²Ð°ÑĢ": 8617,
      "ĠÐ¾Ð±ÑĭÑĩ": 8618,
      "Ġenqueue": 8619,
      "iprocal": 8620,
      "press": 8621,
      "ĠComplexTrig": 8622,
      "Ġ{\\\"\\\",": 8623,
      "1001": 8624,
      "ÐµÐ²Ð¾Ð´": 8625,
      "ĠÐ¸Ð·Ð±": 8626,
      "linear": 8627,
      "Ð°Ð»ÑĮÐ½Ð°Ñı": 8628,
      "Ð¾ÑĩÐ¸ÑģÐ»": 8629,
      "LEVEL": 8630,
      "ÐķÐĽ": 8631,
      "ĠÐ¿Ð¾Ð»Ð¸Ð½Ð¾Ð¼": 8632,
      "Encode": 8633,
      "Encryption": 8634,
      "outer": 8635,
      "Events": 8636,
      "ĠbaseSpeed": 8637,
      "ÐĹÐ°ÑĪ": 8638,
      "ĠÐłÐµÐ³Ð¸ÑģÑĤÑĢ": 8639,
      "gistrar": 8640,
      "Ð»ÐµÐ½Ð¾": 8641,
      "currency": 8642,
      "eventData": 8643,
      "Ġlearning": 8644,
      "ĠÐľÐ¾Ð¶Ð½Ð¾": 8645,
      "ĠstudentId": 8646,
      "venshtein": 8647,
      "LOY": 8648,
      "ĠÐ¸Ð½Ð²": 8649,
      "ĠDataProcessor": 8650,
      "scribers": 8651,
      "Ġdisc": 8652,
      "Keys": 8653,
      "ĠShapeRegistry": 8654,
      "Ġmetric": 8655,
      "uthentic": 8656,
      "MPLOY": 8657,
      "Ð¸ÑĩÐµÑģÐºÐ¸Ð¼": 8658,
      "ideo": 8659,
      "idean": 8660,
      "Checkpoint": 8661,
      "Ġmapping": 8662,
      "DELET": 8663,
      "ĠÐĹÐ°Ðº": 8664,
      "ĠÐĹÐ°Ð³": 8665,
      "Diagonal": 8666,
      "abcabc": 8667,
      "ĠEventSystem": 8668,
      "Intern": 8669,
      "ĠfuncName": 8670,
      "Ġsquared": 8671,
      "ÐĴÑĭÑĢÐ°Ð²Ð½Ð¸Ð²Ð°Ð½Ð¸Ðµ": 8672,
      "directed": 8673,
      "ÑĢÐ°Ð·ÐµÑĨ": 8674,
      "SELECT": 8675,
      "ĠoldChar": 8676,
      "ĠÐ¾Ð±ÑĬÐµÐºÑĤÐ°": 8677,
      "ĠabsB": 8678,
      "ĠmyList": 8679,
      "Memento": 8680,
      "PriorityHandler": 8681,
      "permission": 8682,
      "cacheList": 8683,
      "ĠmergeSort": 8684,
      "ĠDatabaseRecord": 8685,
      "ĠinorderHelper": 8686,
      "ĠÐ¿Ð°Ð»Ð¸Ð½Ð´ÑĢÐ¾Ð¼Ð¾Ð¼": 8687,
      "ĠÐ²ÑĤÐ¾ÑĢÐ¾Ðµ": 8688,
      "ĠServer": 8689,
      "ĠzeroCount": 8690,
      "ForPalindrome": 8691,
      "Ð´Ð²Ð¾": 8692,
      "ĠÐ£Ð´Ð°Ð»ÐµÐ½Ð¸Ðµ": 8693,
      "ĠThreadSafeLogger": 8694,
      "Workers": 8695,
      "},{'": 8696,
      "ĠresourcesBy": 8697,
      "ĠevenCount": 8698,
      "mplementor": 8699,
      "ĠdiscountRate": 8700,
      "EXPENSE": 8701,
      "Accessor": 8702,
      "ĠLoggable": 8703,
      "ĠÐ·Ð°ÐºÐ°Ð·Ð°": 8704,
      "Ð½ÐµÑĢÐ³": 8705,
      "ĠSTATE": 8706,
      "ĠLibraryItem": 8707,
      "ĠÑģÐµÑĢÐ²Ð¸Ñģ": 8708,
      "Ġcreators": 8709,
      "Ð²Ð¾Ð±Ð¾Ð´": 8710,
      "ĠÐ½ÑĥÐ»ÐµÐ²Ð¾Ð¹": 8711,
      "Ġ\\\"{\\\\\\\"": 8712,
      "ENDING": 8713,
      "ĠÐ¸Ð½ÑĤÐµÐ³ÑĢÐ°Ð»": 8714,
      "Ġ'\\\\\\\"'": 8715,
      "ĠÐ¿ÑĢÐµÐ¾Ð±ÑĢÐ°Ð·Ð¾Ð²Ð°Ð½Ð¸Ðµ": 8716,
      "ĠgoodSuffix": 8717,
      "ircuitBreak": 8718,
      "ĠSuffixTreeNode": 8719,
      "ĠÐ·Ð°Ð²Ð¸ÑģÐ¸Ð¼Ð¾ÑģÑĤ": 8720,
      "ĠÑĢÐµÐ±ÑĢÐ°": 8721,
      "ĠÐ·Ð°ÑħÐ²Ð°ÑĤÐ¸Ð»": 8722,
      "WRITE": 8723,
      "Repeated": 8724,
      "Ð¾Ð½ÐµÐ½ÑĤÑĭ": 8725,
      "ĠÐ¸Ð½Ð¸ÑĨÐ¸Ð°Ð»Ð¸Ð·": 8726,
      "ĠAlignedBase": 8727,
      "Ġdependencies": 8728,
      "ĠÑģÐºÐ¾ÑĢÐ¾ÑģÑĤÑĮ": 8729,
      "ĠcaesarCipher": 8730,
      "ĠÐºÑĢÑĥÐ³Ð°": 8731,
      "ĠÑĢÐ°Ð´Ð¸Ð°Ð½Ð°Ñħ": 8732,
      "ĠÐĴÑĭÐ·Ð¾Ð²ÐµÑĤ": 8733,
      "ĠÐĴÐ¾Ð·Ð²ÑĢÐ°ÑīÐ°ÐµÐ¼": 8734,
      "Factories": 8735,
      "ĠÐ¡Ð¾ÑħÑĢÐ°Ð½": 8736,
      "IGNMENT": 8737,
      "victionStrategy": 8738,
      "ĠÐ½Ð°Ð±Ð»ÑİÐ´Ð°ÑĤÐµÐ»": 8739,
      "fragment": 8740,
      "ĠPasswordManager": 8741,
      "Ð¢ÑĢÐµÑĥÐ³Ð¾Ð»ÑĮÐ½Ð¸Ðº": 8742,
      "ĠÐ¿ÑĢÐ¾Ð¼ÐµÐ¶ÑĥÑĤ": 8743,
      "FAULT": 8744,
      "Ġ'(')": 8745,
      "quantifier": 8746,
      "ĠWeakPtr": 8747,
      "uclidean": 8748,
      "Ð°ÑĢÐ°ÐºÑĤÐµÑĢ": 8749,
      "ÐĴÐ¾Ð¹Ð½Ð°": 8750,
      "ĠÑĥÐ´Ð°ÑģÑĤÑģÑı": 8751,
      "ĠReverseCompare": 8752,
      "DELETE": 8753,
      "ircuitBreaker": 8754,
      "'}\\": 8755,
      "300": 8756,
      "56": 8757,
      "BN": 8758,
      "BST": 8759,
      "Host": 8760,
      "Iter": 8761,
      "MenuItem": 8762,
      "NECT": 8763,
      "NEW": 8764,
      "Run": 8765,
      "TABLE": 8766,
      "WARNING": 8767,
      "]+": 8768,
      "cv": 8769,
      "dst": 8770,
      "eat": 8771,
      "latch": 8772,
      "merge": 8773,
      "nG": 8774,
      "nÐ¢ÐµÑģÑĤ": 8775,
      "sump": 8776,
      "tcp": 8777,
      "Ġ\\\"$\\\"": 8778,
      "Ġ\\\"][\\\"": 8779,
      "course": 8780,
      "Ð½Ð¸": 8781,
      "Ġistringstream": 8782,
      "Ġresize": 8783,
      "ÑĤÑĥ": 8784,
      "ÑĢÐ¾Ñĩ": 8785,
      "Ġ(...)": 8786,
      "season": 8787,
      "Ġmileage": 8788,
      "Ġvs": 8789,
      "Ġdenom": 8790,
      "simulate": 8791,
      "Ġcrc": 8792,
      "Ġsy": 8793,
      "Ġshare": 8794,
      "Ġscheduler": 8795,
      "riter": 8796,
      "ÐµÐ½Ð°Ð¿ÑĢÐ°Ð²": 8797,
      "loaded": 8798,
      "ÐºÐ°ÑĤ": 8799,
      "ÐºÐ¸Ð¹": 8800,
      "getCount": 8801,
      "getRadius": 8802,
      "getDescription": 8803,
      "lick": 8804,
      "isLeap": 8805,
      "pay": 8806,
      "ÐµÑĢÐ¸": 8807,
      "ileTime": 8808,
      "ĠÑģÑĢÐ°Ð²Ð½": 8809,
      "ĠCy": 8810,
      "Ġcoord": 8811,
      "ĠSm": 8812,
      "ĠSorter": 8813,
      "ĠSecret": 8814,
      "ĠTCP": 8815,
      "Ð¼ÐµÐ½ÑĤ": 8816,
      "Ġdemo": 8817,
      "Ġdebug": 8818,
      "Ġ},\\": 8819,
      "Ġhobbies": 8820,
      "Ð¾Ð»Ð¾Ð²": 8821,
      "ĠÐ²Ñģ": 8822,
      "ntype": 8823,
      "Ġrgb": 8824,
      "ÐµÐ´Ð¸Ð°Ð½Ð°": 8825,
      "ĠgetVersion": 8826,
      "ĠPixel": 8827,
      "abb": 8828,
      "Ġ!(": 8829,
      "ÑĪÐºÐ¾Ð¼": 8830,
      "ĠMin": 8831,
      "ĠMedi": 8832,
      "ÑģÐ»ÐµÐ´": 8833,
      "Ð°Ð»Ð¸": 8834,
      "Inorder": 8835,
      "Ð¸Ð¼ÐµÑĤÑĢ": 8836,
      "\\\").": 8837,
      "ĠÐŁÐŀ": 8838,
      "ĠÐŁÐ¾ÐºÐ°Ð·": 8839,
      "elvin": 8840,
      "Ġexecuting": 8841,
      "Ġtoo": 8842,
      "Extended": 8843,
      "Ð°ÑģÑĭ": 8844,
[...]
