{
  "version": "1.0",
  "truncation": null,
  "padding": null,
  "added_tokens": [
    {
      "id": 0,
      "content": "<PAD>",
      "single_word": false,
      "lstrip": false,
      "rstrip": false,
      "normalized": false,
      "special": true
    },
    {
      "id": 1,
      "content": "<UNK>",
      "single_word": false,
      "lstrip": false,
      "rstrip": false,
      "normalized": false,
      "special": true
    },
    {
      "id": 2,
      "content": "<BOS>",
      "single_word": false,
      "lstrip": false,
      "rstrip": false,
      "normalized": false,
      "special": true
    },
    {
      "id": 3,
      "content": "<EOS>",
      "single_word": false,
      "lstrip": false,
      "rstrip": false,
      "normalized": false,
      "special": true
    }
  ],
  "normalizer": null,
  "pre_tokenizer": {
    "type": "ByteLevel",
    "add_prefix_space": true,
    "trim_offsets": true,
    "use_regex": true
  },
  "post_processor": {
    "type": "ByteLevel",
    "add_prefix_space": true,
    "trim_offsets": true,
    "use_regex": true
  },
  "decoder": {
    "type": "ByteLevel",
    "add_prefix_space": true,
    "trim_offsets": true,
    "use_regex": true
  },
  "model": {
    "type": "BPE",
    "dropout": null,
    "unk_token": null,
    "continuing_subword_prefix": null,
    "end_of_word_suffix": null,
    "fuse_unk": false,
    "byte_fallback": false,
    "ignore_merges": false,
    "vocab": {
      "<PAD>": 0,
      "<UNK>": 1,
      "<BOS>": 2,
      "<EOS>": 3,
      "!": 4,
      "\"": 5,
      "#": 6,
      "$": 7,
      "%": 8,
      "&": 9,
      "'": 10,
      "(": 11,
      ")": 12,
      "*": 13,
      "+": 14,
      ",": 15,
      "-": 16,
      ".": 17,
      "/": 18,
      "0": 19,
      "1": 20,
      "2": 21,
      "3": 22,
      "4": 23,
      "5": 24,
      "6": 25,
      "7": 26,
      "8": 27,
      "9": 28,
      ":": 29,
      ";": 30,
      "<": 31,
      "=": 32,
      ">": 33,
      "?": 34,
      "@": 35,
      "A": 36,
      "B": 37,
      "C": 38,
      "D": 39,
      "E": 40,
      "F": 41,
      "G": 42,
      "H": 43,
      "I": 44,
      "J": 45,
      "K": 46,
      "L": 47,
      "M": 48,
      "N": 49,
      "O": 50,
      "P": 51,
      "Q": 52,
      "R": 53,
      "S": 54,
      "T": 55,
      "U": 56,
      "V": 57,
      "W": 58,
      "X": 59,
      "Y": 60,
      "Z": 61,
      "[": 62,
      "\\": 63,
      "]": 64,
      "^": 65,
      "_": 66,
      "`": 67,
      "a": 68,
      "b": 69,
      "c": 70,
      "d": 71,
      "e": 72,
      "f": 73,
      "g": 74,
      "h": 75,
      "i": 76,
      "j": 77,
      "k": 78,
      "l": 79,
      "m": 80,
      "n": 81,
      "o": 82,
      "p": 83,
      "q": 84,
      "r": 85,
      "s": 86,
      "t": 87,
      "u": 88,
      "v": 89,
      "w": 90,
      "x": 91,
      "y": 92,
      "z": 93,
      "{": 94,
      "|": 95,
      "}": 96,
      "~": 97,
      "¡": 98,
      "¢": 99,
      "£": 100,
      "¤": 101,
      "¥": 102,
      "¦": 103,
      "§": 104,
      "¨": 105,
      "©": 106,
      "«": 107,
      "¬": 108,
      "®": 109,
      "¯": 110,
      "°": 111,
      "±": 112,
      "²": 113,
      "³": 114,
      "´": 115,
      "µ": 116,
      "¶": 117,
      "·": 118,
      "¸": 119,
      "¹": 120,
      "º": 121,
      "»": 122,
      "¼": 123,
      "½": 124,
      "¾": 125,
      "¿": 126,
      "Â": 127,
      "Ã": 128,
      "Î": 129,
      "Ï": 130,
      "Ð": 131,
      "Ñ": 132,
      "×": 133,
      "Ø": 134,
      "Ù": 135,
      "â": 136,
      "ã": 137,
      "ä": 138,
      "å": 139,
      "ç": 140,
      "ï": 141,
      "ð": 142,
      "Ġ": 143,
      "Ģ": 144,
      "ģ": 145,
      "Ĥ": 146,
      "ĥ": 147,
      "Ħ": 148,
      "ħ": 149,
      "Ĩ": 150,
      "ĩ": 151,
      "Ī": 152,
      "ī": 153,
      "Ĭ": 154,
      "ĭ": 155,
      "Į": 156,
      "į": 157,
      "İ": 158,
      "ı": 159,
      "Ĳ": 160,
      "ĳ": 161,
      "Ĵ": 162,
      "ĵ": 163,
      "Ķ": 164,
      "ķ": 165,
      "ĸ": 166,
      "Ĺ": 167,
      "ĺ": 168,
      "Ļ": 169,
      "ļ": 170,
      "Ľ": 171,
      "ľ": 172,
      "Ŀ": 173,
      "ŀ": 174,
      "Ł": 175,
      "ł": 176,
      "Ń": 177,
      "ĠĠ": 178,
      "ĠĠĠĠ": 179,
      "ĠĠĠ": 180,
      ";\\": 181,
      "Ġ<": 182,
      "st": 183,
      "in": 184,
      "\\\"": 185,
      "Ġ<<": 186,
      "ĠĠĠĠĠĠĠ": 187,
      "Ġ\\\"": 188,
      "co": 189,
      "Ġst": 190,
      "re": 191,
      "::": 192,
      "Ġ{": 193,
      "en": 194,
      "Ġstd": 195,
      "Ðµ": 196,
      "Ġ=": 197,
      "Ġ{\\": 198,
      "ut": 199,
      "er": 200,
      "Ð¾": 201,
      "int": 202,
      "()": 203,
      "Ð°": 204,
      "or": 205,
      "ĠÐ": 206,
      "de": 207,
      "Ġ\\": 208,
      "}\\": 209,
      "at": 210,
      "cout": 211,
      "Ð¸": 212,
      "end": 213,
      "Ġ}\\": 214,
      "Ð½": 215,
      "Ġi": 216,
      "le": 217,
      "Ġre": 218,
      "endl": 219,
      "ÑĤ": 220,
      "al": 221,
      "ĠĠĠĠĠĠĠĠĠĠĠ": 222,
      "cl": 223,
      ");\\": 224,
      "ur": 225,
      "ÑĢ": 226,
      "Ñģ": 227,
      "Ð¾Ð": 228,
      "ing": 229,
      "am": 230,
      "on": 231,
      "Ġ(": 232,
      "con": 233,
      "Ġ0": 234,
      "ar": 235,
      ">\\": 236,
      "se": 237,
      "tur": 238,
      "turn": 239,
      "Ġreturn": 240,
      "ct": 241,
      "ude": 242,
      "Ġm": 243,
      "clude": 244,
      "include": 245,
      "Ġf": 246,
      "Ġn": 247,
      "Ġv": 248,
      "Ġcout": 249,
      "Ġt": 250,
      "Ġd": 251,
      "si": 252,
      "Ð»": 253,
      "ub": 254,
      "Ġp": 255,
      "const": 256,
      "ce": 257,
      "ring": 258,
      "Ġc": 259,
      "Ġint": 260,
      "Ġendl": 261,
      "un": 262,
      "ue": 263,
      "th": 264,
      "id": 265,
      "Ġa": 266,
      "ÐµÐ": 267,
      "Ġb": 268,
      "Ġif": 269,
      "an": 270,
      "ge": 271,
      "ame": 272,
      "ic": 273,
      "ze": 274,
      "Ġs": 275,
      "ect": 276,
      "Ġo": 277,
      "Ġ1": 278,
      "Ġma": 279,
      "ĠĠĠĠĠĠĠĠ": 280,
      "Ð°Ð": 281,
      "Ñĥ": 282,
      "Ñı": 283,
      "ro": 284,
      "string": 285,
      "ri": 286,
      "ss": 287,
      "Ñĭ": 288,
      "size": 289,
      "us": 290,
      "ion": 291,
      "ck": 292,
      "ream": 293,
      "Ġ/": 294,
      "ÐµÐ½": 295,
      "te": 296,
      "stream": 297,
      "mp": 298,
      "Ġ+": 299,
      "Ġ:": 300,
      "um": 301,
      "ate": 302,
      "Ġconst": 303,
      "uble": 304,
      "ouble": 305,
      "io": 306,
      "Ð¸Ð": 307,
      "};\\": 308,
      "tr": 309,
      "ul": 310,
      "();\\": 311,
      "it": 312,
      "nint": 313,
      "Ġe": 314,
      "==": 315,
      "oid": 316,
      "Ġfor": 317,
      "ent": 318,
      "Ġ#": 319,
      "ector": 320,
      "ad": 321,
      "Ġmain": 322,
      "iostream": 323,
      "\\\\": 324,
      "Ġ//": 325,
      "pe": 326,
      "lo": 327,
      "unt": 328,
      "ch": 329,
      "Ðº": 330,
      "Ñĩ": 331,
      "get": 332,
      "ÑģÑĤ": 333,
      "ÑĮ": 334,
      "ata": 335,
      "ol": 336,
      "alue": 337,
      "Ġvoid": 338,
      "ed": 339,
      "ĠĠĠĠĠĠĠĠĠĠĠĠĠĠĠ": 340,
      "lic": 341,
      "Ġ*": 342,
      "Ġ-": 343,
      "Ð¾Ð²": 344,
      "Ġdouble": 345,
      "is": 346,
      "Ġname": 347,
      "pa": 348,
      "ublic": 349,
      "ÐµÑĢ": 350,
      ":\\": 351,
      "Ð²": 352,
      "ĠÐ¿": 353,
      "ex": 354,
      "np": 355,
      "ult": 356,
      "ir": 357,
      "Ġ2": 358,
      "ass": 359,
      "ype": 360,
      "->": 361,
      "Ġ>": 362,
      "++": 363,
      "Ġ==": 364,
      "me": 365,
      "std": 366,
      "ile": 367,
      "ra": 368,
      "Ġw": 369,
      "ver": 370,
      "vector": 371,
      "ig": 372,
      "ĠÑģ": 373,
      "(\\\"": 374,
      "class": 375,
      "ĠC": 376,
      "ator": 377,
      "Ġco": 378,
      "ĠS": 379,
      "ot": 380,
      "Ġl": 381,
      "nclass": 382,
      "Ġ\\\"\\\\": 383,
      "ĠT": 384,
      "Ġstring": 385,
      "uto": 386,
      "ma": 387,
      "ase": 388,
      "Ð¼": 389,
      "Ġsize": 390,
      "using": 391,
      "npublic": 392,
      "00": 393,
      "ÐµÐ¼": 394,
      "sult": 395,
      "Ġde": 396,
      "ther": 397,
      "Ġ\\\";\\": 398,
      "ve": 399,
      "il": 400,
      "Ġ}": 401,
      "ode": 402,
      "\\\";\\": 403,
      "pace": 404,
      "Re": 405,
      "Ġh": 406,
      "ool": 407,
      "Ð°Ð½": 408,
      "space": 409,
      "ptr": 410,
      "nusing": 411,
      "Ġ3": 412,
      "Ð¾Ð»": 413,
      "Ġnamespace": 414,
      "ack": 415,
      "ĠÐ²": 416,
      "ÑĨ": 417,
      "Ð´": 418,
      "set": 419,
      "arr": 420,
      "ÐµÐ½Ð¸": 421,
      "per": 422,
      "Ġx": 423,
      "as": 424,
      "\\\",": 425,
      "ĠÐ½": 426,
      "Ð½Ñĭ": 427,
      "str": 428,
      "ĠÐ´": 429,
      "Ġ&": 430,
      "nt": 431,
      "Ġauto": 432,
      "ht": 433,
      "que": 434,
      "),": 435,
      "Ð°ÑĤ": 436,
      "++)": 437,
      "rint": 438,
      "ke": 439,
      "ation": 440,
      "ff": 441,
      "Ġdata": 442,
      "Ġch": 443,
      "\\\");\\": 444,
      "Ð¾ÑĢ": 445,
      "Ġnum": 446,
      "Ġresult": 447,
      "ÐµÑĤ": 448,
      "Ġin": 449,
      "emp": 450,
      "ew": 451,
      "ime": 452,
      "Co": 453,
      "ay": 454,
      "Ġother": 455,
      "Ġel": 456,
      "ser": 457,
      "ÐµÐ»": 458,
      "Ġelse": 459,
      "Ġ'": 460,
      "Ġr": 461,
      "ist": 462,
      "ÐµÐ´": 463,
      "Ð¸ÑĤ": 464,
      "];\\": 465,
      "Ġget": 466,
      "ĠP": 467,
      "et": 468,
      "uct": 469,
      "ty": 470,
      "are": 471,
      "pt": 472,
      "Ġ5": 473,
      "ab": 474,
      "ind": 475,
      "St": 476,
      "Ġy": 477,
      "ĠD": 478,
      ">(": 479,
      "Ġvalue": 480,
      "Ð¿": 481,
      "ĠB": 482,
      "Ġ!": 483,
      "Ġj": 484,
      "Ð¾Ð´": 485,
      "gin": 486,
      "Ġstr": 487,
      "())": 488,
      "Ð½Ð°": 489,
      "Ġg": 490,
      "Ġarr": 491,
      "][": 492,
      "ÑĢÐ°Ð": 493,
      "ĠÐº": 494,
      "Ñħ": 495,
      "double": 496,
      "Ġ4": 497,
      "and": 498,
      "cond": 499,
      "ÑĪ": 500,
      "ft": 501,
      "read": 502,
      "ber": 503,
      "art": 504,
      "ĠM": 505,
      "count": 506,
      "Ġbool": 507,
      "ow": 508,
      "ÑģÐ»": 509,
      "ename": 510,
      "op": 511,
      "ÑĨÐ¸": 512,
      "Ð°Ð»": 513,
      "age": 514,
      "eng": 515,
      "ush": 516,
      "add": 517,
      "ÐŁ": 518,
      "ction": 519,
      "ext": 520,
      "Ġtr": 521,
      "ĠÐ¸": 522,
      "ength": 523,
      "Ð½Ð¾": 524,
      ":\\\"": 525,
      "));\\": 526,
      "back": 527,
      "uni": 528,
      "In": 529,
      "Ġnew": 530,
      "Ġ!=": 531,
      "(),": 532,
      "rent": 533,
      "Ġ>>": 534,
      "ÐĴ": 535,
      "ÐºÐ°": 536,
      "push": 537,
      "Ð¸Ð¼": 538,
      "om": 539,
      "..": 540,
      "our": 541,
      "atic": 542,
      "tu": 543,
      "Ġ{}\\": 544,
      "Ð¹": 545,
      "lock": 546,
      "ity": 547,
      "ĠA": 548,
      "iv": 549,
      "Ġth": 550,
      "Ġover": 551,
      "Ð·": 552,
      "Ġcon": 553,
      "ÐµÐ½Ð¸Ðµ": 554,
      "--": 555,
      "ord": 556,
      "ory": 557,
      "Node": 558,
      "Ġoper": 559,
      "ter": 560,
      "value": 561,
      "ith": 562,
      "Ġvector": 563,
      "\\\")": 564,
      "val": 565,
      "row": 566,
      "Ġis": 567,
      "second": 568,
      "ĠÐ¼": 569,
      "sit": 570,
      "ance": 571,
      "Ġchar": 572,
      "ĠĠĠĠĠĠĠĠĠĠĠĠĠĠĠĠ": 573,
      "Ð¾ÑĤ": 574,
      "ast": 575,
      "Ð¾Ð±": 576,
      "Ð»Ñı": 577,
      "pl": 578,
      "qu": 579,
      "ĠÐŁ": 580,
      "ride": 581,
      "Ġoverride": 582,
      "ÑĢÐ¾Ð²": 583,
      "alse": 584,
      "Ġ&&": 585,
      "[]": 586,
      "unique": 587,
      "num": 588,
      "mo": 589,
      "urrent": 590,
      "Ġstatic": 591,
      "dex": 592,
      "ÑĦ": 593,
      "err": 594,
      "ec": 595,
      "ock": 596,
      "))": 597,
      "====": 598,
      "lete": 599,
      "Ð¾Ðº": 600,
      "uff": 601,
      "able": 602,
      "Ġoperator": 603,
      "type": 604,
      "ag": 605,
      "cess": 606,
      "ĠÑĩ": 607,
      "of": 608,
      "ight": 609,
      "Ġ|": 610,
      "void": 611,
      "ap": 612,
      "ment": 613,
      "irtu": 614,
      "irtual": 615,
      "ÐµÐº": 616,
      "Ñİ": 617,
      "es": 618,
      "Ġpro": 619,
      "data": 620,
      "left": 621,
      "sion": 622,
      "ial": 623,
      "res": 624,
      "Type": 625,
      "ask": 626,
      "be": 627,
      "oint": 628,
      "Ġ?": 629,
      "rea": 630,
      "Ġad": 631,
      "Ġ+=": 632,
      "Value": 633,
      "ource": 634,
      "Ġfalse": 635,
      "ph": 636,
      "key": 637,
      "Ġ10": 638,
      "el": 639,
      "rig": 640,
      "ron": 641,
      ">>": 642,
      "Ġmax": 643,
      "name": 644,
      "Ġvirtual": 645,
      "est": 646,
      "Ð¡": 647,
      "ort": 648,
      "Ñī": 649,
      "IN": 650,
      "cept": 651,
      "Ġ<=": 652,
      "Ġcount": 653,
      "right": 654,
      "ĠÐ·": 655,
      "Ġex": 656,
      "Count": 657,
      "ine": 658,
      "Ġprint": 659,
      "char": 660,
      "vent": 661,
      "ath": 662,
      "ull": 663,
      "pename": 664,
      "length": 665,
      "print": 666,
      "Ð°Ð½Ð¸": 667,
      "Ð½ÑĭÐ¹": 668,
      "ong": 669,
      "Ð¾Ð¼": 670,
      "otal": 671,
      "ĠÑĤ": 672,
      "Ġto": 673,
      "Ġ\\\",": 674,
      "Ð¾Ð½": 675,
      "ĠÐ±": 676,
      "Con": 677,
      "begin": 678,
      "Ðŀ": 679,
      "ize": 680,
      "ice": 681,
      "act": 682,
      "ĠF": 683,
      "Ġwh": 684,
      "();": 685,
      "os": 686,
      "Ex": 687,
      "Ġpublic": 688,
      "ĠÑĥ": 689,
      "ĠĠĠĠĠĠĠĠĠĠĠĠĠĠĠĠĠĠĠ": 690,
      "late": 691,
      "Ġ||": 692,
      "uffer": 693,
      "em": 694,
      "im": 695,
      "fd": 696,
      "ÐµÐ»ÑĮ": 697,
      "===": 698,
      "ived": 699,
      "ach": 700,
      "ÐµÐ½ÑĤ": 701,
      "Ġdelete": 702,
      "ray": 703,
      "Ġwhile": 704,
      "Ġ===": 705,
      "Ð°Ñģ": 706,
      "ted": 707,
      "ary": 708,
      "Ð±": 709,
      "Ð¾Ð»ÑĮ": 710,
      "++;\\": 711,
      "eight": 712,
      "Ġfile": 713,
      "Ġtrue": 714,
      "red": 715,
      "loc": 716,
      "hare": 717,
      "Ð¸Ð½": 718,
      "10": 719,
      "cast": 720,
      "ÐĿ": 721,
      "Ġ===\\\"": 722,
      "if": 723,
      "ĠV": 724,
      "ĠÐ¿ÑĢ": 725,
      "Ġset": 726,
      "ok": 727,
      "root": 728,
      "Ð°Ð·": 729,
      "error": 730,
      "cle": 731,
      "Ð¸Ð²": 732,
      "Ġptr": 733,
      "ĠÐ½Ð°": 734,
      "pr": 735,
      "Ð²ÐµÐ´": 736,
      "ullptr": 737,
      "hared": 738,
      "ain": 739,
      "mple": 740,
      "ĠR": 741,
      "ÑģÑĤÑĢ": 742,
      "ÐµÑģ": 743,
      "atri": 744,
      "Ġid": 745,
      "erived": 746,
      "atrix": 747,
      "ÐµÐ½Ð¸Ñı": 748,
      "ĠL": 749,
      "ard": 750,
      "temp": 751,
      ");": 752,
      "Ð°Ð¹": 753,
      "ers": 754,
      "Ġcurrent": 755,
      "source": 756,
      "Ġtemp": 757,
      "Ġtype": 758,
      "ree": 759,
      "Ġsizeof": 760,
      "this": 761,
      "Name": 762,
      "Ð¸ÑĤÐµ": 763,
      "nvoid": 764,
      "Ġadd": 765,
      "ĠCo": 766,
      "Ð¾Ð¿": 767,
      "up": 768,
      "ĠÐ´Ð»Ñı": 769,
      "bj": 770,
      "ient": 771,
      "rono": 772,
      "typename": 773,
      "Ð¾Ð·": 774,
      "Ġlong": 775,
      "ÐµÑģÑĤ": 776,
      "ĠN": 777,
      "Ð¸Ñĩ": 778,
      "ÐĴÐ²ÐµÐ´": 779,
      "move": 780,
      "empty": 781,
      "Ð¸ÑģÐ»": 782,
      "Ġ6": 783,
      "Ð¾Ð¹": 784,
      "Ġtext": 785,
      "Ð¾Ð³": 786,
      "ÐĴÐ²ÐµÐ´Ð¸ÑĤÐµ": 787,
      "Ġ>=": 788,
      "play": 789,
      "].": 790,
      "irst": 791,
      "ÐĶ": 792,
      "addr": 793,
      "Ġ%": 794,
      "map": 795,
      "());\\": 796,
      "Ðł": 797,
      "ÑĨÐ¸Ñı": 798,
      "utex": 799,
      "Ð¸Ñģ": 800,
      "//": 801,
      "server": 802,
      "Ð¾Ð¶": 803,
      "ache": 804,
      "ÐµÐ·": 805,
      "thread": 806,
      "sig": 807,
      "isplay": 808,
      "])": 809,
      "struct": 810,
      "Data": 811,
      "isit": 812,
      "Ġcl": 813,
      "Ġ100": 814,
      "Ð¸Ð¹": 815,
      "Ð¸Ðº": 816,
      "xt": 817,
      ".\\\"": 818,
      "Ðĺ": 819,
      "},": 820,
      "ear": 821,
      "Ð°Ðº": 822,
      ")\\": 823,
      "Ñį": 824,
      "Ġmin": 825,
      "reak": 826,
      "andl": 827,
      "bers": 828,
      "gle": 829,
      "ess": 830,
      "Ptr": 831,
      "to": 832,
      "ac": 833,
      "Ð¾ÑģÑĤ": 834,
      "tain": 835,
      ")\\\"": 836,
      "fo": 837,
      "ĠE": 838,
      "Ġ~": 839,
      "ĠÐ¡": 840,
      "ithm": 841,
      "gor": 842,
      "raph": 843,
      "gorithm": 844,
      "ape": 845,
      "chrono": 846,
      "atch": 847,
      "Ġ++": 848,
      "dent": 849,
      "Ġthrow": 850,
      "duct": 851,
      "log": 852,
      "Al": 853,
      "ger": 854,
      "Ġbreak": 855,
      "Num": 856,
      "Ð¸ÑĢÐ¾Ð²": 857,
      "og": 858,
      "its": 859,
      "other": 860,
      "Ar": 861,
      "Ġk": 862,
      "Ġ(!": 863,
      "Ġstart": 864,
      "Ð°Ð²": 865,
      "Ġvec": 866,
      "for": 867,
      "ĠÑĢÐ°Ð": 868,
      "algorithm": 869,
      "ans": 870,
      "Ġtest": 871,
      "template": 872,
      "cre": 873,
      "hape": 874,
      "od": 875,
      "Ġac": 876,
      "ÑĢÑĥ": 877,
      "sign": 878,
      "Ð¾ÑģÐ»": 879,
      "Ġit": 880,
      "find": 881,
      "ive": 882,
      "nect": 883,
      "ircle": 884,
      "Ġsum": 885,
      "eck": 886,
      "ĠRe": 887,
      "Ð³": 888,
      "ĠĠĠĠĠĠĠĠĠĠĠĠ": 889,
      ">&": 890,
      "Ð°ÑĢ": 891,
      "ook": 892,
      "adi": 893,
      "Pro": 894,
      "ĠCon": 895,
      "tem": 896,
      "Ġtotal": 897,
      "ix": 898,
      "ren": 899,
      "Ġse": 900,
      "ep": 901,
      "Ġcase": 902,
      "ork": 903,
      "essage": 904,
      "ute": 905,
      "File": 906,
      "tainer": 907,
      "time": 908,
      "):": 909,
      "Ġval": 910,
      "und": 911,
      "ose": 912,
      "Ð¶": 913,
      "fa": 914,
      "andler": 915,
      "seconds": 916,
      "ĠÐ½Ðµ": 917,
      "ant": 918,
      "ÑĤÐ¾ÑĢ": 919,
      "Ġ\\\\\\": 920,
      "ntemplate": 921,
      "Id": 922,
      "Ġcomp": 923,
      "mplex": 924,
      "Ġnullptr": 925,
      "Ġkey": 926,
      "ount": 927,
      "yn": 928,
      "amount": 929,
      "Ch": 930,
      "make": 931,
      "put": 932,
      "unction": 933,
      "Ġu": 934,
      "bool": 935,
      "Ð½Ð°Ñı": 936,
      "riv": 937,
      "adius": 938,
      "ĠBase": 939,
      "Ðľ": 940,
      "rom": 941,
      "========": 942,
      "Ðļ": 943,
      "Ġright": 944,
      "nstruct": 945,
      "one": 946,
      "Ġ};\\": 947,
      "fe": 948,
      "Ġleft": 949,
      "Ð½Ð¾Ðµ": 950,
      "vice": 951,
      "arg": 952,
      "file": 953,
      "Ġprocess": 954,
      "',": 955,
      "ure": 956,
      "Ð°ÑģÑģ": 957,
      "shared": 958,
      "expr": 959,
      "ild": 960,
      "ilename": 961,
      "Ð°Ð½Ð¸Ðµ": 962,
      "rivate": 963,
      "atter": 964,
      "angle": 965,
      "Ð»ÐµÐ¼": 966,
      "Ġ8": 967,
      "State": 968,
      "Ġal": 969,
      "mutex": 970,
      "ĠI": 971,
      "ĠÑį": 972,
      "Ð¢": 973,
      "cin": 974,
      "Ð¾ÑģÐ»Ðµ": 975,
      "Ð»ÐµÐ¼ÐµÐ½ÑĤ": 976,
      "auto": 977,
      "ĠÑĢ": 978,
      "ÐºÐ¸": 979,
      "sed": 980,
      "son": 981,
      "ĠÐ¾Ð±": 982,
      "To": 983,
      "ĠÐ¿ÐµÑĢ": 984,
      "text": 985,
      "ĠÐ²Ñĭ": 986,
      "Ð½Ð°Ñĩ": 987,
      "ĠÐĴ": 988,
      "Ð½ÑĭÐµ": 989,
      "lement": 990,
      "ĠSt": 991,
      "Ġlock": 992,
      "alc": 993,
      "ib": 994,
      "Ġtask": 995,
      "Ġroot": 996,
      "Ġ7": 997,
      "ĠNode": 998,
      "index": 999,
      "atus": 1000,
      "Ð¾Ð³Ð¾": 1001,
      "sg": 1002,
      "ĠÐĶ": 1003,
      "mag": 1004,
      "Ġbuffer": 1005,
      "Ġnode": 1006,
      "ÑĭÑĤ": 1007,
      "Ð°ÐµÐ¼": 1008,
      "Ð°Ð´": 1009,
      "nprivate": 1010,
      "ET": 1011,
      "cm": 1012,
      "queue": 1013,
      "Ð¸Ð±": 1014,
      "attern": 1015,
      "onth": 1016,
      "mem": 1017,
      "Ġen": 1018,
      "ip": 1019,
      "ĠO": 1020,
      "Ð¸Ð·": 1021,
      "sert": 1022,
      "Ġgraph": 1023,
      "isitor": 1024,
      "Ġcol": 1025,
      "ception": 1026,
      "orde": 1027,
      "ordered": 1028,
      "unordered": 1029,
      "Ġword": 1030,
      "Ð°Ð¼": 1031,
      "Ġend": 1032,
      "ÑĢÐ¾Ð²ÐµÑĢ": 1033,
      "Size": 1034,
      "Number": 1035,
      "air": 1036,
      "mm": 1037,
      "ange": 1038,
      "Ð¾Ð»ÑĮÐ·": 1039,
      "ĠÐŀ": 1040,
      "ĠÑĩÐ¸ÑģÐ»": 1041,
      "ugin": 1042,
      "ÐµÐ¹": 1043,
      "ee": 1044,
      "ĠÑĦ": 1045,
      "Array": 1046,
      "first": 1047,
      "user": 1048,
      "Val": 1049,
      "quest": 1050,
      "Ġpri": 1051,
      "pre": 1052,
      "ĠÐ¾ÑĤ": 1053,
      "anag": 1054,
      "erator": 1055,
      "IZ": 1056,
      "Ġ9": 1057,
      "Ġfind": 1058,
      "ÑģÐ¿": 1059,
      "Ġ20": 1060,
      "...": 1061,
      "anager": 1062,
      "ÑģÑĭ": 1063,
      "Ġheight": 1064,
      "ĠComplex": 1065,
      "Ð°Ð¿": 1066,
      "osit": 1067,
      "lugin": 1068,
      "Ġhas": 1069,
      "yst": 1070,
      "ĠDerived": 1071,
      "ystem": 1072,
      "py": 1073,
      "Ref": 1074,
      "ÑĨÐ¸Ð¸": 1075,
      "arget": 1076,
      "Ġtime": 1077,
      "Ġcin": 1078,
      "ello": 1079,
      "ions": 1080,
      "base": 1081,
      "alance": 1082,
      "]);\\": 1083,
      "Ġ[": 1084,
      "fault": 1085,
      "igh": 1086,
      "ÑĢÐ°Ð²": 1087,
      "ÑĢÐ°": 1088,
      "bserver": 1089,
      "node": 1090,
      "ill": 1091,
      "IZE": 1092,
      "Ð»ÑĮ": 1093,
      "Ġcache": 1094,
      "ression": 1095,
      "ÑģÑı": 1096,
      "100": 1097,
      "Ġ{\\\"": 1098,
      "yte": 1099,
      "display": 1100,
      "Ð°ÑģÑģÐ¸Ð²": 1101,
      "cmath": 1102,
      "Ġmo": 1103,
      "ÑħÐ¾Ð´": 1104,
      "Ġan": 1105,
      "ĠÑįÐ»ÐµÐ¼ÐµÐ½ÑĤ": 1106,
      "ST": 1107,
      "[](": 1108,
      "ton": 1109,
      "ÐĲ": 1110,
      "fig": 1111,
      "Ð¸Ð¿": 1112,
      "memory": 1113,
      "ail": 1114,
      "Ð¸ÑĨ": 1115,
      "ĠVector": 1116,
      "ÑĥÐ¼": 1117,
      "Ġamount": 1118,
      "ations": 1119,
      ">::": 1120,
      "Ð°ÑĨÐ¸Ñı": 1121,
      "ÐµÐ²": 1122,
      "ÐµÑģÑĤÐ²": 1123,
      "Ġradius": 1124,
      "String": 1125,
      "sub": 1126,
      "udent": 1127,
      "Ð½ÑĭÑħ": 1128,
      "ĠÐŁÑĢ": 1129,
      "ple": 1130,
      "sc": 1131,
      "enc": 1132,
      "Ð¾Ñģ": 1133,
      "ated": 1134,
      "ĠÐ¸Ð·": 1135,
      "bject": 1136,
      "ĠÑĢÐ°Ð·": 1137,
      "Ġcre": 1138,
      "side": 1139,
      "Ġdefault": 1140,
      "line": 1141,
      "Base": 1142,
      "----": 1143,
      "ÑĥÐ½": 1144,
      "Ð¸ÑĤÐµÐ»ÑĮ": 1145,
      "Ð¾Ð·Ð´": 1146,
      "ÑģÑĭÐ»": 1147,
      "ĠW": 1148,
      "ÑĪÐ¸Ð±": 1149,
      "Ð°Ð»ÑĮ": 1150,
      "')": 1151,
      "min": 1152,
      "!\\\"": 1153,
      "Ð¾Ñĩ": 1154,
      "unc": 1155,
      "ound": 1156,
      "stance": 1157,
      "inary": 1158,
      "ĠÐĺ": 1159,
      "alcul": 1160,
      "Ð°ÑĤÐµÐ»ÑĮ": 1161,
      "Ġ\\\":": 1162,
      "array": 1163,
      "ervice": 1164,
      "Ġdp": 1165,
      "ER": 1166,
      "Ġmake": 1167,
      "ority": 1168,
      "low": 1169,
      "Ġsub": 1170,
      "Ġnums": 1171,
      "Ð½Ð¾ÑģÑĤ": 1172,
      "12": 1173,
      "uard": 1174,
      "ected": 1175,
      "ÐŁÐ¾ÑģÐ»Ðµ": 1176,
      "Handler": 1177,
      "Exp": 1178,
      "day": 1179,
      "result": 1180,
      "der": 1181,
      "ĠG": 1182,
      "Ġq": 1183,
      "Ġsock": 1184,
      "list": 1185,
      "Ġlog": 1186,
      "quare": 1187,
      "signed": 1188,
      "pro": 1189,
      "actor": 1190,
      "action": 1191,
      "lag": 1192,
      "max": 1193,
      "eg": 1194,
      "all": 1195,
      "ĠÐ¿Ð¾": 1196,
      "valid": 1197,
      "ÑĢÐµÐ´": 1198,
      "ytes": 1199,
      "new": 1200,
      "ÐµÐ³": 1201,
      "ld": 1202,
      "Ġnumbers": 1203,
      "now": 1204,
      "Ġ});\\": 1205,
      "LE": 1206,
      "ÑģÑĤÑĢÐ¾Ðº": 1207,
      "ust": 1208,
      "ĠÐļ": 1209,
      "ogger": 1210,
      "oc": 1211,
      "rade": 1212,
      "isi": 1213,
      "Hello": 1214,
      "Ġdist": 1215,
      "User": 1216,
      "ÑĭÐ¹": 1217,
      "ref": 1218,
      "Ð¾Ðµ": 1219,
      "ateg": 1220,
      "ĠÐ·Ð½Ð°Ñĩ": 1221,
      "(!": 1222,
      "current": 1223,
      "Ġref": 1224,
      "Info": 1225,
      "function": 1226,
      "word": 1227,
      "Ġ\\\")\\\"": 1228,
      "Ð»Ð¸": 1229,
      "Ġconstexpr": 1230,
      "Comp": 1231,
      "Ac": 1232,
      "idth": 1233,
      "Ġsw": 1234,
      "20": 1235,
      "},\\": 1236,
      "inal": 1237,
      "ead": 1238,
      "Ġmatrix": 1239,
      "Ġout": 1240,
      "untime": 1241,
      "Ðķ": 1242,
      "ĠJ": 1243,
      "Ġpair": 1244,
      "ument": 1245,
      "pop": 1246,
      "Ġof": 1247,
      "ĠPoint": 1248,
      "inator": 1249,
      "ÑģÐ¿Ð¾Ð»ÑĮÐ·": 1250,
      "buffer": 1251,
      "Ð´ÐµÐ½": 1252,
      "sock": 1253,
      "Ġcatch": 1254,
      "ĠÐ³": 1255,
      "rows": 1256,
      "work": 1257,
      "afe": 1258,
      "order": 1259,
      "Ġexp": 1260,
      "raw": 1261,
      "isited": 1262,
      "enom": 1263,
      "Ġpattern": 1264,
      "nection": 1265,
      "Int": 1266,
      "test": 1267,
      "Resource": 1268,
      "eff": 1269,
      "ded": 1270,
      "Ġmessage": 1271,
      "Ġtarget": 1272,
      "(&": 1273,
      "onent": 1274,
      "ÑĥÑİ": 1275,
      "Ġres": 1276,
      "Derived": 1277,
      "rite": 1278,
      "RE": 1279,
      "Ġz": 1280,
      "15": 1281,
      "Le": 1282,
      "Ġun": 1283,
      "Ð¸Ð¼ÐµÑĢ": 1284,
      "Ġcont": 1285,
      "date": 1286,
      "âķ": 1287,
      "Ġdi": 1288,
      "ĠÑģÑģÑĭÐ»": 1289,
      "ÑĢÐ¾Ð²ÐµÑĢÐºÐ°": 1290,
      "erm": 1291,
      "emory": 1292,
      "ÑĪÐ¸Ð±ÐºÐ°": 1293,
      "&)": 1294,
      "(*": 1295,
      "Time": 1296,
      "cor": 1297,
      "Pri": 1298,
      "Ġtry": 1299,
      "CK": 1300,
      "Ð°Ñı": 1301,
      "Ġfilename": 1302,
      "ÑĥÐ½Ðº": 1303,
      "qr": 1304,
      "sin": 1305,
      "ci": 1306,
      "ĠÐ¼Ð°ÑģÑģÐ¸Ð²": 1307,
      "Ġwith": 1308,
      "rence": 1309,
      "AB": 1310,
      "ON": 1311,
      "col": 1312,
      "ansaction": 1313,
      ",\\": 1314,
      "±Ð¾ÑĤ": 1315,
      "ry": 1316,
      "Ġclose": 1317,
      "ition": 1318,
      "Ġuser": 1319,
      "qrt": 1320,
      "ari": 1321,
      "ĠÐ¿Ð¾Ð»": 1322,
      "Ġ30": 1323,
      "enominator": 1324,
      "loat": 1325,
      "start": 1326,
      "Ġsh": 1327,
      "ĠÑĤÐ¸Ð¿": 1328,
      "Ġindex": 1329,
      "ĠÑģÑĤ": 1330,
      "ress": 1331,
      "Str": 1332,
      "pos": 1333,
      "ĠÐĿ": 1334,
      "uration": 1335,
      "Ġmsg": 1336,
      "ÐŁÑĢ": 1337,
      "Ġthread": 1338,
      "Ġday": 1339,
      "*>(": 1340,
      "ost": 1341,
      "ÑıÐµÐ¼": 1342,
      "By": 1343,
      "En": 1344,
      "Ð¼ÐµÐ½": 1345,
      "ption": 1346,
      "apa": 1347,
      "out": 1348,
      "use": 1349,
      "wh": 1350,
      "Ĳâķ": 1351,
      "Ġline": 1352,
      "14": 1353,
      "\\\";": 1354,
      "ÑĤÐ°ÑĤ": 1355,
      "Ġevent": 1356,
      "AX": 1357,
      "Ġdisplay": 1358,
      "Ġunique": 1359,
      "comp": 1360,
      "Ġstruct": 1361,
      "Expression": 1362,
      "De": 1363,
      "EN": 1364,
      "Th": 1365,
      "=(": 1366,
      "len": 1367,
      "insert": 1368,
      "Ġitem": 1369,
      "ĲâķĲâķ": 1370,
      "top": 1371,
      "ÐµÑĪ": 1372,
      "Ð½Ð¾Ð³Ð¾": 1373,
      "Ð¸ÑĢÐ¾Ð²Ð°Ð½": 1374,
      "indow": 1375,
      "Ð°Ð¹Ð´ÐµÐ½": 1376,
      "All": 1377,
      "Ġat": 1378,
      "client": 1379,
      "ĠĠĠĠĠĠĠĠĠĠĠĠĠĠĠĠĠĠĠĠĠĠĠ": 1380,
      "ÑģÑĤÐ°Ð½": 1381,
      "clock": 1382,
      "rot": 1383,
      "pper": 1384,
      "Ð¼ÐµÑĢ": 1385,
      "Event": 1386,
      "Ġ(\\\"": 1387,
      "Ġbase": 1388,
      "acket": 1389,
      "Ð¸ÑĩÐµÑģ": 1390,
      "ency": 1391,
      "vel": 1392,
      "has": 1393,
      "ecute": 1394,
      "ÐĹ": 1395,
      "ply": 1396,
      "Ġ\\\"'": 1397,
      "itle": 1398,
      "],": 1399,
      "Ġ\\\"[": 1400,
      "itial": 1401,
      "Ġlength": 1402,
      "Point": 1403,
      "city": 1404,
      "dd": 1405,
      "pair": 1406,
      "Ð¾Ð»Ð½": 1407,
      "leep": 1408,
      "ĠÑģÑĤÑĢÐ¾Ðº": 1409,
      "Ð½Ð¾Ð¹": 1410,
      "Ġ'\\\"": 1411,
      "Ġpos": 1412,
      "ulti": 1413,
      "alloc": 1414,
      "99": 1415,
      "ÑĢÐ¸ÑĨ": 1416,
      "what": 1417,
      "rr": 1418,
      "ies": 1419,
      "ĠDate": 1420,
      ":\\\\": 1421,
      "Ġqu": 1422,
      "Ġstate": 1423,
      "ĠÐł": 1424,
      "Ġcheck": 1425,
      "ÑĭÑĤÑĮ": 1426,
      "orig": 1427,
      "Ġread": 1428,
      "vec": 1429,
      "({": 1430,
      "iseconds": 1431,
      "form": 1432,
      "illiseconds": 1433,
      "Index": 1434,
      "Ð½ÑĭÐ¼": 1435,
      "Ġyear": 1436,
      "ĠResource": 1437,
      "nullptr": 1438,
      "mail": 1439,
      "Ð¼Ð°": 1440,
      "Ġtypeid": 1441,
      "ÑĥÐº": 1442,
      "abs": 1443,
      "ĠMatrix": 1444,
      "=\\\"": 1445,
      "Task": 1446,
      "point": 1447,
      "});\\": 1448,
      "la": 1449,
      "port": 1450,
      "rapper": 1451,
      "Ġfactor": 1452,
      "Ġarea": 1453,
      "Ġobj": 1454,
      "ĠÐºÐ¾Ð½": 1455,
      "not": 1456,
      "ĠIN": 1457,
      "\\\"\\\"": 1458,
      "Ġtemplate": 1459,
      "ront": 1460,
      "rror": 1461,
      "Ġser": 1462,
      "Ġproduct": 1463,
      "milliseconds": 1464,
      "Ġaddr": 1465,
      "\"\"": 1466,
      "Ġ\\\")": 1467,
      "def": 1468,
      "Ð¾Ð»Ð¸Ñĩ": 1469,
      "apacity": 1470,
      "Ð¾Ð»Ð¸ÑĩÐµÑģÑĤÐ²": 1471,
      "';\\": 1472,
      "man": 1473,
      "Ð¾ÑĢÑĤ": 1474,
      "ustom": 1475,
      "Ġ12": 1476,
      "...\\\"": 1477,
      "ĠÐ±ÑĭÑĤÑĮ": 1478,
      "Ġclient": 1479,
      "ectangle": 1480,
      "raction": 1481,
      "Ġdest": 1482,
      "andle": 1483,
      "ÑĢÐ°Ð²Ð½": 1484,
      "Ġside": 1485,
      "ÐµÑĢÐµÐ·": 1486,
      "Visitor": 1487,
      "Ġemp": 1488,
      "sleep": 1489,
      "ys": 1490,
      "ank": 1491,
      "Ġaccount": 1492,
      "istr": 1493,
      "ject": 1494,
      "SIZE": 1495,
      "ert": 1496,
      "ÐºÐ°Ð·": 1497,
      "ixed": 1498,
      "AL": 1499,
      "gistr": 1500,
      "Ð»ÐµÐ½": 1501,
      "ĠĠĠĠĠĠĠĠĠĠĠĠĠĠĠĠĠ": 1502,
      "Exception": 1503,
      "ĠCircle": 1504,
      "cur": 1505,
      "ĠÑĩÐ¸ÑģÐ»Ð¾": 1506,
      "Ġmove": 1507,
      "real": 1508,
      "ÑĥÐ»ÑĮ": 1509,
      "Ð¸Ð³": 1510,
      "pen": 1511,
      "ener": 1512,
      "ify": 1513,
      "ĠÐ»": 1514,
      "Ġreal": 1515,
      "mpl": 1516,
      "event": 1517,
      "next": 1518,
      "ĠJson": 1519,
      "Ġnext": 1520,
      "ign": 1521,
      "Ġalloc": 1522,
      "ting": 1523,
      "ĠPro": 1524,
      "32": 1525,
      "dge": 1526,
      "ÑĥÑĤ": 1527,
      "rol": 1528,
      "ypename": 1529,
      "amic": 1530,
      "Ġle": 1531,
      "ĠÐľ": 1532,
      "igit": 1533,
      "erson": 1534,
      "ynamic": 1535,
      "Account": 1536,
      "tx": 1537,
      "Ð»Ñİ": 1538,
      "Result": 1539,
      "Plugin": 1540,
      "Ġ\\\"===": 1541,
      "Ð¸Ñı": 1542,
      "ÑĭÐ²": 1543,
      "Ġpoint": 1544,
      "load": 1545,
      "Ð°Ð½Ð¸Ñı": 1546,
      "CT": 1547,
      "OR": 1548,
      "Ġstudent": 1549,
      "ative": 1550,
      "arch": 1551,
      "Ġfrom": 1552,
      "Ġwidth": 1553,
      "Ð¾Ð»Ð¸ÑĩÐµÑģÑĤÐ²Ð¾": 1554,
      "gs": 1555,
      "Char": 1556,
      "nbool": 1557,
      "vail": 1558,
      "Ġ[](": 1559,
      "Ð¸Ð´": 1560,
      "ÐµÑĤÑģÑı": 1561,
      "oken": 1562,
      "Ġmonth": 1563,
      "Ġos": 1564,
      "true": 1565,
      "List": 1566,
      "ak": 1567,
      "sh": 1568,
      "&&": 1569,
      "uild": 1570,
      "ingle": 1571,
      "Ġmanager": 1572,
      "ÑĥÑģ": 1573,
      "Ð½Ð¸Ðº": 1574,
      "Ġage": 1575,
      "Ġthis": 1576,
      "Ġvisited": 1577,
      "Ð´Ð°Ð»": 1578,
      "original": 1579,
      ").": 1580,
      "Sub": 1581,
      "Ġfirst": 1582,
      "igits": 1583,
      "crete": 1584,
      "ven": 1585,
      "Ð§": 1586,
      "try": 1587,
      "Error": 1588,
      "ÑĢÐµÐ¼": 1589,
      "ĠÑĩÐµÑĢÐµÐ·": 1590,
      "mmand": 1591,
      "Ġ\\\\": 1592,
      "24": 1593,
      "Ġ->": 1594,
      "fter": 1595,
      "ĠH": 1596,
      "Ġ\\\";": 1597,
      "utes": 1598,
      "Ð°Ð±": 1599,
      "ÐµÑĤÐ¾Ð´": 1600,
      "numbers": 1601,
      "ÐµÐ·ÑĥÐ»ÑĮ": 1602,
      "vailable": 1603,
      "ÐµÐ·ÑĥÐ»ÑĮÑĤÐ°ÑĤ": 1604,
      "Ġerror": 1605,
      "rect": 1606,
      "ĠÐ¤": 1607,
      "================": 1608,
      "sys": 1609,
      "Ġtypename": 1610,
      "Logger": 1611,
      "Ġarg": 1612,
      "Ġbalance": 1613,
      "pri": 1614,
      "rest": 1615,
      "ÑģÑħÐ¾Ð´": 1616,
      "Shape": 1617,
      "ning": 1618,
      "pan": 1619,
      "ÐµÐºÑĤ": 1620,
      "Ġ\\\"-": 1621,
      "thod": 1622,
      "ĠÐŁÑĢÐ¾Ð²ÐµÑĢÐºÐ°": 1623,
      "ox": 1624,
      "Ġmid": 1625,
      "ÑĥÑĩ": 1626,
      "eld": 1627,
      "imal": 1628,
      "Ġvalid": 1629,
      "LO": 1630,
      "sum": 1631,
      "gistry": 1632,
      "Tree": 1633,
      "ield": 1634,
      "uc": 1635,
      "Ġimag": 1636,
      "ÑĢÐ°ÑĤ": 1637,
      "gest": 1638,
      "Ð°Ð¹ÑĤ": 1639,
      "Pool": 1640,
      "Ġshared": 1641,
      "gist": 1642,
      "imag": 1643,
      "Ġbytes": 1644,
      "Ġlast": 1645,
      "task": 1646,
      "close": 1647,
      "','": 1648,
      "loy": 1649,
      "Ġpar": 1650,
      "etwork": 1651,
      "Ġuint": 1652,
      "ÑĥÐ½ÐºÑĨÐ¸Ñı": 1653,
      "guard": 1654,
      "orld": 1655,
      "Ð¸ÑĦ": 1656,
      "ÑĥÐ¿": 1657,
      "ÐµÐ¶": 1658,
      "edi": 1659,
      "nstd": 1660,
      "ution": 1661,
      "Ġblock": 1662,
      "Ġbook": 1663,
      "Container": 1664,
      "ÐŀÐ±": 1665,
      "bs": 1666,
      "cry": 1667,
      "Ð£": 1668,
      "ĠÑĥÐºÐ°Ð·": 1669,
      "bor": 1670,
      "Ð²Ð¾Ð»": 1671,
      "ĠÐ¸Ð½": 1672,
      "Ġadj": 1673,
      ":\\\";\\": 1674,
      "Total": 1675,
      "ps": 1676,
      "Ġposit": 1677,
      "Ð°Ð»Ð¸Ð·": 1678,
      "ĠĠĠĠĠĠĠĠĠĠĠĠĠĠĠĠĠĠĠĠ": 1679,
      "actory": 1680,
      "Service": 1681,
      "Tr": 1682,
      "Un": 1683,
      "alary": 1684,
      "Ð¾Ð±Ð°Ð²": 1685,
      "Ð¾ÑĤÐ¾Ðº": 1686,
      "substr": 1687,
      "ÐłÐ°Ð·": 1688,
      "ner": 1689,
      "Ġshape": 1690,
      "Que": 1691,
      "ating": 1692,
      "Ġcreate": 1693,
      "AR": 1694,
      "ÑģÐµ": 1695,
      "Ġ'\\\\": 1696,
      "ÐµÐºÑĤÐ¾ÑĢ": 1697,
      "cstring": 1698,
      "filename": 1699,
      "year": 1700,
      "erase": 1701,
      "Ð¸Ðµ": 1702,
      "Ġinput": 1703,
      "Ð¸Ð¼Ð²Ð¾Ð»": 1704,
      "Product": 1705,
      "ĠÐ¢": 1706,
      "ĠÐŁÑĢÐ¸Ð¼ÐµÑĢ": 1707,
      "Ġunsigned": 1708,
      "rotected": 1709,
      "iz": 1710,
      "orm": 1711,
      "Ð¾Ð»Ð¶": 1712,
      "Ð°Ð³": 1713,
      "ĠAr": 1714,
      "Item": 1715,
      "ly": 1716,
      "Ġ25": 1717,
      "jo": 1718,
      "ference": 1719,
      "Ð¸ÑģÑĤ": 1720,
      "ĠData": 1721,
      "ingleton": 1722,
      "fstream": 1723,
      "nprotected": 1724,
      "Status": 1725,
      "ĠType": 1726,
      "Queue": 1727,
      "Date": 1728,
      "Ġelement": 1729,
      "ĠAn": 1730,
      "pha": 1731,
      "Valid": 1732,
      "dist": 1733,
      "txt": 1734,
      "ÑĩÐµÑĤ": 1735,
      "Cl": 1736,
      "Qu": 1737,
      "bin": 1738,
      "alind": 1739,
      "Ġpool": 1740,
      "),\\": 1741,
      "--;\\": 1742,
      "ÐĺÑģÑħÐ¾Ð´": 1743,
      "join": 1744,
      "Message": 1745,
      "Ð°Ð¹Ð»": 1746,
      "scri": 1747,
      "ĠÐ·Ð½Ð°ÑĩÐµÐ½Ð¸Ðµ": 1748,
      "ÑģÐ¿Ð¾Ð»ÑĮÐ·Ð¾Ð²": 1749,
      "aile": 1750,
      "ailed": 1751,
      "ÑĬ": 1752,
      "Ġclass": 1753,
      "ence": 1754,
      "ĠÑģÐ¾Ð·Ð´": 1755,
      "Ġdis": 1756,
      "ÐµÐ¿": 1757,
      "Se": 1758,
      "eigh": 1759,
      "Ġrows": 1760,
      "Ð¾Ð½ÑģÑĤÑĢ": 1761,
      "effs": 1762,
      "eighbor": 1763,
      "Ġusing": 1764,
      "req": 1765,
      "Ġbe": 1766,
      "alculate": 1767,
      ">(\\\"": 1768,
      "ÐµÑĢÑĪ": 1769,
      "ours": 1770,
      "ÐŀÑĪÐ¸Ð±ÐºÐ°": 1771,
      "lace": 1772,
      "ax": 1773,
      "().": 1774,
      "ED": 1775,
      "TI": 1776,
      "Ġprice": 1777,
      "lags": 1778,
      "Length": 1779,
      "sor": 1780,
      "Ke": 1781,
      "alpha": 1782,
      "Ġfound": 1783,
      "Sort": 1784,
      "ĠÐ¾Ð¿": 1785,
      "Ġfri": 1786,
      "Ġnot": 1787,
      "rc": 1788,
      "ĠÑģÐ»": 1789,
      "Ð»ÑİÑĩ": 1790,
      "AN": 1791,
      "Ġrequest": 1792,
      "ÑĤÐµÑĢ": 1793,
      "ĠÐ½Ð°Ð¹Ð´ÐµÐ½": 1794,
      "omial": 1795,
      "INET": 1796,
      "Ġsockaddr": 1797,
      "ategory": 1798,
      "*)": 1799,
      "uture": 1800,
      ">();\\": 1801,
      "ĠÐ¾": 1802,
      "Ġper": 1803,
      "ĠFraction": 1804,
      "123": 1805,
      "Manager": 1806,
      "rome": 1807,
      "ĠShape": 1808,
      "alindrome": 1809,
      "Col": 1810,
      "ait": 1811,
      "from": 1812,
      "ĠÐ£": 1813,
      "Ġme": 1814,
      "Ġdistance": 1815,
      "Or": 1816,
      "Ġpre": 1817,
      "Cache": 1818,
      "antity": 1819,
      "Ġswap": 1820,
      "Ġon": 1821,
      "Ð´Ð°": 1822,
      "nums": 1823,
      "Ġfriend": 1824,
      "Ðĳ": 1825,
      "ÐµÐµ": 1826,
      "Ð¾Ð¼Ð¿": 1827,
      "ÑĥÑī": 1828,
      "Ġwork": 1829,
      "eap": 1830,
      "Process": 1831,
      "Element": 1832,
      "Ð°Ñĩ": 1833,
      "oney": 1834,
      "oex": 1835,
      "oper": 1836,
      "uth": 1837,
      "erat": 1838,
      "uccess": 1839,
      "oexcept": 1840,
      "Observer": 1841,
      "ram": 1842,
      "ash": 1843,
      "emplace": 1844,
      "ialize": 1845,
      "ĠÐ±Ð°Ð¹ÑĤ": 1846,
      "Ġcols": 1847,
      "gre": 1848,
      "Ġ50": 1849,
      "50": 1850,
      "binary": 1851,
      "inter": 1852,
      "Ġact": 1853,
      "--------": 1854,
      "ÑĥÑĢ": 1855,
      "Ġsetw": 1856,
      "ÐĽ": 1857,
      "Ġ{'": 1858,
      "olyn": 1859,
      "000": 1860,
      "Ð°ÑĤÐµÐ»": 1861,
      "ĠComp": 1862,
      "olynomial": 1863,
      "false": 1864,
      "ample": 1865,
      "Ġcontainer": 1866,
      "ibr": 1867,
      "MP": 1868,
      "ÑıÑĤ": 1869,
      "ĠÑĤÑĢ": 1870,
      "Ġ60": 1871,
      "Min": 1872,
      "front": 1873,
      "imple": 1874,
      "Ġ\\\"]": 1875,
      "ÐµÑī": 1876,
      "ĠÑģÐ¸Ð¼Ð²Ð¾Ð»": 1877,
      "ĠStu": 1878,
      "Ð°Ð¼Ð¸": 1879,
      "ĠStudent": 1880,
      "Ð¸Ð½Ð°": 1881,
      "cltype": 1882,
      "Ġpath": 1883,
      "ÑĥÐ³": 1884,
      "Ð¸Ð¼Ð°Ð»ÑĮ": 1885,
      "Of": 1886,
      "core": 1887,
      "ĠgetName": 1888,
      "Ð°ÑĨÐ¸Ð¸": 1889,
      "Ġgrade": 1890,
      "corator": 1891,
      "Mutex": 1892,
      "On": 1893,
      "system": 1894,
      "Ġoriginal": 1895,
      "Ð½Ð¾ÑģÑĤÑĮ": 1896,
      "('": 1897,
      "ud": 1898,
      "parent": 1899,
      "ĠÑĩÐ¸ÑģÐ»Ð°": 1900,
      "ultiply": 1901,
      "Object": 1902,
      "Ġinstance": 1903,
      "ower": 1904,
      "16": 1905,
      "ved": 1906,
      "Ġmod": 1907,
      "Ġdenominator": 1908,
      "Ġcapacity": 1909,
      "ING": 1910,
      "Test": 1911,
      "ale": 1912,
      "stack": 1913,
      "Ġtop": 1914,
      ">>&": 1915,
      "long": 1916,
      "month": 1917,
      "sive": 1918,
      "ĠÐ´Ð¾Ð»Ð¶": 1919,
      "Inte": 1920,
      "Book": 1921,
      "ÑĥÐ³Ð¾Ð»ÑĮ": 1922,
      "oor": 1923,
      "ĠÐ¿ÐµÑĢÐµÐ¼": 1924,
      "Key": 1925,
      "25": 1926,
      "Ġsc": 1927,
      "ĠÐ¿Ð¾Ð´": 1928,
      "ĠÐ¡Ð¾Ð·Ð´": 1929,
      "ÑĥÐ¼Ð¼Ð°": 1930,
      "Ð¸ÑĩÐµÑģÐº": 1931,
      "Wrapper": 1932,
      "cent": 1933,
      "Ġtitle": 1934,
      "ÑĩÐ¸ÑģÐ»": 1935,
      "old": 1936,
      "setw": 1937,
      "ÐŁÐµÑĢ": 1938,
      "45": 1939,
      "Set": 1940,
      "Ġresource": 1941,
      "Ġexpr": 1942,
      "Ð°ÐºÑģ": 1943,
      "egative": 1944,
      "ater": 1945,
      "ÐºÑĥ": 1946,
      "number": 1947,
      "leted": 1948,
      "update": 1949,
      "nconst": 1950,
      "sort": 1951,
      "ÑıÐ¼": 1952,
      "preci": 1953,
      "Ð½Ð¾ÑģÑĤÐ¸": 1954,
      "ÑĢÐµÐ´ÐµÐ»": 1955,
      "Ġsafe": 1956,
      "\\\",\\": 1957,
      "[\\\"": 1958,
      "ide": 1959,
      "sk": 1960,
      "ÑıÐ²": 1961,
      "rack": 1962,
      "Ġcircle": 1963,
      "Ġobserver": 1964,
      "ÐµÐ½Ð°": 1965,
      "ific": 1966,
      "Block": 1967,
      "ward": 1968,
      "Ġcle": 1969,
      "ÐµÐ½Ð¸Ð¹": 1970,
      "ility": 1971,
      "Ð¡ÑĤ": 1972,
      "erature": 1973,
      "11": 1974,
      "stdex": 1975,
      "Ġsend": 1976,
      "ĠSO": 1977,
      "Check": 1978,
      "stdexcept": 1979,
      "Ġrever": 1980,
      "ongest": 1981,
      "Ġ*=": 1982,
      "Ġlen": 1983,
      "ĠFile": 1984,
      "pted": 1985,
      "write": 1986,
      "Ġstop": 1987,
      "ÐµÑĩ": 1988,
      "ÑģÑĤÐ²": 1989,
      "Ġnumber": 1990,
      "uffix": 1991,
      "Circle": 1992,
      "runtime": 1993,
      "code": 1994,
      "itch": 1995,
      "Ð°ÑĤÑĢÐ¸ÑĨ": 1996,
      "Ġruntime": 1997,
      "Database": 1998,
      "Ġthreads": 1999,
      "unning": 2000,
      "ĠÑĩÐ¸Ñģ": 2001,
      "pret": 2002,
      "ibrary": 2003,
      "ĠÑĩÐ¸ÑģÐµÐ»": 2004,
      "cpy": 2005,
      "Max": 2006,
      "Temp": 2007,
      "ĠU": 2008,
      "info": 2009,
      "Ġinsert": 2010,
      "ÑĢÐ°Ð±Ð¾ÑĤ": 2011,
      "Ġcounter": 2012,
      "No": 2013,
      "With": 2014,
      "Ġpq": 2015,
      "Ġoss": 2016,
      "Ġvisit": 2017,
      "Ġmap": 2018,
      "ÐµÐ½ÑĮ": 2019,
      "precision": 2020,
      "DE": 2021,
      "sqrt": 2022,
      "eric": 2023,
      "ÑĭÐµ": 2024,
      "ĠSIZE": 2025,
      "ĠÐ´Ð¾": 2026,
      "Ð¾ÑĢÐ¼": 2027,
      "ĠBook": 2028,
      "ices": 2029,
      "ĠRectangle": 2030,
      "path": 2031,
      "Ġstack": 2032,
      "Ġdynamic": 2033,
      "Ð´ÑĢ": 2034,
      "loyee": 2035,
      "tic": 2036,
      "ational": 2037,
      "valu": 2038,
      "Ġcode": 2039,
      "ĠÐ²ÑĢÐµÐ¼": 2040,
      "arent": 2041,
      "ĠContainer": 2042,
      "ĠÐĴÑĭ": 2043,
      "ÐµÐ³Ð¾": 2044,
      "ategy": 2045,
      "manip": 2046,
      "msg": 2047,
      "condition": 2048,
      "tings": 2049,
      "uthor": 2050,
      "iomanip": 2051,
      "Ġ42": 2052,
      "alculator": 2053,
      "Matrix": 2054,
      "Ð¾Ñī": 2055,
      "ÐĿÐµ": 2056,
      "Ġdiff": 2057,
      "AT": 2058,
      "SS": 2059,
      "ore": 2060,
      "riangle": 2061,
      "Ġ-=": 2062,
      "ÑģÑĤÐ°Ð½ÑĤ": 2063,
      "opt": 2064,
      "ĠÐĹ": 2065,
      "ÑĥÑģÑĤ": 2066,
      "Ġdet": 2067,
      "clear": 2068,
      "Memory": 2069,
      "ob": 2070,
      "ĠÑģÐº": 2071,
      "Ð°ÑĤÑĮ": 2072,
      "*(": 2073,
      "Ġtree": 2074,
      "check": 2075,
      "ĠÐ²Ð¾Ð·": 2076,
      "functional": 2077,
      "ormal": 2078,
      "mtx": 2079,
      "leag": 2080,
      "ĠMAX": 2081,
      "ĠÐ¼Ð¾Ð¶": 2082,
      "ÐµÐºÑģ": 2083,
      "league": 2084,
      "rand": 2085,
      "Ġseconds": 2086,
      "Ġtasks": 2087,
      "mart": 2088,
      "pon": 2089,
      "Ġsqrt": 2090,
      "ĠDe": 2091,
      "ĠÑĦÐ°Ð¹Ð»": 2092,
      "ĠÑģÐ¾Ð·Ð´Ð°Ð½": 2093,
      "):\\\"": 2094,
      "Ð°ÑģÑĤ": 2095,
      "Ð¸ÑĢÑĥ": 2096,
      "Ġweight": 2097,
      "ÑİÑĤ": 2098,
      "LL": 2099,
      "Ġduration": 2100,
      "cel": 2101,
      "ick": 2102,
      "ĠTh": 2103,
      "argument": 2104,
      "ariable": 2105,
      "define": 2106,
      "ponse": 2107,
      "RU": 2108,
      "Command": 2109,
      "open": 2110,
      "omic": 2111,
      "eek": 2112,
      "gister": 2113,
      "Emp": 2114,
      "Ð½Ð¸Ð¹": 2115,
      "Ġios": 2116,
      "ÑĢÐ°Ð¼": 2117,
      "Connection": 2118,
      "signal": 2119,
      "An": 2120,
      "lay": 2121,
      "Ġro": 2122,
      "Ġ\\\"%": 2123,
      "orage": 2124,
      "Ð¸ÑĤÑĮ": 2125,
      "Ġserver": 2126,
      "ier": 2127,
      "Ð½Ð¾Ð²": 2128,
      "ĠÐ¾Ð±ÑĬ": 2129,
      "ocument": 2130,
      "Add": 2131,
      "ndouble": 2132,
      "own": 2133,
      "crement": 2134,
      "same": 2135,
      "ÐŃ": 2136,
      "ansit": 2137,
      "ped": 2138,
      "Ġlist": 2139,
      "Ð°ÑĤÐ¾ÑĢ": 2140,
      "serv": 2141,
      "Ġvalues": 2142,
      "ÐłÐ°Ð·Ð¼ÐµÑĢ": 2143,
      "Ð¾Ñı": 2144,
      "Ġnoexcept": 2145,
      "ĠTime": 2146,
      "ÐłÐµÐ·ÑĥÐ»ÑĮÑĤÐ°ÑĤ": 2147,
      "ME": 2148,
      "ĠÑĨ": 2149,
      "tra": 2150,
      "ĠRational": 2151,
      "Ð¸ÑģÐº": 2152,
      "ĲâķĲâķĲâķĲâķ": 2153,
      "Di": 2154,
      "Ġcalculate": 2155,
      "Ġminutes": 2156,
      "Ġacc": 2157,
      "Ġswitch": 2158,
      "Packet": 2159,
      "Sum": 2160,
      "Ð°ÐµÑĤ": 2161,
      "Ġperror": 2162,
      "idget": 2163,
      "pec": 2164,
      "Ġinitial": 2165,
      "MAX": 2166,
      "fs": 2167,
      "Ġfloat": 2168,
      "Ġsource": 2169,
      "cstd": 2170,
      "total": 2171,
      "token": 2172,
      "atio": 2173,
      "lease": 2174,
      "iterator": 2175,
      "Expr": 2176,
      "AC": 2177,
      "static": 2178,
      "Ð²ÐµÑĢ": 2179,
      "ĠConcrete": 2180,
      "Prime": 2181,
      "80": 2182,
      "mat": 2183,
      "Ġarray": 2184,
      "ery": 2185,
      "Ġap": 2186,
      "oll": 2187,
      "Ġgener": 2188,
      "Ġconfig": 2189,
      "Ġexecute": 2190,
      "Ġ\\\\\\\"\\\"": 2191,
      "\\\"};\\": 2192,
      "ÑĥÐ´": 2193,
      "ĠSimple": 2194,
      "ĠĠĠĠĠĠĠĠĠĠĠĠĠ": 2195,
      "Ġsearch": 2196,
      "ÑĢÐ°Ð²Ð½ÐµÐ½Ð¸Ðµ": 2197,
      "ink": 2198,
      "ersion": 2199,
      "ics": 2200,
      "Stack": 2201,
      "Alloc": 2202,
      "valuate": 2203,
      "Path": 2204,
      "hic": 2205,
      "iew": 2206,
      "rid": 2207,
      "inet": 2208,
      "ĠÐĲ": 2209,
      "Ġback": 2210,
      "exp": 2211,
      "ĠTask": 2212,
      "Ð¾ÑģÑĤÑĥÐ¿": 2213,
      "hicle": 2214,
      "ug": 2215,
      "uint": 2216,
      "coded": 2217,
      "Ġstatus": 2218,
      "Ð¸ÑĨÐ¸": 2219,
      "terator": 2220,
      "ĠINT": 2221,
      "bytes": 2222,
      "sius": 2223,
      "ume": 2224,
      "verage": 2225,
      "ĠÑģÐ¾": 2226,
      "cord": 2227,
      "64": 2228,
      "AD": 2229,
      "az": 2230,
      "cct": 2231,
      "ĠÐ²ÑģÐµ": 2232,
      "Ð¾ÑĢÐ¸ÑĤ": 2233,
      "ĠÐºÐ¾Ð¼Ð¿": 2234,
      "qui": 2235,
      "ĠÑĥÐ´Ð°Ð»": 2236,
      "ync": 2237,
      "ÑĥÐ³Ð¾Ð»ÑĮÐ½Ð¸Ðº": 2238,
      "cctype": 2239,
      "no": 2240,
      "ios": 2241,
      "abc": 2242,
      "42": 2243,
      "ark": 2244,
      "Ġsort": 2245,
      "Ġedge": 2246,
      "ÐµÐ¼Ð¾Ð½ÑģÑĤÑĢ": 2247,
      "$\\\"": 2248,
      "he": 2249,
      "Ġunordered": 2250,
      "Instance": 2251,
      "ializ": 2252,
      "ĠÐ¤ÑĥÐ½ÐºÑĨÐ¸Ñı": 2253,
      "Code": 2254,
      "FF": 2255,
      "IG": 2256,
      "posit": 2257,
      "connect": 2258,
      "Ġden": 2259,
      "Ġ15": 2260,
      "ĠTr": 2261,
      "local": 2262,
      "ĠEvent": 2263,
      "Inter": 2264,
      "future": 2265,
      "ero": 2266,
      "annot": 2267,
      "\\\\\\\"": 2268,
      "olume": 2269,
      "ĠÐ·Ð°Ð¿": 2270,
      "Ð¾Ð¶Ð¸ÑĤÐµÐ»ÑĮ": 2271,
      "Ġcolor": 2272,
      "uilder": 2273,
      "Class": 2274,
      "');\\": 2275,
      "Ð½ÑĥÑİ": 2276,
      "ÑĤÐ¾": 2277,
      "peed": 2278,
      "ĠÐ¿Ð¾ÑģÐ»Ðµ": 2279,
      "ffset": 2280,
      "interpret": 2281,
      "After": 2282,
      "Impl": 2283,
      "Ġcar": 2284,
      "Request": 2285,
      "Ġtrans": 2286,
      "ĠString": 2287,
      "eader": 2288,
      "ĠProduct": 2289,
      "Guard": 2290,
      "ehicle": 2291,
      "Ġ\\\"*": 2292,
      "ats": 2293,
      "olution": 2294,
      "Ġ40": 2295,
      "Ġhash": 2296,
      "ÑģÐ¿Ð¾Ð»ÑĮÐ·Ñĥ": 2297,
      "Ġrect": 2298,
      "Ġfunc": 2299,
      "Ġhours": 2300,
      "Ġmode": 2301,
      "quence": 2302,
      "ized": 2303,
      "ĠLogger": 2304,
      "Ġempty": 2305,
      "Order": 2306,
      "ĠIn": 2307,
      "Ġinter": 2308,
      "Ġemail": 2309,
      "execute": 2310,
      "ĠMoney": 2311,
      "Thread": 2312,
      "float": 2313,
      "input": 2314,
      "ÐºÑĢ": 2315,
      "main": 2316,
      "imit": 2317,
      ">()": 2318,
      "Year": 2319,
      "](": 2320,
      "cerr": 2321,
      "Ġmat": 2322,
      "ĠÐ´Ð°Ð½": 2323,
      "ĠPolynomial": 2324,
      "(-": 2325,
      "ID": 2326,
      "draw": 2327,
      "ĠÐĳ": 2328,
      "Ġ(*": 2329,
      "Ġfailed": 2330,
      "ĠSingleton": 2331,
      "0000": 2332,
      "Const": 2333,
      "Ð°Ð±Ð»": 2334,
      "ÑģÐ¿Ð¾Ð»ÑĮÐ·Ð¾Ð²Ð°Ð½Ð¸Ðµ": 2335,
      "EL": 2336,
      "eak": 2337,
      "Ð»ÐµÐ½Ð¸Ðµ": 2338,
      "ĠÐ²ÐµÐºÑĤÐ¾ÑĢ": 2339,
      "Map": 2340,
      "Ġpart": 2341,
      "Ġparent": 2342,
      "Ġsquare": 2343,
      "roup": 2344,
      "Ġconnect": 2345,
      "Config": 2346,
      "ĠÐ¿ÐµÑĢÐ²": 2347,
      "Ġlogger": 2348,
      "cursive": 2349,
      "Processor": 2350,
      "ied": 2351,
      "requ": 2352,
      "assword": 2353,
      "tract": 2354,
      "Ð¾Ð²ÑĭÐ¹": 2355,
      "Ġrange": 2356,
      "unistd": 2357,
      "Counter": 2358,
      "ĠInt": 2359,
      "socket": 2360,
      "onents": 2361,
      "30": 2362,
      "AF": 2363,
      "RO": 2364,
      "ĠÑıÐ²": 2365,
      "ensor": 2366,
      "ÐĴÑĭ": 2367,
      "create": 2368,
      "Balance": 2369,
      "Word": 2370,
      "flow": 2371,
      "ÐµÐ±": 2372,
      "ana": 2373,
      "Ġchild": 2374,
      "ĠBig": 2375,
      "typeid": 2376,
      "imits": 2377,
      "ÐĶÐ¾": 2378,
      "LA": 2379,
      "di": 2380,
      "Ġfib": 2381,
      "Ġwrite": 2382,
      "Ġhandler": 2383,
      "ĠÐ¼ÐµÑĤÐ¾Ð´": 2384,
      "ÐļÐ¾Ð»Ð¸ÑĩÐµÑģÑĤÐ²Ð¾": 2385,
      "span": 2386,
      "Ð¤": 2387,
      "Ġ{};\\": 2388,
      "Ġpacket": 2389,
      "child": 2390,
      "Ġheap": 2391,
      "ĠÐ´Ð²": 2392,
      "ediator": 2393,
      "ÐĺÑģÑħÐ¾Ð´Ð½ÑĭÐ¹": 2394,
      ">;\\": 2395,
      "TR": 2396,
      "Vector": 2397,
      "icient": 2398,
      "qual": 2399,
      "Ġdays": 2400,
      "ave": 2401,
      "cri": 2402,
      "Ġus": 2403,
      "vert": 2404,
      "ĠÐŀÐ±": 2405,
      "ariant": 2406,
      "Ġpositions": 2407,
      "ruct": 2408,
      "alle": 2409,
      "Ð»ÑıÐµÐ¼": 2410,
      "Available": 2411,
      "]++;\\": 2412,
      "high": 2413,
      "Ġsystem": 2414,
      "ĠTest": 2415,
      "Ð¿Ð¾Ð»Ð½": 2416,
      "ÑĢÐ°Ð·": 2417,
      "Ġpriority": 2418,
      "OU": 2419,
      "SE": 2420,
      "]*": 2421,
      "Ġparse": 2422,
      "Hash": 2423,
      "Ġ\\\":\\\"": 2424,
      "utations": 2425,
      "Ġdoc": 2426,
      "Ġobject": 2427,
      "Read": 2428,
      "ĠÐ·Ð°Ð²": 2429,
      "ification": 2430,
      "Day": 2431,
      "sstream": 2432,
      "ĠUser": 2433,
      "mount": 2434,
      "ĠÐ¿ÑĢÐ¾": 2435,
      "mmon": 2436,
      "Level": 2437,
      "Ð°Ð»Ð¸Ð·Ð°ÑĨÐ¸Ñı": 2438,
      "ĠThread": 2439,
      "Palindrome": 2440,
      "ble": 2441,
      "fabs": 2442,
      "tm": 2443,
      "weight": 2444,
      "orted": 2445,
      "Ġnow": 2446,
      "ĠTemp": 2447,
      "Ð¸ÑĢÐ¾Ð²Ð°Ð½Ð¸Ðµ": 2448,
      "Ġprime": 2449,
      "Ġcreated": 2450,
      "Ð»Ð¸Ð½Ð°": 2451,
      "Ġelements": 2452,
      "Amount": 2453,
      "Func": 2454,
      "range": 2455,
      "ĠExpression": 2456,
      "Ġ\"\"": 2457,
      "Ð°Ñħ": 2458,
      "ÐºÐµ": 2459,
      "ÐºÐ»ÑİÑĩ": 2460,
      "Ġcontent": 2461,
      "ĠÐ¿Ð¾Ð»Ð¾Ð¶Ð¸ÑĤÐµÐ»ÑĮ": 2462,
      "Area": 2463,
      "ĠÐ¾Ð´": 2464,
      "ĠÑĪ": 2465,
      "ses": 2466,
      "Ġvisitor": 2467,
      "gine": 2468,
      "Ġcontext": 2469,
      "ÑİÑī": 2470,
      "Ġaccept": 2471,
      "Ġcontin": 2472,
      "hone": 2473,
      "ual": 2474,
      "Ðĵ": 2475,
      "Ġold": 2476,
      "Ġ\\\"\\\\\\\"": 2477,
      ">,": 2478,
      "denominator": 2479,
      "Ð¸Ð°Ð¿": 2480,
      "Ġplugin": 2481,
      "Ġcerr": 2482,
      "Ġopen": 2483,
      "ĠĠĠĠĠĠĠĠĠĠĠĠĠĠĠĠĠĠĠĠĠĠĠĠ": 2484,
      "acency": 2485,
      "Ġresponse": 2486,
      "ÑĥÐºÑĤÐ¾ÑĢ": 2487,
      "Ġshapes": 2488,
      "Ð¾ÑıÐ½": 2489,
      "Ġcontinue": 2490,
      "Ð¸Ð°Ð¿Ð°Ð·": 2491,
      "\\\"]": 2492,
      "atomic": 2493,
      "roy": 2494,
      "ffee": 2495,
      "ĠÐºÐ¾ÑĢ": 2496,
      "resolution": 2497,
      "Ð¡ÑĥÐ¼Ð¼Ð°": 2498,
      "crypted": 2499,
      "Factory": 2500,
      "\\\"\\": 2501,
      "utton": 2502,
      "pack": 2503,
      "Ġwindow": 2504,
      "Ð¾Ð»ÑĮÐ·Ð¾Ð²": 2505,
      "cols": 2506,
      "Decorator": 2507,
      "Second": 2508,
      ">)": 2509,
      "bit": 2510,
      "ll": 2511,
      "Ð¦": 2512,
      "Ð¸ÑĢ": 2513,
      "ending": 2514,
      "Ð½Ð¾Ð¶": 2515,
      "Ġrec": 2516,
      "ctime": 2517,
      "older": 2518,
      "exception": 2519,
      "Ġexception": 2520,
      "Ġ1000": 2521,
      "IT": 2522,
      "cs": 2523,
      "ceived": 2524,
      "ÐµÐ½Ð¾": 2525,
      "getName": 2526,
      "ĠÐ¿ÑĢÐ¸": 2527,
      "nconstexpr": 2528,
      "ĠÑıÐ²Ð»Ñı": 2529,
      "Square": 2530,
      "obj": 2531,
      "Ġ\\\"/": 2532,
      "Ġsuccess": 2533,
      "Ġop": 2534,
      "npos": 2535,
      "ĠCol": 2536,
      "ayment": 2537,
      "Ð¿ÐµÑĢ": 2538,
      "imer": 2539,
      "ÑĢÑĥÐ³": 2540,
      "ĠJsonValue": 2541,
      "igned": 2542,
      "lect": 2543,
      "ĠÐ¿Ð¾Ð·": 2544,
      "Ġhandle": 2545,
      "ĠÐ¸Ð·Ð¼ÐµÐ½": 2546,
      "ÑĢÐ¸ÑĨÐ°ÑĤÐµÐ»ÑĮ": 2547,
      "wait": 2548,
      "Ð¾Ð¸ÑģÐº": 2549,
      "Ð¸Ð»": 2550,
      "Ġservice": 2551,
      "Ġchrono": 2552,
      "ĠBank": 2553,
      "Ð¸Ð¼Ð¾ÑģÑĤ": 2554,
      "ĠConfig": 2555,
      "Ġwords": 2556,
      "Ð½ÑĭÐ¼Ð¸": 2557,
      "ĠÐ¾Ð±ÑĬÐµÐºÑĤ": 2558,
      "Ent": 2559,
      "digits": 2560,
      "mon": 2561,
      "Ġrow": 2562,
      "Ġabs": 2563,
      "getline": 2564,
      "edge": 2565,
      "ÐĿÐµÑĤ": 2566,
      "Ð°ÐºÑģÐ¸Ð¼Ð°Ð»ÑĮ": 2567,
      "<(": 2568,
      "pid": 2569,
      "any": 2570,
      "ÑĥÐ»": 2571,
      "ĠÐºÐ¾Ð»Ð¸ÑĩÐµÑģÑĤÐ²Ð¾": 2572,
      "Args": 2573,
      "operator": 2574,
      "67": 2575,
      "Next": 2576,
      "remove": 2577,
      "Ð¾Ð½Ð°": 2578,
      "Ġpage": 2579,
      "ĠCom": 2580,
      "Ġinvalid": 2581,
      "Start": 2582,
      "Ġfactorial": 2583,
      "Ð§Ð¸ÑģÐ»": 2584,
      "Ġvalidate": 2585,
      "ĠArgs": 2586,
      "*)&": 2587,
      "Function": 2588,
      "]()": 2589,
      "utility": 2590,
      "metic": 2591,
      "Ġnumerator": 2592,
      "ĠÐĶÐ¾Ð±Ð°Ð²": 2593,
      "Ġsocket": 2594,
      "Ġ/=": 2595,
      "ĠCar": 2596,
      "Ġangle": 2597,
      "Rate": 2598,
      "Text": 2599,
      "Ġdy": 2600,
      "Ð¾ÑģÐ»ÐµÐ´": 2601,
      "Ġentry": 2602,
      "ENT": 2603,
      "Ð¸ÑĢÑĥÐµÐ¼": 2604,
      "dle": 2605,
      "ostream": 2606,
      "oard": 2607,
      "uf": 2608,
      "Ġqueue": 2609,
      "Ġmy": 2610,
      "racker": 2611,
      "azy": 2612,
      "func": 2613,
      "state": 2614,
      "Ġ((": 2615,
      "Ġdiv": 2616,
      "ĠPri": 2617,
      "resource": 2618,
      "process": 2619,
      "ptional": 2620,
      "allocate": 2621,
      "Buffer": 2622,
      "Mode": 2623,
      "den": 2624,
      "radius": 2625,
      "Ġupdate": 2626,
      "ĠÐ¿ÑĢÐµÐ´": 2627,
      "Ġprev": 2628,
      "ÑĥÑĢÑģ": 2629,
      "ansition": 2630,
      "Window": 2631,
      "eur": 2632,
      "Ġ$\\\"": 2633,
      "amp": 2634,
      "Ġfreq": 2635,
      "assert": 2636,
      "Ð°Ð´Ð°Ñĩ": 2637,
      "ĠÑįÐ»ÐµÐ¼ÐµÐ½ÑĤÐ¾Ð²": 2638,
      "digit": 2639,
      "nÐŁ": 2640,
      "Ġfunction": 2641,
      "Ġport": 2642,
      "unsigned": 2643,
      "ÑıÐ´": 2644,
      "ÑĭÑħ": 2645,
      "Ġlongest": 2646,
      "Ð¾Ð»ÑĮÑĪ": 2647,
      "Ġand": 2648,
      "efficient": 2649,
      "ĠÑģÑģÑĭÐ»ÐºÑĥ": 2650,
      "ĠÐ¾Ð¿ÐµÑĢ": 2651,
      "ie": 2652,
      "ole": 2653,
      "oom": 2654,
      "ures": 2655,
      "Ġsecond": 2656,
      "Ġremove": 2657,
      "arge": 2658,
      "Ġnormal": 2659,
      "ĠÐ¿Ð¾ÑĤÐ¾Ðº": 2660,
      "Ġcopy": 2661,
      "Ð½Ðµ": 2662,
      "Ġmemory": 2663,
      "Copy": 2664,
      "ÐµÐ´Ð¸Ð½": 2665,
      "ĠÐ¼Ð°ÑĤÑĢÐ¸ÑĨ": 2666,
      "upper": 2667,
      "ĠNetwork": 2668,
      "Ġgenerate": 2669,
      "cd": 2670,
      "duration": 2671,
      "height": 2672,
      "}};\\": 2673,
      "ÑģÐ¾ÑĢÑĤ": 2674,
      "ces": 2675,
      "ÑĢÐ°ÑģÑĤ": 2676,
      "((": 2677,
      ")),": 2678,
      "22": 2679,
      "AI": 2680,
      "Car": 2681,
      "Per": 2682,
      "request": 2683,
      "Ġtra": 2684,
      "Ð»Ð°ÑģÑģ": 2685,
      "Ġas": 2686,
      "Ġss": 2687,
      "istory": 2688,
      "accept": 2689,
      "ĠÑĢÐ°Ð±Ð¾ÑĤ": 2690,
      "args": 2691,
      "lower": 2692,
      "End": 2693,
      "Out": 2694,
      "free": 2695,
      "Ġfree": 2696,
      "serialize": 2697,
      "Ġgen": 2698,
      "earch": 2699,
      "ĠÑĥÐºÐ°Ð·Ð°ÑĤÐµÐ»ÑĮ": 2700,
      "Ġworker": 2701,
      "ĠÐ¿ÐµÑĢÐµÐ¼ÐµÐ½": 2702,
      "ĠÐ¡Ð¾Ð·Ð´Ð°ÐµÐ¼": 2703,
      "AM": 2704,
      "handler": 2705,
      "iss": 2706,
      "pend": 2707,
      "Ġsignal": 2708,
      "Ġ{{": 2709,
      "erge": 2710,
      "enter": 2711,
      "Ð¸ÐºÐ°": 2712,
      "ĠÐºÐ¾Ð½ÑģÑĤÐ°Ð½ÑĤ": 2713,
      "Ġargs": 2714,
      "ÑģÐ¿Ð¾Ð»ÑĮÐ·ÑĥÐµÐ¼": 2715,
      "Builder": 2716,
      "RC": 2717,
      "ouse": 2718,
      "ĠÑħ": 2719,
      "ĠQu": 2720,
      "ination": 2721,
      "onac": 2722,
      "Ġbad": 2723,
      "stringstream": 2724,
      "Ð²Ð¾Ð´": 2725,
      "Registry": 2726,
      "numerator": 2727,
      "roll": 2728,
      "celsius": 2729,
      "ÐµÐ¼Ð¾Ð½ÑģÑĤÑĢÐ°ÑĨÐ¸Ñı": 2730,
      "ÑģÐ¾ÑĢÑĤÐ¸ÑĢÐ¾Ð²Ð°Ð½": 2731,
      "onacci": 2732,
      "Act": 2733,
      "FI": 2734,
      "System": 2735,
      "Safe": 2736,
      "Search": 2737,
      "Ġsm": 2738,
      "ĠÐŁÐµÑĢ": 2739,
      "sions": 2740,
      "ĠÐ·Ð°Ðº": 2741,
      "Cont": 2742,
      "Ð¾Ð¿Ð¾Ð»Ð½": 2743,
      "ÑĢÐ°Ñī": 2744,
      "worker": 2745,
      "Ġdestroy": 2746,
      "Me": 2747,
      "Rectangle": 2748,
      "sw": 2749,
      "coeffs": 2750,
      "Ġmultiply": 2751,
      "Ġ200": 2752,
      "Ġtransaction": 2753,
      "Invalid": 2754,
      "Ð¸Ð¼ÑĥÐ¼": 2755,
      "numeric": 2756,
      "ÐŀÑĤ": 2757,
      "ĠWorld": 2758,
      "My": 2759,
      "PI": 2760,
      "Ser": 2761,
      "gram": 2762,
      "net": 2763,
      "arith": 2764,
      "Ġopt": 2765,
      "Ġconstruct": 2766,
      "itude": 2767,
      "Ġoperation": 2768,
      "ĠÐ·Ð½Ð°ÑĩÐµÐ½Ð¸Ñı": 2769,
      "arithmetic": 2770,
      "];": 2771,
      "due": 2772,
      "ken": 2773,
      "\\\"));\\": 2774,
      "Ð¸Ð»Ñı": 2775,
      "ĠÐ¿Ð¾Ð²": 2776,
      "++)\\": 2777,
      "ĠÑĤÐµÐº": 2778,
      "Ġtoken": 2779,
      "Ð¸Ð½Ð´ÑĢ": 2780,
      "Ġall": 2781,
      "Left": 2782,
      "ÑģÑĤÐ°Ð½Ð¾Ð²": 2783,
      "Ð¾ÑĢÑĤÐ¸ÑĢÐ¾Ð²": 2784,
      "ĠÐ¼Ð¾Ð¶ÐµÑĤ": 2785,
      "ym": 2786,
      "Ġ_": 2787,
      "idx": 2788,
      "area": 2789,
      "Ġconn": 2790,
      "ĠCount": 2791,
      "Ġsubject": 2792,
      "Ġobservers": 2793,
      "Ġclean": 2794,
      "Print": 2795,
      "mid": 2796,
      "dest": 2797,
      "decltype": 2798,
      "ÑĢÐµÐºÑĤ": 2799,
      "Ġscore": 2800,
      "Ġhigh": 2801,
      "Ġ')": 2802,
      "ÑģÐ»Ð¸": 2803,
      "ÑĦÑĦ": 2804,
      "fds": 2805,
      "face": 2806,
      "refix": 2807,
      "Strategy": 2808,
      "ĠArray": 2809,
      "ĠComm": 2810,
      "Age": 2811,
      "dp": 2812,
      "host": 2813,
      "ĠÑĢÑĥ": 2814,
      "initial": 2815,
      "Ġdigits": 2816,
      "rigin": 2817,
      "ĠÐ¿ÑĥÑģÑĤ": 2818,
      "ĠPerson": 2819,
      "ĠÐºÐ¾": 2820,
      "ĠÐ¸Ð¼": 2821,
      "159": 2822,
      "14159": 2823,
      "Ġpoints": 2824,
      "ĠSOCK": 2825,
      "packet": 2826,
      "ĠÑıÐ²Ð»ÑıÐµÑĤÑģÑı": 2827,
      "pth": 2828,
      "\\\"},\\": 2829,
      "enum": 2830,
      "ÑĢÐ¾Ðº": 2831,
      "Ġneighbor": 2832,
      "ÐµÑĢÐ¶": 2833,
      "ĠÐ±ÐµÐ·": 2834,
      "Ð½Ð°ÑĩÐµÐ½Ð¸Ðµ": 2835,
      "ĠÑĦÑĥÐ½Ðº": 2836,
      "Ġ\\\"%\\\"": 2837,
      "*>": 2838,
      "flag": 2839,
      "handle": 2840,
      "ote": 2841,
      "par": 2842,
      "Ġsalary": 2843,
      "ssage": 2844,
      "message": 2845,
      "ĠÑģÐ¿": 2846,
      "Student": 2847,
      "ĠÐŁÑĢÐ¾Ð²ÐµÑĢ": 2848,
      "Ð¸ÑĢÐ¾Ð²Ð°Ð½Ð¸Ñı": 2849,
      "ÑĥÐ´ÐµÐ½ÑĤ": 2850,
      "Grade": 2851,
      "ift": 2852,
      "Â°": 2853,
      "status": 2854,
      "Ġflags": 2855,
      "Ġinte": 2856,
      "Ġafter": 2857,
      "imeter": 2858,
      "istics": 2859,
      "Priority": 2860,
      "Log": 2861,
      "pattern": 2862,
      "visited": 2863,
      "Ð½Ð¾Ð¼": 2864,
      "Ġcustom": 2865,
      "unk": 2866,
      "Ġby": 2867,
      "ĠÑĩÐ°ÑģÑĤ": 2868,
      "ressed": 2869,
      "ÐĶÐ°": 2870,
      "Ġoutput": 2871,
      "Ġitems": 2872,
      "ĠĠĠĠĠĠĠĠĠĠĠĠĠĠĠĠĠĠĠĠĠ": 2873,
      "ĠÑĢÑĥÐ±": 2874,
      "Edge": 2875,
      "Pair": 2876,
      "av": 2877,
      "part": 2878,
      "Ġcalc": 2879,
      "ĠÐ¼Ð¸Ð½": 2880,
      "Ð¾Ð±Ñī": 2881,
      "Concrete": 2882,
      "Ġcompleted": 2883,
      "ÐµÐ²ÐµÑĢ": 2884,
      "ĠCommand": 2885,
      "element": 2886,
      "neighbor": 2887,
      "ĠValue": 2888,
      "search": 2889,
      "Ġfixed": 2890,
      "sian": 2891,
      "tesian": 2892,
      "Ð·Ð¾Ð²": 2893,
      "ĠÐŀÑĪÐ¸Ð±ÐºÐ°": 2894,
      "hash": 2895,
      "Pointer": 2896,
      "distance": 2897,
      "efficients": 2898,
      "cmp": 2899,
      "hold": 2900,
      "Ġ\\\".": 2901,
      "Ġcm": 2902,
      "gex": 2903,
      "Ġsorted": 2904,
      "method": 2905,
      "ĠSmart": 2906,
      "ÐŁÐ¾ÑĤÐ¾Ðº": 2907,
      "plier": 2908,
      "account": 2909,
      "Alice": 2910,
      "ÑĢÐµÐ´Ð½": 2911,
      "ĠÐļÐ¾Ð½": 2912,
      "ĠÐ²ÑĢÐµÐ¼Ñı": 2913,
      "Is": 2914,
      "item": 2915,
      "atistics": 2916,
      "Ġti": 2917,
      "rib": 2918,
      "ĠÑģÐµÐº": 2919,
      "perm": 2920,
      "ĠPlugin": 2921,
      "Ġclone": 2922,
      "Ġprocessor": 2923,
      "':": 2924,
      "OL": 2925,
      "ULL": 2926,
      "Ð½ÐµÑĤ": 2927,
      "Ġcv": 2928,
      "Ġjson": 2929,
      "uple": 2930,
      "Numbers": 2931,
      "ĠĠĠĠĠĠĠĠĠĠĠĠĠĠ": 2932,
      "LOCK": 2933,
      "ĠÑĥÐºÐ°Ð·Ð°ÑĤÐµÐ»": 2934,
      "ĠÐ¿Ð¾Ð·Ð¸": 2935,
      "17": 2936,
      "Salary": 2937,
      "da": 2938,
      "nÐ¡": 2939,
      "stop": 2940,
      "register": 2941,
      "Ġregistry": 2942,
      "Ð»Ð¾Ñī": 2943,
      "ÐµÐ½Ð½ÑĭÐ¹": 2944,
      "Ġcompute": 2945,
      "ertices": 2946,
      "Transaction": 2947,
      "Ð»Ð¾ÑīÐ°Ð´": 2948,
      "Lock": 2949,
      "Open": 2950,
      "with": 2951,
      "Ġ\\\"\\\";\\": 2952,
      "urse": 2953,
      "amil": 2954,
      "Ġmem": 2955,
      "Ð²Ð°Ð´": 2956,
      "irc": 2957,
      "Ð¾ÑĢÑıÐ´": 2958,
      "ĠÐºÐ¾Ð¿": 2959,
      "els": 2960,
      "Ð¸ÑģÐ¾Ðº": 2961,
      "children": 2962,
      "ĠCounter": 2963,
      "Tracker": 2964,
      "alar": 2965,
      "Ġauthor": 2966,
      "ission": 2967,
      "otype": 2968,
      "---": 2969,
      "ĠÑĤÐ¾Ñĩ": 2970,
      "ĠÐ½Ð°Ñĩ": 2971,
      "Ġreversed": 2972,
      "ĠÐ·Ð°Ð²ÐµÑĢÑĪ": 2973,
      "ĠÐŁÑĢÐ¾Ð²ÐµÑĢÑıÐµÐ¼": 2974,
      "]->": 2975,
      "nenum": 2976,
      "com": 2977,
      "()(": 2978,
      "Ġdate": 2979,
      "Ġdraw": 2980,
      "ish": 2981,
      "ĠÐ¿Ð¾Ð»ÑĮÐ·Ð¾Ð²": 2982,
      "Ð°Ð»Ð¸Ð½Ð´ÑĢ": 2983,
      "ĠAl": 2984,
      "ĠÐ¾ÑĤÑĢÐ¸ÑĨÐ°ÑĤÐµÐ»ÑĮ": 2985,
      "Ġadjacency": 2986,
      "Ð¸ÑģÑĤÐµÐ¼": 2987,
      "ĠÐºÐ¾Ð¼Ð¿Ð¸Ð»Ñı": 2988,
      "Ð°Ð»Ð¸Ð½Ð´ÑĢÐ¾Ð¼": 2989,
      "([": 2990,
      "+(": 2991,
      "89": 2992,
      "ml": 2993,
      "visit": 2994,
      "invalid": 2995,
      "Ð¸Ð¸": 2996,
      "Ġip": 2997,
      "Ġdx": 2998,
      "Ġhton": 2999,
      "ĠMult": 3000,
      "ĠÐĺÑģÐ¿Ð¾Ð»ÑĮÐ·Ð¾Ð²Ð°Ð½Ð¸Ðµ": 3001,
      "Ġquantity": 3002,
      "priority": 3003,
      "Ġactive": 3004,
      "Integer": 3005,
      "ĠPriority": 3006,
      "**": 3007,
      "Cannot": 3008,
      "Ð¸Ð»ÑĮ": 3009,
      "alid": 3010,
      "Ġfut": 3011,
      "Ġterm": 3012,
      "rie": 3013,
      "ĠÐ´Ð¸Ð°Ð¿Ð°Ð·": 3014,
      "ĠMy": 3015,
      "ĠValid": 3016,
      "andlers": 3017,
      "forward": 3018,
      "ÐŁÐµÑĢÐ²": 3019,
      "ÐŃÐ»ÐµÐ¼ÐµÐ½ÑĤ": 3020,
      "cache": 3021,
      "last": 3022,
      "Ð¸Ð°Ð½": 3023,
      "ĠĠĠĠĠĠĠĠĠ": 3024,
      "ÐĶÐ»Ð¸Ð½Ð°": 3025,
      "ĠÑĤÐ¸Ð¿Ð°": 3026,
      "price": 3027,
      "ÐµÐ¶Ð´": 3028,
      "traits": 3029,
      "AG": 3030,
      "Cre": 3031,
      "ision": 3032,
      "impl": 3033,
      "rate": 3034,
      "sal": 3035,
      "Ġent": 3036,
      "ĠÑĨÐ¸": 3037,
      "ines": 3038,
      "lem": 3039,
      "Ġmerge": 3040,
      "Ġfield": 3041,
      "Ġcity": 3042,
      "ical": 3043,
      "Ð¼Ð½Ð¾Ð¶": 3044,
      "Ġdecltype": 3045,
      "[]()": 3046,
      "ÐĿÐ°Ð¹Ð´ÐµÐ½": 3047,
      "ĠConnection": 3048,
      "Ġuse": 3049,
      "Ġ[&": 3050,
      "ĠÐ¿Ð¾Ð»ÑĥÑĩ": 3051,
      "ĠÑĤÐ¸Ð¿Ð¾Ð²": 3052,
      "ĠÑģÑĤÑĢÐ¾ÐºÑĥ": 3053,
      "notify": 3054,
      "ÑĭÐ²Ð¾Ð´": 3055,
      "scription": 3056,
      "12345": 3057,
      "Seconds": 3058,
      "Ð¾Ð¿Ð¾Ð»Ð½Ð¸ÑĤÐµÐ»ÑĮ": 3059,
      "19": 3060,
      ">:": 3061,
      "Use": 3062,
      "Vec": 3063,
      "gen": 3064,
      "Ġmatch": 3065,
      "Ġifstream": 3066,
      "ched": 3067,
      "versal": 3068,
      "Ð¼ÐµÑĤ": 3069,
      "apple": 3070,
      "ÑĢÑĥÐ¶": 3071,
      "undo": 3072,
      "Ġsuccessf": 3073,
      "Pos": 3074,
      "ti": 3075,
      "target": 3076,
      "ĠÐ¨": 3077,
      "Ġdo": 3078,
      "Ġbinary": 3079,
      "ilter": 3080,
      "ĠÐ´ÐµÐ»": 3081,
      "ĠAF": 3082,
      "ĠprintArray": 3083,
      "Ġsetprecision": 3084,
      "ĠÐĴÑĭÐ²Ð¾Ð´": 3085,
      "refCount": 3086,
      "Ġshow": 3087,
      "ĠDatabase": 3088,
      "ĠAnimal": 3089,
      "Ð¾ÑıÐ½Ð¸Ðµ": 3090,
      "ĠÐºÐ¾Ð¼Ð¿Ð¸Ð»ÑıÑĨÐ¸Ð¸": 3091,
      "Ġhtons": 3092,
      "Current": 3093,
      "Dep": 3094,
      "Yes": 3095,
      "block": 3096,
      "Ġ\\\"(\\\"": 3097,
      "Ġ\\\"\\\")": 3098,
      "Ð¸Ñħ": 3099,
      "ÑĢÐ°Ð½": 3100,
      "ÑĢÐ¾Ñģ": 3101,
      "ars": 3102,
      "Ġpower": 3103,
      "Ġcan": 3104,
      "ities": 3105,
      "Ð²ÑĢÐ°Ñī": 3106,
      "Ġidx": 3107,
      "ĠEmp": 3108,
      "ĠÐ²ÑĭÐ¿Ð¾Ð»Ð½": 3109,
      "ĠState": 3110,
      "Ġencoded": 3111,
      "Ġ\\\"'\\\"": 3112,
      "Ġblocks": 3113,
      ">());\\": 3114,
      "Origin": 3115,
      "Table": 3116,
      "famil": 3117,
      "Ġreset": 3118,
      "cont": 3119,
      "Ġcoeffs": 3120,
      "ĠÐºÐ°Ðº": 3121,
      "Ð°Ð½Ð¸Ñİ": 3122,
      "imen": 3123,
      "ĠNum": 3124,
      "ÑĢÐ°Ð±Ð¾ÑĤÐºÐ°": 3125,
      "Ð¾ÑĢÐ¸ÑĤÐµÑĤ": 3126,
      "family": 3127,
      "ES": 3128,
      "reinterpret": 3129,
      "Ð½Ð¸Ð³": 3130,
      "Ġvolume": 3131,
      "ÐµÐ½Ð½Ð°Ñı": 3132,
      "ĠCh": 3133,
      "Ġhead": 3134,
      "Ð´Ð¸Ð½": 3135,
      "Ð¾Ð»ÑĮÐº": 3136,
      "tains": 3137,
      "ĠÑĢÐ°Ð·Ð¼ÐµÑĢ": 3138,
      "Price": 3139,
      "servation": 3140,
      "Ġ\\\"/\\\"": 3141,
      "ek": 3142,
      "nstring": 3143,
      "Ġorder": 3144,
      "level": 3145,
      "Ġmtx": 3146,
      "ĠTree": 3147,
      "ĠBox": 3148,
      "ĠMessage": 3149,
      "Ġconnection": 3150,
      "types": 3151,
      "ĠID": 3152,
      "Interest": 3153,
      "quire": 3154,
      "Div": 3155,
      "Var": 3156,
      "oice": 3157,
      "xy": 3158,
      "ÑģÐº": 3159,
      "tex": 3160,
      "Ð¿ÑĢ": 3161,
      "minant": 3162,
      "ĠÐ³Ð¾Ð´": 3163,
      "ĠÐ¢ÐµÑģÑĤ": 3164,
      "ĠÑĤÑĢÐµ": 3165,
      "ĠTransaction": 3166,
      "Holder": 3167,
      "It": 3168,
      "Json": 3169,
      "erence": 3170,
      "pow": 3171,
      "orrow": 3172,
      "Ġfs": 3173,
      "Ġdb": 3174,
      "Ð»Ð¸Ð½": 3175,
      "Ġprefix": 3176,
      "Ġsp": 3177,
      "sizeof": 3178,
      "Record": 3179,
      "Ġinorder": 3180,
      "ifstream": 3181,
      "Substring": 3182,
      "ADD": 3183,
      "ĠBankAccount": 3184,
      "Ð²Ð°Ð´ÑĢÐ°ÑĤ": 3185,
      "dx": 3186,
      "match": 3187,
      "Ð¨": 3188,
      "Ġdq": 3189,
      "Ġsrc": 3190,
      "ĠÐ¿Ð°Ð»Ð¸Ð½Ð´ÑĢÐ¾Ð¼": 3191,
      "ĠÑģÐ¾ÑĢÑĤÐ¸ÑĢÐ¾Ð²": 3192,
      "Reference": 3193,
      "ĠÐ´Ð¾ÑģÑĤÑĥÐ¿": 3194,
      "Ġgre": 3195,
      "uffman": 3196,
      "Ġsettings": 3197,
      "Ġaddress": 3198,
      "ÐľÐ°ÑģÑģÐ¸Ð²": 3199,
      "ĠÑĢÐµÑĪ": 3200,
      "ABC": 3201,
      "Color": 3202,
      "ĠTemperature": 3203,
      "Dist": 3204,
      "aded": 3205,
      "grade": 3206,
      "matrix": 3207,
      "width": 3208,
      "Ġlo": 3209,
      "instance": 3210,
      "ĠÐķ": 3211,
      "Ġred": 3212,
      "arm": 3213,
      "Ġpid": 3214,
      "Ġbit": 3215,
      "Ð²Ð°": 3216,
      "ĠÐ²ÑĤÐ¾ÑĢ": 3217,
      "Ð´ÐµÐ»": 3218,
      "Ð°ÑģÑģÑĤ": 3219,
      "Ð¾Ð¿Ð°Ñģ": 3220,
      "Ð¾ÑĩÐºÐ°": 3221,
      "eady": 3222,
      "Ġreverse": 3223,
      "Ap": 3224,
      "evaluate": 3225,
      "ite": 3226,
      "lib": 3227,
      "nÐŁÑĢ": 3228,
      "patch": 3229,
      "Ġcenter": 3230,
      "verse": 3231,
      "Ġlibrary": 3232,
      "Ġ\\\"\\\\\\\"\\\"": 3233,
      "Ġdec": 3234,
      "Ð´ÐµÐºÑģ": 3235,
      "ĠNULL": 3236,
      "ĠÑĢÐ°Ð´": 3237,
      "ĠAny": 3238,
      "Ġconstructor": 3239,
      "Ð»Ð¾ÑīÐ°Ð´ÑĮ": 3240,
      "dis": 3241,
      "fer": 3242,
      "running": 3243,
      "Ġ.": 3244,
      "Ġsig": 3245,
      "Ġload": 3246,
      "Ġrelease": 3247,
      "Ġavailable": 3248,
      "Cost": 3249,
      "Ð¿ÑĢÐµÐ´ÐµÐ»": 3250,
      "escri": 3251,
      "ultiplier": 3252,
      "Ġlevel": 3253,
      "Empty": 3254,
      "cessed": 3255,
      "fixed": 3256,
      "uck": 3257,
      "Ð«": 3258,
      "Ġlow": 3259,
      "student": 3260,
      "rer": 3261,
      "derer": 3262,
      "ÑĢÐ°Ð½Ð¸": 3263,
      "Ġdfs": 3264,
      "Ġ18": 3265,
      "itor": 3266,
      "ĠÑģÑĩÐµÑĤ": 3267,
      "ĠSer": 3268,
      "ĠSquare": 3269,
      "ecut": 3270,
      "printInfo": 3271,
      "Ġzero": 3272,
      "ABLE": 3273,
      "Ð¸ÑĦÐ¸Ðº": 3274,
      "----------------": 3275,
      "uda": 3276,
      "requency": 3277,
      "ĠBigInt": 3278,
      "Person": 3279,
      "Singleton": 3280,
      "ered": 3281,
      "mul": 3282,
      "utation": 3283,
      "clval": 3284,
      "Ġrunning": 3285,
      "Ġgcd": 3286,
      "Ð°Ð»Ð¸Ð´": 3287,
      "ĠAdd": 3288,
      "Ġofstream": 3289,
      "color": 3290,
      "ĠÑģÑĤÑĢÐ¾ÐºÐ°": 3291,
      "Ð°Ð±Ð»Ð¾Ð½": 3292,
      "ĠEmployee": 3293,
      "ĠNumber": 3294,
      "Ð¾Ð»ÑĮÐºÐ¾": 3295,
      "23": 3296,
      "AP": 3297,
      "Case": 3298,
      "IP": 3299,
      "]]": 3300,
      "nÐĶ": 3301,
      "dec": 3302,
      "uest": 3303,
      "Ġbuild": 3304,
      "getValue": 3305,
      "lication": 3306,
      "Ð°Ð»Ð»": 3307,
      "ÑĥÑİÑī": 3308,
      "Ġinterest": 3309,
      "balance": 3310,
      "Ġ\\\"================": 3311,
      "Ġfactory": 3312,
      "setprecision": 3313,
      "*>(&": 3314,
      "gistered": 3315,
      "ĠÐ¾ÑĪÐ¸Ð±": 3316,
      "Ġmodel": 3317,
      "PE": 3318,
      "graph": 3319,
      "ise": 3320,
      "tv": 3321,
      "reset": 3322,
      "Ġdigit": 3323,
      "isValid": 3324,
      "ĠÐ¿Ð¾ÑĢÑıÐ´": 3325,
      "mage": 3326,
      "ÑĨÐµÐ½": 3327,
      "ĠÐŁÐ¾Ð»": 3328,
      "Ð¡ÑĤÑĢÐ¾Ðº": 3329,
      "ĠÐĹÐ°Ð¿": 3330,
      "eekday": 3331,
      "65": 3332,
      "bal": 3333,
      "ere": 3334,
      "flags": 3335,
      "ten": 3336,
      "âľ": 3337,
      "Ġ^": 3338,
      "Ġsi": 3339,
      "Ġstep": 3340,
      "resize": 3341,
      "ĠÐĽ": 3342,
      "Ġ11": 3343,
      "Ġhost": 3344,
      "Ð°Ð½Ð¾Ð²": 3345,
      "ĠÐ·Ð°Ð´Ð°Ñĩ": 3346,
      "ĠComplexNumber": 3347,
      "ÐĹÐ½Ð°ÑĩÐµÐ½Ð¸Ðµ": 3348,
      "Mo": 3349,
      "gress": 3350,
      "nÐŁÐ¾ÑģÐ»Ðµ": 3351,
      "variable": 3352,
      "Ġlocal": 3353,
      "Ġmust": 3354,
      "Ġfd": 3355,
      "Ġperm": 3356,
      "Ġcategory": 3357,
      "ÑĥÐ±": 3358,
      "ÑĥÑĢÐ°": 3359,
      "iton": 3360,
      "ÐµÑĤÑĢ": 3361,
      "Ġ'-": 3362,
      "Ð·Ñı": 3363,
      "ÐµÐ»ÑĮÐ·Ñı": 3364,
      "Ð¸Ð²Ð°ÐµÐ¼": 3365,
      "STRE": 3366,
      "product": 3367,
      "Leap": 3368,
      "ĠÐ¼Ð°ÑģÑģÐ¸Ð²Ð°": 3369,
      "ÑĥÑģÐºÐ°": 3370,
      "Colleague": 3371,
      "cstdlib": 3372,
      "ĠÑĨÐ¸ÑĦ": 3373,
      "STREAM": 3374,
      "Document": 3375,
      "Ġpop": 3376,
      "Ġboolalpha": 3377,
      "pher": 3378,
      "ĠNon": 3379,
      "Ð¸ÐºÑģ": 3380,
      "Ð°ÑĢÑĤ": 3381,
      "ĠÐ²ÑĭÑĩÐ¸ÑģÐ»": 3382,
      "sorted": 3383,
      "ADDR": 3384,
      "Det": 3385,
      "cat": 3386,
      "hello": 3387,
      "ood": 3388,
      "wner": 3389,
      "ĠÐĵ": 3390,
      "Ġeps": 3391,
      "ĠMe": 3392,
      "ĠAc": 3393,
      "ached": 3394,
      "ified": 3395,
      "ĠEn": 3396,
      "ĠGame": 3397,
      "Ġquery": 3398,
      "tasks": 3399,
      "##": 3400,
      ")\\\");\\": 3401,
      "For": 3402,
      "Over": 3403,
      "link": 3404,
      "stamp": 3405,
      "section": 3406,
      "Ġperson": 3407,
      "Ð°Ð¶": 3408,
      "ates": 3409,
      "lobal": 3410,
      "ĠÐ²ÐµÑĢÑĪ": 3411,
      "tuple": 3412,
      "errno": 3413,
      "cret": 3414,
      "ĠÐĶÐµÐ¼Ð¾Ð½ÑģÑĤÑĢÐ°ÑĨÐ¸Ñı": 3415,
      "ÑıÑĤÑĮ": 3416,
      "ĠÐ´Ð¾Ð»Ð¶Ð½Ð¾": 3417,
      "Ġusers": 3418,
      "ĠColor": 3419,
      "swap": 3420,
      "Digit": 3421,
      "Even": 3422,
      "FS": 3423,
      "bst": 3424,
      "negative": 3425,
      "pi": 3426,
      "Â²": 3427,
      "ĠÑģÑĤÑĢ": 3428,
      "ĠÐ¾Ñģ": 3429,
      "Ġcard": 3430,
      "ular": 3431,
      "ĠSub": 3432,
      "mask": 3433,
      "Ð´Ð²": 3434,
      "peration": 3435,
      "values": 3436,
      "ĠÑĢÐµÐ·ÑĥÐ»ÑĮÑĤÐ°ÑĤ": 3437,
      "Ð¸ÑĨÐ°": 3438,
      "okenType": 3439,
      "Uni": 3440,
      "ĠÐ£Ð´Ð°Ð»": 3441,
      "Ġweights": 3442,
      "Allocator": 3443,
      "ĠÐ´Ð°Ð½Ð½ÑĭÑħ": 3444,
      "Ġdestroyed": 3445,
      "40": 3446,
      "Version": 3447,
      "hren": 3448,
      "ome": 3449,
      "sp": 3450,
      "stat": 3451,
      "Ð°ÑİÑī": 3452,
      "sic": 3453,
      "Ġ16": 3454,
      "threads": 3455,
      "boolalpha": 3456,
      "ĠStack": 3457,
      "ĠOr": 3458,
      "ĠWidget": 3459,
      "Ġmethod": 3460,
      "ĠÐ²ÑģÐµÑħ": 3461,
      "heit": 3462,
      "ĠThreadSafe": 3463,
      "Ġcmd": 3464,
      "hrenheit": 3465,
      "Descri": 3466,
      "Month": 3467,
      "VAL": 3468,
      "Work": 3469,
      "book": 3470,
      "buf": 3471,
      "car": 3472,
      "case": 3473,
      "Ð¯": 3474,
      "det": 3475,
      "Ġvertices": 3476,
      "ÑģÑĤÐ°Ð²": 3477,
      "Ġ---": 3478,
      "Ġlimit": 3479,
      "inder": 3480,
      "Storage": 3481,
      "ĠÐºÐ»Ð°ÑģÑģ": 3482,
      "ĠmaxVal": 3483,
      "ÐµÑģÑĥÑĢÑģ": 3484,
      "},{": 3485,
      "ĠÐ¡ÑģÑĭÐ»": 3486,
      "ĠÑĢÐ°Ð²": 3487,
      "Ġcomponents": 3488,
      "ibonacci": 3489,
      "ĠÐľÐµÑĤÐ¾Ð´": 3490,
      "Ġ\\\\\\\"": 3491,
      "scribe": 3492,
      "ĠÑģÐ¸Ð¼Ð²Ð¾Ð»Ð¾Ð²": 3493,
      "ĠÐ¿ÐµÑĢÐµÐ¼ÐµÑī": 3494,
      "ĠÐ¡Ð¾Ð·Ð´Ð°Ð½Ð¸Ðµ": 3495,
      "ĲâķĲâķĲâķĲâķĲâķĲâķĲâķĲâķ": 3496,
      "ĠÑĤÐµÐºÑģÑĤ": 3497,
      "<<(": 3498,
      "Binary": 3499,
      "ROR": 3500,
      "World": 3501,
      "lt": 3502,
      "nvector": 3503,
      "ĠX": 3504,
      "ĠÐ°ÑĢ": 3505,
      "Ð½ÑĥÑĤ": 3506,
      "Ġreceived": 3507,
      "Ġep": 3508,
      "ĠCalculator": 3509,
      "ĠÐ´Ð¾Ð±Ð°Ð²": 3510,
      "Ð¾ÑĢÑĢÐµÐºÑĤ": 3511,
      "ĠÐ¸ÑģÐ¿Ð¾Ð»ÑĮÐ·Ð¾Ð²": 3512,
      "ofstream": 3513,
      "Ð±Ð¾ÑĢ": 3514,
      "Arr": 3515,
      "ĠÐĶÐ¾Ð¿Ð¾Ð»Ð½Ð¸ÑĤÐµÐ»ÑĮ": 3516,
      "ĠÑĦÑĥÐ½ÐºÑĨÐ¸Ñı": 3517,
      "ĠGraph": 3518,
      "Ð¸ÑĩÐµÑģÐºÐ¸": 3519,
      "Ġdestination": 3520,
      "Ð¸ÑĦÑĢÐ¾Ð²": 3521,
      "Ġscalar": 3522,
      "Ð¸ÑĩÐµÑģÐºÐ¾Ðµ": 3523,
      "Ġroom": 3524,
      "BLOCK": 3525,
      "cnt": 3526,
      "totype": 3527,
      "ĠÐ¾ÑģÑĤ": 3528,
      "Ð¸ÑĥÑģ": 3529,
      "alth": 3530,
      "Ð»ÐµÐ½Ð¸Ñı": 3531,
      "Ġhandlers": 3532,
      "Ġchange": 3533,
      "ivot": 3534,
      "Ġ1024": 3535,
      "ventory": 3536,
      "ĠÑĥÑģÑĤÐ°Ð½Ð¾Ð²": 3537,
      "haredPtr": 3538,
      "ÐķÐĿ": 3539,
      "Ġsides": 3540,
      "TreeNode": 3541,
      "Ġresources": 3542,
      "cntl": 3543,
      "NO": 3544,
      "__": 3545,
      "bind": 3546,
      "sa": 3547,
      "ĠEx": 3548,
      "ÑĤÐ¾Ð¼": 3549,
      "Ġeven": 3550,
      "isor": 3551,
      "ĠCustom": 3552,
      "sets": 3553,
      "ĠMemory": 3554,
      "ĠÐ¿ÑĢÐ¾ÑģÑĤ": 3555,
      "ĠÑĦÐ¾ÑĢÐ¼": 3556,
      "rieNode": 3557,
      "Door": 3558,
      "MIN": 3559,
      "MENT": 3560,
      "RI": 3561,
      "cy": 3562,
      "down": 3563,
      "gate": 3564,
      "Ġcelsius": 3565,
      "utable": 3566,
      "arpa": 3567,
      "anana": 3568,
      "ÑĥÐ»Ñı": 3569,
      "Ġelem": 3570,
      "ÑĩÐ¸Ðº": 3571,
      "ĠÐ²ÐµÑĢ": 3572,
      "ĠÐ´Ð»Ð¸Ð½": 3573,
      "Ġresults": 3574,
      "ĠMath": 3575,
      "--)": 3576,
      "ĠÑĩÐµÑĤ": 3577,
      "ÐµÑģÑģ": 3578,
      "ÑįÑĪ": 3579,
      "ĠStatus": 3580,
      "Ġtimeout": 3581,
      "STNode": 3582,
      "ÑĥÐ½Ð´": 3583,
      "ĠÐĺÑģÐ¿Ð¾Ð»ÑĮÐ·ÑĥÐµÐ¼": 3584,
      "Ġstudents": 3585,
      "Ð²ÐµÑĢÑĤ": 3586,
      "Ġedges": 3587,
      "netinet": 3588,
      "CC": 3589,
      "Custom": 3590,
      "Calculator": 3591,
      "]))": 3592,
      "ace": 3593,
      "box": 3594,
      "ness": 3595,
      "we": 3596,
      "Ġuni": 3597,
      "comm": 3598,
      "Ð½Ñı": 3599,
      "sequence": 3600,
      "Ġpi": 3601,
      "Ġspeed": 3602,
      "getInstance": 3603,
      "licit": 3604,
      "ĠÑģÐ¾Ð²": 3605,
      "Ð°ÑĤÐ°": 3606,
      "Stats": 3607,
      "ÑĢÑĥÑĪ": 3608,
      "Ð¢ÐµÐº": 3609,
      "ĠÐ¾Ð±ÑĢÐ°Ð±Ð¾ÑĤ": 3610,
      "actorial": 3611,
      "ĠÑģÑģÑĭÐ»ÐºÐ°": 3612,
      "ĠINF": 3613,
      "show": 3614,
      "Ġscale": 3615,
      "ming": 3616,
      "osi": 3617,
      "src": 3618,
      "climits": 3619,
      "trans": 3620,
      "ÑĨÐ¸Ð¹": 3621,
      "Ġinv": 3622,
      "ĠgetType": 3623,
      "counter": 3624,
      "ĠĠĠĠĠĠĠĠĠĠĠĠĠĠĠĠĠĠĠĠĠĠĠĠĠĠĠ": 3625,
      "active": 3626,
      "imum": 3627,
      "Idx": 3628,
      "ÐľÐ°ÐºÑģÐ¸Ð¼Ð°Ð»ÑĮ": 3629,
      "ĠÑĢÐµ": 3630,
      "days": 3631,
      "allable": 3632,
      "ĠÐĶÐ¾Ð±Ð°Ð²Ð»ÑıÐµÐ¼": 3633,
      "ÑĥÑģÐºÐ°ÐµÐ¼": 3634,
      "([](": 3635,
      "/(": 3636,
      "First": 3637,
      "Right": 3638,
      "Us": 3639,
      "Widget": 3640,
      "board": 3641,
      "ipher": 3642,
      "used": 3643,
      "clone": 3644,
      "Ġphone": 3645,
      "Ġssize": 3646,
      "Ġsuffix": 3647,
      "Ð°Ð½Ñģ": 3648,
      "Ġ31": 3649,
      "Ġincrement": 3650,
      "Ð¾Ð´Ð¸ÑĦÐ¸Ðº": 3651,
      "\\\");": 3652,
      "Ð¾Ð±ÑĭÑĤ": 3653,
      "ÑĥÐ¼ÐµÐ½ÑĤ": 3654,
      "Ġexpression": 3655,
      "Ġshift": 3656,
      "Ġevents": 3657,
      "Ġposition": 3658,
      "Ð¾Ð½ÑģÑĤÑĢÑĥÐºÑĤÐ¾ÑĢ": 3659,
      "gregate": 3660,
      "ĠÐĴÑĭÑĩÐ¸ÑģÐ»": 3661,
      "ĠÐ²Ð¾Ð·ÑĢÐ°ÑģÑĤ": 3662,
      "layer": 3663,
      "ĠÑģÐ¾Ð¾Ð±Ñī": 3664,
      "AII": 3665,
      "PU": 3666,
      "vg": 3667,
      "ÐµÐ¾Ð±": 3668,
      "Ð°ÐµÑĤÑģÑı": 3669,
      "Ġreq": 3670,
      "arted": 3671,
      "Ġcuda": 3672,
      "Ġsa": 3673,
      "Ġforward": 3674,
      "ÐºÐ¾Ð¹": 3675,
      "Ġwrapper": 3676,
      "Ġrate": 3677,
      "(),\\": 3678,
      "Ġthe": 3679,
      "emon": 3680,
      "acc": 3681,
      "ÐµÐ¹ÑģÑĤÐ²": 3682,
      "nown": 3683,
      "ĠÑģÑģÑĭÐ»ÐºÐ¸": 3684,
      "Ġquick": 3685,
      "Ġserialize": 3686,
      "ĠÑģÐ»Ð¾Ð²": 3687,
      "ĠÐ¿ÑĢÐ¸Ð¾ÑĢÐ¸ÑĤÐµÑĤ": 3688,
      "ĠMultiton": 3689,
      "div": 3690,
      "pose": 3691,
      "wo": 3692,
      "\\\"},": 3693,
      "Ġiss": 3694,
      "Ġfail": 3695,
      "Ġpassword": 3696,
      "Ġoffset": 3697,
      "Ġowner": 3698,
      "ĠÐ¿Ð°ÑĢ": 3699,
      "ĠSort": 3700,
      "...);\\": 3701,
      "1000": 3702,
      "Ġexplicit": 3703,
      "random": 3704,
      ".','": 3705,
      "Gen": 3706,
      "Posit": 3707,
      "Perm": 3708,
      "UE": 3709,
      "US": 3710,
      "gment": 3711,
      "house": 3712,
      "limits": 3713,
      "ping": 3714,
      "Ġcondition": 3715,
      "()>": 3716,
      "ĠÐ§": 3717,
      "Ġmag": 3718,
      "Ġevaluate": 3719,
      "ĠService": 3720,
      "strlen": 3721,
      "ĠÐ±ÑĥÐº": 3722,
      "ĠÐ±Ð¾Ð»ÑĮÑĪ": 3723,
      "ĠÑįÐ»ÐµÐ¼ÐµÐ½ÑĤÑĭ": 3724,
      "encies": 3725,
      "Blocks": 3726,
      "RUCache": 3727,
      "euron": 3728,
      "Ġ---\\\"": 3729,
      "ÐµÐ¾Ð±ÑĢÐ°Ð·": 3730,
      "Tra": 3731,
      "pu": 3732,
      "square": 3733,
      "visitor": 3734,
      "Ġ[]()": 3735,
      "deg": 3736,
      "Ġfront": 3737,
      "Ġ*(": 3738,
      "Ġlarge": 3739,
      "Ġhex": 3740,
      "mplement": 3741,
      "ĠcurrentState": 3742,
      "Ð¾Ð¿ÑĭÑĤ": 3743,
      "Ð¶Ðµ": 3744,
      "Ġallocated": 3745,
      "Ġdiscount": 3746,
      "Ð°ÑĤÑĢÐ¸ÑĨÐ°": 3747,
      "Ð´ÑĢÐµÑģ": 3748,
      "Employee": 3749,
      "Ð§Ð¸ÑģÐ»Ð¾": 3750,
      "Ð¡ÑĤÑĢÐ¾ÐºÐ°": 3751,
      "nitude": 3752,
      "ral": 3753,
      "variant": 3754,
      "};": 3755,
      "ĠÐŃ": 3756,
      "Ġversion": 3757,
      "Ġdoor": 3758,
      "Ð»Ð¾Ðº": 3759,
      "union": 3760,
      "==(": 3761,
      "Ġ#\\\"": 3762,
      "olar": 3763,
      "ÐµÑĢÑĮ": 3764,
      "ĠÐ¿Ð¾ÑģÐ»ÐµÐ´": 3765,
      "ĠÑģÐ¾ÑģÑĤ": 3766,
      "ptrTo": 3767,
      "Ð¾ÑĢÐ´Ð¸Ð½": 3768,
      "arehouse": 3769,
      "Ð¾Ð´ÐµÑĢÐ¶": 3770,
      "ÑĨÐ¸Ñİ": 3771,
      "Ġconver": 3772,
      "irtualBase": 3773,
      "ĠÑĢÐ°Ð·ÑĢÑĥÑĪ": 3774,
      "Ġaccounts": 3775,
      "Subsets": 3776,
      "ÐµÐ¿ÐµÑĢÑĮ": 3777,
      "Ġpercent": 3778,
      "\\\\\\\":": 3779,
      "1234567": 3780,
      "Ð¾ÑĢÐ´Ð¸Ð½Ð°ÑĤ": 3781,
      "EX": 3782,
      "Height": 3783,
      "Light": 3784,
      "OD": 3785,
      "Op": 3786,
      "Par": 3787,
      "Room": 3788,
      "Title": 3789,
      "ggregate": 3790,
      "declval": 3791,
      "att": 3792,
      "argest": 3793,
      "ÑĭÐ¼": 3794,
      "Ð¸Ð¶": 3795,
      "ĠÐ¿ÑĢÐ°Ð²": 3796,
      "ultip": 3797,
      "ĠCON": 3798,
      "ÑĢÐ°Ð¶": 3799,
      "ÐŁÐ»Ð¾ÑīÐ°Ð´ÑĮ": 3800,
      "ÑģÐ¿ÐµÑĪ": 3801,
      "ÑĥÐ¼Ð¼": 3802,
      "ById": 3803,
      "ĠÑģÑĤÑĢÐ¾ÐºÐ¸": 3804,
      "ÑıÐ¼Ð¾": 3805,
      "Ġclear": 3806,
      "Ġprimes": 3807,
      "ĠÑĤÑĢÐµÑĥÐ³Ð¾Ð»ÑĮÐ½Ð¸Ðº": 3808,
      "nÐŁÑĢÐ¸Ð¼ÐµÑĢ": 3809,
      "01": 3810,
      "35": 3811,
      "Double": 3812,
      "From": 3813,
      "Graph": 3814,
      "Negative": 3815,
      "Sh": 3816,
      "ule": 3817,
      "ĠÐ°Ð²": 3818,
      "ÑĢÐ¾": 3819,
      "Ġtri": 3820,
      "Ġpow": 3821,
      "Ġsin": 3822,
      "uld": 3823,
      "Ġdescription": 3824,
      "Recursive": 3825,
      "stration": 3826,
      "\\\")\\": 3827,
      "typeinfo": 3828,
      "ĠRE": 3829,
      "sides": 3830,
      "egral": 3831,
      "output": 3832,
      "lyweight": 3833,
      "operation": 3834,
      "ELD": 3835,
      "Ġnormalize": 3836,
      "FIELD": 3837,
      "Generator": 3838,
      "New": 3839,
      "Radius": 3840,
      "Ut": 3841,
      "offset": 3842,
      "win": 3843,
      "Ð°ÑİÑĤ": 3844,
      "Ð¸ÑģÑĤÑĢ": 3845,
      "ÐµÐ½Ð½Ð¾Ðµ": 3846,
      "Ð¾Ð²Ð°ÑĢ": 3847,
      "ÐµÑĢÐµÐ²": 3848,
      "ĠÐ¿ÑĢÐ¾Ð²ÐµÑĢ": 3849,
      "++;": 3850,
      "ĠÑģÐ¸ÑģÑĤÐµÐ¼": 3851,
      "Ð¸ÑĤÐµÐ»": 3852,
      "ĠBinary": 3853,
      "ÐºÐ°Ñı": 3854,
      "Ð·Ð¼ÐµÐ½": 3855,
      "ocket": 3856,
      "app": 3857,
      "ĠÐ±Ð¸ÑĤ": 3858,
      "ĠLine": 3859,
      "ÐľÐ°ÑĤÑĢÐ¸ÑĨÐ°": 3860,
      "ĠÑģÑĤÑĥÐ´ÐµÐ½ÑĤ": 3861,
      "Ġallocate": 3862,
      "Diff": 3863,
      "Util": 3864,
      "';": 3865,
      "77": 3866,
      "bug": 3867,
      "freq": 3868,
      "nunion": 3869,
      "ould": 3870,
      "Ġdot": 3871,
      "Ġcat": 3872,
      "olute": 3873,
      "Ð²ÐµÑĤ": 3874,
      "ĠTrieNode": 3875,
      "Complex": 3876,
      "Ġgrid": 3877,
      "Ġgroup": 3878,
      "ĠisValid": 3879,
      "INT": 3880,
      "ĠÐ²ÑĭÐ·Ð¾Ð²": 3881,
      "ĠÐĺÐ½": 3882,
      "Component": 3883,
      "Access": 3884,
      "Ġallocator": 3885,
      "ĠĠĠĠĠĠĠĠĠĠĠĠĠĠĠĠĠĠĠĠĠĠ": 3886,
      "Trans": 3887,
      "maining": 3888,
      "Content": 3889,
      "ÐµÐ¶Ð´Ñĥ": 3890,
      "ĠTreeNode": 3891,
      "Bob": 3892,
      "rec": 3893,
      "enable": 3894,
      "entry": 3895,
      "context": 3896,
      "Ġcost": 3897,
      "ĠSet": 3898,
      "ĠÐ½Ð¾Ð²": 3899,
      "Ġdatabase": 3900,
      "Ġ500": 3901,
      "ĠÐ¸Ð»Ð¸": 3902,
      "ÑįÑĦÑĦ": 3903,
      "Ġ80": 3904,
      "egment": 3905,
      "pecification": 3906,
      "Ð¸ÑĨÐ¸ÐµÐ½ÑĤ": 3907,
      "Ð¸Ð¼Ð¾ÑģÑĤÑĮ": 3908,
      "Copyable": 3909,
      "Original": 3910,
      "ĠSerializ": 3911,
      "ĠAccount": 3912,
      "osite": 3913,
      "ÑįÑĦÑĦÐ¸ÑĨÐ¸ÐµÐ½ÑĤ": 3914,
      "CS": 3915,
      "Line": 3916,
      "PEN": 3917,
      "SL": 3918,
      "field": 3919,
      "ru": 3920,
      "send": 3921,
      "var": 3922,
      "Ġ\"": 3923,
      "erg": 3924,
      "device": 3925,
      "Ġrest": 3926,
      "Ġregister": 3927,
      "ÑĤÐµÐ³": 3928,
      "sec": 3929,
      "Ġtable": 3930,
      "Ġaction": 3931,
      "Ġborrow": 3932,
      "Ġ13": 3933,
      "ĠÐ¼ÐµÐ¶Ð´Ñĥ": 3934,
      "101": 3935,
      "Ġses": 3936,
      "Ġengine": 3937,
      "ĠObject": 3938,
      "Ð¸Ð·Ð²ÐµÐ´": 3939,
      "ĠÑįÐ»ÐµÐ¼ÐµÐ½ÑĤÐ°": 3940,
      "Ð¼ÐµÐ½Ð°": 3941,
      "ÑĥÑīÐµÑģÑĤÐ²": 3942,
      "Method": 3943,
      "ĠÐ¸Ð¼Ðµ": 3944,
      "Unique": 3945,
      "ÑĤÐµÐ³ÑĢ": 3946,
      ")>": 3947,
      "At": 3948,
      "HE": 3949,
      "Hel": 3950,
      "]=": 3951,
      "ealth": 3952,
      "mit": 3953,
      "ĠÐ¾Ðº": 3954,
      "Ġ\\\"Â°": 3955,
      "Ġstarted": 3956,
      "Ġaverage": 3957,
      "Ġbits": 3958,
      "Ð¼ÐµÐ½Ð¸": 3959,
      "Ð°Ð»Ð°Ð½Ñģ": 3960,
      "ĠnewNode": 3961,
      "ÐĴÐµÐºÑĤÐ¾ÑĢ": 3962,
      "Ġconvert": 3963,
      "aps": 3964,
      "Ð¡ÑĢÐµÐ´Ð½": 3965,
      "ully": 3966,
      "ĠÐ¿ÑĢÐ¸Ñģ": 3967,
      "uplic": 3968,
      "Ð³Ð¾ÑĢÐ¸ÑĤ": 3969,
      "ĠÐ¾Ð±ÑĢÐ°ÑĤ": 3970,
      "ĠÐ¾ÑĤÐºÑĢ": 3971,
      "Struct": 3972,
      "ÑĭÐ²Ð°ÐµÐ¼": 3973,
      "Ġrecv": 3974,
      "ĠÐ¼Ð°ÑĤÑĢÐ¸ÑĨÑĭ": 3975,
      "ĠÐ¿Ð¾Ð·Ð¸ÑĨÐ¸Ð¸": 3976,
      "Ð°ÑģÑģÑĤÐ¾ÑıÐ½Ð¸Ðµ": 3977,
      "ĠÑĨÐ¸ÑĦÑĢ": 3978,
      "500": 3979,
      "88": 3980,
      "AS": 3981,
      "RT": 3982,
      "hex": 3983,
      "lue": 3984,
      "object": 3985,
      "tter": 3986,
      "ĠHandler": 3987,
      "enderer": 3988,
      "Ð°ÑĪ": 3989,
      "ÑĢÐ¾Ð±": 3990,
      "Ġ},": 3991,
      "async": 3992,
      "ĠĠĠĠĠĠĠĠĠĠĠĠĠĠĠĠĠĠĠĠĠĠĠĠĠĠĠĠĠĠĠĠ": 3993,
      "ĠÐŁÐ¾Ð¸ÑģÐº": 3994,
      "ĠLog": 3995,
      "ĠminVal": 3996,
      "ĠcacheMap": 3997,
      "STRU": 3998,
      "cryption": 3999,
      "ĠÐ¾Ð¿ÑĢÐµÐ´ÐµÐ»": 4000,
      "Ġgrades": 4001,
      "ĠÐ¼Ð¾Ð¶Ð½Ð¾": 4002,
      "ĠÐ·Ð°ÐºÐ°Ð·": 4003,
      "gramming": 4004,
      "ĠÐ¿Ð¾Ð»ÑĮÐ·Ð¾Ð²Ð°ÑĤÐµÐ»": 4005,
      "STRUCT": 4006,
      "-(": 4007,
      "200": 4008,
      "33": 4009,
      "55": 4010,
      ">>(": 4011,
      "Dis": 4012,
      "View": 4013,
      "aa": 4014,
      "ake": 4015,
      "Ġundo": 4016,
      "steady": 4017,
      "\\\"),": 4018,
      "copy": 4019,
      "integral": 4020,
      "ÑģÐµÐ³Ð¾": 4021,
      "container": 4022,
      "Ġtag": 4023,
      "Ġpivot": 4024,
      "Ġlight": 4025,
      "Ġht": 4026,
      "ĠÐºÐ»ÑİÑĩ": 4027,
      "chars": 4028,
      "ÐµÐ·Ð¾Ð¿Ð°Ñģ": 4029,
      "Ġaccess": 4030,
      "Ġ123": 4031,
      "Ġ255": 4032,
      "ĠDemo": 4033,
      "Interface": 4034,
      "ĠÐ¿Ð¾Ð»Ð¾Ð¶Ð¸ÑĤÐµÐ»ÑĮÐ½ÑĭÐ¼": 4035,
      "ĠÑģÐ¾ÑĢÑĤÐ¸ÑĢÐ¾Ð²ÐºÐ¸": 4036,
      "ĠOrder": 4037,
      "(\\": 4038,
      "Span": 4039,
      "network": 4040,
      "vance": 4041,
      "ÐµÑĨ": 4042,
      "depth": 4043,
      "Ġfuture": 4044,
      "Ġsym": 4045,
      "ĠÐ¿Ð°": 4046,
      "ĠÐ¿Ð°Ð¼": 4047,
      "ĠSize": 4048,
      "Ð¿Ð°Ð´": 4049,
      "ĠisPrime": 4050,
      "1024": 4051,
      "Ð¸ÑģÐºÐ°": 4052,
      "acy": 4053,
      "attery": 4054,
      "Ġ90": 4055,
      "encry": 4056,
      "2024": 4057,
      "Entry": 4058,
      "ĠÐłÐ°Ð·": 4059,
      "points": 4060,
      "Primes": 4061,
      "Ġloaded": 4062,
      "ĠÐķÑģÐ»Ð¸": 4063,
      "ÐµÐ¾Ð±ÑĢÐ°Ð·Ð¾Ð²": 4064,
      "circle": 4065,
      "my": 4066,
      "mode": 4067,
      "nT": 4068,
      "Ġobs": 4069,
      "ross": 4070,
      "getId": 4071,
      "Ð²ÐµÐ»": 4072,
      "ĠÑģÐ¾Ð±ÑĭÑĤ": 4073,
      "ĠÑģÑĥÐ¼Ð¼": 4074,
      "ĠTotal": 4075,
      "ĠTriangle": 4076,
      "Common": 4077,
      ">(\\": 4078,
      "andid": 4079,
      "[],": 4080,
      "Ġprocessed": 4081,
      "ÑģÑĤÑĢÑĥÐºÑĤÐ¾ÑĢ": 4082,
      "found": 4083,
      "Ġcompressed": 4084,
      "Ð¾ÑģÑĮ": 4085,
      "Ð°ÐºÑģÐ¸Ð¼ÑĥÐ¼": 4086,
      "Ġobjects": 4087,
      "Days": 4088,
      "ĠÐ¾Ð´Ð¸Ð½": 4089,
      "ĠÐºÐ¾Ð¾ÑĢÐ´Ð¸Ð½Ð°ÑĤ": 4090,
      "Description": 4091,
      "'},\\": 4092,
      "Average": 4093,
      "Card": 4094,
      "LET": 4095,
      "SET": 4096,
      "SON": 4097,
      "equal": 4098,
      "pool": 4099,
      "Ġ);\\": 4100,
      "Ð½ÐµÑĢ": 4101,
      "Ġiter": 4102,
      "Ġrear": 4103,
      "Ġremo": 4104,
      "icro": 4105,
      "oly": 4106,
      "Ġnames": 4107,
      "Ġwarehouse": 4108,
      "Ġcommand": 4109,
      "ĠST": 4110,
      "aren": 4111,
      "ÐĴÑģÐµ": 4112,
      "ĠÑĩÐ»ÐµÐ½": 4113,
      "ĠÑĩÑĤÐ¾": 4114,
      "ÐĿÐŀ": 4115,
      "ĠLRUCache": 4116,
      "ÐĺÐ½": 4117,
      "tocol": 4118,
      "Files": 4119,
      "Ġ99": 4120,
      "Ġanother": 4121,
      "ÐŁÑĢÐ¾": 4122,
      "components": 4123,
      "ĠÐ¸Ð½Ð´ÐµÐºÑģ": 4124,
      "Ġperimeter": 4125,
      "Ġworkers": 4126,
      "ÐµÐ²ÐµÑĢÐ½ÑĭÐ¹": 4127,
      "Ġsuccessfully": 4128,
      "ĠÐ£Ð´Ð°Ð»ÑıÐµÐ¼": 4129,
      "Field": 4130,
      "Iterator": 4131,
      "Ġ\\\"âľ": 4132,
      "Ġfabs": 4133,
      "Ġvar": 4134,
      "uel": 4135,
      "ges": 4136,
      "Ġwait": 4137,
      "Ġlazy": 4138,
      "ÐµÐ½Ð¸ÐµÐ¼": 4139,
      "person": 4140,
      "Ġgetline": 4141,
      "ĠVisitor": 4142,
      "ÐµÑģÐº": 4143,
      "ĠÐĶÐ»Ñı": 4144,
      "ÐĲÐ´ÑĢÐµÑģ": 4145,
      "ĠÐļÐ¾Ð½ÑģÑĤÑĢÑĥÐºÑĤÐ¾ÑĢ": 4146,
      "ATE": 4147,
      "ĠInter": 4148,
      "ĠValidation": 4149,
      "icroseconds": 4150,
      "Button": 4151,
      "CO": 4152,
      "Not": 4153,
      "capacity": 4154,
      "known": 4155,
      "sole": 4156,
      "()\\": 4157,
      "Ð»ÐµÐºÑģ": 4158,
      "Ġpalindrome": 4159,
      "Ġavg": 4160,
      "Ð°Ð±Ð¾ÑĤ": 4161,
      "tric": 4162,
      "change": 4163,
      "Ġ--": 4164,
      "isdigit": 4165,
      "ÐµÑĢÐµÐ´": 4166,
      "ĠÑģÑĥÐ¼Ð¼Ð°": 4167,
      "Ð¼Ð¾Ð¶": 4168,
      "Ġ32": 4169,
      "Ġinit": 4170,
      "ĠgetValue": 4171,
      "ĠPayment": 4172,
      "Ġ45": 4173,
      "Ġoverflow": 4174,
      "ÐµÑģÑı": 4175,
      "Ð¾ÑģÑĤÑĮ": 4176,
      "Ġalign": 4177,
      "Ġmost": 4178,
      "subscribe": 4179,
      "ĠÐ¸Ð·Ð¼ÐµÐ½Ð¸": 4180,
      "ÐµÐ³Ð¸ÑģÑĤÑĢ": 4181,
      "Ġcontrol": 4182,
      "Ð¸ÑĩÐµÑģÐºÐ°Ñı": 4183,
      "ÑĢÐ°Ð²Ð½ÐµÐ½Ð¸Ñı": 4184,
      "rector": 4185,
      "ĠÐ²Ð¾Ð·Ð²ÑĢÐ°Ñī": 4186,
      "ĠÐ¸Ð·Ð¼ÐµÐ½ÐµÐ½Ð¸Ñı": 4187,
      "ĠÑĢÐ°Ð´Ð¸ÑĥÑģ": 4188,
      "Ð¸Ð·Ð²ÐµÐ´ÐµÐ½Ð¸Ðµ": 4189,
      "Helper": 4190,
      "Ð³Ð¾ÑĢÐ¸ÑĤÐ¼": 4191,
      "Mod": 4192,
      "TH": 4193,
      "optional": 4194,
      "onus": 4195,
      "seek": 4196,
      "Ġmet": 4197,
      "Ġmutable": 4198,
      "Ġsk": 4199,
      "Ð²ÐµÑģÑĤ": 4200,
      "Ġ24": 4201,
      "ĠÐ½ÐµÐ»ÑĮÐ·Ñı": 4202,
      "Ġchunk": 4203,
      "Ġinfo": 4204,
      "Ð¸ÑĤÑģÑı": 4205,
      "ĠPrint": 4206,
      "etwe": 4207,
      "ĠDE": 4208,
      "ĠDog": 4209,
      "ĠDocument": 4210,
      "ÑĪÐµ": 4211,
      "ĠÑĥÑģÐ¿ÐµÑĪ": 4212,
      "Names": 4213,
      "listen": 4214,
      "Ġexponent": 4215,
      "Ġshort": 4216,
      "ĠÐ¿Ð¾Ð´ÑģÑĤÑĢÐ¾Ðº": 4217,
      "Ġtransform": 4218,
      "ĠÐ´Ð°Ð½Ð½ÑĭÐµ": 4219,
      "allest": 4220,
      "Ġpages": 4221,
      "Overdue": 4222,
      "lta": 4223,
      "etween": 4224,
      "13": 4225,
      "Equal": 4226,
      "ahrenheit": 4227,
      "bits": 4228,
      "cp": 4229,
      "do": 4230,
      "email": 4231,
      "ms": 4232,
      "title": 4233,
      "was": 4234,
      "Ġ\\\".\\\"": 4235,
      "release": 4236,
      "orter": 4237,
      "Ġrecomm": 4238,
      "Ġbest": 4239,
      "ÐµÐ½Ñĭ": 4240,
      "transaction": 4241,
      "Ġlps": 4242,
      "Ġlcs": 4243,
      "Ð¼ÐµÑģÑĤ": 4244,
      "ĠisOn": 4245,
      "Ð¾ÑĤÐ°": 4246,
      "ÑĢÐ°ÑĦ": 4247,
      "scale": 4248,
      "ĠResourceWrapper": 4249,
      "ÐŀÐ±Ñī": 4250,
      "ĠÑģÐ»ÑĥÑĩ": 4251,
      "Ġdifference": 4252,
      "ĠÐ¿ÑĢÐ¾ÑĨ": 4253,
      "ĠÑģÐµÐºÑĥÐ½Ð´": 4254,
      "winPrimes": 4255,
      "Ġrecommend": 4256,
      "BU": 4257,
      "Range": 4258,
      "bad": 4259,
      "can": 4260,
      "ratio": 4261,
      "Ġ\\\"+": 4262,
      "come": 4263,
      "Ð»Ð¾Ð¶": 4264,
      "ries": 4265,
      "ÐµÐ¼Ð¿ÐµÑĢ": 4266,
      "Ġheader": 4267,
      "Ġrank": 4268,
      "ifier": 4269,
      "Ð¾Ð³ÑĢ": 4270,
      "Ð¾Ð¶Ð´": 4271,
      "ÐľÐ¸Ð½": 4272,
      "Ġstates": 4273,
      "Ð¸ÑģÑĤÐ¸ÐºÐ°": 4274,
      "ÐŀÑĤÑģÐ¾ÑĢÑĤÐ¸ÑĢÐ¾Ð²Ð°Ð½": 4275,
      "Printer": 4276,
      "ĠÐ½Ð°ÑĩÐ°Ð»": 4277,
      "ĠÐ±ÑĥÐºÐ²": 4278,
      "degree": 4279,
      "Ð¾Ð¿ÑĭÑĤÐºÐ°": 4280,
      "ÐµÐ¼Ð¿ÐµÑĢÐ°ÑĤ": 4281,
      "Len": 4282,
      "OW": 4283,
      "VER": 4284,
      "banana": 4285,
      "ored": 4286,
      "regex": 4287,
      "Ġpush": 4288,
      "Ġcannot": 4289,
      "Ġsave": 4290,
      "Ġ19": 4291,
      "ulation": 4292,
      "Ð¾Ð²Ð°Ñı": 4293,
      "isalpha": 4294,
      "ĠCategory": 4295,
      "001": 4296,
      "ĠÐ½Ñĥ": 4297,
      "ĠÐ½ÐµÑĤ": 4298,
      "ĠÐ´ÑĢÑĥÐ³": 4299,
      "ĠDoor": 4300,
      "mod": 4301,
      "mento": 4302,
      "Ð°Ð½Ð¸ÐµÐ¼": 4303,
      "Ð¸Ð²Ð°Ð½Ð¸Ðµ": 4304,
      "ĠLibrary": 4305,
      "acquire": 4306,
      "Ð¢Ð¾ÑĩÐºÐ°": 4307,
      "ĠÐ¾ÑĤÑģÐ¾ÑĢÑĤÐ¸ÑĢÐ¾Ð²Ð°Ð½": 4308,
      "Ġany": 4309,
      "ĠJsonException": 4310,
      "crypt": 4311,
      "Ġdispatch": 4312,
      "ĠÐ½Ð°Ð¹Ð´ÐµÐ½Ð¾": 4313,
      "ĠÑĨÐµÐ»": 4314,
      "Ġapply": 4315,
      "ĠÐ·Ð°Ð¿Ð¸Ñģ": 4316,
      "ĠÐ¿Ð¾Ð²ÑĤÐ¾ÑĢ": 4317,
      "Ð´Ð²Ð¸Ð³": 4318,
      "!\\\";\\": 4319,
      "&>(": 4320,
      "GB": 4321,
      "Hour": 4322,
      "TE": 4323,
      "TY": 4324,
      "istream": 4325,
      "nÐłÐ°Ð·Ð¼ÐµÑĢ": 4326,
      "ope": 4327,
      "Ġâ": 4328,
      "Ġraw": 4329,
      "ertex": 4330,
      "arri": 4331,
      "arning": 4332,
      "Ġflag": 4333,
      "Ġbank": 4334,
      "Ġmask": 4335,
      "cks": 4336,
      "Ġformat": 4337,
      "Ð¼Ñı": 4338,
      "Ġdemon": 4339,
      "Ġhistory": 4340,
      "ĠÐ´ÐµÐ¹ÑģÑĤÐ²": 4341,
      "ĠÐ´ÐµÑĢÐµÐ²": 4342,
      "Ġrun": 4343,
      "Ġ\\\",\\\"": 4344,
      "ĠFixed": 4345,
      "ĠVehicle": 4346,
      "Ð¾ÑģÑĤÐ°ÑĤ": 4347,
      "Child": 4348,
      "ÑĥÐºÑĤ": 4349,
      "ĠaccountNumber": 4350,
      "rectory": 4351,
      "Server": 4352,
      "ĠÑĦÑĥÐ½ÐºÑĨÐ¸Ð¸": 4353,
      "Division": 4354,
      "ĠÐ¸Ð¼ÐµÐµÑĤ": 4355,
      "opecks": 4356,
      "<>": 4357,
      "Mediator": 4358,
      "Password": 4359,
      "Tag": 4360,
      "Vehicle": 4361,
      "increment": 4362,
      "aterm": 4363,
      "Ð½ÐµÐ¹": 4364,
      "Ð¾Ð²Ð°ÑĤÐµÐ»ÑĮ": 4365,
      "++]": 4366,
      "Ġcos": 4367,
      "Ġhour": 4368,
      "Coord": 4369,
      "serter": 4370,
      "Statistics": 4371,
      "ĠÐºÐ¾Ð¼": 4372,
      "Ð¾Ð¿ÑĥÑģÐºÐ°ÐµÐ¼": 4373,
      "adians": 4374,
      "Ġnodes": 4375,
      "...)": 4376,
      "Refs": 4377,
      "Ġ\\\"':": 4378,
      "TION": 4379,
      "Ġ\\\"]\\\"": 4380,
      "ĠÐ´Ð¾Ð»Ð¶ÐµÐ½": 4381,
      "Ġtraversal": 4382,
      "holds": 4383,
      "Distance": 4384,
      "ÑĨÐµÐ½ÐºÐ°": 4385,
      "ĠÐ¡ÑģÑĭÐ»ÐºÐ°": 4386,
      "atermark": 4387,
      ">())": 4388,
      "Non": 4389,
      "Network": 4390,
      "PA": 4391,
      "PO": 4392,
      "by": 4393,
      "bol": 4394,
      "gular": 4395,
      "header": 4396,
      "sync": 4397,
      "ĠK": 4398,
      "ĠÐ°Ð»": 4399,
      "inserter": 4400,
      "Ġren": 4401,
      "Ġreference": 4402,
      "Ġfrequency": 4403,
      "Ġdimen": 4404,
      "ane": 4405,
      "ssert": 4406,
      "Ð¾Ð²Ð¾Ðµ": 4407,
      "ĠText": 4408,
      "address": 4409,
      "ĠAct": 4410,
      "ĠmaxLength": 4411,
      "ĠÑĤÐµÑģÑĤ": 4412,
      "ĠÑĥÐ¶Ðµ": 4413,
      "Ġfiles": 4414,
      "ĠÐ¿ÑĢÐ¾Ð±": 4415,
      "Ð°ÐºÑĤ": 4416,
      "ĠÑĢÐµÑģÑĥÑĢÑģ": 4417,
      "Ġencrypted": 4418,
      "RES": 4419,
      "ĠÐºÐ¾Ð½ÑĤ": 4420,
      "ÐµÐ¶Ð¸Ð¼": 4421,
      "Items": 4422,
      "Processing": 4423,
      "256": 4424,
      "ĠQuantity": 4425,
      ":%": 4426,
      "SIG": 4427,
      "[(": 4428,
      "ia": 4429,
      "uit": 4430,
      "ving": 4431,
      "Ġrot": 4432,
      "inish": 4433,
      "cope": 4434,
      "coefficients": 4435,
      "Ð½Ð¸ÑĨÐ°": 4436,
      "ings": 4437,
      "Ġcart": 4438,
      "Ġbst": 4439,
      "ÑĥÐµÑĤ": 4440,
      "olat": 4441,
      "pass": 4442,
      "Ð²Ð»": 4443,
      "Ġcoefficients": 4444,
      "ĠSystem": 4445,
      "mainder": 4446,
      "Ð°Ð½Ð¾": 4447,
      "Ġrc": 4448,
      "ĠDemon": 4449,
      "Ð¿ÑĢÐ°Ð²": 4450,
      "ĠÐºÑįÑĪ": 4451,
      "Ġ400": 4452,
      "ÐĴÑģÐµÐ³Ð¾": 4453,
      "Ġcharact": 4454,
      "ĠÐŁÐ¾Ð´": 4455,
      "ĠÑĥÐ¼Ð½Ð¾Ð¶": 4456,
      "ĠÐ¿ÑĢÐ¸Ð²": 4457,
      "ĠResult": 4458,
      "Ġsection": 4459,
      "ToString": 4460,
      "Unknown": 4461,
      "TIME": 4462,
      "cstdint": 4463,
      "ializer": 4464,
      "Ġcartesian": 4465,
      "Ġplugins": 4466,
      "Entities": 4467,
      "roller": 4468,
      "Ġsmall": 4469,
      "Ġcleanup": 4470,
      "Ġentity": 4471,
      "ĠÐ¨Ð°Ð±Ð»Ð¾Ð½": 4472,
      "AA": 4473,
      "Longest": 4474,
      "Port": 4475,
      "TP": 4476,
      "dir": 4477,
      "nauto": 4478,
      "vin": 4479,
      "weak": 4480,
      "Ġ::": 4481,
      "ĠKey": 4482,
      "Ġmedi": 4483,
      "Ġdir": 4484,
      "Ġph": 4485,
      "iddle": 4486,
      "uler": 4487,
      "Ġ26": 4488,
      "ĠÑģÐµÑĢ": 4489,
      "Ġcomplex": 4490,
      "Ġrand": 4491,
      "Ġstrlen": 4492,
      "Values": 4493,
      "ĠtoString": 4494,
      "Ġsecret": 4495,
      "Ġ999": 4496,
      "Ġexpected": 4497,
      "ABAB": 4498,
      "ĠResourceHolder": 4499,
      "Ġallocations": 4500,
      "Ð¸ÑĦÐ¼ÐµÑĤ": 4501,
      "ÐĺÑģÑħÐ¾Ð´Ð½Ð°Ñı": 4502,
      "ribution": 4503,
      "Ð¢ÐµÐºÑĥÑī": 4504,
      "Ð¡ÑĢÐµÐ´Ð½ÐµÐµ": 4505,
      "Free": 4506,
      "UM": 4507,
      "observer": 4508,
      "vie": 4509,
      "Ġ\\\"\\": 4510,
      "ÐµÑĨÐ¸": 4511,
      "Ġnon": 4512,
      "Ġcall": 4513,
      "Ġassert": 4514,
      "Ð¾Ð²ÑĭÐµ": 4515,
      "ĠCache": 4516,
      "strcmp": 4517,
      "ĠBit": 4518,
      "Ġgap": 4519,
      "ÐµÐºÐ¾ÑĢÑĢÐµÐºÑĤ": 4520,
      "INF": 4521,
      "ĠprintInfo": 4522,
      "ĠRoom": 4523,
      "toString": 4524,
      "acation": 4525,
      "Prototype": 4526,
      "epoll": 4527,
      "ĠIterator": 4528,
      "ĠÐ¿ÐµÑĢÐµÐ´": 4529,
      "ĠÐ²ÑĭÑĢÐ°Ð¶": 4530,
      "Ð°Ð»ÑĮÐ½ÑĭÐµ": 4531,
      "ĠrefCount": 4532,
      "compare": 4533,
      "eneric": 4534,
      "expected": 4535,
      "FFER": 4536,
      "Ġconnections": 4537,
      "Ġservices": 4538,
      "otes": 4539,
      "ĠÐ´Ð¸Ð°Ð¿Ð°Ð·Ð¾Ð½Ð°": 4540,
      "control": 4541,
      "ÑĢÐ°Ð½Ð¸ÑĨ": 4542,
      "Ġ'-')": 4543,
      "cases": 4544,
      "123456789": 4545,
      ")->": 4546,
      "ESS": 4547,
      "lie": 4548,
      "ts": 4549,
      "ret": 4550,
      "ĠÐ¦": 4551,
      "Ġiterator": 4552,
      "ÑĤÐµ": 4553,
      "Ġderived": 4554,
      "Ġboard": 4555,
      "ÑĭÑĩ": 4556,
      "ÐµÐ½Ð½ÑĭÐµ": 4557,
      "ĠÐºÐ½Ð¸Ð³": 4558,
      "Types": 4559,
      "Ð¡Ð¢": 4560,
      "ĠList": 4561,
      "ĠLazy": 4562,
      "Ð¾Ð¿Ð¸ÑĢÐ¾Ð²Ð°Ð½": 4563,
      "Ð¾Ð³ÑĢÐ°Ð¼": 4564,
      "structor": 4565,
      "Ð¸ÐºÐ»": 4566,
      "Ġprocessing": 4567,
      "Ð»Ð¸ÐµÐ½ÑĤ": 4568,
      "Ġusername": 4569,
      "Engine": 4570,
      "ÑĤÐ°ÑĤÐ¸ÑģÑĤÐ¸ÐºÐ°": 4571,
      "Ġ\\\"[\\\"": 4572,
      "Ġletter": 4573,
      "Ġpointer": 4574,
      "rams": 4575,
      "Ð¸ÑĩÐµÑģÐºÐ¸Ð¹": 4576,
      "Checker": 4577,
      "connected": 4578,
      "Ð§Ð¸ÑģÐ»Ð°": 4579,
      "ĠÐ¾Ð¿ÐµÑĢÐ°ÑĤÐ¾ÑĢ": 4580,
      "Ð¸ÑģÐ¾ÐºÐ¾Ñģ": 4581,
      "ĠÐ¿Ð°ÑĢÐ°Ð¼": 4582,
      "37": 4583,
      "CLA": 4584,
      "Era": 4585,
      "FIN": 4586,
      "Pin": 4587,
      "PRO": 4588,
      "UR": 4589,
      "calculate": 4590,
      "microseconds": 4591,
      "nel": 4592,
      "cos": 4593,
      "Ġstream": 4594,
      "Ð¾Ð¸Ð¼Ð¾ÑģÑĤÑĮ": 4595,
      "Ð¸Ð½Ñĭ": 4596,
      "Ġtail": 4597,
      "Ð»Ð¸Ñĩ": 4598,
      "Ġcur": 4599,
      "ueDate": 4600,
      "Ġbox": 4601,
      "ismatch": 4602,
      "ĠÑģÐ°Ð¼": 4603,
      "Ġlines": 4604,
      "ĠTokenType": 4605,
      "Ġ300": 4606,
      "ason": 4607,
      "Ġratio": 4608,
      "ĠÐ±Ñĭ": 4609,
      "Example": 4610,
      "imized": 4611,
      "Ð¸Ð²Ð½ÑĭÐ¹": 4612,
      "ants": 4613,
      "ĠÐ²ÑĭÑģ": 4614,
      "ĠÐĴÐ¾Ð·": 4615,
      "Ġmoved": 4616,
      "Ġcreator": 4617,
      "&)>": 4618,
      "CKET": 4619,
      "ĠDateTime": 4620,
      "Tasks": 4621,
      "Ġproducts": 4622,
      "ĠÑģÐ»Ð¾Ð¶": 4623,
      "udget": 4624,
      "ĠÐ²ÑĢÐµÐ¼ÐµÐ½Ð¸": 4625,
      "quired": 4626,
      "ĠÑĥÐ´Ð°Ð»ÐµÐ½Ð¸Ñı": 4627,
      "vertices": 4628,
      "Actor": 4629,
      "MyClass": 4630,
      "ĠÐ¿Ð¾ÑĢÑıÐ´ÐºÐµ": 4631,
      "ĠÑĥÑģÑĤÐ°Ð½Ð¾Ð²Ð»ÐµÐ½": 4632,
      "ÑĤÐ¾Ð¼Ð°ÑĤ": 4633,
      "ĠÑģÐ¾Ð²Ð¿Ð°Ð´": 4634,
      "ĠÐ¿ÑĢÐ¾Ð²ÐµÑĢÐºÐ¸": 4635,
      "Erased": 4636,
      "City": 4637,
      "DP": 4638,
      "LD": 4639,
      "Power": 4640,
      "Suffix": 4641,
      "even": 4642,
      "fix": 4643,
      "fill": 4644,
      "over": 4645,
      "window": 4646,
      "ens": 4647,
      "ÐµÑĦ": 4648,
      "Ġmutex": 4649,
      "Ġnegative": 4650,
      "Ġoptional": 4651,
      "Ð²Ð°Ð½": 4652,
      "velo": 4653,
      "Remove": 4654,
      "ĠPRO": 4655,
      "ÑĦÐµÑĢ": 4656,
      "ĠmaxSize": 4657,
      "Ġcomponent": 4658,
      "ĠprocessBy": 4659,
      "ĠÐ¾Ð±Ð¼ÐµÐ½Ð°": 4660,
      "ĠÐ²ÑĭÐ±Ð¾ÑĢ": 4661,
      "Ġenum": 4662,
      "ĠÐŀÑĤ": 4663,
      "ĠÐĺÐ·Ð¼ÐµÐ½": 4664,
      "Completed": 4665,
      "Ġatt": 4666,
      "Points": 4667,
      "distribution": 4668,
      "Ġconnected": 4669,
      "cheduler": 4670,
      "ecuting": 4671,
      "tended": 4672,
      "ĠNonCopyable": 4673,
      "265": 4674,
      "ACT": 4675,
      "CV": 4676,
      "CON": 4677,
      "Loc": 4678,
      "NT": 4679,
      "Part": 4680,
      "Variable": 4681,
      "cal": 4682,
      "fect": 4683,
      "ĠY": 4684,
      "lection": 4685,
      "Ġmediator": 4686,
      "Ġfl": 4687,
      "Ġfill": 4688,
      "Ġcb": 4689,
      "ĠSharedPtr": 4690,
      "Ġlay": 4691,
      "Ġ36": 4692,
      "Ġ'.": 4693,
      "Ġglobal": 4694,
      "ÑģÐ»Ð¾Ð²": 4695,
      "tern": 4696,
      "Ð¡Ðº": 4697,
      "ĠÐ·Ð½": 4698,
      "minutes": 4699,
      "Expected": 4700,
      "Computations": 4701,
      "Throw": 4702,
      "rected": 4703,
      "Ġmiddle": 4704,
      "ÐŀÐ±ÑĬ": 4705,
      "Ġmean": 4706,
      "ansitions": 4707,
      "inputs": 4708,
      "14159265": 4709,
      "implExample": 4710,
      "ÐĿÐ°Ð¹Ð´ÐµÐ½Ð¾": 4711,
      "Depend": 4712,
      "ÑıÐ¼Ð¾ÑĥÐ³Ð¾Ð»ÑĮÐ½Ð¸Ðº": 4713,
      "Ġskip": 4714,
      ")(": 4715,
      ")\\\";\\": 4716,
      ".\\\\": 4717,
      "CRC": 4718,
      "ECT": 4719,
      "Found": 4720,
      "Up": 4721,
      "af": 4722,
      "dy": 4723,
      "gcount": 4724,
      "hours": 4725,
      "Ġsign": 4726,
      "ĠÐµÐ´Ð¸Ð½": 4727,
      "uter": 4728,
      "ĠÐ¶": 4729,
      "Ġtm": 4730,
      "Ġtimer": 4731,
      "ubble": 4732,
      "ÐºÐ¾Ð´": 4733,
      "ison": 4734,
      "Ð²Ð¾Ð±": 4735,
      "Ġdepth": 4736,
      "Ġinet": 4737,
      "Ġ5000": 4738,
      "ready": 4739,
      "ÐĴÑĤÐ¾ÑĢ": 4740,
      "Ġprod": 4741,
      "fore": 4742,
      "ĠÐ²ÑĭÐ²Ð¾Ð´": 4743,
      "rawing": 4744,
      "Ġmessages": 4745,
      "tical": 4746,
      "ĠÑģÐºÐ¸Ð´": 4747,
      "Ð¤Ð°Ð¹Ð»": 4748,
      "criminant": 4749,
      "ĠÐ´Ð¸Ð°Ð¿Ð°Ð·Ð¾Ð½": 4750,
      "Ġ\\\"================================": 4751,
      "ĠÐ²ÑĭÑĩÐ¸ÑģÐ»ÐµÐ½Ð¸Ñı": 4752,
      "ĠÑĥÑģÐ¿ÐµÑĪÐ½Ð¾": 4753,
      "ÐŀÑĤÑģÐ¾ÑĢÑĤÐ¸ÑĢÐ¾Ð²Ð°Ð½Ð½ÑĭÐ¹": 4754,
      "Category": 4755,
      "Rating": 4756,
      "SO": 4757,
      "Triangle": 4758,
      "sl": 4759,
      "safe": 4760,
      "reference": 4761,
      "()),": 4762,
      "atures": 4763,
      "led": 4764,
      "ÑĤÐµÐ½Ð¸Ðµ": 4765,
      "arison": 4766,
      "adj": 4767,
      "Ġ22": 4768,
      "ĠÑģÑĥÑīÐµÑģÑĤÐ²": 4769,
      "arry": 4770,
      "ĠinUse": 4771,
      "ĠgetInstance": 4772,
      "Stream": 4773,
      "addEdge": 4774,
      "ÐŁÐ¾Ð´": 4775,
      "Ġtransition": 4776,
      "place": 4777,
      "ĠÑĤÐ¾Ð²Ð°ÑĢ": 4778,
      "Context": 4779,
      "ÐłÐĲ": 4780,
      "ĠÐ¡Ð¿": 4781,
      "Ġcolleague": 4782,
      "Ġheights": 4783,
      "ĠÐŁÑĢÐ¾Ð¿ÑĥÑģÐºÐ°ÐµÐ¼": 4784,
      "ĠÐ¿Ð¾Ð¸ÑģÐºÐ°": 4785,
      "ĠÑģÑĤÐ°ÑĤ": 4786,
      "apab": 4787,
      "ARD": 4788,
      "grees": 4789,
      "Ġactor": 4790,
      "Settings": 4791,
      "diff": 4792,
      "Ġdivisor": 4793,
      "otel": 4794,
      "ĠÐºÐ¾Ð¿Ð¸ÑĢÐ¾Ð²Ð°Ð½Ð¸Ñı": 4795,
      "Ġsymbol": 4796,
      "encrypted": 4797,
      "!=(": 4798,
      "Final": 4799,
      "Socket": 4800,
      "author": 4801,
      "bot": 4802,
      "bda": 4803,
      "hn": 4804,
      "oi": 4805,
      "oot": 4806,
      "{}": 4807,
      "inf": 4808,
      "cores": 4809,
      "Ġ{}": 4810,
      "ÐµÑģÐ»Ð¸": 4811,
      "ambda": 4812,
      "Ġview": 4813,
      "Ġdog": 4814,
      "track": 4815,
      "iter": 4816,
      "Ġwri": 4817,
      "Ġdecrypted": 4818,
      "ĠÐ½ÑĥÐ»": 4819,
      "Ġ'+": 4820,
      "ĠBlock": 4821,
      "()))": 4822,
      "ĠÐºÐ¾Ð´": 4823,
      "ĠÐºÐ²Ð°Ð´ÑĢÐ°ÑĤ": 4824,
      "));": 4825,
      ">>>": 4826,
      "Ġtoday": 4827,
      "ĠFD": 4828,
      "ÐĿÐ°": 4829,
      "ĠCoffee": 4830,
      "Ġtests": 4831,
      "ĠJSON": 4832,
      "Ġreading": 4833,
      "Ġfactories": 4834,
      "ĠINADDR": 4835,
      "Ġclients": 4836,
      "&&...": 4837,
      "Ġargument": 4838,
      "ANY": 4839,
      "Ð¸Ð½Ð°Ð»ÑĮ": 4840,
      "Books": 4841,
      "Temperature": 4842,
      "Ġinitialized": 4843,
      "ĠÐĳÐ°Ð·": 4844,
      "Active": 4845,
      "ÐŁÐµÑĢÐ²ÑĭÐ¹": 4846,
      "ĠCheck": 4847,
      "Ġiterations": 4848,
      "TYPE": 4849,
      "*,": 4850,
      "</": 4851,
      "Duplic": 4852,
      "IC": 4853,
      "Success": 4854,
      "_(": 4855,
      "ees": 4856,
      "ias": 4857,
      "lab": 4858,
      "nion": 4859,
      "utdown": 4860,
      "getType": 4861,
      "ĠCl": 4862,
      "Ġdesc": 4863,
      "ĠDouble": 4864,
      "Ġ!(*": 4865,
      "owner": 4866,
      "ĠAp": 4867,
      "ĠÐŁÐ¾Ð¿ÑĭÑĤÐºÐ°": 4868,
      "apply": 4869,
      "reshold": 4870,
      "elsius": 4871,
      "ĠVirtualBase": 4872,
      "ÐłÐŀ": 4873,
      "Ð³Ð¾Ð»": 4874,
      "cmd": 4875,
      "Ð°Ð»ÑĮÐ½ÑĭÐ¹": 4876,
      "ERROR": 4877,
      "sockopt": 4878,
      "Ġdict": 4879,
      "Ġ\\\")\\\";\\": 4880,
      "ĠProcess": 4881,
      "loyees": 4882,
      "izer": 4883,
      "udio": 4884,
      "aternion": 4885,
      "laying": 4886,
      "ĠÐŀÐ±ÑĢÐ°Ð±Ð¾ÑĤÐºÐ°": 4887,
      "Ð¸Ð¼Ð¾ÑģÑĤÐ¸": 4888,
      "ĠÑĢÐ°Ð±Ð¾ÑĤÑĭ": 4889,
      "ĠTransactionType": 4890,
      "uffmanNode": 4891,
      "Ð°Ð¶Ð´": 4892,
      "ultiplication": 4893,
      "Ġmeters": 4894,
      "ÐµÐ¼Ð¿ÐµÑĢÐ°ÑĤÑĥÑĢÐ°": 4895,
      "Ð¾ÑģÑĤÐ°ÑĤÐ¾Ñĩ": 4896,
      "1415926535": 4897,
      "SQ": 4898,
      "Score": 4899,
      "ilog": 4900,
      "och": 4901,
      "oole": 4902,
      "ĠÐ°Ð´": 4903,
      "ĠÐ¾Ñĩ": 4904,
      "reverse": 4905,
      "ÑģÐ¸Ñı": 4906,
      "Ġvehicle": 4907,
      "Ġbound": 4908,
      "Ð¾Ð»ÐµÐµ": 4909,
      "ĠgetId": 4910,
      "ÐŁÑĢÐ¾Ð²ÐµÑĢÐºÐ°": 4911,
      "Ð¸Ð¼ÐµÐ½": 4912,
      "quantity": 4913,
      "ecution": 4914,
      "Ð¾Ð¼ÐµÑĢ": 4915,
      "ĠÑĥÐ¼": 4916,
      "ĠLight": 4917,
      "ÐľÐµÑĤÐ¾Ð´": 4918,
      "itional": 4919,
      "END": 4920,
      "ĠÐłÐ°Ð±Ð¾ÑĤ": 4921,
      "Ġparam": 4922,
      "ĠÐ¿ÐµÑĢÐ²Ð¾Ð³Ð¾": 4923,
      "requent": 4924,
      "ĠÐ´Ð²Ð°": 4925,
      "Ġusage": 4926,
      "Reader": 4927,
      "ĠÑĢÐ°Ð±Ð¾ÑĤÑĥ": 4928,
      "Ġcustomer": 4929,
      "ĠÐļÐ¾Ð½ÑģÑĤÐ°Ð½ÑĤ": 4930,
      "([&": 4931,
      "ĠÐŁÐ¾Ð»ÑĥÑĩ": 4932,
      "veloper": 4933,
      "oolean": 4934,
      ")[": 4935,
      "Clo": 4936,
      "Email": 4937,
      "Group": 4938,
      "Page": 4939,
      "Simple": 4940,
      "bserv": 4941,
      "custom": 4942,
      "limit": 4943,
      "mary": 4944,
      "nÐļ": 4945,
      "xFF": 4946,
      "stBuilder": 4947,
      "init": 4948,
      "ensive": 4949,
      "ÑĤÑĮ": 4950,
      "alf": 4951,
      "aly": 4952,
      "ÑģÐºÐ»ÑİÑĩ": 4953,
      "Ġfa": 4954,
      "Ð»Ð¸Ð·": 4955,
      "Ġprivate": 4956,
      "Ġcast": 4957,
      "icy": 4958,
      "Ġsent": 4959,
      "Ġodd": 4960,
      "risk": 4961,
      "olve": 4962,
      "ĠÑģÐ¾Ð´ÐµÑĢÐ¶": 4963,
      "ĠTimer": 4964,
      "Coffee": 4965,
      "pter": 4966,
      "ĠBU": 4967,
      "Ġstrcpy": 4968,
      "ÑĪÐ¸Ð¹": 4969,
      "ctionary": 4970,
      "ĠAstBuilder": 4971,
      "ĠÐ¼Ð°ÐºÑģÐ¸Ð¼Ð°Ð»ÑĮ": 4972,
      "ecret": 4973,
      "Ġexample": 4974,
      "Ð¾Ð¶Ð´ÐµÐ½": 4975,
      "ÐĺÐķ": 4976,
      "ÐĺÐ¼Ñı": 4977,
      "ÐĺÐ²Ð°Ð½": 4978,
      "ĠÐ¡ÑĤ": 4979,
      "Ð°Ð²Ð»": 4980,
      "ĠObserver": 4981,
      "ÑģÑĤÐ°Ð½Ð°Ð²Ð»": 4982,
      "venue": 4983,
      "Ġparser": 4984,
      "ĠÐ¸Ð½ÑĤÐµÐ³ÑĢ": 4985,
      "Ġ'\\\\\\\"": 4986,
      "Validator": 4987,
      "ANS": 4988,
      "Ð¸Ð½Ð°ÑĢ": 4989,
      "ĠÑĦÐ°Ð¹Ð»Ð°": 4990,
      "ĠÑģÐ¾Ð·Ð´Ð°Ð½Ð°": 4991,
      "ĠBigInteger": 4992,
      "LAY": 4993,
      "ĠÐĶÐ¾Ð±Ð°Ð²Ð»ÐµÐ½Ð¸Ðµ": 4994,
      "Ġcleaned": 4995,
      "ĠEncryption": 4996,
      "ĠSubject": 4997,
      "ĠÑĦÐ¾ÑĢÐ¼Ð°ÑĤ": 4998,
      "ĠÐ´ÐµÐ¹ÑģÑĤÐ²Ð¸ÑĤÐµÐ»ÑĮ": 4999,
      "bservable": 5000,
      "':\\": 5001,
      "Lo": 5002,
      "Zero": 5003,
      "ncpy": 5004,
      "vi": 5005,
      "\\\"),\\": 5006,
      "config": 5007,
      "ÐºÐ¾Ð¼": 5008,
      "Ġweak": 5009,
      "ĠCre": 5010,
      "Ġdelta": 5011,
      "Ð°Ð½Ð½ÑĭÐ¹": 5012,
      "ĠÐ´ÐµÐ¼Ð¾Ð½ÑģÑĤÑĢ": 5013,
      "Course": 5014,
      "Ġ'{": 5015,
      "ÐµÐ´ÑĥÑİÑī": 5016,
      "ÑĢÐ°Ð´": 5017,
      "Ġcontains": 5018,
      ")))": 5019,
      "ĠÐ·Ð°": 5020,
      "Connect": 5021,
      "ÐĿÐµÐ²ÐµÑĢÐ½ÑĭÐ¹": 5022,
      "ĠÐ¿ÑĢÐµÐ¾Ð±ÑĢÐ°Ð·Ð¾Ð²": 5023,
      "ÑĢÑĥÐ·": 5024,
      "Ð³ÑĥÐ¼ÐµÐ½ÑĤ": 5025,
      "fail": 5026,
      "ÑĢÐµÐ¼Ñı": 5027,
      "Ġbooks": 5028,
      "ÐŀÐ±ÑĢÐ°Ð±Ð¾ÑĤÐºÐ°": 5029,
      "Ġbegin": 5030,
      "Ġnotify": 5031,
      "Ġrectangle": 5032,
      "ĠÐºÐ¾ÑįÑĦÑĦÐ¸ÑĨÐ¸ÐµÐ½ÑĤ": 5033,
      "Ġmemset": 5034,
      "ĠÑģÑĩÐµÑĤÑĩÐ¸Ðº": 5035,
      "ĠÐ·Ð°Ð´Ð°ÑĩÐ¸": 5036,
      "Using": 5037,
      "ĠÑģÐ¾Ð¾Ð±ÑīÐµÐ½Ð¸Ðµ": 5038,
      "ternative": 5039,
      "199": 5040,
      "CAL": 5041,
      "Callable": 5042,
      "Failed": 5043,
      "OP": 5044,
      "ODE": 5045,
      "TTP": 5046,
      "erent": 5047,
      "fl": 5048,
      "mark": 5049,
      "uce": 5050,
      "view": 5051,
      "Ġ\\\"{": 5052,
      "complex": 5053,
      "recursive": 5054,
      "enqueue": 5055,
      "ÑĢÐµÑģ": 5056,
      "ÑĢÑĭÑĤ": 5057,
      "Ġmultiplier": 5058,
      "Ġneuron": 5059,
      "Ġca": 5060,
      "Ġbind": 5061,
      "Ġbuf": 5062,
      "ÐµÐ½ÐµÑĢ": 5063,
      "ÑĩÐ°Ð½Ð¸Ñİ": 5064,
      "ĠÐ¿ÑĥÑĤ": 5065,
      "example": 5066,
      "ĠCRC": 5067,
      "Ġcommon": 5068,
      "Ġcoffee": 5069,
      "Ð°Ð½ÑĤ": 5070,
      "Ð¾Ð»ÑĩÐ°Ð½Ð¸Ñİ": 5071,
      "setState": 5072,
      "Ġxor": 5073,
      "Ð¾ÑĢÐ¾": 5074,
      "Ġ',": 5075,
      "oman": 5076,
      "elf": 5077,
      "ĠmaxCount": 5078,
      "ÑģÑĤÑĢÐ¾": 5079,
      "ĠÐ¾Ð±ÑħÐ¾Ð´": 5080,
      "ĠStatistics": 5081,
      "ĠcacheList": 5082,
      "ĠWeekday": 5083,
      "Ġquot": 5084,
      "({\\\"": 5085,
      "ÑĥÐ¿ÑĢ": 5086,
      "ARY": 5087,
      "ANG": 5088,
      "MPLE": 5089,
      "ÑıÐ¼Ð±": 5090,
      "ĠÐ²ÐµÐºÑĤÐ¾ÑĢÐ°": 5091,
      "ĠĠĠĠĠĠĠĠĠĠĠĠĠĠĠĠĠĠĠĠĠĠĠĠĠĠ": 5092,
      "Model": 5093,
      "parse": 5094,
      "ĠPluginManager": 5095,
      "Ð¿ÑĢÐµÐ´ÐµÐ»ÐµÐ½Ð¸Ðµ": 5096,
      ".','.','": 5097,
      "Ð¾ÑģÑĤÐ°ÑĤÐ¾ÑĩÐ½Ð¾": 5098,
      "ĠÑĥÐ¼Ð¾Ð»ÑĩÐ°Ð½Ð¸Ñİ": 5099,
      "31": 5100,
      "ASE": 5101,
      "Dynamic": 5102,
      "GIN": 5103,
      "Handle": 5104,
      "Image": 5105,
      "LI": 5106,
      "Operation": 5107,
      "multiply": 5108,
      "normal": 5109,
      "rd": 5110,
      "sm": 5111,
      "ÐĻ": 5112,
      "reet": 5113,
      "()]": 5114,
      "alternative": 5115,
      "oned": 5116,
      "conn": 5117,
      "Ġtv": 5118,
      "Ġtriangle": 5119,
      "Ð»Ð¸Ðº": 5120,
      "Ġare": 5121,
      "Ġbutton": 5122,
      "Ġ180": 5123,
      "ÐµÐ½Ð´": 5124,
      "tell": 5125,
      "itions": 5126,
      "\\\\\\\\": 5127,
      "Ġcomm": 5128,
      "Ġcourse": 5129,
      "ĠÐ²Ð°Ð»Ð¸Ð´": 5130,
      "ÑĢÐ°Ðº": 5131,
      "reading": 5132,
      "Ġprom": 5133,
      "ĠÑĤÐ¾Ð»ÑĮÐºÐ¾": 5134,
      "Ð°ÑģÑĪ": 5135,
      "ĠRAII": 5136,
      "ĠNot": 5137,
      "access": 5138,
      "rency": 5139,
      "timeout": 5140,
      "Change": 5141,
      "Ð¢ÐµÑģÑĤ": 5142,
      "displayInfo": 5143,
      "ÐµÐ²Ð¾Ð¹": 5144,
      "ĠÐĿÐµ": 5145,
      "compressed": 5146,
      "formance": 5147,
      "ĠÐ´Ð¾Ð»Ð¶Ð½Ð°": 5148,
      "Checked": 5149,
      "Ġpartition": 5150,
      "ÐºÐ»ÑİÑĩÐµÐ½": 5151,
      "ĠSmartPointer": 5152,
      "content": 5153,
      "ĠÐ²ÐµÑĢÑĪÐ¸Ð½": 5154,
      "Ġforwarding": 5155,
      "mplementation": 5156,
      "ptrToPtr": 5157,
      "Ġmedian": 5158,
      "84": 5159,
      "BE": 5160,
      "CP": 5161,
      "II": 5162,
      "Pol": 5163,
      "acle": 5164,
      "ĠÐµÑģÐ»Ð¸": 5165,
      "ÑĢÐ¸": 5166,
      "Ġmismatch": 5167,
      "sil": 5168,
      "Ġpayment": 5169,
      "Ġcy": 5170,
      "Ġcross": 5171,
      "Ġcarry": 5172,
      "entity": 5173,
      "pable": 5174,
      "ĠSSL": 5175,
      "strcpy": 5176,
      "Ġchain": 5177,
      "Ġchoice": 5178,
      "ĠPair": 5179,
      "eta": 5180,
      "Ġgood": 5181,
      "opping": 5182,
      "addable": 5183,
      "Ð·Ð²Ð»": 5184,
      "terminant": 5185,
      "esar": 5186,
      "Ġadvance": 5187,
      "ell": 5188,
      "ĠÐ¿ÑĢÐ¸Ð¼ÐµÑĢ": 5189,
      "Ð¾Ð¿ÑĢÐµÐ´ÐµÐ»": 5190,
      "ÐłÐķ": 5191,
      "ÐłÐ°ÑģÑģÑĤÐ¾ÑıÐ½Ð¸Ðµ": 5192,
      "ĠÐ¡ÑĢÐ°Ð²Ð½ÐµÐ½Ð¸Ðµ": 5193,
      "ĠRequest": 5194,
      "memset": 5195,
      "prev": 5196,
      "ĠfindMax": 5197,
      "Ð¾ÑģÐ¾Ð±": 5198,
      "ÑıÑĤÐ¸": 5199,
      "ĠÑĤÑĢÐ¸": 5200,
      "Another": 5201,
      "Addr": 5202,
      "Ġ\\\"*\\\"": 5203,
      "bitset": 5204,
      "Enter": 5205,
      "ĠÑĥÐºÐ°Ð·Ð°ÑĤÐµÐ»Ñı": 5206,
      "ircuit": 5207,
      "itespace": 5208,
      "Ġpermutations": 5209,
      "divide": 5210,
      "Discount": 5211,
      "Ð²ÐµÐ»Ð¸Ñĩ": 5212,
      "seekg": 5213,
      "copeGuard": 5214,
      "olatile": 5215,
      "ĠDemonstration": 5216,
      "MPLEMENT": 5217,
      "BO": 5218,
      "CH": 5219,
      "Here": 5220,
      "NING": 5221,
      "Ste": 5222,
      "Weight": 5223,
      "bn": 5224,
      "json": 5225,
      "step": 5226,
      "inte": 5227,
      "ingHere": 5228,
      "Ð»Ð°Ð´": 5229,
      "anc": 5230,
      "Ġsensor": 5231,
      "ÐºÐ°Ð¼Ð¸": 5232,
      "ĠSuffix": 5233,
      "ĠÐ½ÐµÐ²": 5234,
      "strate": 5235,
      "strong": 5236,
      "Ġ'[": 5237,
      "Ð¸ÑĤÐ°ÑĨÐ¸Ñı": 5238,
      "ĠPar": 5239,
      "ĠPattern": 5240,
      "aged": 5241,
      "ĠisOpen": 5242,
      "ĠÑĩÑĤ": 5243,
      "Ġextra": 5244,
      "achine": 5245,
      "Aligned": 5246,
      "crease": 5247,
      "ody": 5248,
      "ĠConst": 5249,
      "Ġsequence": 5250,
      "Ð¢Ð¸Ð¿": 5251,
      "Ð¸Ð·Ð²ÐµÑģÑĤ": 5252,
      "Ġ[\\\"": 5253,
      "ÐĲÐ½": 5254,
      "ĠlogFile": 5255,
      "Users": 5256,
      "ĠÐ³Ð»": 5257,
      "ĠÑģÑģÑĭÐ»Ð¾Ðº": 5258,
      "ĠÑģÑģÑĭÐ»ÐºÐµ": 5259,
      "ĠÑģÑĤÐ¾Ð¸Ð¼Ð¾ÑģÑĤÑĮ": 5260,
      "Ġready": 5261,
      "Ð°Ð»Ð¸Ð·Ð°ÑĨÐ¸Ð¸": 5262,
      "Ġcodes": 5263,
      "ĠÑĨÐ¸ÐºÐ»": 5264,
      "Codes": 5265,
      "Ð°ÑħÐ²": 5266,
      "EndingHere": 5267,
      "Ġ[&](": 5268,
      "ĠÐ°ÑĢÐ³ÑĥÐ¼ÐµÐ½ÑĤ": 5269,
      "ĠÐ±Ð¾Ð»ÑĮÑĪÐµ": 5270,
      "ĠÐ¿ÑĢÐ¸ÑģÐ²Ð°": 5271,
      "andidate": 5272,
      "ĠÐºÐ¾Ð¾ÑĢÐ´Ð¸Ð½Ð°ÑĤÑĭ": 5273,
      "password": 5274,
      "Ġcharacters": 5275,
      "Ġ3600": 5276,
      ")));\\": 5277,
      "71": 5278,
      "Fahrenheit": 5279,
      "Library": 5280,
      "Renderer": 5281,
      "Write": 5282,
      "aused": 5283,
      "bb": 5284,
      "category": 5285,
      "fcntl": 5286,
      "heap": 5287,
      "prom": 5288,
      "Ġ\\\"(": 5289,
      "ĠÐ¥": 5290,
      "Ð½Ð¸Ð¼": 5291,
      "Ġremaining": 5292,
      "onitor": 5293,
      "ctx": 5294,
      "unch": 5295,
      "ÐµÐ½Ð½ÑĭÑħ": 5296,
      "ĠconstRef": 5297,
      "getData": 5298,
      "Ð²Ð¾": 5299,
      "igen": 5300,
      "ĠÑģÑĢÐµÐ´": 5301,
      "Ġdecorator": 5302,
      "Registered": 5303,
      "ĠÐ²Ð¸ÑģÐ¾ÐºÐ¾Ñģ": 5304,
      "Ġ'/": 5305,
      "Ð¸ÑĤÐµÑĢ": 5306,
      "Ð¿Ð»": 5307,
      "ĠÐ·Ð°ÑħÐ²": 5308,
      "printable": 5309,
      "ĠÑĥÑĢÐ°Ð²Ð½ÐµÐ½Ð¸Ðµ": 5310,
      "tolower": 5311,
      "ĠEmail": 5312,
      "Protocol": 5313,
      "ixel": 5314,
      "roman": 5315,
      "ĠIP": 5316,
      "ÐµÐ¹Ð½ÐµÑĢ": 5317,
      "Strings": 5318,
      "jection": 5319,
      "ĠÐ»Ð¸": 5320,
      "Ð¾Ð±Ð°Ð²Ð»ÐµÐ½": 5321,
      "Ġ256": 5322,
      "ÑĤÐµÑĢÐ½": 5323,
      "ĠCompare": 5324,
      "MPLET": 5325,
      "FILE": 5326,
      "ĠÐ¿Ð¾Ð·Ð¸ÑĨÐ¸Ñı": 5327,
      "ĠÑģÑĤÑĢÑĥÐºÑĤ": 5328,
      "ergy": 5329,
      "Ġalignof": 5330,
      "ÐľÐ¸Ð½Ð¸Ð¼Ð°Ð»ÑĮ": 5331,
      "ÑģÑĤÐ°Ð½Ð°Ð²Ð»Ð¸Ð²Ð°ÐµÐ¼": 5332,
      "02": 5333,
      "60": 5334,
      "85": 5335,
      "96": 5336,
      "Header": 5337,
      "Machine": 5338,
      "SA": 5339,
      "ggle": 5340,
      "ohn": 5341,
      "success": 5342,
      "tri": 5343,
      "table": 5344,
      "Ġup": 5345,
      "ins": 5346,
      "return": 5347,
      "Ġ(&": 5348,
      "Ġcached": 5349,
      "Ġbfs": 5350,
      "ĠSpecification": 5351,
      "Rest": 5352,
      "Ġindent": 5353,
      "ĠPer": 5354,
      "Ġstrategy": 5355,
      "()));\\": 5356,
      "ĠÐ¸ÑĤÐµÑĢ": 5357,
      "Initial": 5358,
      "ĠĠĠĠĠĠĠĠĠĠĠĠĠĠĠĠĠĠ": 5359,
      "abled": 5360,
      "Ð¡ÑĩÐµÑĤ": 5361,
      "rightness": 5362,
      "ĠprintAll": 5363,
      "ĠNew": 5364,
      "Ġcompare": 5365,
      "Chain": 5366,
      "ĠOperation": 5367,
      "Ġtimestamp": 5368,
      "ĠÐ³ÑĢÐ°Ð½Ð¸ÑĨ": 5369,
      "And": 5370,
      "Ġinitialize": 5371,
      "Allocated": 5372,
      "Interval": 5373,
      "Students": 5374,
      "ĠConnectionPool": 5375,
      "chedule": 5376,
      "ecuted": 5377,
      "ĠÐĺÐ½Ð¸ÑĨÐ¸": 5378,
      "ÐµÑĢÐµÐ´ÑĮ": 5379,
      "<>\\": 5380,
      "Break": 5381,
      "Down": 5382,
      "Opt": 5383,
      "UL": 5384,
      "_;": 5385,
      "ired": 5386,
      "Ðĸ": 5387,
      "Ġor": 5388,
      "Ġ\\\"//": 5389,
      "reed": 5390,
      "ermo": 5391,
      "intValue": 5392,
      "orph": 5393,
      "orary": 5394,
      "endance": 5395,
      "Ġreservation": 5396,
      "Ġremainder": 5397,
      "ÑĢÐ¸Ð³": 5398,
      "ÑģÑĩÐµÑĤ": 5399,
      "Ġ(-": 5400,
      "sect": 5401,
      "Ġfact": 5402,
      "Ġfcntl": 5403,
      "ĠtwinPrimes": 5404,
      "ceive": 5405,
      "Ġspec": 5406,
      "ential": 5407,
      "ÑĮÑİÑĤ": 5408,
      "ÐµÑĢÑħ": 5409,
      "Ġ23": 5410,
      "ĠSh": 5411,
      "Ġdevice": 5412,
      "Ġdecoded": 5413,
      "Ð°Ð½Ð´": 5414,
      "Ġxml": 5415,
      "ĠÐ½ÐµÐ´": 5416,
      "ĠÐ½Ð°Ð»": 5417,
      "ffic": 5418,
      "Ġ'*": 5419,
      "indent": 5420,
      "ĠDynamic": 5421,
      "ĠDFS": 5422,
      "ops": 5423,
      "ÐŁÐ¾Ð¸ÑģÐº": 5424,
      "Ð¸Ð¼ÑĥÐ»Ñı": 5425,
      "plit": 5426,
      "ÐµÐºÑĥÑĢÑģ": 5427,
      "database": 5428,
      "resent": 5429,
      "pheric": 5430,
      "Ð¡Ð»": 5431,
      "ÐŀÐĶ": 5432,
      "Ð¸ÑģÑĮ": 5433,
      "):\\\";\\": 5434,
      "ĠÐŀÑģ": 5435,
      "ĠÑĢÐ°Ð·Ð½ÑĭÑħ": 5436,
      "Ġshould": 5437,
      "completed": 5438,
      "Ġserializer": 5439,
      "ĠÐ½Ð°Ð¹Ð´ÐµÐ½Ð°": 5440,
      "ĠÑģÐ¸Ð¼Ð²Ð¾Ð»Ñĭ": 5441,
      "Ġinstances": 5442,
      "ĠSOL": 5443,
      "Ġchildren": 5444,
      "Reading": 5445,
      "ĠÐ·Ð°Ð²Ð¸Ñģ": 5446,
      "ĠÐ´Ð¾ÑģÑĤÑĥÐ¿Ð°": 5447,
      "Move": 5448,
      "ÑĥÐ±Ð»Ð¸Ðº": 5449,
      "ĠÑĢÐ°Ð²Ð½Ñĭ": 5450,
      "ĠÐ°ÑĢÐ¸ÑĦÐ¼ÐµÑĤ": 5451,
      "Position": 5452,
      "ĠallocatedBlocks": 5453,
      "ĠÐ¿Ð°Ð¼ÑıÑĤÐ¸": 5454,
      "SOCKET": 5455,
      "ilograms": 5456,
      "ĠÐ´ÐµÐ¼Ð¾Ð½ÑģÑĤÑĢÐ°ÑĨÐ¸Ð¸": 5457,
      "ermostat": 5458,
      "pherical": 5459,
      "ÑĥÐ±Ð»Ð¸ÐºÐ°ÑĤ": 5460,
      "*()": 5461,
      "-%": 5462,
      "90": 5463,
      "Bound": 5464,
      "Capacity": 5465,
      "Drawing": 5466,
      "Full": 5467,
      "Factorial": 5468,
      "Ident": 5469,
      "Multiply": 5470,
      "Smart": 5471,
      "ccur": 5472,
      "dated": 5473,
      "group": 5474,
      "oth": 5475,
      "pq": 5476,
      "rbegin": 5477,
      "wrapper": 5478,
      "Ð¥": 5479,
      "ĠÐ°Ð½": 5480,
      "Ġstorage": 5481,
      "deallocate": 5482,
      "Ġregex": 5483,
      "onal": 5484,
      "ctl": 5485,
      "Ġcap": 5486,
      "Ġcalle": 5487,
      "ĠĠĠĠĠĠĠĠĠĠ": 5488,
      "ÑıÑĢ": 5489,
      "ulate": 5490,
      "nput": 5491,
      "Ġdegrees": 5492,
      "Ð°Ð½Ð½ÑĭÐµ": 5493,
      "andard": 5494,
      "ĠMiddle": 5495,
      "Ð¾ÑĤÐ¾ÑĢ": 5496,
      "query": 5497,
      "Ġoperators": 5498,
      "ĠÐ·Ð°Ð¼": 5499,
      "ĠÐ±Ð°Ð»Ð°Ð½Ñģ": 5500,
      "ĠptrTo": 5501,
      "ÐµÑģÑĮ": 5502,
      "Ġcloned": 5503,
      "Ġminor": 5504,
      "foo": 5505,
      "ĠÐŀÑĩ": 5506,
      "Ð°Ð¿ÑĢ": 5507,
      "ĠWindow": 5508,
      "ĠÐ³ÑĢÐ°Ð´": 5509,
      "ĠÐ»ÐµÑĤ": 5510,
      "Plugins": 5511,
      "Ð¡ÑĤÑĥÐ´ÐµÐ½ÑĤ": 5512,
      "ÐºÑĢÐµÑĤ": 5513,
      "Ġfibonacci": 5514,
      "ĠÐ´Ð²Ñĥ": 5515,
      "ĠÐ¿Ð¾Ð»ÑĮÐ·Ð¾Ð²Ð°ÑĤÐµÐ»ÑĮ": 5516,
      "AGE": 5517,
      "Ġentries": 5518,
      "App": 5519,
      "ĠÐ²ÐµÑĢÑĪÐ¸Ð½Ñĭ": 5520,
      "ĠÐ¾Ð±ÑĢÐ°Ð±Ð¾ÑĤÐºÐ¸": 5521,
      "Ð¾Ð´Ð¸ÑĦÐ¸ÐºÐ°ÑĨÐ¸Ñı": 5522,
      "ĠÐ¿ÑĢÐ¾Ð±ÐµÐ»": 5523,
      "ĠÑĥÐ¼Ð½Ð¾Ð¶ÐµÐ½Ð¸Ñı": 5524,
      "Ġrandom": 5525,
      "ĠÐ·Ð½Ð°Ðº": 5526,
      "ubbleSort": 5527,
      "SQL": 5528,
      "risky": 5529,
      "Ġcalled": 5530,
      "*[": 5531,
      "21": 5532,
      "Celsius": 5533,
      "FL": 5534,
      "Five": 5535,
      "GS": 5536,
      "derived": 5537,
      "head": 5538,
      "ipe": 5539,
      "ited": 5540,
      "pn": 5541,
      "Ð¬": 5542,
      "command": 5543,
      "enu": 5544,
      "Ġmoney": 5545,
      "Ġtuple": 5546,
      "sis": 5547,
      "Ġpas": 5548,
      "another": 5549,
      "Ġspan": 5550,
      "Ġostream": 5551,
      "getTotal": 5552,
      "ĠÑģÐ±": 5553,
      "Reload": 5554,
      "etch": 5555,
      "Ġguest": 5556,
      "owels": 5557,
      "ÐĴÐ¾Ð·": 5558,
      "Ġoperations": 5559,
      "ĠmaxValue": 5560,
      "printStats": 5561,
      "ĠÐ±Ð°Ð»Ð»": 5562,
      "ĠFibonacci": 5563,
      "ĠÑĥÐ·": 5564,
      "ÐĿÐµÐ´": 5565,
      "ĠÐ¿ÑĢÐ¾Ð´": 5566,
      "Ġsetsockopt": 5567,
      "ĠLO": 5568,
      "Ġ10000": 5569,
      "ĠtotalSeconds": 5570,
      "Ġselect": 5571,
      "Ġused": 5572,
      "Ġalarm": 5573,
      "ĠStorage": 5574,
      "ĠÑĢÐ°Ð·Ð´ÐµÐ»": 5575,
      "ÐĹÐ°Ð´Ð°Ñĩ": 5576,
      "Ġreader": 5577,
      "Ġ\\\"-\\\"": 5578,
      "Ġpositive": 5579,
      "Ġinputs": 5580,
      "ĠÐ¾ÑĪÐ¸Ð±ÐºÐ°": 5581,
      "Ġmodify": 5582,
      "Ð¡ÑĤÐµÐº": 5583,
      "ĠÑģÐºÐ¾Ð¿Ð¸ÑĢÐ¾Ð²Ð°Ð½": 5584,
      "Ġlisten": 5585,
      "weights": 5586,
      "ITE": 5587,
      "ĠColleague": 5588,
      "Ġmerged": 5589,
      "Ġsuccessful": 5590,
      "cartesian": 5591,
      "ĲâķĲâķĲâķĲâķĲâķĲâķĲâķĲâķĲâķĲâķĲâķĲâķĲâķĲâķĲâķĲâķ": 5592,
      "ĠÐ´Ð¾Ð±Ð°Ð²Ð»ÐµÐ½Ð¸Ñı": 5593,
      "Ġsession": 5594,
      "ĠÐ¾ÑĤÐºÑĢÑĭÑĤ": 5595,
      "ÑĢÐ¾Ð±ÑĮ": 5596,
      "Ġrecommendations": 5597,
      "ĠActor": 5598,
      "ĠRoomType": 5599,
      "19937": 5600,
      "silon": 5601,
      "Aggregate": 5602,
      "NON": 5603,
      "OT": 5604,
      "So": 5605,
      "Segment": 5606,
      "hour": 5607,
      "nÐĺ": 5608,
      "olog": 5609,
      "rink": 5610,
      "speed": 5611,
      "tom": 5612,
      "ĠUn": 5613,
      "ĠQueue": 5614,
      "\\\"});\\": 5615,
      "Ġrecord": 5616,
      "Ġvariant": 5617,
      "Ġbig": 5618,
      "ang": 5619,
      "Ġsl": 5620,
      "room": 5621,
      "execution": 5622,
      "Ġworld": 5623,
      "Ġdeterminant": 5624,
      "ĠÐ½Ð¾Ð»ÑĮ": 5625,
      "Ġinver": 5626,
      "Ġrw": 5627,
      "ĠBuffer": 5628,
      "ĠnewData": 5629,
      "ivity": 5630,
      "ÑĦÐ¾ÑĢÐ¼": 5631,
      "Ð¸Ð½Ð³": 5632,
      "ĠVec": 5633,
      "Ð°Ð·Ð²": 5634,
      "ĠRED": 5635,
      "Ġtypes": 5636,
      "ÐµÑģÑĤÑĮ": 5637,
      "ĠElement": 5638,
      "Ġsem": 5639,
      "Ġcomplete": 5640,
      "ÐļÐĲ": 5641,
      "ĠÑįÑĤÐ¾": 5642,
      "ĠÐ¿ÐµÑĢÐµ": 5643,
      "ETH": 5644,
      "ĠfindMin": 5645,
      "ĠÑģÑĤÐ°ÑĢ": 5646,
      "launch": 5647,
      "ĠÐºÐ¾Ð½ÑģÑĤÑĢÑĥÐºÑĤÐ¾ÑĢ": 5648,
      "Charlie": 5649,
      "Client": 5650,
      "Ġtopolog": 5651,
      "ught": 5652,
      "OUNT": 5653,
      "ĠĠĠĠĠĠĠĠĠĠĠĠĠĠĠĠĠĠĠĠĠĠĠĠĠ": 5654,
      "ĠÐ¿ÐµÑĢÐµÐ¼ÐµÐ½Ð½ÑĥÑİ": 5655,
      "ĠÑĥÐºÐ°Ð·Ð°ÑĤÐµÐ»ÐµÐ¹": 5656,
      "withdraw": 5657,
      "ircum": 5658,
      "ĠAlloc": 5659,
      "Ġfutures": 5660,
      "Ġfields": 5661,
      "ÑģÐºÐ¸Ð¹": 5662,
      "ĠÐ²ÐµÑĢÑħ": 5663,
      "ĠÑĢÐ°Ð·ÑĢÑĥÑĪÐµÐ½": 5664,
      "ĠSettings": 5665,
      "Ġrotate": 5666,
      "1234567890": 5667,
      "ĠÐĺÐ·Ð¼ÐµÐ½ÐµÐ½Ð¸Ðµ": 5668,
      "ĠÑĤÐ¾Ð²Ð°ÑĢÐ°": 5669,
      "Ð¸ÑĤÐµÑĢÐ°Ð»": 5670,
      "Ġtopological": 5671,
      "Cy": 5672,
      "Cart": 5673,
      "CAP": 5674,
      "Digits": 5675,
      "LU": 5676,
      "Msg": 5677,
      "Row": 5678,
      "Source": 5679,
      "cc": 5680,
      "history": 5681,
      "lvin": 5682,
      "nap": 5683,
      "run": 5684,
      "share": 5685,
      "store": 5686,
      "inate": 5687,
      "common": 5688,
      "rection": 5689,
      "Ð°ÑĨÐ¸Ð¹": 5690,
      "contains": 5691,
      "Ġve": 5692,
      "Ð»Ð°": 5693,
      "Ġpolynomial": 5694,
      "ĠpImpl": 5695,
      "Ġ14": 5696,
      "ÑıÐ·": 5697,
      "iod": 5698,
      "Ð¾Ð²ÑĭÑħ": 5699,
      "Ġ27": 5700,
      "Ġstringstream": 5701,
      "ĠÐ²Ð¾": 5702,
      "ĠÐ½ÐµÑģÐº": 5703,
      "ĠÐ´ÑĥÐ±Ð»Ð¸ÐºÐ°ÑĤ": 5704,
      "kelvin": 5705,
      "ÐµÑĤÐ°": 5706,
      "Ġinline": 5707,
      "ÑĢÐ°Ð±": 5708,
      "ĠÐºÐ°Ð¶Ð´": 5709,
      "opped": 5710,
      "ĠÐ¸ÑģÐ¿Ð¾Ð»ÑĮÐ·Ð¾Ð²Ð°Ð½Ð¸Ðµ": 5711,
      "backup": 5712,
      "vals": 5713,
      "ĠÐ¼ÐµÐ½": 5714,
      "Ġextract": 5715,
      "Ð°ÐºÐ°Ð·": 5716,
      "ÐļÐ¾Ð½": 5717,
      "ÐļÐ²Ð°Ð´ÑĢÐ°ÑĤ": 5718,
      "ĠÑĢÐµÐ±": 5719,
      "ĠÐ¾Ð±Ñī": 5720,
      "ĠÐ³ÑĢÐ°ÑĦ": 5721,
      "ÐµÑĪÐµÐ½Ð¸Ðµ": 5722,
      "originator": 5723,
      "Ġemployees": 5724,
      "shot": 5725,
      "Quotes": 5726,
      "Sequence": 5727,
      "Ġdistances": 5728,
      "ĠComponent": 5729,
      "ĠSimpleSpan": 5730,
      "abcdef": 5731,
      "ĠTesting": 5732,
      "ĠExpressionException": 5733,
      "csv": 5734,
      "nÐŁÑĢÐ¾Ð²ÐµÑĢÐºÐ°": 5735,
      "ĠQuaternion": 5736,
      "ĠÐ¼Ð¸Ð½Ð¸Ð¼ÑĥÐ¼": 5737,
      "Created": 5738,
      "ĠÑĢÐµÑĪÐµÐ½Ð¸Ñı": 5739,
      "Ġreduce": 5740,
      "decimal": 5741,
      "DoorState": 5742,
      "transform": 5743,
      "Ġconverter": 5744,
      "ĠPaymentRequest": 5745,
      "ĠÐ°Ð»Ð³Ð¾ÑĢÐ¸ÑĤÐ¼": 5746,
      "INFO": 5747,
      "ĠÐ´Ð¸Ð°Ð¿Ð°Ð·Ð¾Ð½Ðµ": 5748,
      "ĠÐłÐ°Ð±Ð¾ÑĤÐ°": 5749,
      "ĠBUFFER": 5750,
      "orphic": 5751,
      "napshot": 5752,
      "'\\": 5753,
      "AIN": 5754,
      "Author": 5755,
      "GR": 5756,
      "LY": 5757,
      "SU": 5758,
      "UN": 5759,
      "bra": 5760,
      "fir": 5761,
      "tion": 5762,
      "Ġregistered": 5763,
      "Ġflist": 5764,
      "Ġfilter": 5765,
      "sity": 5766,
      "Ġbattery": 5767,
      "Ġbetween": 5768,
      "versity": 5769,
      "ĠCO": 5770,
      "ĠSensor": 5771,
      "Ġhealth": 5772,
      "Ġinner": 5773,
      "istic": 5774,
      "ĠDi": 5775,
      "Ġguard": 5776,
      "ĠisPalindrome": 5777,
      "ĠisLeap": 5778,
      "Ġ&&\\": 5779,
      "Ð¾ÐºÐ°Ð·": 5780,
      "ested": 5781,
      "ĠFinal": 5782,
      "Ġ||\\": 5783,
      "locity": 5784,
      "ĠRGB": 5785,
      "Ġ64": 5786,
      "Ġ%=": 5787,
      "ĠER": 5788,
      "timestamp": 5789,
      "ĠÑįÑĤ": 5790,
      "ĠÑĢÐµÐ³Ð¸ÑģÑĤÑĢ": 5791,
      "Ġ2024": 5792,
      "ĠÐĺÐ¼": 5793,
      "Ġleg": 5794,
      "Ð»ÑİÐ´": 5795,
      "LOG": 5796,
      "ĠÐ¸Ð½ÑĤÐµÑĢ": 5797,
      "ElementA": 5798,
      "ÐĽÐĺ": 5799,
      "Squares": 5800,
      "isspace": 5801,
      "ĠÑħÐµÑĪ": 5802,
      "ĠÑĤÐµÐºÑĥÑī": 5803,
      "Ġmemcpy": 5804,
      "ĠÐ²ÑĭÐ¿Ð¾Ð»Ð½ÐµÐ½Ð¸Ñı": 5805,
      "JsonNode": 5806,
      "Ð°Ð»Ð»ÐµÐ»ÑĮ": 5807,
      "ĠÐĶÐ¾Ð¿Ð¾Ð»Ð½Ð¸ÑĤÐµÐ»ÑĮÐ½ÑĭÐµ": 5808,
      "Ð¸ÑĩÐµÑģÐºÐ¸Ðµ": 5809,
      "ĠÐĴÑĭÑĩÐ¸ÑģÐ»ÐµÐ½Ð¸Ðµ": 5810,
      "ĠÐĴÑĭÑĩÐ¸ÑģÐ»ÑıÐµÐ¼": 5811,
      "Ġmagnitude": 5812,
      "ÐµÑģÑıÑĨ": 5813,
      "TEMP": 5814,
      "ĠÐµÐ´Ð¸Ð½Ð¸ÑĨ": 5815,
      "ĠClient": 5816,
      "ĠÐ·Ð°ÑħÐ²Ð°ÑĤ": 5817,
      "firm": 5818,
      "!\\\");\\": 5819,
      "Box": 5820,
      "Math": 5821,
      "Mana": 5822,
      "OS": 5823,
      "Pre": 5824,
      "Pattern": 5825,
      "SV": 5826,
      "WR": 5827,
      "Width": 5828,
      "eb": 5829,
      "gency": 5830,
      "rin": 5831,
      "ump": 5832,
      "ĠExpr": 5833,
      "ĠÐµÑģÑĤÑĮ": 5834,
      "inanc": 5835,
      "urch": 5836,
      "seq": 5837,
      "Ġfo": 5838,
      "Ġfuel": 5839,
      "Ð»Ð¾": 5840,
      "Ġbin": 5841,
      "strings": 5842,
      "ritical": 5843,
      "transition": 5844,
      "Ġed": 5845,
      "adr": 5846,
      "->()": 5847,
      "vertex": 5848,
      "ĠÑģÑĢÐ°Ð²Ð½ÐµÐ½Ð¸Ðµ": 5849,
      "ĠÑģÑĢÐ°Ð²Ð½ÐµÐ½Ð¸Ñı": 5850,
      "ĠÑģÐ´Ð²Ð¸Ð³": 5851,
      "ĠCSV": 5852,
      "Ġcom": 5853,
      "ĠStr": 5854,
      "Repe": 5855,
      "ĠÐ²Ð·": 5856,
      "ĠÐ½Ð¾Ð¼ÐµÑĢ": 5857,
      "Ð¾ÑĢÐ¾Ð´": 5858,
      "Ġrating": 5859,
      "ĠgetTotal": 5860,
      "ĠÐºÐ»Ð¸ÐµÐ½ÑĤ": 5861,
      "ĠÐ¸ÑģÐ¿Ð¾Ð»ÑĮÐ·ÑĥÐµÐ¼": 5862,
      "ĠAudio": 5863,
      "term": 5864,
      "ĠÐ¼Ð¾Ð´Ð¸ÑĦÐ¸Ðº": 5865,
      "ĠÐ¼ÑĮÑİÑĤ": 5866,
      "keys": 5867,
      "ĠmaxEndingHere": 5868,
      "ĠÑĤÐ°Ð¹": 5869,
      "Ð¾Ð½ÐµÐ½ÑĤ": 5870,
      "ĠÑĥÑģÐ»Ð¾Ð²": 5871,
      "signment": 5872,
      "ĠtotalArea": 5873,
      "Ġseg": 5874,
      "ÐļÐ½Ð¸Ð³": 5875,
      "ĠIs": 5876,
      "ĠItem": 5877,
      "ĠIMPLEMENT": 5878,
      "ToId": 5879,
      "ĠÐ¿ÐµÑĢÐµÑģÑĤ": 5880,
      "Ġ70": 5881,
      "ĠÐŀÐ¿ÐµÑĢ": 5882,
      "Ġsubtract": 5883,
      "ĠÑģÑĤÐµÐ¿": 5884,
      "Ġatomic": 5885,
      "ÐºÐ°Ð·Ð°ÑĤÐµÐ»ÑĮ": 5886,
      "curring": 5887,
      "ĠÐ»Ð¾Ð³": 5888,
      "ĠJsonObject": 5889,
      "ĠÐľÐ¾Ð´Ð¸ÑĦÐ¸ÐºÐ°ÑĨÐ¸Ñı": 5890,
      "Ġmonthly": 5891,
      "ĠTypeErased": 5892,
      "OfDay": 5893,
      "center": 5894,
      "ÐĿÐµÐ¸Ð·Ð²ÐµÑģÑĤ": 5895,
      "ollars": 5896,
      "TRACT": 5897,
      "ĠÐºÐ¾ÑĢÑĢÐµÐºÑĤ": 5898,
      "ĠÐ¾Ð±ÑĬÐµÐºÑĤÐ¾Ð²": 5899,
      "Ġdivide": 5900,
      "ĠmemoryPool": 5901,
      "ĠÐ¿ÐµÑĢÐµÐ¼ÐµÐ½Ð½Ð¾Ð¹": 5902,
      "Ġ__": 5903,
      "Ġneighbors": 5904,
      "Creating": 5905,
      "ĠÐ¿ÐµÑĢÐµÐ¼ÐµÑīÐµÐ½Ð¸Ñı": 5906,
      "Permutations": 5907,
      "Parser": 5908,
      "ĠÑĤÑĢÐµÑĥÐ³Ð¾Ð»ÑĮÐ½Ð¸ÐºÐ°": 5909,
      "ĠÐ¿Ð¾Ð»ÑĮÐ·Ð¾Ð²Ð°ÑĤÐµÐ»Ñı": 5910,
      "ĠÑģÐ¾Ð±ÑĭÑĤÐ¸Ð¹": 5911,
      "BUG": 5912,
      "CLARE": 5913,
      "Dependencies": 5914,
      "ĠÐ°Ð´ÑĢÐµÑģ": 5915,
      "Policy": 5916,
      "ipeline": 5917,
      "inancial": 5918,
      "urchase": 5919,
      "ĠÐ¼Ð¾Ð´Ð¸ÑĦÐ¸ÐºÐ°ÑĨÐ¸Ð¸": 5920,
      ")-": 5921,
      "Ca": 5922,
      "Oper": 5923,
      "Ratio": 5924,
      "Sm": 5925,
      "Spec": 5926,
      "db": 5927,
      "eed": 5928,
      "nÐ£": 5929,
      "nÐĴÑĭ": 5930,
      "nÐĶÐ¾": 5931,
      "ĠÂ": 5932,
      "Ġ...": 5933,
      "atis": 5934,
      "Ġreport": 5935,
      "urpose": 5936,
      "unlock": 5937,
      "Ġblue": 5938,
      "Ġ120": 5939,
      "ÑıÑİÑī": 5940,
      "umulate": 5941,
      "peek": 5942,
      "isPrime": 5943,
      "Ð²Ð°ÑĢ": 5944,
      "ĠÐ¿ÑĢÐ¾Ð²ÐµÑĢÐºÐ°": 5945,
      "exit": 5946,
      "Ġwater": 5947,
      "ĠSafe": 5948,
      "Ð°Ð½Ð°": 5949,
      "ĠÐ²Ð¸Ð´": 5950,
      "ÐµÐ½Ð¸Ð¸": 5951,
      "percent": 5952,
      "ÐµÑĤÑĮ": 5953,
      "Ġ'}": 5954,
      "Ġrd": 5955,
      "ĠgetData": 5956,
      "());": 5957,
      "ÐŁÐ¾Ð»": 5958,
      "Ð¾ÑĤÑĥ": 5959,
      "agonal": 5960,
      "response": 5961,
      "ÐŀÑĩ": 5962,
      "acter": 5963,
      "ĠFunc": 5964,
      "locale": 5965,
      "ifi": 5966,
      "ÐĶÐ¾Ð±Ð°Ð²Ð»ÐµÐ½": 5967,
      "Ġ1000000": 5968,
      "toupper": 5969,
      "ĠRegistry": 5970,
      "ĠContext": 5971,
      "ĠÐĶÐ¾ÑģÑĤÑĥÐ¿": 5972,
      "ĠOther": 5973,
      "LECT": 5974,
      "Ġclosed": 5975,
      "ĠÑĤÐ¸Ð¿Ñĭ": 5976,
      "ÐŁÑĢÐ¸Ð²": 5977,
      "The": 5978,
      "ĠResourcePool": 5979,
      "Ð°Ð±Ð»ÑİÐ´": 5980,
      "ĠÐ¸Ð½Ð¸ÑĨÐ¸": 5981,
      "Ġactual": 5982,
      "Ġappro": 5983,
      "ĠStringWrapper": 5984,
      "operators": 5985,
      "ĠÐ¼Ð¸Ð½Ð¸Ð¼Ð°Ð»ÑĮ": 5986,
      "ĠSmartArray": 5987,
      "ĠAligned": 5988,
      "Ð¸ÑģÑĤÐµÐ¼Ð°": 5989,
      "ÐŃÐ»ÐµÐ¼ÐµÐ½ÑĤÑĭ": 5990,
      "Ð¸Ð°Ð½ÑĤ": 5991,
      "Ð¨Ð°Ð³": 5992,
      "ĠÑĢÐµÑĪÐµÐ½Ð¸Ð¹": 5993,
      "Ġdecimal": 5994,
      "ferred": 5995,
      "Ð¿ÑĢÐµÐ´ÐµÐ»Ð¸ÑĤÐµÐ»ÑĮ": 5996,
      "ĠÐ¾ÑģÐ½Ð¾Ð²": 5997,
      "Ð½ÑĥÑĤÑĢÐ¸": 5998,
      "Ġchanged": 5999,
      "ĠÑģÑĤÑĥÐ´ÐµÐ½ÑĤÐ¾Ð²": 6000,
      "ccurrence": 6001,
      "ĠÐ³ÑĢÐ°Ð´ÑĥÑģ": 6002,
      "ircumference": 6003,
      "ĠERROR": 6004,
      "atisf": 6005,
      ".\\\";\\": 6006,
      "ACK": 6007,
      "Abs": 6008,
      "AME": 6009,
      "Cipher": 6010,
      "EE": 6011,
      "FIG": 6012,
      "Filter": 6013,
      "Frequent": 6014,
      "GET": 6015,
      "ML": 6016,
      "Mem": 6017,
      "Ops": 6018,
      "Phone": 6019,
      "Pending": 6020,
      "RAII": 6021,
      "Tuple": 6022,
      "Vertex": 6023,
      "byte": 6024,
      "doc": 6025,
      "eam": 6026,
      "jug": 6027,
      "lish": 6028,
      "nÐĴÐ²ÐµÐ´Ð¸ÑĤÐµ": 6029,
      "noexcept": 6030,
      "sv": 6031,
      "triangle": 6032,
      "ured": 6033,
      "ĠÐµÑī": 6034,
      "Ġ\\\"\\\",": 6035,
      "Ġstats": 6036,
      "ern": 6037,
      "Ġms": 6038,
      "the": 6039,
      "ÑĥÐµÐ¼": 6040,
      "trics": 6041,
      "peak": 6042,
      "ÑĮÑİ": 6043,
      "Ġwill": 6044,
      "very": 6045,
      "Ġlst": 6046,
      "ĠTR": 6047,
      "Ġdeposit": 6048,
      "Ġdepend": 6049,
      "Reservation": 6050,
      "ket": 6051,
      "Ġ']": 6052,
      "ĠPool": 6053,
      "ĠDis": 6054,
      "ĠDep": 6055,
      "ÑħÑĢÐ°Ð½": 6056,
      "InMonth": 6057,
      "ĠÐ¼Ð¸ÑĢ": 6058,
      "Ġchars": 6059,
      "printStatus": 6060,
      "imed": 6061,
      "Ġ===\\\\": 6062,
      "ÐĿÐ°Ñĩ": 6063,
      "Ð¸Ð²Ð°Ð½Ð¸Ñı": 6064,
      "ĠcurrentTemp": 6065,
      "Ð°ÐºÑĤÐ¾ÑĢ": 6066,
      "logger": 6067,
      "Ġseq": 6068,
      "antType": 6069,
      "Ġaligned": 6070,
      "ĠÑįÐº": 6071,
      "ĠÐ¾Ð±Ð½Ð¾Ð²": 6072,
      "queueMutex": 6073,
      "Ð¸Ð·Ð²Ð¾Ð´": 6074,
      "ĠÐŀÐ¿ÑĢÐµÐ´ÐµÐ»ÐµÐ½Ð¸Ðµ": 6075,
      "Ġanimal": 6076,
      "scape": 6077,
      "ĠÑĢÐ°Ð·Ð½ÑĭÐ¼Ð¸": 6078,
      "results": 6079,
      "ĠÐļÐ¾Ð¿": 6080,
      "Ġcontroller": 6081,
      "ABABC": 6082,
      "Ð¸ÑĢÐ¾Ð²Ð°Ð½Ð°": 6083,
      "Ð¸ÑĢÐ¾Ð²Ð°Ð½Ð½Ð°Ñı": 6084,
      "ĠcheckOut": 6085,
      "Ð¼Ð°ÑĥÑĤ": 6086,
      "aker": 6087,
      "LOW": 6088,
      "ÐµÐ¿Ð¾Ð»Ð½": 6089,
      "Ġmemo": 6090,
      "Ð°ÑĩÐ°": 6091,
      "greater": 6092,
      "Ġstopped": 6093,
      "Ġinsertions": 6094,
      "SSL": 6095,
      "ĠÑģÐºÐ¾ÑĢ": 6096,
      "celer": 6097,
      "Ġroute": 6098,
      "ACC": 6099,
      "ĠConcreteObserver": 6100,
      "ĠÑĥÐ´Ð°Ð»ÐµÐ½": 6101,
      "pository": 6102,
      "ĠdaysInMonth": 6103,
      "Ġdocs": 6104,
      "ĠÐºÐ¾ÑĢÐ½Ñı": 6105,
      "ĠwindowSize": 6106,
      "ĠfreeList": 6107,
      "ÑĢÑĥÐ¶ÐµÑģÑĤÐ²": 6108,
      "Ġdomain": 6109,
      "Interests": 6110,
      "ĠÐ¢ÐµÑģÑĤÐ¸ÑĢÐ¾Ð²Ð°Ð½Ð¸Ðµ": 6111,
      "Ġfsm": 6112,
      "ĠÐ²ÑĤÐ¾ÑĢÐ¾Ð³Ð¾": 6113,
      "discriminant": 6114,
      "BinaryOp": 6115,
      "ĠÐ¸ÑģÐ¿Ð¾Ð»ÑĮÐ·Ð¾Ð²Ð°Ð½Ð¸ÐµÐ¼": 6116,
      "ĠCONFIG": 6117,
      "ASK": 6118,
      "Ġ\\\"âľĹ": 6119,
      "soleLogger": 6120,
      "ĠÐ¸Ð·Ð¼ÐµÐ½Ð¸ÑĤÑĮ": 6121,
      "Ġdispatcher": 6122,
      "POLL": 6123,
      "ĠÐ¨Ð°Ð±Ð»Ð¾Ð½Ð½Ð°Ñı": 6124,
      "ĠBitSet": 6125,
      "Ġlayers": 6126,
      "ÑĥÐ¿ÑĢÐµÐ¶Ð´": 6127,
      "tellg": 6128,
      "Ġcommit": 6129,
      "Ð·Ð²Ð»ÐµÑĩ": 6130,
      "promise": 6131,
      "MPLETED": 6132,
      "ĠÐ¿Ð¾Ð·Ð¸ÑĨÐ¸ÑıÑħ": 6133,
      "ĠÐ½Ð°Ð»Ð¸Ñĩ": 6134,
      "ĠRGBColor": 6135,
      "ĠÐĺÐ¼Ð¸ÑĤÐ°ÑĨÐ¸Ñı": 6136,
      "jugate": 6137,
      ")/": 6138,
      "AE": 6139,
      "Far": 6140,
      "Flags": 6141,
      "Guest": 6142,
      "Mass": 6143,
      "Payment": 6144,
      "Speed": 6145,
      "asic": 6146,
      "build": 6147,
      "mt": 6148,
      "null": 6149,
      "yes": 6150,
      "delete": 6151,
      "sell": 6152,
      "Ġfinal": 6153,
      "Ġvia": 6154,
      "Ġdown": 6155,
      "Ġpost": 6156,
      "ged": 6157,
      "Ġsr": 6158,
      "ummy": 6159,
      "ÑĩÐ¸ÑĤ": 6160,
      "Ġ2000": 6161,
      "++];\\": 6162,
      "ĠÑģÑĢÐµÐ´Ð½": 6163,
      "Ġltm": 6164,
      "Ð¼Ð°ÑģÑģÐ¸Ð²": 6165,
      "Ġdeallocate": 6166,
      "Ð¾ÑĢÐ¾Ð½": 6167,
      "ÐµÐ»ÐµÐ½Ð¸Ðµ": 6168,
      "Ġ';\\": 6169,
      "Ġ50000": 6170,
      "ĠMo": 6171,
      "ÑĦÐ¾ÑĢ": 6172,
      "apsed": 6173,
      "Ð¡Ð°Ð¼": 6174,
      "ĠÑĤÐµÐ¿ÐµÑĢÑĮ": 6175,
      "ĠVariant": 6176,
      "Ġtemperature": 6177,
      "Ġminute": 6178,
      "Algorithm": 6179,
      "Ġsegment": 6180,
      "ible": 6181,
      "ERS": 6182,
      "Ġshutdown": 6183,
      "ĠÐłÐķ": 6184,
      "Ġ\\\"):\\\"": 6185,
      "ĠsideB": 6186,
      "ĠsideC": 6187,
      "events": 6188,
      "ĠJsonArray": 6189,
      "ÑĭÐ²Ð°ÐµÑĤ": 6190,
      "script": 6191,
      "Select": 6192,
      "ĠÑģÐ¾ÐµÐ´Ð¸Ð½": 6193,
      "ĠÑĥÐ´Ð°Ð»Ð¾ÑģÑĮ": 6194,
      "ĠÐ·Ð°Ð¿ÑĢÐ¾Ñģ": 6195,
      "floating": 6196,
      "ĠÐ¿ÐµÑĢÐ²ÑĭÐ¹": 6197,
      "ĠÐŀÐ±Ð½Ð¾Ð²": 6198,
      "allel": 6199,
      "ĠÐ¿ÑĢÐ¾Ð¸Ð·Ð²ÐµÐ´ÐµÐ½Ð¸Ðµ": 6200,
      "ĠÐ¿ÑĢÐµÐ´ÑģÑĤÐ°Ð²": 6201,
      "Ġtokens": 6202,
      "Ð¿ÑĢÐ¾Ñī": 6203,
      "VALUE": 6204,
      "Ġepsilon": 6205,
      "attach": 6206,
      "ĠSerializable": 6207,
      "HECK": 6208,
      "ĠÐ¾Ð±ÑĢÐ°ÑĤÐ½Ð¾Ð¼": 6209,
      "ĠÐ¾Ð´Ð¸Ð½Ð°Ðº": 6210,
      "ĠPrinter": 6211,
      "ĠÑģÐ»ÑĥÑĩÐ°Ð¹": 6212,
      "arrival": 6213,
      "ÐĴÐ¾Ð·ÑĢÐ°ÑģÑĤ": 6214,
      "ĠÐµÑīÐµ": 6215,
      ")>;\\": 6216,
      "Ax": 6217,
      "Ada": 6218,
      "Be": 6219,
      "Dir": 6220,
      "Fibonacci": 6221,
      "ISS": 6222,
      "PS": 6223,
      "PLAY": 6224,
      "TokenType": 6225,
      "average": 6226,
      "budget": 6227,
      "eve": 6228,
      "grid": 6229,
      "hen": 6230,
      "lf": 6231,
      "lind": 6232,
      "lines": 6233,
      "nx": 6234,
      "rical": 6235,
      "tected": 6236,
      "taker": 6237,
      "µs": 6238,
      "Ġctx": 6239,
      "\\\"}\\": 6240,
      "Ġ\\\"):": 6241,
      "reap": 6242,
      "rees": 6243,
      "Ð½Ð¸Ñĩ": 6244,
      "ÑĤÐ¾Ð¶": 6245,
      "ÑĢÐµ": 6246,
      "ÑĢÐµÐ·": 6247,
      "Ġmst": 6248,
      "Ġvars": 6249,
      "Ġpoly": 6250,
      "annel": 6251,
      "gebra": 6252,
      "ection": 6253,
      "Ġ150": 6254,
      "cho": 6255,
      "ileage": 6256,
      "ĠCOL": 6257,
      "ĠSegment": 6258,
      "serve": 6259,
      "ĠgetMax": 6260,
      "ĠPhone": 6261,
      "ĠPRI": 6262,
      "aretaker": 6263,
      ">(*": 6264,
      "Ð¿Ð¾": 6265,
      "ĠBSTNode": 6266,
      "Ġgpa": 6267,
      "ĠÐºÐ¾ÑĤÐ¾ÑĢ": 6268,
      "ands": 6269,
      "Ð°Ð»Ð°": 6270,
      "Ġthreshold": 6271,
      "ĠÐ¼Ð½Ð¾Ð³Ð¾": 6272,
      "ĠÐ¼ÐµÑģÑıÑĨ": 6273,
      "Ġproject": 6274,
      "TypeInfo": 6275,
      "Ð¡Ð¾": 6276,
      "ĠÐ·Ð°Ð´": 6277,
      "Ġexit": 6278,
      "imited": 6279,
      "ĠÐ¿ÑĢÐ¸Ð½": 6280,
      "ĠRoman": 6281,
      "tempts": 6282,
      "Ð¾Ð¶Ð½Ð¾": 6283,
      "ĠEPOLL": 6284,
      "Algebra": 6285,
      "Ð°ÑĢÐ¿Ð»": 6286,
      "rivial": 6287,
      "Ġenergy": 6288,
      "ipient": 6289,
      "Ġ2023": 6290,
      "ĠÐ·Ð½Ð°ÑĩÐµÐ½Ð¸Ð¹": 6291,
      "ĠuserManager": 6292,
      "osthen": 6293,
      "Subject": 6294,
      "rectangle": 6295,
      "Transition": 6296,
      "ÐĽÐ¬": 6297,
      "Tests": 6298,
      "255": 6299,
      "ACE": 6300,
      "Ġbackup": 6301,
      "position": 6302,
      "connections": 6303,
      "Ġintersection": 6304,
      "ĠÐ¼ÐµÑĤÐ¾Ð´Ð°": 6305,
      "ĠConfigException": 6306,
      "Entity": 6307,
      "euristic": 6308,
      "Ġgenerator": 6309,
      "Serializ": 6310,
      "partition": 6311,
      "elements": 6312,
      "targets": 6313,
      "ĠDatabaseConnection": 6314,
      "ĠÐ¾ÑĪÐ¸Ð±Ð¾Ðº": 6315,
      "ĠGameState": 6316,
      "Ð°ÑİÑīÐ°Ñı": 6317,
      "ĠÐ¸ÑģÐ¿Ð¾Ð»ÑĮÐ·Ð¾Ð²Ð°Ð½Ð¸Ñı": 6318,
      "ĠMemoryTracker": 6319,
      "ĠÐ´Ð»Ð¸Ð½Ñĥ": 6320,
      "Usage": 6321,
      "Traversal": 6322,
      "ĠInterface": 6323,
      "ĠValidationResult": 6324,
      "ĠmostFrequent": 6325,
      "Modified": 6326,
      "ĠÐ±ÑĥÐºÐ²Ñĭ": 6327,
      "Coordinate": 6328,
      "Ġrender": 6329,
      "inished": 6330,
      "apability": 6331,
      "ĠProcessing": 6332,
      "ooleanExpression": 6333,
      "Ġcaesar": 6334,
      "ÐĿÐµÐ´Ð¾ÑģÑĤÐ°ÑĤÐ¾ÑĩÐ½Ð¾": 6335,
      "ĠÂµs": 6336,
      "Axis": 6337,
      "Adapter": 6338,
      "lindrical": 6339,
      "reapNode": 6340,
      "Algebraic": 6341,
      "osthenes": 6342,
      ")]": 6343,
      "82": 6344,
      "IAL": 6345,
      "OOL": 6346,
      "YES": 6347,
      "apt": 6348,
      "gb": 6349,
      "off": 6350,
      "suffix": 6351,
      "Ġerrno": 6352,
      "Ġ{-": 6353,
      "Ð¸Ð°Ð³": 6354,
      "less": 6355,
      "leter": 6356,
      "Ġver": 6357,
      "Ġpl": 6358,
      "Ġcalcul": 6359,
      "Ġbob": 6360,
      "Ġ17": 6361,
      "usage": 6362,
      "lot": 6363,
      "isEmpty": 6364,
      "exist": 6365,
      "race": 6366,
      "ĠSe": 6367,
      "Ġlvalue": 6368,
      "Ġlargest": 6369,
      "Ð¼Ñĭ": 6370,
      "Ġhuffman": 6371,
      "service": 6372,
      "ĠgetDescription": 6373,
      "ÐŁÑĢÐµÐ´": 6374,
      "ĠÐ¸ÑģÑħÐ¾Ð´": 6375,
      "ĠprintSize": 6376,
      "printAll": 6377,
      "ĠRT": 6378,
      "andling": 6379,
      "Ð°ÑĢÐ¸Ð°Ð½ÑĤ": 6380,
      "ĠÑĢÐµÐ¶Ð¸Ð¼": 6381,
      "ĠÐŁÑĢÐµÐ´": 6382,
      "ĠÐŁÑĢÐ¾ÑģÑĤ": 6383,
      "150": 6384,
      "ĠdisplayInfo": 6385,
      "999": 6386,
      "joinable": 6387,
      "Ġsender": 6388,
      "Ġbackend": 6389,
      "ĠThreadPool": 6390,
      "Ð¸Ð°Ð¿Ð°Ð·Ð¾Ð½": 6391,
      "bitmask": 6392,
      "ĠÐ¾Ð¿ÐµÑĢÐ°ÑĨÐ¸Ð¸": 6393,
      "ĠbadChar": 6394,
      "ĠÐļÐ¾Ð½ÐºÑĢÐµÑĤ": 6395,
      "192": 6396,
      "ĠÐ²ÑĤÐ¾ÑĢÐ¾Ð¹": 6397,
      "ÐķÐĿÐĺÐķ": 6398,
      "ĠquickSort": 6399,
      "ĠÐ°Ð²ÑĤÐ¾Ð¼Ð°ÑĤ": 6400,
      "ĠÑģÐ¸ÑģÑĤÐµÐ¼Ñĭ": 6401,
      "ĠdotProduct": 6402,
      "ĠÐ¿Ð¾Ð´ÑģÑĤÑĢÐ¾ÐºÐ¸": 6403,
      "Ġ1900": 6404,
      "adjacency": 6405,
      "Ġquotient": 6406,
      "Serializable": 6407,
      "432": 6408,
      "87": 6409,
      "Bonus": 6410,
      "Flag": 6411,
      "Fraction": 6412,
      "Form": 6413,
      "Generic": 6414,
      "Heap": 6415,
      "Health": 6416,
      "Paren": 6417,
      "SharedPtr": 6418,
      "Scheduler": 6419,
      "Term": 6420,
      "^\\\"": 6421,
      "available": 6422,
      "lvalue": 6423,
      "ns": 6424,
      "nAfter": 6425,
      "two": 6426,
      "wd": 6427,
      "Ġ)": 6428,
      "Ġoriginator": 6429,
      "reserve": 6430,
      "()>>": 6431,
      "Ð¸Ñİ": 6432,
      "secret": 6433,
      "Ġtx": 6434,
      "Ġdst": 6435,
      "ĠdueDate": 6436,
      "sid": 6437,
      "ube": 6438,
      "Ġparen": 6439,
      "Ġbrand": 6440,
      "Ġsound": 6441,
      "Ġsplit": 6442,
      "ulus": 6443,
      "Ġescape": 6444,
      "ĠdoubleValue": 6445,
      "isOn": 6446,
      "ĠScopeGuard": 6447,
      "Ġ\\\"\\\\\\\\": 6448,
      "Ġdev": 6449,
      "Ġhotel": 6450,
      "asing": 6451,
      "ĠPI": 6452,
      "Stage": 6453,
      "ĠÐºÑĢÑĥÐ³": 6454,
      "ĠÐ¸ÑģÐºÐ»ÑİÑĩ": 6455,
      "Insert": 6456,
      "ĠAsync": 6457,
      "Ġthermostat": 6458,
      "ĠisS": 6459,
      "ĠÐ¼Ð¾Ð³": 6460,
      "ĠÐ¼ÐµÐ½ÑĮ": 6461,
      "ĠÐ¼Ð°ÐºÑģÐ¸Ð¼ÑĥÐ¼": 6462,
      "ĠÐŁÐ°ÑĢ": 6463,
      "Ð¡Ð¿": 6464,
      "Ð¡Ð¸Ð¼Ð²Ð¾Ð»": 6465,
      "Ġexecuted": 6466,
      "ather": 6467,
      "ĠÐ±Ð°Ð·": 6468,
      "ÐŀÐ¿ÑĢÐµÐ´ÐµÐ»Ð¸ÑĤÐµÐ»ÑĮ": 6469,
      "ĠFlyweight": 6470,
      "ĠÑĥÐ²ÐµÐ»Ð¸Ñĩ": 6471,
      "Ð¸Ð½ÐµÐ¹": 6472,
      "ÐĿÐ«": 6473,
      "ĠLe": 6474,
      "ĠtypeStr": 6475,
      "ĠtextHash": 6476,
      "ĠÐ¡ÑĤÐ°ÑĤÐ¸ÑģÑĤÐ¸ÐºÐ°": 6477,
      "Alarm": 6478,
      "Ġacquire": 6479,
      "Ġlocked": 6480,
      "magnitude": 6481,
      "Ġenable": 6482,
      "ÑħÐ¾Ð´Ð¸Ð¼": 6483,
      "Ġansw": 6484,
      "ĠGU": 6485,
      "LEN": 6486,
      "ĠÐļÐ»Ð°ÑģÑģ": 6487,
      "Acc": 6488,
      "Ġtargets": 6489,
      "Ġdictionary": 6490,
      "ariance": 6491,
      "ÐĹÐ°Ð¿": 6492,
      "Character": 6493,
      "Ð°Ð±ÑĢ": 6494,
      "ĠÐ¤Ð¾ÑĢÐ¼": 6495,
      "ShapeVisitor": 6496,
      "ARGS": 6497,
      "ĠÑģÐ»ÐµÐ´ÑĥÑİÑī": 6498,
      "ElementB": 6499,
      "conditional": 6500,
      "Animal": 6501,
      "servations": 6502,
      "Ġapple": 6503,
      "IGH": 6504,
      "Ġtranspose": 6505,
      "Ġinterpret": 6506,
      "ThreadSafe": 6507,
      "Words": 6508,
      "ĠÐ¼ÐµÑĤÐ¾Ð´Ð¾Ð²": 6509,
      "TRACE": 6510,
      "Ð½Ð¾Ð¶ÐµÑģÑĤÐ²": 6511,
      "ĠÐ¼Ð°ÑĤÑĢÐ¸ÑĨÐ°": 6512,
      "rollback": 6513,
      "ĠÐ·Ð°ÐºÑĢÑĭÑĤ": 6514,
      "ĠÑĦÑĥÐ½ÐºÑĨÐ¸Ñİ": 6515,
      "ĠÐ¨Ð°Ð³": 6516,
      "ĠÑĢÐ°Ð´Ð¸Ð°Ð½": 6517,
      "ĠSerialization": 6518,
      "Ġsessions": 6519,
      "ĠÐ½ÑĥÐ¶": 6520,
      "ĠÑģÐ¾Ð²Ð¿Ð°Ð´Ð°ÑİÑĤ": 6521,
      "ÐµÑĦÐ¸ÐºÑģ": 6522,
      "ĠPROT": 6523,
      "Pages": 6524,
      "ÑĢÑĥÐ·ÐºÐ°": 6525,
      "ÐĲÐ½Ð½Ð°": 6526,
      "enuItem": 6527,
      "ÐĹÐ°Ð´Ð°ÑĩÐ°": 6528,
      "SoFar": 6529,
      "ĠtopologicalSort": 6530,
      "ĠÐ¿ÐµÑĢÐµÑģÑĤÐ°Ð½Ð¾Ð²": 6531,
      "ÐŁÑĢÐ¸Ð²ÐµÑĤ": 6532,
      "Absolute": 6533,
      "ABABCABAB": 6534,
      "Selector": 6535,
      "Ð½Ð¸ÑĩÑĤÐ¾Ð¶": 6536,
      "ĠPRIME": 6537,
      "ĠRomanNumber": 6538,
      "Ġanswers": 6539,
      "DB": 6540,
      "HTTP": 6541,
      "Input": 6542,
      "John": 6543,
      "Off": 6544,
      "Pass": 6545,
      "Playing": 6546,
      "Sign": 6547,
      "Virtual": 6548,
      "]();\\": 6549,
      "bies": 6550,
      "cb": 6551,
      "factorial": 6552,
      "malloc": 6553,
      "ny": 6554,
      "nlong": 6555,
      "ostringstream": 6556,
      "ĠName": 6557,
      "ĠInteger": 6558,
      "Ġreinterpret": 6559,
      "align": 6560,
      "arable": 6561,
      "Ġmt": 6562,
      "Ġman": 6563,
      "Ġno": 6564,
      "construct": 6565,
      "Ġcmp": 6566,
      "Ġack": 6567,
      "Ġsleep": 6568,
      "tered": 6569,
      "ÑĩÐ»ÐµÐ½": 6570,
      "Ġdestructor": 6571,
      "Report": 6572,
      "Ð´ÐµÐ¼": 6573,
      "ĠÐ´Ð»Ð¸Ð½Ð°": 6574,
      "Ð°ÑĤÐ¾Ðº": 6575,
      "ÐµÑĤÑĢÐ¾Ð²": 6576,
      "ĠPerm": 6577,
      "ĠButton": 6578,
      "Ð°Ð»ÑıÑĢ": 6579,
      "Ġtransitions": 6580,
      "erry": 6581,
      "ĠÑĩÐ°Ñģ": 6582,
      "ÐµÐºÐ¾Ð¼": 6583,
      "Ġprogramming": 6584,
      "Ð¡ÑĢÐµÐ´": 6585,
      "Ġexist": 6586,
      "ĠÐ±Ð»Ð¾Ðº": 6587,
      "Ð¾Ð¿ÑĥÑģÑĤ": 6588,
      "ÐĺÐ·Ð²Ð»ÐµÑĩ": 6589,
      "rend": 6590,
      "memcpy": 6591,
      "username": 6592,
      "ÐĲÐ¢": 6593,
      "Ð°Ð»ÑĮÐ½Ð¾Ðµ": 6594,
      "ÑģÑĤÑĢÐ¾ÐºÐ°": 6595,
      "words": 6596,
      "Complete": 6597,
      "Ġunion": 6598,
      "ostgre": 6599,
      "ĠÐ¢Ð¸Ð¿": 6600,
      "Minutes": 6601,
      "ĠtopIndex": 6602,
      "ÑĥÐ³Ð¾Ð»ÑĮÐ½ÑĭÐ¹": 6603,
      "Setting": 6604,
      "DatabaseConnection": 6605,
      "obbies": 6606,
      "ĠÐ²Ð¾Ð·Ð¼Ð¾Ð¶": 6607,
      "ĠÑĦÐ°Ð¹Ð»Ð¾Ð²": 6608,
      "ÑİÑĤÑģÑı": 6609,
      "ÐŃÑĤÐ¾": 6610,
      "ĠÐºÐ¾Ð¼Ð¿Ð»ÐµÐºÑģ": 6611,
      "ĠÐĳÐµÐ·Ð¾Ð¿Ð°Ñģ": 6612,
      "ĠÑĪÐ°Ð±Ð»Ð¾Ð½": 6613,
      "ĠÐºÐ¾ÑĢÐµÐ½ÑĮ": 6614,
      "ĠConfiguration": 6615,
      "ĠÐ¾ÑĤÑĢÐ¸ÑĨÐ°ÑĤÐµÐ»ÑĮÐ½ÑĭÐ¼": 6616,
      "ĠÐ¿Ð¾Ð»ÑĥÑĩÐ¸ÑĤÑĮ": 6617,
      "ĠÐ´ÐµÐ»ÐµÐ½Ð¸Ðµ": 6618,
      "mulate": 6619,
      "Ġpopulation": 6620,
      "ĠÑĩÐµÑĤÐ½ÑĭÑħ": 6621,
      "Customer": 6622,
      "ĠÐ¿Ð¾ÑģÐ»ÐµÐ´Ð¾Ð²Ð°ÑĤÐµÐ»ÑĮ": 6623,
      "Ġ\\\"âľĵ": 6624,
      "Ð¾Ð³ÑĢÐµÑĪ": 6625,
      "ĠÐ´ÐµÑĢÐµÐ²Ð°": 6626,
      "Ġdimensions": 6627,
      "Ġcallback": 6628,
      "ÐŀÐ±ÑĬÐµÐ¼": 6629,
      "ANGLE": 6630,
      "ĠÑģÑĤÑĢÑĥÐºÑĤÑĥÑĢ": 6631,
      "NONBLOCK": 6632,
      "ostgreSQL": 6633,
      ")...": 6634,
      "Ad": 6635,
      "Action": 6636,
      "Float": 6637,
      "Hours": 6638,
      "ILogger": 6639,
      "Rect": 6640,
      "Rot": 6641,
      "Specification": 6642,
      "USE": 6643,
      "bound": 6644,
      "gener": 6645,
      "light": 6646,
      "nÐł": 6647,
      "rank": 6648,
      "titude": 6649,
      "world": 6650,
      "Ġlower": 6651,
      "Ġroman": 6652,
      "ined": 6653,
      "coped": 6654,
      "Ġsteady": 6655,
      "rever": 6656,
      "received": 6657,
      "():": 6658,
      "depend": 6659,
      "atted": 6660,
      "clic": 6661,
      "ÑĢÐ¾Ð½": 6662,
      "Ġnull": 6663,
      "Ġnorm": 6664,
      "Ð»Ð°Ð³": 6665,
      "ublish": 6666,
      "Ġpred": 6667,
      "ÑĭÑĪ": 6668,
      "tein": 6669,
      "Ġfork": 6670,
      "Ð¾Ð²Ð°": 6671,
      "ĠÐ¿Ð°Ðº": 6672,
      "Ġ29": 6673,
      "Ġcoeff": 6674,
      "otReload": 6675,
      "ĠTra": 6676,
      "ĠÐ²Ð¼ÐµÑģÑĤ": 6677,
      "ĠnumStr": 6678,
      "Ġindegree": 6679,
      "Ġrvalue": 6680,
      "ÐµÐ´Ð°ÑĩÐ°": 6681,
      "ĠProt": 6682,
      "Ġstrs": 6683,
      "ĠÐºÐ¼": 6684,
      "ĠMediator": 6685,
      "ĠMOD": 6686,
      "ÐĴÑĢÐµÐ¼Ñı": 6687,
      "ivation": 6688,
      "Ġoverdue": 6689,
      "Ġconv": 6690,
      "orders": 6691,
      "ĠisEmpty": 6692,
      "quential": 6693,
      "Ð¾ÐºÑĥÐ¼ÐµÐ½ÑĤ": 6694,
      "ession": 6695,
      "ĠÑĤÐ°Ðº": 6696,
      "Conver": 6697,
      "Ð±ÑĭÐ²": 6698,
      "ĠÐ¿ÑĢÑıÐ¼Ð¾ÑĥÐ³Ð¾Ð»ÑĮÐ½Ð¸Ðº": 6699,
      "ĠsetValue": 6700,
      "ĠRatio": 6701,
      "ÑģÑĤÑĢÐµÑĩ": 6702,
      "ÐµÑģÐµÑĩ": 6703,
      "today": 6704,
      "Ð¾ÑģÑĤÐ¸": 6705,
      "Ð¸ÑĢÐ¾Ð²ÐºÐ°": 6706,
      "Ġkilograms": 6707,
      "Ġuow": 6708,
      "',\\": 6709,
      "ĠImage": 6710,
      "preter": 6711,
      "ĠÑĢÐ°Ð·Ð±": 6712,
      "Expensive": 6713,
      "Ġsocklen": 6714,
      "Ġpairs": 6715,
      "Ð¼ÐµÐ½ÑĮ": 6716,
      "pointer": 6717,
      "rolled": 6718,
      "ĠHuffmanNode": 6719,
      "prime": 6720,
      "ÐłÐ°Ð·Ð½Ð¸ÑĨÐ°": 6721,
      "ARNING": 6722,
      "Minute": 6723,
      "ÐµÑīÐµÐ½Ð¸Ðµ": 6724,
      "OfFive": 6725,
      "centage": 6726,
      "racked": 6727,
      "1111": 6728,
      "Ġstoppable": 6729,
      "ĠThis": 6730,
      "OrderDerived": 6731,
      "Constant": 6732,
      "LACK": 6733,
      "Ġheapify": 6734,
      "aves": 6735,
      "ĠÐ¿Ð¾ÑĤÐ¾ÐºÐ¾Ð²": 6736,
      "Ġasync": 6737,
      "Ġtransactions": 6738,
      "MyResource": 6739,
      "ĠÐ¿ÑĥÑģÑĤÐ°": 6740,
      "ĠÐ±ÐµÐ·Ð¾Ð¿Ð°Ñģ": 6741,
      "perms": 6742,
      "Ġprocessors": 6743,
      "ĠMyClass": 6744,
      "Ġbitmask": 6745,
      "caten": 6746,
      "ÐľÐ°ÐºÑģÐ¸Ð¼Ð°Ð»ÑĮÐ½ÑĭÐ¹": 6747,
      "ĠSorting": 6748,
      "ĠLineSegment": 6749,
      "Ġcatal": 6750,
      "Att": 6751,
      "ĠÑĨÐ¸ÑĦÑĢÑĭ": 6752,
      "Ġ12345": 6753,
      "Ġtransformed": 6754,
      "ĠÐºÐ¾Ð½ÑĤÐµÐ¹Ð½ÐµÑĢ": 6755,
      "Ġphi": 6756,
      "ÐŁÐ¾Ð´ÑģÑĤÑĢÐ¾ÐºÐ°": 6757,
      "ĠÐ¡Ð¿ÐµÑĨÐ¸": 6758,
      "ĠÑģÐ¾Ð´ÐµÑĢÐ¶Ð¸ÑĤ": 6759,
      "ĠEncryptionSystem": 6760,
      "ĠÐ²Ð¸ÑģÐ¾ÐºÐ¾ÑģÐ½ÑĭÐ¹": 6761,
      "ÑĤÐµÑĢÐ½Ð°ÑĤ": 6762,
      "ĠÐĺÐ½Ð¸ÑĨÐ¸Ð°Ð»Ð¸Ð·Ð°ÑĨÐ¸Ñı": 6763,
      "Ð°Ð·Ð²Ð°Ð½Ð¸Ðµ": 6764,
      "Ġlegacy": 6765,
      "ĠÐ¼ÑĮÑİÑĤÐµÐºÑģ": 6766,
      "ÐŀÑĩÐµÑĢÐµÐ´ÑĮ": 6767,
      "reversed": 6768,
      ").\\\"": 6769,
      ">().": 6770,
      "Fail": 6771,
      "Front": 6772,
      "METH": 6773,
      "Pow": 6774,
      "Sample": 6775,
      "Wh": 6776,
      "]:": 6777,
      "cap": 6778,
      "fut": 6779,
      "ful": 6780,
      "hs": 6781,
      "jk": 6782,
      "nan": 6783,
      "Ġturn": 6784,
      "ĠÐ¾Ð¶": 6785,
      "description": 6786,
      "ond": 6787,
      "Ġdim": 6788,
      "Ġdummy": 6789,
      "sible": 6790,
      "Ð»ÐµÑĤ": 6791,
      "Ġcent": 6792,
      "ider": 6793,
      "Ġbuilder": 6794,
      "ullo": 6795,
      "chunk": 6796,
      "ilk": 6797,
      "Remo": 6798,
      "ĠÐ½Ð¾": 6799,
      "Ġ'('": 6800,
      "counts": 6801,
      "Inside": 6802,
      "Ð·Ð½Ð°Ñĩ": 6803,
      "ters": 6804,
      ">>;\\": 6805,
      "Ð¡Ð¾Ð²": 6806,
      "ĠFilter": 6807,
      "ĠÑĥÐ³Ð¾Ð»": 6808,
      "Ð¸Ð½Ð¾Ð¼": 6809,
      "Ġsec": 6810,
      "Ð¶Ð¸Ð´": 6811,
      "Ġenv": 6812,
      "Ġmore": 6813,
      "Ġmovie": 6814,
      "Ð¸ÑĤÐµÐ»ÑĮÐ½Ð°Ñı": 6815,
      "ĠÐĿÐ°": 6816,
      "Ð§ÐµÑĤ": 6817,
      "ization": 6818,
      "Query": 6819,
      "ÐĺÑģÑħÐ¾Ð´Ð½Ð¾Ðµ": 6820,
      "ĠÐ¾ÑĨÐµÐ½ÐºÐ°": 6821,
      "Ġperfect": 6822,
      "Blocked": 6823,
      "ĠÐĴÑĭÐ·Ð¾Ð²": 6824,
      "ridges": 6825,
      "ĠTaskStatus": 6826,
      "Ġ\"\"\\\\": 6827,
      "Ð¦Ðĺ": 6828,
      "ITY": 6829,
      "Ð¾Ð½Ð°Ð»ÑĮ": 6830,
      "Ð¾ÑģÐ»ÐµÐ´Ð¾Ð²Ð°ÑĤÐµÐ»ÑĮ": 6831,
      "nÐŁÐ¾Ð¸ÑģÐº": 6832,
      "ĠÑħÑĢÐ°Ð½": 6833,
      "ĠValidator": 6834,
      "--------------------------------": 6835,
      "bstacle": 6836,
      "ĠÑģÐ»Ð¾Ð²Ð¾": 6837,
      "ĠÐ°Ð²ÑĤÐ¾ÑĢ": 6838,
      "Ð¾Ð¶Ð´ÐµÐ½Ð¸Ñı": 6839,
      "Ġdemonstration": 6840,
      "ĠÐŁÐ¾Ð´ÑģÑĩÐµÑĤ": 6841,
      "Ġletters": 6842,
      "ĠÑģÑĥÑīÐµÑģÑĤÐ²ÑĥÐµÑĤ": 6843,
      "Duplicates": 6844,
      "Changed": 6845,
      "ĠÐ´Ð²ÑĥÑħ": 6846,
      "ĠÐ´ÑĥÐ±Ð»Ð¸ÐºÐ°ÑĤÐ¾Ð²": 6847,
      "ÐļÐ½Ð¸Ð³Ð°": 6848,
      "Caught": 6849,
      "ĠÐ³ÑĢÐ°Ð´ÑĥÑģÐ¾Ð²": 6850,
      "atisfied": 6851,
      "ĠTRANS": 6852,
      "ĠRTTI": 6853,
      "ĠÐ¾Ð¶Ð¸Ð´": 6854,
      "ullopt": 6855,
      "'};\\": 6856,
      "GPU": 6857,
      "IUM": 6858,
      "Largest": 6859,
      "PTRACE": 6860,
      "Volume": 6861,
      "[\"\"": 6862,
      "dog": 6863,
      "gain": 6864,
      "kar": 6865,
      "li": 6866,
      "sensor": 6867,
      "save": 6868,
      "week": 6869,
      "xed": 6870,
      "}});\\": 6871,
      "Ñĳ": 6872,
      "Ġur": 6873,
      "stoi": 6874,
      "income": 6875,
      "ÐµÑģÑĤÑĢÑĥÐºÑĤÐ¾ÑĢ": 6876,
      "eriv": 6877,
      "Ġrecursive": 6878,
      "Ġrequired": 6879,
      "ÑĤÐ¾Ð³": 6880,
      "amt": 6881,
      "Ġdt": 6882,
      "ced": 6883,
      "Ġcalculator": 6884,
      "unted": 6885,
      "Ġscores": 6886,
      "ÑĥÐ¶": 6887,
      "Ġem": 6888,
      "ading": 6889,
      "choice": 6890,
      "ÐºÐ»": 6891,
      "isOverdue": 6892,
      "Ġ21": 6893,
      "Ġ28": 6894,
      "ĠSim": 6895,
      "ĠToken": 6896,
      "utoff": 6897,
      "Ð¾Ð»Ñı": 6898,
      "ĠÐ²ÑģÑĤÐ°Ð²": 6899,
      "Ð´ÑĢÐ°": 6900,
      "ĠÐ½Ð¾Ð²ÑĭÐ¹": 6901,
      "Ġnuma": 6902,
      "Ġinventory": 6903,
      "ĠgetRegistry": 6904,
      "ĠgetField": 6905,
      "ĠPacket": 6906,
      "ĠPimplExample": 6907,
      "ĠcharCount": 6908,
      "Ġ|=": 6909,
      "append": 6910,
      "Ġprotected": 6911,
      "names": 6912,
      "ĠÐ·Ð°Ð³": 6913,
      "ĠÐ±Ð¾Ð»ÐµÐµ": 6914,
      "ĠÑĥÐ½Ð¸Ðº": 6915,
      "ĠÑĥÐ½Ð¸ÑĩÑĤÐ¾Ð¶": 6916,
      "ĠÑĥÐ±ÑĭÐ²": 6917,
      "Ð¸Ð½Ð°Ð¼": 6918,
      "ÐĿÐĲ": 6919,
      "ĠcurrentLength": 6920,
      "Ġ65": 6921,
      "Ġkm": 6922,
      "ĠtestData": 6923,
      "ĠÐ½ÐµÑĩÐµÑĤ": 6924,
      "Ġcompany": 6925,
      "Choice": 6926,
      "ÐļÐ¾Ð¼Ð¿": 6927,
      "Ġalice": 6928,
      "ĠtaskQueue": 6929,
      "ĠfindLongest": 6930,
      "ĠComplexMatrix": 6931,
      "ERIAL": 6932,
      "egacy": 6933,
      "ResourceWrapper": 6934,
      "Ġwithdraw": 6935,
      "laxed": 6936,
      "Ġleak": 6937,
      "CTX": 6938,
      "ORY": 6939,
      "Ð§Ð°ÑģÑĤ": 6940,
      "ĠHash": 6941,
      "Ð¸ÑģÑĤÐºÐ°": 6942,
      "Ð¸ÑģÑĤÐ¸Ðº": 6943,
      "ÐµÐ¿Ð¾ÑĩÐºÐ°": 6944,
      "EDIUM": 6945,
      "1234": 6946,
      "Testing": 6947,
      "ĠÐ´Ð¾Ð»Ð¶Ð½Ñĭ": 6948,
      "ĠÐ¿Ð¾Ð´Ð´": 6949,
      "racket": 6950,
      "Maximum": 6951,
      "checks": 6952,
      "ĠÐ¾Ð±ÑĬÑıÐ²": 6953,
      "Ð¾ÑıÐ½Ð¸Ñı": 6954,
      "Ġabsolute": 6955,
      "Ġnormalized": 6956,
      "ĠÑģÐ¿Ð¸ÑģÐ¾Ðº": 6957,
      "aving": 6958,
      "avings": 6959,
      "ircular": 6960,
      "Ġterms": 6961,
      "ĠÐ´ÐµÐ»ÐµÐ½Ð¸Ñı": 6962,
      "imension": 6963,
      "Ġgreen": 6964,
      "Ġgreet": 6965,
      "Ġsteps": 6966,
      "bstraction": 6967,
      "ĠÐ¾ÑģÑĤÐ°Ð½Ð¾Ð²": 6968,
      "ÐľÐ°ÐºÑģÐ¸Ð¼Ð°Ð»ÑĮÐ½Ð°Ñı": 6969,
      "Ġpercentage": 6970,
      "ĠÑģÑĤÑĥÐ´ÐµÐ½ÑĤÐ°": 6971,
      "ruits": 6972,
      "ergency": 6973,
      "ĠÐ·Ð°ÐºÐ°Ð·Ð¾Ð²": 6974,
      "ĠÑģÑĥÐ¼Ð¼Ñĥ": 6975,
      "ĠÐ¿ÑĢÐ¾ÑĨÐµÐ½ÑĤ": 6976,
      "ĠÐ¿ÑĢÐ¾ÑĨÐµÑģÑģ": 6977,
      "ĠÐ½Ð°ÑĩÐ°Ð»Ð¾": 6978,
      "Ġdimension": 6979,
      "ĠSystemConfig": 6980,
      "Ð¾Ð³ÑĢÐ°Ð¼Ð¼Ð°": 6981,
      "ĠÐĴÐ¾Ð·Ð²ÑĢÐ°Ñī": 6982,
      "ĠÐ¶Ðµ": 6983,
      "ĠÐĳÐ°Ð·Ð¾Ð²ÑĭÐ¹": 6984,
      "ĠÐºÐ¾ÑįÑĦÑĦÐ¸ÑĨÐ¸ÐµÐ½ÑĤÑĭ": 6985,
      "ÑıÐ¼Ð±Ð´Ð°": 6986,
      "small": 6987,
      "ĠFibonacciGenerator": 6988,
      "GRAM": 6989,
      "Ð°ÐºÑĤÐ¾ÑĢÐ¸": 6990,
      "Ð°ÑĢÐ¿Ð»Ð°ÑĤÐ°": 6991,
      "ĠÐ¼ÐµÐ½ÑĮÑĪÐµ": 6992,
      "'))": 6993,
      "70": 6994,
      "ATION": 6995,
      "Get": 6996,
      "IO": 6997,
      "IV": 6998,
      "Last": 6999,
      "Radians": 7000,
      "]--;\\": 7001,
      "gcd": 7002,
      "score": 7003,
      "spec": 7004,
      "timer": 7005,
      "Ġra": 7006,
      "Ġ...);\\": 7007,
      "desc": 7008,
      "Ð½ÐµÐ¼": 7009,
      "alnum": 7010,
      "connection": 7011,
      ">\\\\": 7012,
      "Ġmalloc": 7013,
      "Ġmark": 7014,
      "Ġplayer": 7015,
      "thing": 7016,
      "Ġsame": 7017,
      "Ġostringstream": 7018,
      "rip": 7019,
      "admin": 7020,
      "isPalindrome": 7021,
      "pages": 7022,
      "ird": 7023,
      "Ġdecrement": 7024,
      "Ġhold": 7025,
      "ĠÐ²Ð²Ð¾Ð´": 7026,
      "ĠÐ´Ð»Ð¸": 7027,
      "Ð¾ÑĢÑĦ": 7028,
      "Ġrsa": 7029,
      "Ð½Ð¾Ñģ": 7030,
      "[]>": 7031,
      "ÑĦÐ¸Ð³": 7032,
      "ÐŀÐł": 7033,
      "temperature": 7034,
      "ĠtotalSize": 7035,
      "Ġcompile": 7036,
      "ÐľÐ°ÐºÑģÐ¸Ð¼ÑĥÐ¼": 7037,
      "ÐļÐ°Ðº": 7038,
      "oneable": 7039,
      "ĠÑĢÐ°ÑģÑģÑĤ": 7040,
      "...(": 7041,
      "Ġtimeval": 7042,
      "ĠGRE": 7043,
      "ĠÐļÐ¾Ð¼Ð¿": 7044,
      "Compare": 7045,
      "Compression": 7046,
      "READ": 7047,
      "ONE": 7048,
      "ĠÑģÑĤÐ¾ÑĢÐ¾": 7049,
      "formation": 7050,
      "Ġyears": 7051,
      "Results": 7052,
      "LOS": 7053,
      "ĠÐ¢ÐµÐ¿ÐµÑĢÑĮ": 7054,
      "ĠTypeInfo": 7055,
      "ĠAnother": 7056,
      "bined": 7057,
      "TICAL": 7058,
      "green": 7059,
      "cents": 7060,
      "ĠÐĲÐ²": 7061,
      "ĠTrans": 7062,
      "Ġsquares": 7063,
      "Ð¾Ð»ÑĮÐ·Ð¾Ð²Ð°ÑĤÐµÐ»ÑĮ": 7064,
      "ĠÐºÐ¾Ð½ÑģÑĤÐ°Ð½ÑĤÐ½ÑĥÑİ": 7065,
      "OLD": 7066,
      "ĠinorderTraversal": 7067,
      "ĠÐ¾ÑĪÐ¸Ð±ÐºÐ¸": 7068,
      "ĠÑĢÐµÐ·ÑĥÐ»ÑĮÑĤÐ°ÑĤÐ°": 7069,
      "VALID": 7070,
      "RITICAL": 7071,
      "Ġuniform": 7072,
      "Ġfailure": 7073,
      "ĠÐ¿ÑĢÐ°Ð²Ð¸Ð»ÑĮ": 7074,
      "Ð¸ÑĤÐµÐ»Ñı": 7075,
      "ĠÐ¾ÐºÑĢÑĥÐ¶": 7076,
      "Ġtags": 7077,
      "ĠloadedPlugins": 7078,
      "ĠÑģÐ»ÑĥÑĩÐ°": 7079,
      "Ġdemonstrate": 7080,
      "Ġflush": 7081,
      "ĠÑģÐºÐ¸Ð´ÐºÐ°": 7082,
      "ĠCreating": 7083,
      "BEGIN": 7084,
      "fficLight": 7085,
      "celeration": 7086,
      "ĠÐ¿ÑĢÐµÐ´ÑģÑĤÐ°Ð²Ð»ÐµÐ½Ð¸Ðµ": 7087,
      "Ð¾Ð¿ÑĥÑģÑĤÐ¸Ð¼": 7088,
      "Ġholds": 7089,
      "ĠÐ´Ð»Ð¸Ð½Ñĭ": 7090,
      "ĠÑģÑĤÐ¾ÑĢÐ¾Ð½Ñĭ": 7091,
      "([]()": 7092,
      ")];\\": 7093,
      ")...);\\": 7094,
      "29": 7095,
      "Auto": 7096,
      "Async": 7097,
      "Bank": 7098,
      "CD": 7099,
      "Dec": 7100,
      "EY": 7101,
      "Hits": 7102,
      "MODE": 7103,
      "NET": 7104,
      "Pay": 7105,
      "Secret": 7106,
      "Two": 7107,
      "Vertices": 7108,
      "VirtualBase": 7109,
      "Water": 7110,
      "Whe": 7111,
      "blue": 7112,
      "dot": 7113,
      "dices": 7114,
      "dimension": 7115,
      "eels": 7116,
      "kopecks": 7117,
      "lor": 7118,
      "non": 7119,
      "nDE": 7120,
      "oStack": 7121,
      "pImpl": 7122,
      "salary": 7123,
      "smart": 7124,
      "uage": 7125,
      "xor": 7126,
      "yer": 7127,
      "});": 7128,
      "Ġrisky": 7129,
      "Ġ\\\"|": 7130,
      "relaxed": 7131,
      "ĠÐ¯": 7132,
      "Ð¸Ñī": 7133,
      "ÑĢÐ¾Ð¶Ð´ÐµÐ½": 7134,
      "ÑģÐ¾Ð»": 7135,
      "amage": 7136,
      "onment": 7137,
      "Ġfull": 7138,
      "Ġvacation": 7139,
      "Ġvowels": 7140,
      "Ð»Ð¸Ð¶": 7141,
      "Ġcandidate": 7142,
      "ĠintValue": 7143,
      "Ġaggregate": 7144,
      "Ġsq": 7145,
      "Ġsup": 7146,
      "ÑĥÑĦÑĦ": 7147,
      "ÑĥÑĦÐµÑĢ": 7148,
      "ÑıÐµÑĤÑģÑı": 7149,
      "Ġequal": 7150,
      "\\\\\\\",": 7151,
      "ÐºÑĤ": 7152,
      "ÐºÐ¾ÑģÑĤÑĮ": 7153,
      "getC": 7154,
      "ÑģÑĤÐ¾Ð¹": 7155,
      "isAvailable": 7156,
      "ironment": 7157,
      "(\\\".": 7158,
      "ĠShared": 7159,
      "Ġlink": 7160,
      "ĠTuple": 7161,
      "Ġdecompressed": 7162,
      "ĠÐ´Ð½ÐµÐ¹": 7163,
      "Ġinc": 7164,
      "ayThrow": 7165,
      "aylor": 7166,
      "Ð¸ÑĤÐ°": 7167,
      "ĠgetD": 7168,
      "ĠgetState": 7169,
      "ĠgetNext": 7170,
      "abab": 7171,
      "Store": 7172,
      "Ð°Ð»Ð¾": 7173,
      "ĠnewValue": 7174,
      "locked": 7175,
      "ĠisEven": 7176,
      "ĠĠĠĠĠĠĠĠĠĠĠĠĠĠĠĠĠĠĠĠĠĠĠĠĠĠĠĠĠĠĠĠĠĠĠĠĠĠ": 7177,
      "Ð¾Ð±ÐµÐ´": 7178,
      "esc": 7179,
      "Ġprogress": 7180,
      "Ġprototype": 7181,
      "ĠprintValue": 7182,
      "ĠÑĥÑĢÐ°Ð²Ð½ÐµÐ½Ð¸Ñı": 7183,
      "redit": 7184,
      "1010": 7185,
      "ĠRenderer": 7186,
      "ĠcurrentNode": 7187,
      "ÐłÐ°Ð²": 7188,
      "Ð¶Ð°ÑĤ": 7189,
      "Ġcompress": 7190,
      "ÐľÐ°ÑĢ": 7191,
      "filesystem": 7192,
      "ĠprocessData": 7193,
      "ĠÐ¿ÐµÑĢÐµÐ¿Ð¾Ð»Ð½": 7194,
      "ĠOK": 7195,
      "ÐµÐ¹ÑĤ": 7196,
      "Ġcreation": 7197,
      "ERT": 7198,
      "Ð½Ð¾ÑģÑĤÐ¾ÑĢÐ¾Ð½": 7199,
      "prod": 7200,
      "HelloPlugin": 7201,
      "currentState": 7202,
      "orderLevel": 7203,
      "ĠtargetTemp": 7204,
      "ĠuserService": 7205,
      "Enabled": 7206,
      "topIndex": 7207,
      "ĠbaseSalary": 7208,
      "ĠcheckIn": 7209,
      "ĠÐºÐ¾Ð½ÑĨ": 7210,
      "ALARY": 7211,
      "loadPlugin": 7212,
      "short": 7213,
      "ĠswapValues": 7214,
      "ÐĳÐµÐ·": 7215,
      "interval": 7216,
      "ĠComputation": 7217,
      "ÐµÑīÐ°ÐµÐ¼": 7218,
      "ĠtopNode": 7219,
      "ĠÐ¿Ð¾Ð´Ð¼Ð½Ð¾Ð¶": 7220,
      "ĠFileHandler": 7221,
      "ÑģÑĤÐ²Ð°": 7222,
      "ACITY": 7223,
      "Ġgeneration": 7224,
      "ĠInventory": 7225,
      "ĠSingletonLogger": 7226,
      "Ð¦ÐµÐ»": 7227,
      "ĠÐ¾Ð¿ÐµÑĢÐ°ÑĨÐ¸Ð¹": 7228,
      "ĠNetworkPacket": 7229,
      "Ġtrain": 7230,
      "issing": 7231,
      "ĠArrayIterator": 7232,
      "initializer": 7233,
      "ĠÑĩÐ°ÑģÑĤÐ¸": 7234,
      "Locking": 7235,
      "ĠÐºÐ¾Ð¿Ð¸ÑĢÐ¾Ð²Ð°Ð½Ð¸Ðµ": 7236,
      "ĠÐ¿Ð¾Ð»ÑĥÑĩÐµÐ½Ð¸Ñı": 7237,
      "CurrentState": 7238,
      "grades": 7239,
      "ÑĢÐ°Ð½Ð¸Ñĩ": 7240,
      "ĠMemento": 7241,
      "ĠusersById": 7242,
      "ĠreceivedData": 7243,
      "ĠExample": 7244,
      "Ġuniversity": 7245,
      "Ġscaled": 7246,
      "Permission": 7247,
      "uleOfFive": 7248,
      "fieldCount": 7249,
      "ĠÐ¿Ð°Ð¼ÑıÑĤÑĮ": 7250,
      "ĠListNode": 7251,
      "ĠLazyValue": 7252,
      "ĠÐ¿Ð°ÑĢÐ°Ð¼ÐµÑĤÑĢ": 7253,
      "Locator": 7254,
      "ĠCoffeeDecorator": 7255,
      "Ġvehicles": 7256,
      "Ġbounds": 7257,
      "ĠShopping": 7258,
      "Ð°Ð½Ð´Ð°ÑĢÑĤ": 7259,
      "ĠDynamicArray": 7260,
      "ĠÐ¿Ð¾Ð»ÑĮÐ·Ð¾Ð²Ð°ÑĤÐµÐ»ÑĮÑģÐº": 7261,
      "anguage": 7262,
      "sidual": 7263,
      "ĠSerializationRegistry": 7264,
      "ĠPermission": 7265,
      "ĠPrototype": 7266,
      "ÑģÐ¾Ð»ÑİÑĤ": 7267,
      "Ð½Ð¾ÑģÑĤÐ¾ÑĢÐ¾Ð½Ð½Ð¸Ð¹": 7268,
      "ĠÐ¿Ð¾Ð´Ð¼Ð½Ð¾Ð¶ÐµÑģÑĤÐ²": 7269,
      "BLE": 7270,
      "Cast": 7271,
      "Factor": 7272,
      "History": 7273,
      "ILE": 7274,
      "Limit": 7275,
      "OK": 7276,
      "RD": 7277,
      "UT": 7278,
      "ZER": 7279,
      "ai": 7280,
      "half": 7281,
      "rute": 7282,
      "volume": 7283,
      "Ġut": 7284,
      "ĠĠĠĠĠ": 7285,
      "intPtr": 7286,
      "endif": 7287,
      "Ð½ÐµÐµ": 7288,
      "aligned": 7289,
      "urses": 7290,
      "ÑĢÐ°Ñģ": 7291,
      "Ġva": 7292,
      "Ġdollars": 7293,
      "Ġcipher": 7294,
      "Ġbyte": 7295,
      "Ġbrute": 7296,
      "ious": 7297,
      "Ġ**": 7298,
      "ract": 7299,
      "ĠSH": 7300,
      "ĠÐ´ÐµÐº": 7301,
      "Coeffs": 7302,
      "abel": 7303,
      "ftime": 7304,
      "ĠArea": 7305,
      "Ġisbn": 7306,
      "plugin": 7307,
      "Ġproxy": 7308,
      "ĠmaxSoFar": 7309,
      "INE": 7310,
      "ĠÐ¿ÑĢÐµÑĦÐ¸ÐºÑģ": 7311,
      "aca": 7312,
      "Proxy": 7313,
      "Ġself": 7314,
      "):\\\\": 7315,
      "Ġmoving": 7316,
      "ÐĲÐ²": 7317,
      "progress": 7318,
      "LED": 7319,
      "ĠÐ·Ð½Ð°ÑĩÐµÐ½Ð¸ÐµÐ¼": 7320,
      "RED": 7321,
      "9999": 7322,
      "formatted": 7323,
      "\"\"]": 7324,
      "ÑĢÐ°Ð²Ð½Ð¸Ð²Ð°Ð½Ð¸Ðµ": 7325,
      "ORT": 7326,
      "Ð°Ð¹ÑĤÐ¸": 7327,
      "Truck": 7328,
      "ĠÐ¾ÑĨÐµÐ½": 7329,
      "ĠdistanceTo": 7330,
      "0001": 7331,
      "ĠDevice": 7332,
      "cell": 7333,
      "Ġrobot": 7334,
      "Address": 7335,
      "ĠTimeInterval": 7336,
      "OUBLE": 7337,
      "ÑĥÐ»Ð°": 7338,
      "Ġassignment": 7339,
      "Outer": 7340,
      "middle": 7341,
      "ĠÐ¼Ð¸Ð½ÑĥÑĤ": 7342,
      "Ð¾Ð±ÑīÐµÐ½Ð¸Ðµ": 7343,
      "ĠÐ·Ð°Ð²ÐµÑĢÑĪÐµÐ½Ð¸Ñı": 7344,
      "Deposit": 7345,
      "bstract": 7346,
      "ĠÑĢÐ°Ð²ÐµÐ½": 7347,
      "ĠÑĢÐµÐ°Ð»Ð¸Ð·Ð°ÑĨÐ¸Ñı": 7348,
      "ĠÐ§ÑĤÐµÐ½Ð¸Ðµ": 7349,
      "ultiple": 7350,
      "Transform": 7351,
      "ĠÐ¿Ð¾Ð»ÑĮÐ·Ð¾Ð²Ð°ÑĤÐµÐ»ÐµÐ¹": 7352,
      "SETFL": 7353,
      "Ġremoved": 7354,
      "ÐŁÑĢÐ¾Ð¸Ð·Ð²ÐµÐ´ÐµÐ½Ð¸Ðµ": 7355,
      "COMPLETED": 7356,
      "ĠÐ²Ð¾Ð·Ð²ÑĢÐ°ÑīÐ°ÐµÐ¼": 7357,
      "Ð¾Ð³ÑĢÐµÑģÑģ": 7358,
      "ĠÑģÐµÑĢÐ²ÐµÑĢ": 7359,
      "FINE": 7360,
      "ĠÐ²ÑĭÑģÐ¾ÑĤÑĥ": 7361,
      "ĠÐŁÐ¾Ð»ÑĥÑĩÐµÐ½Ð¸Ðµ": 7362,
      "ĠÐ´ÐµÐ¹ÑģÑĤÐ²Ð¸ÑĤÐµÐ»ÑĮÐ½ÑĭÑħ": 7363,
      "Step": 7364,
      "ĠLOG": 7365,
      "Operator": 7366,
      "aptop": 7367,
      "ĠTrafficLight": 7368,
      "METHOD": 7369,
      "ĠHashTable": 7370,
      "ÑĦÐ¸Ð³ÑĥÑĢÐ°": 7371,
      "ĠGREEN": 7372,
      "ZERO": 7373,
      "*\\\"": 7374,
      "44": 7375,
      "79": 7376,
      "BooleanExpression": 7377,
      "Critical": 7378,
      "DA": 7379,
      "DD": 7380,
      "Db": 7381,
      "Ed": 7382,
      "IS": 7383,
      "ITION": 7384,
      "Low": 7385,
      "Man": 7386,
      "Mouse": 7387,
      "PimplExample": 7388,
      "RA": 7389,
      "Root": 7390,
      "Sw": 7391,
      "VD": 7392,
      "WOU": 7393,
      "Watermark": 7394,
      "dq": 7395,
      "factor": 7396,
      "gth": 7397,
      "gion": 7398,
      "large": 7399,
      "lision": 7400,
      "mise": 7401,
      "ng": 7402,
      "sym": 7403,
      "ux": 7404,
      "zer": 7405,
      "Ġge": 7406,
      "Ġerr": 7407,
      "Ġupper": 7408,
      "Ġorders": 7409,
      "Ð¾ÑįÑĦÑĦÐ¸ÑĨÐ¸ÐµÐ½ÑĤ": 7410,
      "ĠÐĸ": 7411,
      "deposit": 7412,
      "ÑģÐ°": 7413,
      "Ġmana": 7414,
      "Ġdf": 7415,
      "Ġderiv": 7416,
      "Ð»Ð¸Ð²": 7417,
      "Ġpb": 7418,
      "Ġpack": 7419,
      "Ġpolar": 7420,
      "Ġcsv": 7421,
      "Ġsingle": 7422,
      "Ġoff": 7423,
      "road": 7424,
      "cherry": 7425,
      "isNegative": 7426,
      "ĠÐ¿Ð»": 7427,
      "ĠÐ¿Ð¾Ñģ": 7428,
      "expen": 7429,
      "Ġweek": 7430,
      "ĠÑģÐ¼": 7431,
      "ĠÑģÑĥÑĦÑĦ": 7432,
      "ĠCat": 7433,
      "ĠSpan": 7434,
      "ottom": 7435,
      "mac": 7436,
      "Ð¼Ð¸": 7437,
      "Ġ})\\": 7438,
      "Ð¾Ð»ÑģÑĤÐ¾Ð¹": 7439,
      "asSize": 7440,
      "ĠÐ½ÐµÑģ": 7441,
      "ĠÐ½ÐµÐºÐ¾ÑĢÑĢÐµÐºÑĤ": 7442,
      "ĠÐ´Ð¸Ð°Ð³": 7443,
      "html": 7444,
      "ĠPurchase": 7445,
      "pton": 7446,
      "ability": 7447,
      ">([](": 7448,
      "ĠstrData": 7449,
      "Ġstrncpy": 7450,
      "ĠÐºÐ¾Ð»": 7451,
      "ĠÐºÐ¾Ð»Ð¸ÑĩÐµÑģÑĤÐ²": 7452,
      "ÑĪÐµÐ½": 7453,
      "ĠÐ¸ÑģÑĤ": 7454,
      "ĠÐ¸ÑģÐ¿Ð¾Ð»ÑĮÐ·Ñĥ": 7455,
      "Ġexact": 7456,
      "Ð°Ð½Ð¸ÑĨ": 7457,
      "ĠÑĤÐ°Ð±Ð»": 7458,
      "Ġtolower": 7459,
      "ĠField": 7460,
      "ÐĿÐ¾Ð²ÑĭÐ¹": 7461,
      "ĠVariable": 7462,
      "ĠLength": 7463,
      "ĠLimited": 7464,
      "Ð°Ð¹ÑĪ": 7465,
      "ĠaddTo": 7466,
      "Ð¾Ð·Ð¸": 7467,
      "ĠEdge": 7468,
      "ĠEAG": 7469,
      "ĠEWOU": 7470,
      "ĠÐ¡Ð¾": 7471,
      "Ð¸ÑĢÐ¾Ð²Ð°ÑĤÑĮ": 7472,
      "Ġits": 7473,
      "Promise": 7474,
      "rength": 7475,
      "ĠkeyMap": 7476,
      "StateA": 7477,
      "ĠÐ¾Ð±Ð°": 7478,
      "ĠStream": 7479,
      "ĠtaskDependencies": 7480,
      "Ð¸Ð±Ð¾": 7481,
      "ĠOper": 7482,
      "ĠtimeOfDay": 7483,
      "STAN": 7484,
      "127": 7485,
      "Ġouter": 7486,
      "ÐķÐ¢": 7487,
      "ĠÐ³Ð¾ÑĢÐ¾Ð´": 7488,
      "ONLY": 7489,
      "This": 7490,
      "Ġ\\\"[\\\";\\": 7491,
      "ĠÐłÐµÐºÑĥÑĢÑģ": 7492,
      "ÑĢÐ°Ð²Ð½ÐµÐ½Ð¸Ð¹": 7493,
      "ĠbookCount": 7494,
      "ART": 7495,
      "Quantity": 7496,
      "Ġmodified": 7497,
      "Ġmodulus": 7498,
      "Ð¸ÑĩÐµÑģÐºÐ¾Ð³Ð¾": 7499,
      "456": 7500,
      "Checksum": 7501,
      "ĠÐ´Ð¾ÑħÐ¾Ð´": 7502,
      "ĠÑģÐºÐ¾Ð±": 7503,
      "Ð¸ÑĢÑĥÑİÑī": 7504,
      "Ð½Ð¾Ð²Ð½Ð¾Ð¹": 7505,
      "ĠRationalMatrix": 7506,
      "totalAmount": 7507,
      "ExprNode": 7508,
      "ĠConcreteColleague": 7509,
      "maton": 7510,
      "Ġbacktrack": 7511,
      "IGN": 7512,
      "Threads": 7513,
      "Ġpartitions": 7514,
      "edges": 7515,
      "Starting": 7516,
      "ĠNetworkException": 7517,
      "Ġsmallest": 7518,
      "Serialize": 7519,
      "Ġoptimized": 7520,
      "ĠÐ¿Ð¾Ð²ÐµÑĢÑħ": 7521,
      "destination": 7522,
      "ributes": 7523,
      "ĠÑĤÐ¾ÑĩÐºÐ¸": 7524,
      "ĠMultip": 7525,
      "Ġgreater": 7526,
      "ĠAnyCallable": 7527,
      "decay": 7528,
      "Ġsieve": 7529,
      "ĠÑģÑĤÑĢÐ°Ð½Ð¸ÑĨ": 7530,
      "omething": 7531,
      "Ð¸ÑĦÑĢÐ¾Ð²Ð°Ð½Ð½ÑĭÐ¹": 7532,
      "ĠMathError": 7533,
      "CCESS": 7534,
      "Ð¢ÐµÐºÑģÑĤ": 7535,
      "ĠÑĢÐ°Ð·ÑĢÑĥÑĪÐµÐ½Ð°": 7536,
      "ĠÐ½Ð¾Ð²Ð¾Ð³Ð¾": 7537,
      "ĠObjectTracker": 7538,
      "Ð¼ÐµÑģÑĤÐ¸Ð¼": 7539,
      "Ġrenderer": 7540,
      "Ð°ÐºÑĤÐ¸Ð²": 7541,
      "FINAE": 7542,
      "LDBLOCK": 7543,
      "Ġattendance": 7544,
      "ECTOR": 7545,
      "ooter": 7546,
      "ĠoddCount": 7547,
      "viction": 7548,
      "CheckedLocking": 7549,
      "igenere": 7550,
      "ĠÐ³ÑĢÐ°ÑĦÐ°": 7551,
      "ĠÑĤÐ°Ð¹Ð¼Ð°ÑĥÑĤ": 7552,
      "ĠÐŀÐ¿ÐµÑĢÐ°ÑĤÐ¾ÑĢ": 7553,
      "inancialAccount": 7554,
      "ÑĥÐ¿ÑĢÐµÐ¶Ð´ÐµÐ½Ð¸Ðµ": 7555,
      "ĠÐŀÐ±Ð½Ð¾Ð²Ð»ÑıÐµÐ¼": 7556,
      "ĠCOLS": 7557,
      "ĠÐ¿ÑĢÐ¸Ð½Ð¸Ð¼": 7558,
      "Ġtxn": 7559,
      "Insertions": 7560,
      "ĠÐ¼Ð¾Ð³ÑĥÑĤ": 7561,
      "ublisher": 7562,
      "ĠÐ¾ÐºÑĢÑĥÐ¶Ð½Ð¾ÑģÑĤÐ¸": 7563,
      "Wheels": 7564,
      "roadcast": 7565,
      "ĠEAGAIN": 7566,
      "ĠEWOULDBLOCK": 7567,
      "78": 7568,
      "Cle": 7569,
      "Call": 7570,
      "Head": 7571,
      "Money": 7572,
      "Parent": 7573,
      "SH": 7574,
      "Sensor": 7575,
      "Wait": 7576,
      "aive": 7577,
      "istringstream": 7578,
      "nname": 7579,
      "public": 7580,
      "power": 7581,
      "Ġctime": 7582,
      "Ġ\\\"!": 7583,
      "Ġ\\\"&": 7584,
      "Ġ\\\"<": 7585,
      "Ġ\\\"...\\\"": 7586,
      "Ġ\\\"---": 7587,
      "Ð°ÑĨÐ¸Ñİ": 7588,
      "dequeue": 7589,
      "decrypted": 7590,
      "Ð¸Ð¾ÑĢÐ¸ÑĤÐµÑĤ": 7591,
      "Ð¸ÐµÑģÑı": 7592,
      "Ð½ÐµÑģ": 7593,
      "Ð½ÐµÐ³Ð¾": 7594,
      "Ġnetwork": 7595,
      "Ġasc": 7596,
      "ÑıÑī": 7597,
      "rit": 7598,
      "ÐµÐ½Ð½Ð¾Ð³Ð¾": 7599,
      "mport": 7600,
      "getAccount": 7601,
      "isalnum": 7602,
      "ĠÐ¿Ð¾Ð¼": 7603,
      "version": 7604,
      "ĠCop": 7605,
      "paces": 7606,
      "Rec": 7607,
      "\\\",\\\"": 7608,
      "ĠÐ½Ð¸Ð¶": 7609,
      "ĠÐ½Ð°Ð±Ð»ÑİÐ´": 7610,
      "Ð¾ÑĢÐ¾Ð²": 7611,
      "Ġ');\\": 7612,
      "ĠgetAll": 7613,
      "ĠgetBalance": 7614,
      "ĠBLOCK": 7615,
      "Ġgame": 7616,
      "ĠÐºÐ°ÑĤ": 7617,
      "ĠMIN": 7618,
      "ĠManager": 7619,
      "addItem": 7620,
      "Ð¸Ð¼Ð¸": 7621,
      "Ð¹ÑĤÐµ": 7622,
      "ĠAll": 7623,
      "Nodes": 7624,
      "Ġcharge": 7625,
      "Ð¾ÑĤÐ¾Ð²": 7626,
      "Ġproto": 7627,
      "beg": 7628,
      "Ð¾Ð¼Ñĥ": 7629,
      "Ð¾Ð¼Ð±": 7630,
      "Ð¾Ð½Ð¸Ð¼": 7631,
      "Ð¾Ð½ÐµÑĩ": 7632,
      "ĠÐ±ÑĥÐ´": 7633,
      "ÐŀÐ¶Ð¸Ð´": 7634,
      "ĠFunction": 7635,
      "Ġwheels": 7636,
      "ÐĺÐ¡": 7637,
      "ÐĺÐľ": 7638,
      "ĠsumOf": 7639,
      "ĠRest": 7640,
      "ĠReport": 7641,
      "Ð°ÑĢÐ°": 7642,
      "Ð°ÑĢÑı": 7643,
      "fahrenheit": 7644,
      "ĠÑĢÐ°ÑģÑģÑĤÐ¾ÑıÐ½Ð¸Ðµ": 7645,
      "ToRemove": 7646,
      "Ð¸Ð±Ð¾Ð»ÑĮÑĪ": 7647,
      "ĠwordCount": 7648,
      "Ð°Ð¿ÑĢÐ°Ð²": 7649,
      "Ð¸ÑĤÐµÐ»ÑĮÐ½Ð¾": 7650,
      "Ġsubset": 7651,
      "ĠGPU": 7652,
      "Comparison": 7653,
      "complete": 7654,
      "compute": 7655,
      "Device": 7656,
      "Ġattempts": 7657,
      "hasNext": 7658,
      "Ġmonths": 7659,
      "ÐŀÐ±ÑĢÐ°ÑĤ": 7660,
      "Ð°Ð³ÑĢÐ°Ð¼": 7661,
      "Cloneable": 7662,
      "Elements": 7663,
      "ÑıÐ¼Ð¸": 7664,
      "ÑıÐ¼Ð¾Ð¹": 7665,
      "cstdio": 7666,
      "ACH": 7667,
      "positions": 7668,
      "Ġintern": 7669,
      "ĠÐ¿Ð¾Ð»Ð¾Ð¶Ð¸ÑĤÐµÐ»ÑĮÐ½Ð¾Ð¹": 7670,
      "ĠÑĪÐ°Ð³": 7671,
      "ĠÐ¿ÑĢÐµÐ´Ð¼ÐµÑĤ": 7672,
      "Windows": 7673,
      "Ð¾ÑĢÑĤÐ¸ÑĢÐ¾Ð²ÐºÐ°": 7674,
      "Ġinteger": 7675,
      "ĠÑĩÐ°ÑģÑĤÑĮ": 7676,
      "distanceTo": 7677,
      "Substrings": 7678,
      "ĠÑģÐ¾ÑĢÑĤÐ¸ÑĢÐ¾Ð²ÐºÐ°": 7679,
      "ĠinterestRate": 7680,
      "ĠÐ¾ÑģÐ²Ð¾Ð±": 7681,
      "detailed": 7682,
      "ĠÐ¡ÑģÑĭÐ»ÐºÐ¸": 7683,
      "ĠÑĤÐµÐºÑģÑĤÐ°": 7684,
      "ĠÐ¿ÑĢÐ¾ÑģÑĤÐ¾Ðµ": 7685,
      "ÑĭÐ¼Ð¸": 7686,
      "Difference": 7687,
      "ĠÐ²ÑĭÐ·Ð¾Ð²Ð°": 7688,
      "enabled": 7689,
      "ÐµÑģÐºÐ¾Ð½ÐµÑĩ": 7690,
      "istreambuf": 7691,
      "ĠÐ²ÑĭÑĢÐ°Ð¶ÐµÐ½Ð¸Ðµ": 7692,
      "Ð¸Ð½Ð°Ð»ÑĮÐ½Ð¾Ðµ": 7693,
      "ĠÐ¿ÑĥÑĤÐ¸": 7694,
      "Ð¾Ð³ÑĢÐµÑĪÐ½Ð¾ÑģÑĤÑĮ": 7695,
      "nnamespace": 7696,
      "mportant": 7697,
      "&&)": 7698,
      "='": 7699,
      ">,\\": 7700,
      "But": 7701,
      "Deg": 7702,
      "LBuffer": 7703,
      "Large": 7704,
      "MS": 7705,
      "NAME": 7706,
      "PR": 7707,
      "QU": 7708,
      "SALARY": 7709,
      "Taylor": 7710,
      "VA": 7711,
      "Weekday": 7712,
      "XX": 7713,
      "ding": 7714,
      "fra": 7715,
      "global": 7716,
      "matic": 7717,
      "sing": 7718,
      "sent": 7719,
      "tag": 7720,
      "tree": 7721,
      "tail": 7722,
      "uge": 7723,
      "volatile": 7724,
      "Ġrollback": 7725,
      "storage": 7726,
      "Ġ\\\"\\\");\\": 7727,
      "rerror": 7728,
      "recurring": 7729,
      "rekar": 7730,
      "env": 7731,
      "()->": 7732,
      "ors": 7733,
      "deque": 7734,
      "Ġreceive": 7735,
      "Ġresidual": 7736,
      "ÑĢÐµÐ±": 7737,
      "seg": 7738,
      "ctet": 7739,
      "Ġflyweight": 7740,
      "Ġnaive": 7741,
      "Ġvariable": 7742,
      "Ð»Ð°Ñģ": 7743,
      "Ġpay": 7744,
      "Ġcallable": 7745,
      "Ġcube": 7746,
      "three": 7747,
      "Ġbrightness": 7748,
      "Ġbottom": 7749,
      "Ġsample": 7750,
      "ÑĥÐ·": 7751,
      "ÑıÐµÑĤ": 7752,
      "streamsize": 7753,
      "ader": 7754,
      "edy": 7755,
      "irth": 7756,
      "ĠCAP": 7757,
      "ĠCircular": 7758,
      "ĠSum": 7759,
      "ĠSIG": 7760,
      "ĠSocket": 7761,
      "ĠSERIAL": 7762,
      "ĠSFINAE": 7763,
      "ĠTensor": 7764,
      "ĠTreapNode": 7765,
      "Ð¼Ð¸Ð½": 7766,
      "002": 7767,
      "Ġholder": 7768,
      "ĠÐ²Ð½ÑĥÑĤÑĢÐ¸": 7769,
      "ÐµÐ½Ð¸Ñİ": 7770,
      "Core": 7771,
      "Counted": 7772,
      "Ġ'_": 7773,
      "ĠPassword": 7774,
      "tyEntities": 7775,
      "Ġ59": 7776,
      ">('": 7777,
      "ÑħÑĢÐ¾Ð½": 7778,
      "ĠMultiplier": 7779,
      "ĠMAP": 7780,
      "uniform": 7781,
      "Ġ>>=": 7782,
      "ĠAd": 7783,
      "Ġthen": 7784,
      "Ð·Ð°Ðº": 7785,
      "Ġconfirm": 7786,
      "ĠĠĠĠĠĠĠĠĠĠĠĠĠĠĠĠĠĠĠĠĠĠĠĠĠĠĠĠĠ": 7787,
      "ÑĢÐ¾Ð²ÐµÐ½ÑĮ": 7788,
      "agram": 7789,
      "aprekar": 7790,
      "ÐµÐºÐ°": 7791,
      "ÑİÐ±": 7792,
      "best": 7793,
      "Ġ101": 7794,
      "ĠcountIn": 7795,
      "Ð¸Ð½ÑħÑĢÐ¾Ð½": 7796,
      "ĠROW": 7797,
      "ĠLock": 7798,
      "ĠCore": 7799,
      "ĠNo": 7800,
      "Ð¸ÑĩÐ½Ð¾Ð¹": 7801,
      "ÐĶÑĢÐ¾Ð±ÑĮ": 7802,
      "ÑĢÑĥÐ¿": 7803,
      "Ð¢ÑĢÐµ": 7804,
      "ÐºÐ¸Ñħ": 7805,
      "ĠÐ²ÑĭÑħÐ¾Ð´": 7806,
      "Ġ75": 7807,
      "Ð¸Ð·Ñĥ": 7808,
      "IZABLE": 7809,
      "ĠhasDigit": 7810,
      "Ð»ÑĮÑĤÐµÑĢÐ½Ð°ÑĤ": 7811,
      "Ð¸ÑĨÑĭ": 7812,
      "subtract": 7813,
      "REUSE": 7814,
      "Ġdiag": 7815,
      "ĠÐ¼Ð°ÑģÑģÐ¸Ð²Ð¾Ð²": 7816,
      "ByType": 7817,
      "Ġstructure": 7818,
      "allocations": 7819,
      "Indexed": 7820,
      "Ð¾ÑĢÑĤÐ¸ÑĢÑĥÐµÐ¼": 7821,
      "ignore": 7822,
      "ORD": 7823,
      "Subsequence": 7824,
      "Ġvalidator": 7825,
      "sumer": 7826,
      "ucer": 7827,
      "','.','.','": 7828,
      "ĠTypeChecker": 7829,
      "Ġclassname": 7830,
      "ĠÐ£ÐºÐ°Ð·Ð°ÑĤÐµÐ»ÑĮ": 7831,
      "ĠÐ£Ð¿ÑĢÐ¾Ñī": 7832,
      "ÐĳÐµÐ·Ð¾Ð¿Ð°Ñģ": 7833,
      "eratosthenes": 7834,
      "ĠComposite": 7835,
      "ĠUDP": 7836,
      "DEBUG": 7837,
      "Ġdetach": 7838,
      "ĠDecorator": 7839,
      "RUN": 7840,
      "ĠÐĲÐ»ÑĮÑĤÐµÑĢÐ½Ð°ÑĤ": 7841,
      "expired": 7842,
      "ĠTaskScheduler": 7843,
      "azine": 7844,
      "Ġtransfer": 7845,
      "cerrno": 7846,
      "directory": 7847,
      "OUT": 7848,
      "Ġrecipient": 7849,
      "ĠÑıÐ²Ð»ÑıÑİÑĤÑģÑı": 7850,
      "Percentage": 7851,
      "ĠÐŁÐµÑĢÐµÐ´Ð°ÑĩÐ°": 7852,
      "Control": 7853,
      "Ġconstructed": 7854,
      "ĠArrayView": 7855,
      "hosts": 7856,
      "param": 7857,
      "ĠÑģÐ¿ÐµÑĨÐ¸": 7858,
      "ĠÑģÐ¿Ð¾ÑģÐ¾Ð±": 7859,
      "ĠMyString": 7860,
      "blocks": 7861,
      "Ġlocaltime": 7862,
      "ĠcardNumber": 7863,
      "ometric": 7864,
      "ĠThreadSafeFile": 7865,
      "Months": 7866,
      "Ġepoll": 7867,
      "ÐľÐ°ÐºÑģÐ¸Ð¼Ð°Ð»ÑĮÐ½Ð¾Ðµ": 7868,
      "Ġquicksort": 7869,
      "USD": 7870,
      "ĠServiceLocator": 7871,
      "ĠÑģÐ¾ÑģÑĤÐ¾ÑıÐ½Ð¸Ðµ": 7872,
      "Ġtrim": 7873,
      "UniquePtr": 7874,
      "ĠÐ¿ÑĢÐ¸ÑģÐ²Ð¾": 7875,
      "ĠundoStack": 7876,
      "ĠÑģÑĥÐ¼Ð¼Ñĭ": 7877,
      "andidates": 7878,
      "ĠbestPath": 7879,
      "Ġrecommendation": 7880,
      "Ð»Ð¾Ð¶ÐµÐ½Ð¸Ðµ": 7881,
      "Ð¾Ð¶Ð´ÐµÐ½Ð¸Ðµ": 7882,
      "ĠÐ´ÐµÑĢÐµÐ²Ð¾": 7883,
      "ĠÐºÑįÑĪÐ°": 7884,
      "Local": 7885,
      "iteral": 7886,
      "ĠApp": 7887,
      "Closed": 7888,
      "interest": 7889,
      "ĠÑĩÑĤÐµÐ½Ð¸Ñı": 7890,
      "ĠConstantType": 7891,
      "ĠÐ°ÑĢÐ³ÑĥÐ¼ÐµÐ½ÑĤÐ¾Ð²": 7892,
      "LibraryItem": 7893,
      "ÐľÐ¸Ð½Ð¸Ð¼Ð°Ð»ÑĮÐ½ÑĭÐ¹": 7894,
      "Optimized": 7895,
      "ULT": 7896,
      "Ð¸Ð¼ÑĥÐ»ÑıÑĨÐ¸Ñı": 7897,
      "SmartPointer": 7898,
      "ĠÐŀÑĩÐ¸ÑģÑĤÐºÐ°": 7899,
      "CAPACITY": 7900,
      "Ġ273": 7901,
      "ÑĢÐ°Ð±Ð°ÑĤ": 7902,
      "ĠTypeErasedContainer": 7903,
      "Ð²Ð°ÑĢÐ¸ÑĤÐµÐ»ÑĮ": 7904,
      "Ġcommitted": 7905,
      "ISSET": 7906,
      "ĠAsyncTask": 7907,
      "Ð°Ð»ÑıÑĢÐ½Ð¾Ðµ": 7908,
      "Ġpredi": 7909,
      "Ġcents": 7910,
      "ĠTRANSITION": 7911,
      "ĠÑĥÐ½Ð¸ÐºÐ°Ð»ÑĮ": 7912,
      "ĠPermissionSet": 7913,
      "ĠÑģÑĥÑĦÑĦÐ¸ÐºÑģ": 7914,
      "Ð¾Ð·Ð¸ÑĨÐ¸Ñı": 7915,
      "ĠÐ¿Ð¾Ð²ÐµÑĢÑħÐ½Ð¾ÑģÑĤÐ¸": 7916,
      "ĠCopy": 7917,
      "ButCloneable": 7918,
      "ĠROWS": 7919,
      "REUSEADDR": 7920,
      "!\\": 7921,
      "'},": 7922,
      "03": 7923,
      "48": 7924,
      "As": 7925,
      "EW": 7926,
      "FAI": 7927,
      "Gre": 7928,
      "IDatabase": 7929,
      "Mag": 7930,
      "NS": 7931,
      "Other": 7932,
      "Sorter": 7933,
      "VEL": 7934,
      "csignal": 7935,
      "dynamic": 7936,
      "fg": 7937,
      "fit": 7938,
      "good": 7939,
      "mission": 7940,
      "oe": 7941,
      "scores": 7942,
      "uper": 7943,
      "ĠÏ": 7944,
      "ĠExpected": 7945,
      "ĠĠĠĠĠĠ": 7946,
      "inner": 7947,
      "inUse": 7948,
      "record": 7949,
      "replace": 7950,
      "ints": 7951,
      "()];\\": 7952,
      "debug": 7953,
      "Ð¸Ð»Ð¸": 7954,
      "Ġrevenue": 7955,
      "alty": 7956,
      "select": 7957,
      "Ġmonitor": 7958,
      "Ġvertex": 7959,
      "Ġpeek": 7960,
      "theta": 7961,
      "Ġbonus": 7962,
      "round": 7963,
      "isOpen": 7964,
      "ĠÐ¿Ð°ÑĤ": 7965,
      "exchange": 7966,
      "++()": 7967,
      "ĠÑģÐ²": 7968,
      "Ġdep": 7969,
      "Ġ};": 7970,
      "Ġhr": 7971,
      "Ġheuristic": 7972,
      "ĠÐ²Ð²ÐµÐ»": 7973,
      "setValue": 7974,
      "asure": 7975,
      "strncpy": 7976,
      "ĠÐ´ÐµÐ½ÑĮ": 7977,
      "Ġnumeric": 7978,
      "Ġincrease": 7979,
      "ĠgetCounter": 7980,
      "ĠgetIs": 7981,
      "ĠPA": 7982,
      "ĠPart": 7983,
      "ĠDist": 7984,
      "ĠÐºÑĢÐ°ÑĤ": 7985,
      "Ġtruck": 7986,
      "omorphic": 7987,
      "ĠAL": 7988,
      "Ġconcaten": 7989,
      "ĠisEqual": 7990,
      "Ð¾Ð±Ñĭ": 7991,
      "ecure": 7992,
      "Ð¾ÐºÐ¸Ð¹": 7993,
      "ĠÐ·Ð°Ð½": 7994,
      "Ġtoggle": 7995,
      "ÐŀÐľ": 7996,
      "Ð±ÐµÑĢ": 7997,
      "Ð¸Ð½Ñĥ": 7998,
      "ĠÐ¿ÑĢÐ¾Ð¼": 7999
    },
    "merges": [
      [
        "Ġ",
        "Ġ"
      ],
      [
        "ĠĠ",
        "ĠĠ"
      ],
      [
        "ĠĠ",
        "Ġ"
      ],
      [
        ";",
        "\\"
      ],
      [
        "Ġ",
        "<"
      ],
      [
        "s",
        "t"
      ],
      [
        "i",
        "n"
      ],
      [
        "\\",
        "\""
      ],
      [
        "Ġ<",
        "<"
      ],
      [
        "ĠĠĠĠ",
        "ĠĠĠ"
      ],
      [
        "Ġ",
        "\\\""
      ],
      [
        "c",
        "o"
      ],
      [
        "Ġ",
        "st"
      ],
      [
        "r",
        "e"
      ],
      [
        ":",
        ":"
      ],
      [
        "Ġ",
        "{"
      ],
      [
        "e",
        "n"
      ],
      [
        "Ġst",
        "d"
      ],
      [
        "Ð",
        "µ"
      ],
      [
        "Ġ",
        "="
      ],
      [
        "Ġ{",
        "\\"
      ],
      [
        "u",
        "t"
      ],
      [
        "e",
        "r"
      ],
      [
        "Ð",
        "¾"
      ],
      [
        "in",
        "t"
      ],
      [
        "(",
        ")"
      ],
      [
        "Ð",
        "°"
      ],
      [
        "o",
        "r"
      ],
      [
        "Ġ",
        "Ð"
      ],
      [
        "d",
        "e"
      ],
      [
        "Ġ",
        "\\"
      ],
      [
        "}",
        "\\"
      ],
      [
        "a",
        "t"
      ],
      [
        "co",
        "ut"
      ],
      [
        "Ð",
        "¸"
      ],
      [
        "en",
        "d"
      ],
      [
        "Ġ",
        "}\\"
      ],
      [
        "Ð",
        "½"
      ],
      [
        "Ġ",
        "i"
      ],
      [
        "l",
        "e"
      ],
      [
        "Ġ",
        "re"
      ],
      [
        "end",
        "l"
      ],
      [
        "Ñ",
        "Ĥ"
      ],
      [
        "a",
        "l"
      ],
      [
        "ĠĠĠĠ",
        "ĠĠĠĠĠĠĠ"
      ],
      [
        "c",
        "l"
      ],
      [
        ")",
        ";\\"
      ],
      [
        "u",
        "r"
      ],
      [
        "Ñ",
        "Ģ"
      ],
      [
        "Ñ",
        "ģ"
      ],
      [
        "Ð¾",
        "Ð"
      ],
      [
        "in",
        "g"
      ],
      [
        "a",
        "m"
      ],
      [
        "o",
        "n"
      ],
      [
        "Ġ",
        "("
      ],
      [
        "co",
        "n"
      ],
      [
        "Ġ",
        "0"
      ],
      [
        "a",
        "r"
      ],
      [
        ">",
        "\\"
      ],
      [
        "s",
        "e"
      ],
      [
        "t",
        "ur"
      ],
      [
        "tur",
        "n"
      ],
      [
        "Ġre",
        "turn"
      ],
      [
        "c",
        "t"
      ],
      [
        "u",
        "de"
      ],
      [
        "Ġ",
        "m"
      ],
      [
        "cl",
        "ude"
      ],
      [
        "in",
        "clude"
      ],
      [
        "Ġ",
        "f"
      ],
      [
        "Ġ",
        "n"
      ],
      [
        "Ġ",
        "v"
      ],
      [
        "Ġ",
        "cout"
      ],
      [
        "Ġ",
        "t"
      ],
      [
        "Ġ",
        "d"
      ],
      [
        "s",
        "i"
      ],
      [
        "Ð",
        "»"
      ],
      [
        "u",
        "b"
      ],
      [
        "Ġ",
        "p"
      ],
      [
        "con",
        "st"
      ],
      [
        "c",
        "e"
      ],
      [
        "r",
        "ing"
      ],
      [
        "Ġ",
        "c"
      ],
      [
        "Ġ",
        "int"
      ],
      [
        "Ġ",
        "endl"
      ],
      [
        "u",
        "n"
      ],
      [
        "u",
        "e"
      ],
      [
        "t",
        "h"
      ],
      [
        "i",
        "d"
      ],
      [
        "Ġ",
        "a"
      ],
      [
        "Ðµ",
        "Ð"
      ],
      [
        "Ġ",
        "b"
      ],
      [
        "Ġi",
        "f"
      ],
      [
        "a",
        "n"
      ],
      [
        "g",
        "e"
      ],
      [
        "am",
        "e"
      ],
      [
        "i",
        "c"
      ],
      [
        "z",
        "e"
      ],
      [
        "Ġ",
        "s"
      ],
      [
        "e",
        "ct"
      ],
      [
        "Ġ",
        "o"
      ],
      [
        "Ġ",
        "1"
      ],
      [
        "Ġm",
        "a"
      ],
      [
        "ĠĠĠĠ",
        "ĠĠĠĠ"
      ],
      [
        "Ð°",
        "Ð"
      ],
      [
        "Ñ",
        "ĥ"
      ],
      [
        "Ñ",
        "ı"
      ],
      [
        "r",
        "o"
      ],
      [
        "st",
        "ring"
      ],
      [
        "r",
        "i"
      ],
      [
        "s",
        "s"
      ],
      [
        "Ñ",
        "ĭ"
      ],
      [
        "si",
        "ze"
      ],
      [
        "u",
        "s"
      ],
      [
        "i",
        "on"
      ],
      [
        "c",
        "k"
      ],
      [
        "re",
        "am"
      ],
      [
        "Ġ",
        "/"
      ],
      [
        "Ðµ",
        "Ð½"
      ],
      [
        "t",
        "e"
      ],
      [
        "st",
        "ream"
      ],
      [
        "m",
        "p"
      ],
      [
        "Ġ",
        "+"
      ],
      [
        "Ġ",
        ":"
      ],
      [
        "u",
        "m"
      ],
      [
        "at",
        "e"
      ],
      [
        "Ġ",
        "const"
      ],
      [
        "ub",
        "le"
      ],
      [
        "o",
        "uble"
      ],
      [
        "i",
        "o"
      ],
      [
        "Ð¸",
        "Ð"
      ],
      [
        "}",
        ";\\"
      ],
      [
        "t",
        "r"
      ],
      [
        "u",
        "l"
      ],
      [
        "()",
        ";\\"
      ],
      [
        "i",
        "t"
      ],
      [
        "n",
        "int"
      ],
      [
        "Ġ",
        "e"
      ],
      [
        "=",
        "="
      ],
      [
        "o",
        "id"
      ],
      [
        "Ġf",
        "or"
      ],
      [
        "en",
        "t"
      ],
      [
        "Ġ",
        "#"
      ],
      [
        "ect",
        "or"
      ],
      [
        "a",
        "d"
      ],
      [
        "Ġma",
        "in"
      ],
      [
        "io",
        "stream"
      ],
      [
        "\\",
        "\\"
      ],
      [
        "Ġ/",
        "/"
      ],
      [
        "p",
        "e"
      ],
      [
        "l",
        "o"
      ],
      [
        "un",
        "t"
      ],
      [
        "c",
        "h"
      ],
      [
        "Ð",
        "º"
      ],
      [
        "Ñ",
        "ĩ"
      ],
      [
        "ge",
        "t"
      ],
      [
        "Ñģ",
        "ÑĤ"
      ],
      [
        "Ñ",
        "Į"
      ],
      [
        "at",
        "a"
      ],
      [
        "o",
        "l"
      ],
      [
        "al",
        "ue"
      ],
      [
        "Ġv",
        "oid"
      ],
      [
        "e",
        "d"
      ],
      [
        "ĠĠĠĠ",
        "ĠĠĠĠĠĠĠĠĠĠĠ"
      ],
      [
        "l",
        "ic"
      ],
      [
        "Ġ",
        "*"
      ],
      [
        "Ġ",
        "-"
      ],
      [
        "Ð¾Ð",
        "²"
      ],
      [
        "Ġd",
        "ouble"
      ],
      [
        "i",
        "s"
      ],
      [
        "Ġn",
        "ame"
      ],
      [
        "p",
        "a"
      ],
      [
        "ub",
        "lic"
      ],
      [
        "Ðµ",
        "ÑĢ"
      ],
      [
        ":",
        "\\"
      ],
      [
        "Ð",
        "²"
      ],
      [
        "ĠÐ",
        "¿"
      ],
      [
        "e",
        "x"
      ],
      [
        "n",
        "p"
      ],
      [
        "ul",
        "t"
      ],
      [
        "i",
        "r"
      ],
      [
        "Ġ",
        "2"
      ],
      [
        "a",
        "ss"
      ],
      [
        "y",
        "pe"
      ],
      [
        "-",
        ">"
      ],
      [
        "Ġ",
        ">"
      ],
      [
        "+",
        "+"
      ],
      [
        "Ġ=",
        "="
      ],
      [
        "m",
        "e"
      ],
      [
        "st",
        "d"
      ],
      [
        "i",
        "le"
      ],
      [
        "r",
        "a"
      ],
      [
        "Ġ",
        "w"
      ],
      [
        "v",
        "er"
      ],
      [
        "v",
        "ector"
      ],
      [
        "i",
        "g"
      ],
      [
        "Ġ",
        "Ñģ"
      ],
      [
        "(",
        "\\\""
      ],
      [
        "cl",
        "ass"
      ],
      [
        "Ġ",
        "C"
      ],
      [
        "at",
        "or"
      ],
      [
        "Ġ",
        "co"
      ],
      [
        "Ġ",
        "S"
      ],
      [
        "o",
        "t"
      ],
      [
        "Ġ",
        "l"
      ],
      [
        "n",
        "class"
      ],
      [
        "Ġ\\\"",
        "\\\\"
      ],
      [
        "Ġ",
        "T"
      ],
      [
        "Ġst",
        "ring"
      ],
      [
        "ut",
        "o"
      ],
      [
        "m",
        "a"
      ],
      [
        "a",
        "se"
      ],
      [
        "Ð",
        "¼"
      ],
      [
        "Ġ",
        "size"
      ],
      [
        "us",
        "ing"
      ],
      [
        "np",
        "ublic"
      ],
      [
        "0",
        "0"
      ],
      [
        "ÐµÐ",
        "¼"
      ],
      [
        "s",
        "ult"
      ],
      [
        "Ġ",
        "de"
      ],
      [
        "th",
        "er"
      ],
      [
        "Ġ\\\"",
        ";\\"
      ],
      [
        "v",
        "e"
      ],
      [
        "i",
        "l"
      ],
      [
        "Ġ",
        "}"
      ],
      [
        "o",
        "de"
      ],
      [
        "\\\"",
        ";\\"
      ],
      [
        "pa",
        "ce"
      ],
      [
        "R",
        "e"
      ],
      [
        "Ġ",
        "h"
      ],
      [
        "o",
        "ol"
      ],
      [
        "Ð°",
        "Ð½"
      ],
      [
        "s",
        "pace"
      ],
      [
        "p",
        "tr"
      ],
      [
        "n",
        "using"
      ],
      [
        "Ġ",
        "3"
      ],
      [
        "Ð¾Ð",
        "»"
      ],
      [
        "Ġname",
        "space"
      ],
      [
        "a",
        "ck"
      ],
      [
        "ĠÐ",
        "²"
      ],
      [
        "Ñ",
        "Ĩ"
      ],
      [
        "Ð",
        "´"
      ],
      [
        "se",
        "t"
      ],
      [
        "ar",
        "r"
      ],
      [
        "ÐµÐ½",
        "Ð¸"
      ],
      [
        "p",
        "er"
      ],
      [
        "Ġ",
        "x"
      ],
      [
        "a",
        "s"
      ],
      [
        "\\\"",
        ","
      ],
      [
        "ĠÐ",
        "½"
      ],
      [
        "Ð½",
        "Ñĭ"
      ],
      [
        "st",
        "r"
      ],
      [
        "ĠÐ",
        "´"
      ],
      [
        "Ġ",
        "&"
      ],
      [
        "n",
        "t"
      ],
      [
        "Ġa",
        "uto"
      ],
      [
        "h",
        "t"
      ],
      [
        "q",
        "ue"
      ],
      [
        ")",
        ","
      ],
      [
        "Ð°",
        "ÑĤ"
      ],
      [
        "++",
        ")"
      ],
      [
        "r",
        "int"
      ],
      [
        "k",
        "e"
      ],
      [
        "at",
        "ion"
      ],
      [
        "f",
        "f"
      ],
      [
        "Ġd",
        "ata"
      ],
      [
        "Ġc",
        "h"
      ],
      [
        "\\\"",
        ");\\"
      ],
      [
        "Ð¾",
        "ÑĢ"
      ],
      [
        "Ġn",
        "um"
      ],
      [
        "Ġre",
        "sult"
      ],
      [
        "Ðµ",
        "ÑĤ"
      ],
      [
        "Ġ",
        "in"
      ],
      [
        "e",
        "mp"
      ],
      [
        "e",
        "w"
      ],
      [
        "i",
        "me"
      ],
      [
        "C",
        "o"
      ],
      [
        "a",
        "y"
      ],
      [
        "Ġo",
        "ther"
      ],
      [
        "Ġe",
        "l"
      ],
      [
        "s",
        "er"
      ],
      [
        "Ðµ",
        "Ð»"
      ],
      [
        "Ġel",
        "se"
      ],
      [
        "Ġ",
        "'"
      ],
      [
        "Ġ",
        "r"
      ],
      [
        "i",
        "st"
      ],
      [
        "ÐµÐ",
        "´"
      ],
      [
        "Ð¸",
        "ÑĤ"
      ],
      [
        "]",
        ";\\"
      ],
      [
        "Ġ",
        "get"
      ],
      [
        "Ġ",
        "P"
      ],
      [
        "e",
        "t"
      ],
      [
        "u",
        "ct"
      ],
      [
        "t",
        "y"
      ],
      [
        "a",
        "re"
      ],
      [
        "p",
        "t"
      ],
      [
        "Ġ",
        "5"
      ],
      [
        "a",
        "b"
      ],
      [
        "in",
        "d"
      ],
      [
        "S",
        "t"
      ],
      [
        "Ġ",
        "y"
      ],
      [
        "Ġ",
        "D"
      ],
      [
        ">",
        "("
      ],
      [
        "Ġv",
        "alue"
      ],
      [
        "Ð",
        "¿"
      ],
      [
        "Ġ",
        "B"
      ],
      [
        "Ġ",
        "!"
      ],
      [
        "Ġ",
        "j"
      ],
      [
        "Ð¾Ð",
        "´"
      ],
      [
        "g",
        "in"
      ],
      [
        "Ġst",
        "r"
      ],
      [
        "()",
        ")"
      ],
      [
        "Ð½",
        "Ð°"
      ],
      [
        "Ġ",
        "g"
      ],
      [
        "Ġ",
        "arr"
      ],
      [
        "]",
        "["
      ],
      [
        "ÑĢ",
        "Ð°Ð"
      ],
      [
        "ĠÐ",
        "º"
      ],
      [
        "Ñ",
        "ħ"
      ],
      [
        "d",
        "ouble"
      ],
      [
        "Ġ",
        "4"
      ],
      [
        "an",
        "d"
      ],
      [
        "con",
        "d"
      ],
      [
        "Ñ",
        "Ī"
      ],
      [
        "f",
        "t"
      ],
      [
        "re",
        "ad"
      ],
      [
        "b",
        "er"
      ],
      [
        "ar",
        "t"
      ],
      [
        "Ġ",
        "M"
      ],
      [
        "co",
        "unt"
      ],
      [
        "Ġb",
        "ool"
      ],
      [
        "o",
        "w"
      ],
      [
        "Ñģ",
        "Ð»"
      ],
      [
        "en",
        "ame"
      ],
      [
        "o",
        "p"
      ],
      [
        "ÑĨ",
        "Ð¸"
      ],
      [
        "Ð°",
        "Ð»"
      ],
      [
        "a",
        "ge"
      ],
      [
        "en",
        "g"
      ],
      [
        "us",
        "h"
      ],
      [
        "ad",
        "d"
      ],
      [
        "Ð",
        "Ł"
      ],
      [
        "ct",
        "ion"
      ],
      [
        "ex",
        "t"
      ],
      [
        "Ġt",
        "r"
      ],
      [
        "ĠÐ",
        "¸"
      ],
      [
        "eng",
        "th"
      ],
      [
        "Ð½",
        "Ð¾"
      ],
      [
        ":",
        "\\\""
      ],
      [
        ")",
        ");\\"
      ],
      [
        "b",
        "ack"
      ],
      [
        "un",
        "i"
      ],
      [
        "I",
        "n"
      ],
      [
        "Ġn",
        "ew"
      ],
      [
        "Ġ!",
        "="
      ],
      [
        "()",
        ","
      ],
      [
        "re",
        "nt"
      ],
      [
        "Ġ>",
        ">"
      ],
      [
        "Ð",
        "Ĵ"
      ],
      [
        "Ðº",
        "Ð°"
      ],
      [
        "p",
        "ush"
      ],
      [
        "Ð¸Ð",
        "¼"
      ],
      [
        "o",
        "m"
      ],
      [
        ".",
        "."
      ],
      [
        "o",
        "ur"
      ],
      [
        "at",
        "ic"
      ],
      [
        "t",
        "u"
      ],
      [
        "Ġ{",
        "}\\"
      ],
      [
        "Ð",
        "¹"
      ],
      [
        "lo",
        "ck"
      ],
      [
        "it",
        "y"
      ],
      [
        "Ġ",
        "A"
      ],
      [
        "i",
        "v"
      ],
      [
        "Ġt",
        "h"
      ],
      [
        "Ġo",
        "ver"
      ],
      [
        "Ð",
        "·"
      ],
      [
        "Ġ",
        "con"
      ],
      [
        "ÐµÐ½Ð¸",
        "Ðµ"
      ],
      [
        "-",
        "-"
      ],
      [
        "or",
        "d"
      ],
      [
        "or",
        "y"
      ],
      [
        "N",
        "ode"
      ],
      [
        "Ġo",
        "per"
      ],
      [
        "t",
        "er"
      ],
      [
        "v",
        "alue"
      ],
      [
        "i",
        "th"
      ],
      [
        "Ġv",
        "ector"
      ],
      [
        "\\\"",
        ")"
      ],
      [
        "v",
        "al"
      ],
      [
        "ro",
        "w"
      ],
      [
        "Ġi",
        "s"
      ],
      [
        "se",
        "cond"
      ],
      [
        "ĠÐ",
        "¼"
      ],
      [
        "si",
        "t"
      ],
      [
        "an",
        "ce"
      ],
      [
        "Ġch",
        "ar"
      ],
      [
        "ĠĠĠĠĠĠĠĠ",
        "ĠĠĠĠĠĠĠĠ"
      ],
      [
        "Ð¾",
        "ÑĤ"
      ],
      [
        "a",
        "st"
      ],
      [
        "Ð¾Ð",
        "±"
      ],
      [
        "Ð»",
        "Ñı"
      ],
      [
        "p",
        "l"
      ],
      [
        "q",
        "u"
      ],
      [
        "ĠÐ",
        "Ł"
      ],
      [
        "ri",
        "de"
      ],
      [
        "Ġover",
        "ride"
      ],
      [
        "ÑĢ",
        "Ð¾Ð²"
      ],
      [
        "al",
        "se"
      ],
      [
        "Ġ&",
        "&"
      ],
      [
        "[",
        "]"
      ],
      [
        "uni",
        "que"
      ],
      [
        "n",
        "um"
      ],
      [
        "m",
        "o"
      ],
      [
        "ur",
        "rent"
      ],
      [
        "Ġst",
        "atic"
      ],
      [
        "de",
        "x"
      ],
      [
        "Ñ",
        "Ħ"
      ],
      [
        "er",
        "r"
      ],
      [
        "e",
        "c"
      ],
      [
        "o",
        "ck"
      ],
      [
        ")",
        ")"
      ],
      [
        "==",
        "=="
      ],
      [
        "le",
        "te"
      ],
      [
        "Ð¾Ð",
        "º"
      ],
      [
        "u",
        "ff"
      ],
      [
        "ab",
        "le"
      ],
      [
        "Ġoper",
        "ator"
      ],
      [
        "t",
        "ype"
      ],
      [
        "a",
        "g"
      ],
      [
        "ce",
        "ss"
      ],
      [
        "Ġ",
        "Ñĩ"
      ],
      [
        "o",
        "f"
      ],
      [
        "ig",
        "ht"
      ],
      [
        "Ġ",
        "|"
      ],
      [
        "v",
        "oid"
      ],
      [
        "a",
        "p"
      ],
      [
        "m",
        "ent"
      ],
      [
        "ir",
        "tu"
      ],
      [
        "irtu",
        "al"
      ],
      [
        "ÐµÐ",
        "º"
      ],
      [
        "Ñ",
        "İ"
      ],
      [
        "e",
        "s"
      ],
      [
        "Ġp",
        "ro"
      ],
      [
        "d",
        "ata"
      ],
      [
        "le",
        "ft"
      ],
      [
        "si",
        "on"
      ],
      [
        "i",
        "al"
      ],
      [
        "re",
        "s"
      ],
      [
        "T",
        "ype"
      ],
      [
        "as",
        "k"
      ],
      [
        "b",
        "e"
      ],
      [
        "o",
        "int"
      ],
      [
        "Ġ",
        "?"
      ],
      [
        "re",
        "a"
      ],
      [
        "Ġa",
        "d"
      ],
      [
        "Ġ+",
        "="
      ],
      [
        "V",
        "alue"
      ],
      [
        "our",
        "ce"
      ],
      [
        "Ġf",
        "alse"
      ],
      [
        "p",
        "h"
      ],
      [
        "ke",
        "y"
      ],
      [
        "Ġ1",
        "0"
      ],
      [
        "e",
        "l"
      ],
      [
        "ri",
        "g"
      ],
      [
        "r",
        "on"
      ],
      [
        ">",
        ">"
      ],
      [
        "Ġma",
        "x"
      ],
      [
        "n",
        "ame"
      ],
      [
        "Ġv",
        "irtual"
      ],
      [
        "e",
        "st"
      ],
      [
        "Ð",
        "¡"
      ],
      [
        "or",
        "t"
      ],
      [
        "Ñ",
        "ī"
      ],
      [
        "I",
        "N"
      ],
      [
        "ce",
        "pt"
      ],
      [
        "Ġ<",
        "="
      ],
      [
        "Ġco",
        "unt"
      ],
      [
        "rig",
        "ht"
      ],
      [
        "ĠÐ",
        "·"
      ],
      [
        "Ġe",
        "x"
      ],
      [
        "Co",
[...]
