#version: 0.2
Ð ¾
Ð °
Ð ¸
Ð µ
Ñ 
Ð¾ Ð
Ñ 
Ð° Ð
Ñ 
Ðµ Ð
Ñ 
Ð¸ Ð
Ð ¿
Ñ 
Ð º
Ð ½
Ð »
Ð ¼
Ð ´
Ð ²
e s
Ð¿ Ñ
Ñ 
Ð¾ Ñ
Ð¾Ð ³
Ð¸ Ñ
Ñ Ð¾Ñ
Ð ±
Ñ Ñ
Ñ Ð°Ð¼
Ð¼ Ñ
Ñ 
Ð¿Ñ Ð¾Ð³
Ð¿ÑÐ¾Ð³ ÑÐ°Ð¼
Ðµ Ñ
Ð¿ÑÐ¾Ð³ÑÐ°Ð¼ Ð¼Ñ
i n
ÐµÐ ·
Ðµ Ñ
s t
Ð» Ñ
Ñ 
st d
in g
a c
n a
Ð± ÐµÐ·
na m
ÑÐ¾Ñ Ð°
u s
ac e
es p
Ðº Ð¾
us ing
nam esp
namesp ace
using namespace
namespace std
std </w>
Ð±ÐµÐ· using
Ð¸Ð ·
ÐºÐ¾ ÑÐ¾ÑÐ°
ÐºÐ¾ÑÐ¾ÑÐ° Ñ
Ð¾Ð ·
Ð° Ñ
Ð°Ð ¹
Ñ Ð
Ð´ Ð»Ñ
Ð¾Ð· Ð´
Ñ Ð¾Ð·Ð´
ÐµÐ°Ð» Ð¸Ð·
Ñ ÐµÐ°Ð»Ð¸Ð·
ÑÐ¾Ð·Ð´ Ð°Ð¹
Ð ·
Ð° Ñ
Ð¿ÑÐ¾Ð³ÑÐ°Ð¼Ð¼Ñ ÐºÐ¾ÑÐ¾ÑÐ°Ñ
Ñ 
Ð½ Ñ
Ñ 
ÑÐ ¹
Ð°Ñ Ñ
ÑÐµÐ°Ð»Ð¸Ð· ÑÐ¹
ÐµÐ½ Ð¸Ñ
Ñ 
Ñ 
ÑÑ Ñ
Ð¸Ñ 
Ð°Ð¿ Ð¸Ñ
Ð°Ð¿Ð¸Ñ Ð¸
Ð½ Ð°Ð¿Ð¸ÑÐ¸
Ð² Ñ
Ðº Ð»
Ñ Ð¸Ñ
Ð¿ Ð¾Ð»
Ð½ Ð°
Ñ 
ÐºÐ» Ð°ÑÑ
ÑÐ¾Ð·Ð´Ð°Ð¹ Ð¿ÑÐ¾Ð³ÑÐ°Ð¼Ð¼Ñ
Ð½Ð°Ð¿Ð¸ÑÐ¸ Ð¿ÑÐ¾Ð³ÑÐ°Ð¼Ð¼Ñ
Ð¾Ð ¹
Ñ Ð·
Ð¿Ð¾Ð» ÑÐ·
Ð¾ Ñ
Ð¾Ð² Ð°Ð½
Ð¿ ÐµÑ
Ð¸Ñ Ð¿Ð¾Ð»ÑÐ·
ÑÐ¸Ñ Ð»
Ð ³
Ðµ Ñ
ÑÐµÐ°Ð»Ð¸Ð·ÑÐ¹ Ð¿ÑÐ¾Ð³ÑÐ°Ð¼Ð¼Ñ
Ð½Ñ Ð¼
Ð¾Ð³ Ð¾
ÑÐ½ Ðº
Ñ ÑÐ½Ðº
ÑÑÐ½Ðº Ñ
Ñ Ñ
ÐµÐ¼ ÐµÐ½
Ð¾ ÑÑ
ÑÑÑ Ð¾Ðº
Ð¾Ð´ Ð¸Ñ
Ð° Ñ
Ð¼ ÐµÑ
Ñ 
Ð½ Ð¾Ð³Ð¾
Ð¼ Ð°ÑÑ
Ð¼Ð°ÑÑ Ð¸Ð²
Ñ Ð°Ð·
Ð¾ Ñ
Ð°Ð¼ Ð¸
Ð½ Ð¾Ð¹
Ð ¹
Ð½Ñ Ñ
Ðº Ð¸
Ñ 
Ð¼ÐµÑ Ð¾Ð´
e r
ÐºÐ¾ÑÐ¾ÑÐ°Ñ Ð²Ñ
Ñ Ð¿
Ð¾Ð² ÐµÑ
Ð¿ÑÐ¾Ð³ÑÐ°Ð¼Ð¼Ñ Ñ
Ñ Ñ
Ð°Ñ ÐµÐ»
Ð¿Ñ Ð¾Ð²ÐµÑ
ÑÑÐ½ÐºÑ Ð¸Ñ
, ÐºÐ¾ÑÐ¾ÑÐ°Ñ
Ð¿ÑÐ¾Ð³ÑÐ°Ð¼Ð¼Ñ ,
Ð²Ñ Ð²
Ð¾Ð ¶
Ð¾Ð²Ð°Ð½ Ð¸ÐµÐ¼
ÑÑÑ ÑÐº
Ð¿ Ð¾
Ñ Ð°Ð±
o n
ÑÐ°Ð± Ð¾Ñ
ÐµÐ¼ÐµÐ½ Ñ
Ñ ÐµÑ
Ð°Ð² Ð»
Ð´ Ð²
Ñ Ð»
o r
ÑÐ» ÐµÐ¼ÐµÐ½Ñ
ÑÐº Ð°Ð·
Ð½Ð° Ñ
Ð° Ñ
Ð°Ð²Ð» ÐµÐ½Ð¸Ñ
Ñ Ñ
Ð½ÑÐ¼ Ð¸
ÐµÐ½ Ð¸Ðµ
Ð½Ñ Ð¹
Ð½Ð° Ñ
Ð°Ñ Ð¸Ð¸
Ð¿ÑÐ¾Ð³ÑÐ°Ð¼Ð¼Ñ, ÐºÐ¾ÑÐ¾ÑÐ°Ñ
Ð³ Ð¾Ñ
Ð³Ð¾Ñ Ð¸Ñ
Ð³Ð¾ÑÐ¸Ñ Ð¼
Ð°Ð» Ð³Ð¾ÑÐ¸ÑÐ¼
a t
Ð¸ÑÐ¿Ð¾Ð»ÑÐ· Ð¾Ð²Ð°Ð½Ð¸ÐµÐ¼
Ñ Ð²
ÑÐµÐ°Ð»Ð¸Ð·ÑÐ¹ ÐºÐ»Ð°ÑÑ
Ñ Ð²
Ð· Ð½Ð°Ñ
a r
Ð¸Ñ ÐµÑ
Ñ Ð¸ÑÐ¿Ð¾Ð»ÑÐ·Ð¾Ð²Ð°Ð½Ð¸ÐµÐ¼
Ñ Ñ
Ð¸Ñ ÑÐµÑ
Ð°ÑÐµÐ» Ñ
Ð´ Ñ
Ð° </w>
Ðº Ð°
ÑÐ¾Ð·Ð´Ð°Ð¹ ÐºÐ»Ð°ÑÑ
Ð²ÑÐ² Ð¾Ð´Ð¸Ñ
Ð½Ð°Ñ Ð¾Ð´Ð¸Ñ
Ð» Ð¸
Ð¾ Ñ
ÐµÐ¼ Ð¾Ð½
ÐµÐ¼Ð¾Ð½ ÑÑÑ
u n
l e
Ñ ÐµÑ
) </w>
) Ð±ÐµÐ·
Ñ Ñ
Ð¼ Ð¸
ÐºÐ»Ð°ÑÑ Ð´Ð»Ñ
Ð¿ÑÐ¾Ð³ÑÐ°Ð¼Ð¼Ñ Ð´Ð»Ñ
Ð´ ÐµÐ¼Ð¾Ð½ÑÑÑ
Ð²Ñ ÑÐ¸ÑÐ»
Ð¸ÑÐ¿Ð¾Ð»ÑÐ· ÑÐµÑ
Ñ Ð¸Ð¿
Ñ ÐµÑ
Ð¼Ð°ÑÑÐ¸Ð² Ð°
Ñ Ñ
Ð² ÐµÐº
Ñ Ñ
ÐºÐ¾ÑÐ¾ÑÐ°Ñ Ð¸ÑÐ¿Ð¾Ð»ÑÐ·ÑÐµÑ
ÐºÐ¾ÑÐ¾ÑÐ°Ñ Ð½Ð°ÑÐ¾Ð´Ð¸Ñ
Ð¿ÑÐ¾Ð²ÐµÑ ÑÐµÑ
Ð² Ñ
ÑÑÑÑÐº Ñ
ÑÑÑÑÐºÑ ÑÑ
Ñ Ð¸Ð¼
Ñ 
ÐµÐ³ Ð¾
Ñ Ð¸ÑÑ
Ð° ÑÑ
Ð¾Ð± Ñ
Ñ Ñ
Ð²ÑÑÐ¸ÑÐ» ÐµÐ½Ð¸Ñ
Ð¿Ñ ÐµÐ´
Ñ Ð»
ÐºÐ¾ÑÐ¾ÑÐ°Ñ Ð¿ÑÐ¾Ð²ÐµÑÑÐµÑ
Ð½ Ð¾ÑÑ
ÑÐµÑ ÐµÐ·
Ñ Ð»
Ð¼ÐµÑÐ¾Ð´ Ð¾Ð¼
Ð° Ð±ÐµÐ·
ÑÑ ÑÐ»
e n
Ð¿ÐµÑ ÐµÐ¼ÐµÐ½
Ð¾Ð²Ð°Ð½ Ð¸Ñ
Ð¿ Ð°Ð¼
Ð¿Ð°Ð¼ ÑÑ
Ð¿Ñ Ð¸Ð²
Ð½ Ð¾Ðµ
ÑÐ² Ð»ÑÐµÑ
Ñ Ð°Ð¹
ÑÐ°Ð¹ Ð»
ÑÐ¸ÑÐ» Ð°
Ñ Ð°Ð½
Ð¿ÑÐµÐ´ ÑÑ
ÑÐ¸Ñ ÐµÐ»
Ð¾Ð» Ñ
Ñ ÐµÑ
Ñ Ð¾Ñ
Ð² Ñ
Ñ Ð¿ÐµÑ
Ð¿ Ð°Ñ
Ð¿Ð°Ñ ÑÐµÑ
Ð¾ Ñ
ÑÐµÐ°Ð»Ð¸Ð· ÑÐµÑ
Ð² Ð²
Ð½ ÑÑ
ÑÑÑÑÐºÑÑÑ Ñ
e c
ÐµÐ³ Ñ
ÐµÐ½ Ð¸Ð¹
Ð½ Ð¾Ð¼
ÐµÐ ¶
Ð¿ÑÐ¸Ð² Ð°Ñ
ÑÑÑÐ¾Ðº Ñ
e d
Ñ Ñ
Ð¿ÐµÑ ÐµÐ³Ñ
Ð² Ð¾Ð·
t r
Ð¿Ð¾Ð¼ Ð¾Ñ
Ð¿ÑÐµÐ´ÑÑ Ð°Ð²Ð»ÐµÐ½Ð¸Ñ
i on
Ð¿Ð¾Ð¼Ð¾Ñ ÑÑ
Ð²Ñ Ðµ
Ñ Ð¿Ð¾Ð¼Ð¾ÑÑÑ
Ñ Ñ
ÐºÐ¾ÑÐ¾ÑÐ°Ñ Ð²ÑÐ²Ð¾Ð´Ð¸Ñ
Ð´Ð»Ñ Ð¿ÑÐµÐ´ÑÑÐ°Ð²Ð»ÐµÐ½Ð¸Ñ
Ð¾Ð¼ ,
ÑÐ¸Ð¼ Ð²
ÑÐ ¶
Ð¿Ñ Ð¾ÑÑ
Ð½Ñ Ðµ
ÑÑ Ð»Ð¸
a n
ÑÐ¸ÑÑ ÐµÐ¼Ñ
ÑÐ¸Ð¼Ð² Ð¾Ð»
ÑÐºÐ°Ð· Ð°ÑÐµÐ»Ñ
Ð´Ñ ÑÐ³
i t
: :
Ð ¶
ÑÐ² Ð°ÐµÑ
ÑÐ¸ÑÐ» Ð¾
ÐºÐ¾ÑÐ¾ÑÐ°Ñ Ð²ÑÑÐ¸ÑÐ»ÑÐµÑ
std ::
ÑÐ¸Ð¿ Ð°
ÑÐ°Ð±Ð¾Ñ Ñ
Ð¿ Ð»
ÐºÐ¾ÑÐ¾ÑÐ°Ñ Ð´ÐµÐ¼Ð¾Ð½ÑÑÑ
Ð´ÐµÐ¼Ð¾Ð½ÑÑÑ Ð¸ÑÑÐµÑ
ÐºÐ¾ÑÐ¾ÑÐ°Ñ Ð´ÐµÐ¼Ð¾Ð½ÑÑÑÐ¸ÑÑÐµÑ
Ñ ÑÐ°Ð½
ÐºÐ¾ÑÐ¾ÑÐ°Ñ ÑÐµÐ°Ð»Ð¸Ð·ÑÐµÑ
ÑÐ¾Ð·Ð´Ð°Ð¹ ÑÑÐ½ÐºÑÐ¸Ñ
Ð°Ð» Ñ
a l
Ð¼ ÐµÐ½
Ðµ Ð±ÐµÐ·
Ð´ Ñ
Ð¾Ð´ Ð°
Ðµ </w>
Ð¿ÐµÑÐµÐ¼ÐµÐ½ Ð½Ð¾Ð¹
Ð½Ð°Ð¿Ð¸ÑÐ¸ ÐºÐ»Ð°ÑÑ
Ñ Ð°
Ñ ÐºÐ¾Ð½
ÑÐ°Ð±Ð¾ÑÑ Ñ
Ð¾Ð¿ÐµÑ Ð°ÑÐ¾Ñ
ÑÐ¾Ð·Ð´ Ð°ÐµÑ
r e
Ð¿Ð¾Ð¸Ñ ÐºÐ°
Ð²Ñ Ð´
Ñ Ð¼ÐµÑÐ¾Ð´Ð¾Ð¼
Ð´ Ð°Ð½
Ð¾Ñ Ñ
Ð² ÐµÑ
Ð½Ð°Ð¿Ð¸ÑÐ¸ ÑÑÐ½ÐºÑÐ¸Ñ
Ñ Ð¿ÐµÑÐµÐ³Ñ
Ñ Ð¾ÑÑ
Ð¿Ð°Ð¼ÑÑ Ñ
Ñ Ñ
Ñ ÑÐ¼
ÑÐ²Ð»ÑÐµÑ ÑÑ
Ð¿Ñ Ð¸Ñ
ÐºÐ» ÑÑ
Ð¿ÑÐ¸Ñ Ð²
Ð½Ð°Ð¿Ð¸ÑÐ¸ Ð¿ÑÐ¾Ð³ÑÐ°Ð¼Ð¼Ñ,
ÑÐ²Ð»ÑÐµÑÑÑ Ð»Ð¸
ÐµÐ» Ñ
Ð¿ÑÐ¸ÑÐ² Ð°Ð¸Ð²
ÑÐ»ÐµÐ¼ÐµÐ½Ñ Ð¾Ð²
Ð´Ð»Ñ ÑÐ°Ð±Ð¾ÑÑ
Ð´Ð² Ñ
Ð°Ð± Ð»
ÐºÐ¾ÑÐ¾ÑÐ°Ñ ÑÐ¾Ð·Ð´Ð°ÐµÑ
Ð°Ð² Ð½
Ðº Ñ
in d
e t
ÑÑÐ°Ð½ ÐµÐ½Ð¸Ñ
Ð¸Ñ Ñ
Ð¸ÑÑ ÑÐ°Ð»Ñ
ÑÑÑÑÐºÑÑÑÑ Ð´Ð»Ñ
Ð´Ð²Ñ Ñ
Ñ ÐµÐ»
Ð´ ÐµÑÑÑÑÐºÑÐ¾Ñ
ÑÐ¶ ÐµÐ½
Ð´ ÐµÑ
u e
Ð° Ñ
Ñ 
Ð²ÐµÐº ÑÐ¾ÑÐ°
Ñ Ð¿ÑÐ¸Ð²Ð°Ñ
Ð´Ð»Ñ Ð²ÑÑÐ¸ÑÐ»ÐµÐ½Ð¸Ñ
Ð² Ð¸ÑÑÑÐ°Ð»Ñ
Ð¿ÐµÑÐµÐ³Ñ ÑÐ¶ÐµÐ½
Ð´ Ðµ
ÑÐ¾Ð·Ð´Ð°Ð¹ Ð¿ÑÐ¾Ð³ÑÐ°Ð¼Ð¼Ñ,
Ð² Ð¾
Ñ Ð¿ÐµÑÐµÐ³ÑÑÐ¶ÐµÐ½
ÑÑÑ ÑÑ
Ð½Ð¾ÑÑ Ð¸
Ð¾Ð± ÑÐ°Ð±Ð¾Ñ
ÑÐ¿Ñ Ð°Ð²Ð»ÐµÐ½Ð¸Ñ
Ð¿Ð°Ð¼ÑÑÑ Ð´Ð»Ñ
ÐºÐ¾ÑÐ¾ÑÐ°Ñ Ð²ÑÐ´ÐµÐ»ÑÐµÑ
Ñ Ð¾Ñ
Ð³ Ð´Ðµ
Ð·Ð½Ð°Ñ ÐµÐ½Ð¸Ñ
Ð¼ ÐµÐ¶
ÑÐ¾ÑÑ Ð¸Ñ
Ð¿Ñ Ð¾Ð¸Ð·
Ð²ÐµÐº ÑÐ¾Ñ
, Ñ
ÑÐ¾Ñ Ð¼
Ñ Ð°Ð±Ð»
Ð´Ð»Ñ ÑÑÐ°Ð½ÐµÐ½Ð¸Ñ
Ð´ Ð¾
Ð²ÑÐ´ÐµÐ»ÑÐµÑ Ð¿Ð°Ð¼ÑÑÑ
Ð¼ÐµÑÐ¾Ð´Ð°Ð¼Ð¸ Ð´Ð»Ñ
Ð¿ÑÐ¾Ð²ÐµÑÑÐµÑ ,
Ñ Ñ
ÑÐµÐ°Ð»Ð¸Ð·ÑÐµÑ Ð°Ð»Ð³Ð¾ÑÐ¸ÑÐ¼
Ð½ Ð¾
Ð´Ð°Ð½ Ð½ÑÑ
p tr
Ð¿ÑÐ¾Ð²ÐµÑ ÐºÐ¸
Ðº Ðµ
ec t
a p
Ð¼ÐµÐ¶ Ð´Ñ
Ñ Ð¾Ð²
Ð¿Ð°ÑÑÐµÑ Ð½
Ð¸ Ñ
ÐºÐ¾ÑÐ¾ÑÐ°Ñ Ð¿ÑÐ¾Ð²ÐµÑÑÐµÑ,
m p
c o
in t
Ð¼ ÐµÑ
Ð²Ð² ÐµÐ´ÐµÐ½
Ð·Ð½Ð°Ñ ÐµÐ½Ð¸Ðµ
Ð´ Ð¸Ð½Ð°Ð¼Ð¸ÑÐµÑ
Ñ Ð¾
en t
i c
Ð´Ð»Ñ Ð¼Ð°ÑÑÐ¸Ð²Ð°
Ð¾Ð±Ñ ÐµÐº
ÐºÐ¾Ð½ ÑÑÑÑÐºÑÐ¾Ñ
Ð²Ð¾Ð· Ð²Ñ
Ð¸Ñ Ð¾Ð²Ð°Ð½Ð¸Ñ
ÐºÐ»Ð°ÑÑ Ñ
Ð¸ Ð¼ÐµÑÐ¾Ð´Ð°Ð¼Ð¸
f ind
ÑÐµÐ°Ð»Ð¸Ð·ÑÐ¹ Ð¿ÑÐ¾Ð³ÑÐ°Ð¼Ð¼Ñ,
Ñ Ð¹
ÑÑÐ½ÐºÑ Ð¸Ð¸
Ð¸Ð² Ð°ÐµÑ
Ñ ÐµÐ·
Ðµ Ñ
Ð¾Ð¿ÐµÑÐ°ÑÐ¾Ñ Ð¾Ð¼
Ð¾Ð²Ð°Ð½ Ð¸Ðµ
Ð· Ð°Ð´Ð°Ð½
_ ptr
Ð¸ Ð²ÑÐ²Ð¾Ð´Ð¸Ñ
Ð¿Ñ ÐµÐ¾Ð±
Ð¿ÑÐµÐ¾Ð± ÑÐ°Ð·
ÑÐ°Ð±Ð» Ð¾Ð½
Ñ Ð½
ÐµÐ´ Ð½
Ð¿ÑÐ¸ÑÐ²Ð°Ð¸Ð² Ð°Ð½
Ñ Ñ
ÑÐ³ Ð¾Ð»Ñ
Ð° Ñ
Ð´ÐµÐ¼Ð¾Ð½ÑÑÑ Ð¸Ñ
) Ð´Ð»Ñ
Ð¼ Ð°ÑÑ
ÑÑÐ½ÐºÑÐ¸Ñ find
ÑÐ¾Ð·Ð´Ð°Ð¹ ÑÑÑÑÐºÑÑÑÑ
ÑÐµÐ· ÑÐ»
ÑÐµÐ·ÑÐ» Ñ
c h
ÐºÐ¾ÑÐ¾ÑÐ°Ñ Ð¾Ð¿ÑÐµÐ´ÐµÐ»ÑÐµÑ
ÑÑÐ½ÐºÑ Ð¸ÐµÐ¹
ÑÑÐ½ÐºÑÐ¸Ñ Ð´Ð»Ñ
u m
a s
i s
Ðº Ñ
p e
Ð¼Ð°ÑÑ Ð¸Ñ
ÑÐµÐ°Ð»Ð¸Ð·ÑÐ¹ ÑÑÑÑÐºÑÑÑÑ
l o
Ð°ÑÑ Ð¸Ð¼
Ðº Ð²
Ð³ Ñ
Ð± Ð¸Ð½Ð°Ñ
ÐºÐ¾Ð»Ð¸ÑÐµÑÑ Ð²Ð¾
Ð²Ñ Ñ
Ðµ Ñ
a d
at e
Ð¿ÑÐ¸Ð²Ð°Ñ Ð½ÑÐ¼
Ñ Ð´
Ñ Ñ
Ð¾ ÑÐ½
Ð¿Ñ Ð¸Ð¼ÐµÑ
Ñ Ñ
Ð¾Ð¶ Ð´ÐµÐ½Ð¸Ñ
Ð¿ÐµÑÐµÐ³ÑÑÐ¶ÐµÐ½ Ð½ÑÐ¼
i m
Ñ Ð¿ÐµÑÐµÐ³ÑÑÐ¶ÐµÐ½Ð½ÑÐ¼
Ð¿ÐµÑÐµÐ³ÑÑÐ¶ÐµÐ½Ð½ÑÐ¼ Ð¾Ð¿ÐµÑÐ°ÑÐ¾ÑÐ¾Ð¼
ÐºÐ»Ð°ÑÑ C
Ðµ Ñ
I I
Ð¸Ð· Ð¼ÐµÐ½
ÑÑÐ°Ñ Ð¸ÑÐµÑ
Ð²Ð¾Ð·Ð²Ñ Ð°Ñ
Ñ ÐºÐ¾Ð½ÑÑÑÑÐºÑÐ¾Ñ
ÐºÐ¾ÑÐ¾ÑÐ°Ñ Ð·
ÐµÑÑ Ð²
Ð´ÐµÐ¼Ð¾Ð½ÑÑÑÐ¸Ñ ÑÑÑÑÑ
Ñ Ð¼
q ue
ÑÐµÐ°Ð»Ð¸Ð·ÑÐ¹ Ð°Ð»Ð³Ð¾ÑÐ¸ÑÐ¼
Ð· Ð°Ð¿
Ð¿ÑÐ¾ÑÑ Ð¾Ð¹
ÑÑ Ð°Ð²Ð½
Ð¸Ñ Ñ
Ñ Ñ
p r
Ð²Ñ ÐµÐ¼ÐµÐ½
Ð¾ Ñ
C o
Ð¼ÐµÑÐ¾Ð´Ð¾Ð¼ Ð²ÑÑÐ¸ÑÐ»ÐµÐ½Ð¸Ñ
Ð¿Ð¾Ð» ÐµÐ¼
Ñ Ð¿ÑÐ¸Ð²Ð°ÑÐ½ÑÐ¼
Ð¸ Ð´ÐµÑÑÑÑÐºÑÐ¾Ñ
Ð 
Ð¼ Ð°Ðº
Ð ¡
Ð¾Ð² ÐºÐ¸
ÑÐµÐ°Ð»Ð¸Ð· Ð°ÑÐ¸Ð¸
Ð¸Ñ ÐµÐ»Ñ
ÑÑÐ°Ð½ Ñ
y pe
Ð»Ñ Ð¼
Ð»ÑÐ¼ Ð±
Ð¿Ð¾Ð»ÑÐ· Ð¾Ð²
ÑÑ Ð²
ÑÐ¸ÑÑ ÐµÐ¼
, Ð¸
) Ñ
Ðµ Ñ
Ð¾Ð±Ñ ÑÐ²Ð»ÑÐµÑ
ÑÐ³Ð¾Ð»Ñ Ð½
Ð° Ñ
Ð¿ÐµÑ ÐµÐ¼
ÑÐ°Ð¹Ð» Ð°
Ð¸Ð½ Ð¸Ñ
i g
d e
ÐºÐ² Ð°Ð´Ñ
Ð°Ð»Ð³Ð¾ÑÐ¸ÑÐ¼ Ð
Ð´Ð»Ñ Ð¿Ð¾Ð¸ÑÐºÐ°
Ð½Ð°ÑÐ» ÐµÐ´Ð¾Ð²Ð°Ð½Ð¸ÐµÐ¼
ÐºÐ»Ð°ÑÑ S
Ñ Ñ
Ð°ÑÑ ÑÑ
ÐºÐ¾Ð½ ÑÑÐ°Ð½Ñ
Ñ Ñ
Ð± Ð°Ð·
Ð¿ÑÐ¾Ð¸Ð· Ð²Ð¾Ð´
un t
R A
t ype
RA II
ÑÑÐ¼ Ð¼Ñ
ÑÐ» Ð¾Ð¶
Ð¸Ñ ÐºÐ»ÑÑ
Ð°Ð½ Ð¸Ñ
) ,
Ð´Ð»Ñ ÑÐ¿ÑÐ°Ð²Ð»ÐµÐ½Ð¸Ñ
Ð² ÑÑÑÐ¾ÐºÐµ
Ð¿ÐµÑÐµÐ¼ ÐµÑ
Ð´Ð»Ñ ÑÐµÐ°Ð»Ð¸Ð·Ð°ÑÐ¸Ð¸
Ñ Ð¾Ð¼
Ð´ Ð»Ð¸Ð½
Ð½Ð¾ÑÑ Ñ
Ð¼Ð°Ðº ÑÐ¸Ð¼
Ð¼Ð°ÐºÑÐ¸Ð¼ Ð°Ð»Ñ
ÑÐ¾ÑÐ¼ÑÐ» Ðµ
Ñ Ð¿Ð¾Ð´
ÑÐ°Ð· Ð¼ÐµÑ
Ð°Ñ Ð¸ÐµÐ¹
Ð¿Ð¾Ð» ÑÑ
ÑÐ»ÐµÐ¼ÐµÐ½Ñ Ñ
Ð¼ Ð¾Ð¶
v e
Ð¾Ð±ÑÐ°Ð±Ð¾Ñ ÐºÐ¸
Ñ ÐµÑ
u l
ÑÑÐ¼ Ð¼
Ð¸ÑÐ¿Ð¾Ð»ÑÐ· ÑÑ
ÑÐºÐ°Ð· Ð°ÑÐµÐ»
Ð¿Ð¾ ÑÐ¼
ÑÐ¼ Ð¾Ð»
Ð¿Ð¾ ÑÐ¼Ð¾Ð»
ÑÐ¼Ð¾Ð» Ñ
Ð¿Ð¾ ÑÐ¼Ð¾Ð»Ñ
ÑÐ¼Ð¾Ð»Ñ Ð°Ð½Ð¸Ñ
Ð¿Ð¾ ÑÐ¼Ð¾Ð»ÑÐ°Ð½Ð¸Ñ
Ñ Ð»
Ð¿Ñ Ð¸Ð½
Ð¸Ðº Ñ
s h
Ð²ÑÑ Ð°Ð¶
ÑÐ¾ÑÑÐ¸Ñ Ð¾Ð²ÐºÐ¸
Ð¿ÑÐ¸Ð½ Ð¸Ð¼
Ð½ÑÐ¹ ÐºÐ»Ð°ÑÑ
ÑÑ Ð¸Ñ
ÑÐ¾Ð·Ð´Ð°Ð½ Ð¸Ñ
Ð¸Ð¼ Ð°Ð»Ñ
Ð´Ð»Ñ Ñ
Ð¿ÐµÑ ÐµÑÐ¸ÑÐ»
un ion
ÐºÐ»Ð°ÑÑ B
Ð´ÐµÑÑÑÑÐºÑÐ¾Ñ Ð¾Ð¼
ÑÑ ÐµÐ´Ð½
ÑÑÐ¸Ñ ÑÐ²Ð°ÐµÑ
Ð¿ÑÐ¾Ð³ÑÐ°Ð¼Ð¼Ñ Ð³Ð´Ðµ
o o
Ð¾Ð¿ÐµÑ Ð°ÑÐ¸Ð¸
b le
Ð·Ð°Ð¿ Ð¸Ñ
Ñ Ð¸ÐºÑ
Ð° Ð²
Ð¾Ð¿ÐµÑ Ð°Ñ
Ð¼Ð¸Ð½ Ð¸Ð¼Ð°Ð»Ñ
Ð¿Ð¾ ÑÐ¾ÑÐ¼ÑÐ»Ðµ
Ð¿Ð» Ð¾Ñ
Ð¿ Ð°Ñ
Ð¿ÑÐ¾Ð²ÐµÑ ÐºÐ¾Ð¹
Ð°Ð² ÑÐ¾Ð¼
Ð¼Ð°ÑÑÐ¸Ð² Ðµ
ÐºÐ»Ð°ÑÑ P
Ð°Ñ Ð¸ÑÐµÑ
Ð¾Ð»Ñ Ñ
Ð¿ÑÐ¾Ð³ÑÐ°Ð¼Ð¼Ñ Ð´ÐµÐ¼Ð¾Ð½ÑÑÑÐ¸ÑÑÑÑÑÑ
i d
Ð¸ Ð±ÐµÐ·
u t
Ð¾Ð¿ Ð°Ñ
Ð¿Ð»Ð¾Ñ Ð°Ð´
Ð¸ÑÐµÑ Ð°ÑÐ¾Ñ
RAII -
ÑÐ°Ð· Ð½ÑÑ
Ð°Ñ Ð¸Ñ
Ð¸ </w>
Ð¸Ð½Ð¸Ñ Ð¸Ð°Ð»Ð¸Ð·
e x
Ð¿Ð¾Ð´ Ð´ÐµÑ
Ð¿Ð¾Ð´Ð´ÐµÑ Ð¶
Ð¸Ñ Ð¼Ð¸
ÑÐ» Ð¾Ð²
Ð´Ð² Ð°
Ð 
Ð¼Ð°ÑÑÐ¸Ð²Ð° Ð¸
Ñ union
ÑÐ°Ð· ÑÐ°Ð±Ð¾ÑÐ°Ð¹
Ð»Ð¸ ÑÑÑÐ¾ÐºÐ°
ÑÐµÐ°Ð»Ð¸Ð·ÑÐ¹ ÑÐ¸ÑÑÐµÐ¼Ñ
Ð¿ÑÐ¸Ð²Ð°ÑÐ½ÑÐ¼ Ð¿Ð¾Ð»ÐµÐ¼
RAII- ÐºÐ»Ð°ÑÑ
Ð¼ Ð°
Ð¿Ð¾ÑÐ» ÐµÐ´Ð¾Ð²
Ð¿Ð¾ÑÐ»ÐµÐ´Ð¾Ð² Ð°ÑÐµÐ»Ñ
ÑÐ¼ Ð½Ð¾Ð¶
Ñ Ð¼
Ð¿ÐµÑÐµÑÐ¸ÑÐ» ÐµÐ½Ð¸Ðµ
f or
Ñ Ñ
Ð ¤
Ð¾Ñ Ñ
r o
RAII-ÐºÐ»Ð°ÑÑ Ð´Ð»Ñ
+ +
ÐºÐ¾ÑÐ¾Ñ ÑÐ¹
ÐµÐº Ñ
Ð»Ð¸ ÑÐ¸ÑÐ»Ð¾
a y
ÐºÐ¾Ð¾Ñ Ð´
Ð´Ð¾ÑÑ ÑÐ¿
Ð³Ñ Ð°Ñ
Ð²Ð¾Ð·Ð²ÑÐ°Ñ Ð°ÐµÑ
t er
e m
ÐºÐ¾Ð¿ Ð¸ÑÐ¾Ð²Ð°Ð½Ð¸Ñ
Ð½ Ð¸Ñ
Ð´Ð»Ñ Ð¿ÑÐ¾Ð²ÐµÑÐºÐ¸
c e
Ð¿Ð¾Ð´Ð´ÐµÑÐ¶ ÐºÐ¾Ð¹
ÑÐ· ÐºÐ¾Ð¹
ÑÐ¼Ð¾Ð»ÑÐ°Ð½Ð¸Ñ ,
Ð¿Ð¾ ÑÐ¼Ð¾Ð»ÑÐ°Ð½Ð¸Ñ,
= ,
Ñ </w>
Ñ Ð±ÐµÐ·
Ð¿ÑÐ¸Ð¼ÐµÑ Ñ
Ð´Ñ Ð¾Ð±
ÑÑÑÐ¾ÐºÑ Ð²
Ð¸Ñ Ð¾Ð²Ð°Ð½
Ð°ÑÐ¸Ñ Ð¼ÐµÑ
Ð¿Ð¾ÐºÐ°Ð· ÑÐ²Ð°ÐµÑ
Ð¿Ñ ÑÐ¼
c t
g e
Ð¼Ð°ÑÑÐ¸Ð² Ð¸
Ð½Ð°Ñ Ð¾Ð¶Ð´ÐµÐ½Ð¸Ñ
Ð½Ð°ÑÐ»ÐµÐ´Ð¾Ð²Ð°Ð½Ð¸ÐµÐ¼ Ð¸
Ñ Ð¿ÑÐ¸Ð²Ð°ÑÐ½ÑÐ¼Ð¸
ÑÐ¸Ð¼Ð²Ð¾Ð» Ð¾Ð²
Ñ Ð¸ÑÑ
ÑÐµÐ·ÑÐ»Ñ ÑÐ°Ñ
Ð½ÑÑ ÑÐ¸ÑÐµÐ»
Ð´ÑÑÐ³ Ð¾Ð¹
ÑÐ°Ð· Ð½Ð¸Ñ
Ð¿Ð»Ð¾ÑÐ°Ð´ Ð¸
Ð° Ñ
Ñ Ð¿Ð¾Ð´Ð´ÐµÑÐ¶ÐºÐ¾Ð¹
union Ð´Ð»Ñ
S t
Ð¿Ð¾Ñ ÑÐ´
Ð¿ÑÐ¾Ð²ÐµÑÑÐµÑ, ÑÐ²Ð»ÑÐµÑÑÑ
Ð¾Ð± Ñ
Ð¾ÑÑ Ð¸
Ð°Ð´Ñ ÐµÑ
Ñ Ð°ÑÑ
Ð±ÐµÐ· Ð¾Ð¿Ð°Ñ
ÑÐ³Ð¾Ð»ÑÐ½ Ð¸ÐºÐ°
Â ²
Ð¾Ð±ÑÐµÐº ÑÐ¾Ð²
Ñ ÐµÑ
i l
co unt
m ap
Ð¿Ð¾Ð»Ð¸Ð¼ Ð¾ÑÑ
Ð¸ Ð´ÐµÑÑÑÑÐºÑÐ¾ÑÐ¾Ð¼,
ÐºÐ¾Ð½ÑÑÑÑÐºÑÐ¾Ñ Ð¾Ð¼,
Ñ ÐºÐ¾Ð½ÑÑÑÑÐºÑÐ¾ÑÐ¾Ð¼,
ÐµÑÑÐ² ÐµÐ½
Ð² Ð»
Ð´Ð»Ñ ÑÐ¾Ð·Ð´Ð°Ð½Ð¸Ñ
ÐºÐ¾ÑÐ¾ÑÐ°Ñ Ð¿Ð¾ÐºÐ°Ð·ÑÐ²Ð°ÐµÑ
t h
i que
sh ared
at or
Ð¿ÐµÑÐµÑÐ¸ÑÐ»ÐµÐ½Ð¸Ðµ Ð´Ð»Ñ
ÑÐ¸ÑÐµÐ» Ð±ÐµÐ·
Ñ ÐµÐ³
Ð° (
ÑÑÐ°Ð²Ð½ ÐµÐ½Ð¸Ñ
Ð¾Ð± Ñ
Ð·Ð½Ð°Ñ ÐµÐ½Ð¸Ð¹
Ð¿Ð°Ð¼ÑÑ Ð¸
Ð³ ÐµÐ½
ÑÐµÑÐµÐ· ÑÐºÐ°Ð·Ð°ÑÐµÐ»Ñ
un ique
Ð¸ÑÐ¿Ð¾Ð»ÑÐ·ÑÐµÑ std::
d o
ÑÑÑÐ» ÐºÐ¸
ÑÑ ÑÐ¸ÑÐµÐ»
ÑÐºÐ°Ð·Ð°ÑÐµÐ» ÐµÐ¹
Ð²Ñ Ð¿Ð¾Ð»
Ð²ÑÐ¿Ð¾Ð» Ð½
ÑÐ°Ð·ÑÐ°Ð±Ð¾ÑÐ°Ð¹ Ð¿ÑÐ¾Ð³ÑÐ°Ð¼Ð¼Ñ
Ð¿Ñ Ð¾Ñ
Ð¾Ð±ÑÐ°Ð±Ð¾Ñ ÐºÐ¾Ð¹
Ð´Ð¾ÑÑÑÐ¿ Ð°
Ð¾Ñ ÑÐ¾ÑÑÐ¸ÑÐ¾Ð²Ð°Ð½
Ð¿ÐµÑÐµÐ³Ñ ÑÐ·ÐºÐ¾Ð¹
ÑÑÑÐ» ÐºÑ
ÑÐ¸ÑÐµÐ» </w>
Ð 
ÑÐ¾Ñ ÐºÐ¸
ÐºÐ¾Ð½ Ð²ÐµÑ
Ñ Ñ
, Ð¸ÑÐ¿Ð¾Ð»ÑÐ·ÑÑ
Ð¾ÑÐ½ Ð¸Ñ
Ñ Ð¿ÑÐ¾Ð²ÐµÑÐºÐ¾Ð¹
Ð¿Ð¾Ð´ ÑÑÑÐ¾ÐºÐ¸
Ð²Ñ Ð·
Ð Ð°Ð¿Ð¸ÑÐ¸
Ð¡ Ð¾Ð·Ð´
Ð¡Ð¾Ð·Ð´ Ð°Ð¹
Ð¼Ð°ÐºÑ Ð¾ÑÐ¾Ð¼
Ñ Ð²Ð¸ÑÑÑÐ°Ð»Ñ
Ð» Ð¾Ð³
Ð¿ Ð°Ð»Ð¸Ð½
Ð¿Ð°Ð»Ð¸Ð½ Ð´Ñ
Ð³ Ð»
con st
Ð¿ÑÑÐ¼ Ð¾
Ð³ÐµÐ½ ÐµÑ
Ð¼Ð°ÑÑÐ¸Ð²Ð° Ð¸Ð·
Ð 
Ð´ÐµÑ ÐµÐ²
ÑÑÑÐ» ÐºÐµ
ÑÑÑÐ» Ð¾Ðº
Ñ Ð¿ÐµÑÐµÐ³ÑÑÐ¶ÐµÐ½Ð½ÑÐ¼Ð¸
Ñ ÐºÐ¾Ð½ÑÑÑÑÐºÑÐ¾ÑÐ°Ð¼Ð¸
Ð¸ Ð¿ÑÐ¾Ð¸Ð·Ð²Ð¾Ð´
ÑÐ¸ÑÑÐµÐ¼Ñ ÑÐ¿ÑÐ°Ð²Ð»ÐµÐ½Ð¸Ñ
Ð°ÑÑ ÐµÐ¹
Ð¿ÑÐ¾Ð¸Ð· Ð²
Ð¿ÑÐ¾Ð²ÐµÑÑÐµÑ ÑÐ²Ð»ÑÐµÑÑÑ
Ð¿Ñ Ð¸
ÑÐ°Ð·Ð½Ð¸Ñ Ñ
ÐºÐ²Ð°Ð´Ñ Ð°Ñ
Ð¸Ð» Ñ
Ð²ÑÐµÐ¼ÐµÐ½ Ð¸
P o
i r
ÑÐºÐ°Ð·Ð°ÑÐµÐ»Ñ Ð½Ð°
Ð´Ð¸Ð½Ð°Ð¼Ð¸ÑÐµÑ ÐºÐ¸Ð¹
Ð¿Ð¾ ÑÑÑÐ»ÐºÐµ
m o
Ð²ÐµÐºÑÐ¾ÑÐ° Ñ
Ð¸ÑÐ¿Ð¾Ð»ÑÐ· ÑÐ¹
ÐºÐ»Ð°ÑÑ T
ÑÐ¾Ð·Ð´Ð°Ð¹ ÑÐ¸ÑÑÐµÐ¼Ñ
Ð¿ÐµÑÐµÐ³ÑÑÐ¶ÐµÐ½Ð½ÑÐ¼Ð¸ Ð¾Ð¿ÐµÑÐ°ÑÐ¾ÑÐ°Ð¼Ð¸
Ð´ÑÑÐ³ Ð¾Ð¼,
Ñ Ð¼Ð°ÐºÑÐ¾ÑÐ¾Ð¼
C ++
ÐµÐ½Ð¸Ñ </w>
i f
Ð´Ð²ÑÐ¼ Ñ
Ð¿ÐµÑÐµÐ¼ÐµÐ½Ð½Ð¾Ð¹ ÑÐ¸Ð¿Ð°
< <
Ð¿Ð¾Ð»ÑÑ ÐµÐ½Ð¸Ñ
Ð°ÑÐ¸ÑÐ¼ÐµÑ Ð¸ÑÐµÑ
ÑÐ² Ð°ÑÑÑÑ
Ð¿ÑÐµÐ¾Ð±ÑÐ°Ð· Ð¾Ð²Ð°Ð½Ð¸Ñ
Ñ Ð¸Ð¸
Ð¾Ñ Ð½Ð¾Ð²
Ñ Ð¸Ð½
Ñ Ð¸
Ð½ ÐµÑ
Ð¸Ð½ ÑÐµÑ
ÑÐ¸ÑÑÐµÐ¼ Ñ
Ð´Ð¸Ð½Ð°Ð¼Ð¸ÑÐµÑÐºÐ¸Ð¹ Ð¼Ð°ÑÑÐ¸Ð²
Ñ ÐµÑ
ÑÐµÑ ÑÑ
Ð¿Ð¾Ð¼Ð¾ÑÑÑ Ð°Ð»Ð³Ð¾ÑÐ¸ÑÐ¼Ð°
Ð»ÑÐ¼Ð± Ð´Ñ
Ð½ Ðµ
Ð½Ð° Ñ
Ð¿ÐµÑ ÐµÐ´
Ñ Ð¿ÑÐ¸ÑÐ²Ð°Ð¸Ð²Ð°Ð½
Ð¿ÑÐ¸ÑÐ²Ð°Ð¸Ð²Ð°Ð½ Ð¸ÐµÐ¼
Ñ Ð¿ÑÐ¸ÑÐ²Ð°Ð¸Ð²Ð°Ð½Ð¸ÐµÐ¼
Ñ Ñ
Ð 
ÑÐµÐ» ÑÑ
Ð¾Ð´ Ð½Ð¾Ð³Ð¾
ÑÐ¿Ñ Ð¾Ñ
ÑÑ Ðµ
Ð¼ Ð½Ð¾Ð¶
Ð° -
ÑÐ¾Ð·Ð´Ð°ÐµÑ Ð´Ð¸Ð½Ð°Ð¼Ð¸ÑÐµÑÐºÐ¸Ð¹
shared _ptr
unique _ptr
c k
Ð¿ÑÐ¸Ð²Ð°ÑÐ½ÑÐ¼Ð¸ Ð¿Ð¾Ð»ÑÐ¼Ð¸
Ð¼Ð°ÐºÑÐ¾ÑÐ¾Ð¼ Ð´Ð»Ñ
Ð½Ð¾Ðµ ÑÐ¸ÑÐ»Ð¾
Ð° Ñ
Ð¿Ñ Ð¾Ð±
Ð¿ÑÐµÐ¾Ð±ÑÐ°Ð· ÑÐµÑ
ÑÐ»Ð¾Ð¶ ÐµÐ½Ð¸Ñ
Ð²ÐµÑ Ñ
ÑÐ°Ð·Ð½Ð¸ÑÑ Ð¼ÐµÐ¶Ð´Ñ
ar d
Ð¸Ð½ ÑÐ¾ÑÐ¼Ð°ÑÐ¸Ð¸
Ñ Ð²
Ð¼Ð°ÑÑÐ¸Ñ Ñ
Ð²ÑÑÐ¸ÑÐ»ÐµÐ½Ð¸Ñ Ð¿Ð»Ð¾ÑÐ°Ð´Ð¸
Ð¾Ñ 1
Ð½ÐµÑ ÐºÐ¾Ð»Ñ
Ð²Ñ Ð±
Ð¾Ð¿ÐµÑÐ°Ñ Ð¸Ð¹
ÐºÐ»Ð°ÑÑ Ð°
Ð²Ð¾Ð· Ñ
ÐºÐ¾Ð¼ Ð¿Ð»
ÐºÐ¾Ð¼Ð¿Ð» ÐµÐºÑ
ÐºÐ¾ÑÐ¾ÑÐ°Ñ Ð¿ÑÐµÐ¾Ð±ÑÐ°Ð·ÑÐµÑ
Ð´Ð»Ñ Ð²ÑÐ²Ð¾Ð´Ð°
Ñ Ñ
or t
ÑÑ ÐµÐ¿
ÑÐ°Ð·Ð¼ÐµÑ Ð°
Ð´ Ð¸Ð°Ð¿
Ð´Ð¸Ð°Ð¿ Ð°Ð·
ÑÑÐ½ÐºÑÐ¸ÐµÐ¹ ,
Ð¸ Ð²ÑÑÐ¸ÑÐ»ÑÐµÑ
Ñ Ð°ÑÑÑ
Ð±Ð¸Ð½Ð°Ñ Ð½Ð¾Ð³Ð¾
ÑÐ´ Ð°Ð»ÑÐµÑ
ÐºÐ¾Ð½ÑÑÑÑÐºÑÐ¾Ñ Ð¾Ð¼
Ð²Ð¸ÑÑÑÐ°Ð»Ñ Ð½Ð¾Ð¹
, Ð±ÐµÐ·
ÑÐ¾Ð·Ð´Ð°Ð¹ Ð¿ÑÐ¸Ð¼ÐµÑ
Ð°Ñ Ð¸Ð²Ð°ÐµÑ
Ð¾Ð±Ñ Ð°Ñ
ÑÐµÐ³ Ð¸ÑÑÑ
_ c
Ð°Ñ Ð¸Ñ
Ð¿Ð¾ÐºÐ°Ð· ÑÐ²Ð°ÑÑÑÑ
1 Ð´Ð¾
Ð´Ð»Ñ Ð½Ð°ÑÐ¾Ð¶Ð´ÐµÐ½Ð¸Ñ
Ñ Ð¾Ð±ÑÐ°Ð±Ð¾ÑÐºÐ¾Ð¹
Ð² Ð¼Ð°ÑÑÐ¸Ð²Ðµ
ÑÐµÐ°Ð»Ð¸Ð·ÑÐ¹ ÑÑÐ½ÐºÑÐ¸Ñ
, -
ÐºÐ¾Ð½ÑÑÑÑÐºÑÐ¾ÑÐ¾Ð¼, Ð¿ÑÐ¸Ð½Ð¸Ð¼Ð°ÑÑÐ¸Ð¼
ÑÐ°Ð±Ð»Ð¾Ð½ Ð½ÑÐ¹
ÑÐ¾ ±
ÑÐ¾± Ñ
ÐºÐ¾ÑÐ¾ÑÐ°Ñ Ð·Ð°Ð¿Ñ
Ð·Ð°Ð¿Ñ Ð°ÑÐ¸Ð²Ð°ÐµÑ
ÐºÐ¾ÑÐ¾ÑÐ°Ñ Ð·Ð°Ð¿ÑÐ°ÑÐ¸Ð²Ð°ÐµÑ
Ð¿Ð¾ÑÑÐ´ ÐºÐµ
ÑÑÑÐ¾ÐºÐ¸ Ð±ÐµÐ·
s e
Ñ ÑÐ°Ð·
Ð¿Ð°Ð»Ð¸Ð½Ð´Ñ Ð¾Ð¼
s i
Ð´ÐµÐ» ÐµÐ½Ð¸Ñ
Ñ Ð±
Ð¾Ð² </w>
Ð¾Ð² Ð±ÐµÐ·
Ñ Ð¸Ð³
1 0
Ñ ÑÑ
ÐºÐ¾Ð¾ÑÐ´ Ð¸Ð½Ð°Ñ
Ð· Ð°Ð´
Ð·Ð°Ð´ Ð°Ñ
b er
Ð² Ð°Ð»Ð¸Ð´
Ð¸ÑÐ¿Ð¾Ð»ÑÐ·ÑÐµÑ ÑÐºÐ°Ð·Ð°ÑÐµÐ»Ñ
ÑÐºÐ°Ð·Ð°ÑÐµÐ»Ñ Ð´Ð»Ñ
( )
ÐºÐ»Ð°ÑÑ D
- ,
( Ð¿Ð¾
Ð½ÑÑ ÑÑÐ½ÐºÑÐ¸Ñ
ÑÑÐ½ÐºÑ Ð¸Ñ
vect or
Ñ Ð¼
Ñ Ð°Ð¼
Ð½Ð¾Ð³Ð¾ ÑÐ¸ÑÐ»Ð°
ÑÐ¾Ð´ÐµÑ Ð¶
ÑÑÐµÐ¿ ÐµÐ½
Ñ Ñ
ÑÑ Ñ
Ð° Ñ
Ð° Ð¿Ð¾
Ñ (
Ñ Ð°ÑÑ
ÑÐ°ÑÑ Ñ
ÑÐ°ÑÑÑ ÑÐ°
Ð¿Ñ Ð°Ð²
um ber
ÐºÐ¾ÑÐ¾ÑÐ°Ñ ÑÐ´Ð°Ð»ÑÐµÑ
I n
ÑÐ´ Ð°Ð»
Ð´Ð¾Ð± Ð°Ð²Ð»ÐµÐ½Ð¸Ñ
ÐºÐ»Ð°ÑÑ M
+ ,
ÐºÐ¾Ð½ÑÑÑÑÐºÑÐ¾ÑÐ°Ð¼Ð¸ (Ð¿Ð¾
(Ð¿Ð¾ ÑÐ¼Ð¾Ð»ÑÐ°Ð½Ð¸Ñ,
Ð½ÑÐ¼ Ð½Ð°ÑÐ»ÐµÐ´Ð¾Ð²Ð°Ð½Ð¸ÐµÐ¼
Ð² ÐºÐ¾ÑÐ¾Ñ
ÐºÐ¾ÑÐ¾Ñ Ð¾Ð¹
Ð² ÐºÐ¾ÑÐ¾ÑÐ¾Ð¹
ÑÐµÑ Ð²ÐµÑ
ÑÐ¸Ð¼Ð²Ð¾Ð» Ð°
Ñ Ð·
Ð²ÑÐ²Ð¾Ð´Ð¸Ñ Ð²ÑÐµ
ÑÑÑÐ¾ÐºÐ¸ </w>
Ð¿Ð¾Ð´ ÑÑÐ¸ÑÑÐ²Ð°ÐµÑ
u ble
Ð´Ð»Ñ Ð¿Ð¾Ð»ÑÑÐµÐ½Ð¸Ñ
ÑÐµÐ»ÑÑ ÑÐ¸ÑÐµÐ»
Ñ Ð°Ð´
Ð´Ð»Ñ ÑÐ°ÑÑÑÑÐ°
Ð°Ð» Ð»
ÐµÐºÑÑ Ñ
N umber
Ð´Ð»Ñ Ð¾Ð±ÑÐ°Ð±Ð¾ÑÐºÐ¸
mo ve
ÑÑ ÐµÐ½Ð¸Ñ
ÐºÐ»Ð°ÑÑ Co
Ð¿ÐµÑ ÐµÐ¾Ð¿ÑÐµÐ´ÐµÐ»
Ñ Ð¿Ð°ÑÑÐµÑÐ½Ð¾Ð¼
Ð ÐµÐ°Ð»Ð¸Ð·
ÐÐµÐ°Ð»Ð¸Ð· ÑÐ¹
ÑÐµÐ°Ð»Ð¸Ð·ÑÐµÑ ÑÐ¸ÑÑÐµÐ¼Ñ
Ð²Ð¸ÑÑÑÐ°Ð»Ñ Ð½ÑÐ¼
Ð¿Ð¾Ð»ÑÐ·Ð¾Ð² Ð°ÑÐµÐ»
Ð´Ð² Ðµ
Ñ Ðµ
) Ð¸
C++ 1
ÑÐ¸Ð³ ÑÑ
Ð° Ð´Ð»Ñ
Ð¿ ÑÑ
q u
Ñ ÐµÐºÑÑÑ
Ð´ÐµÑÐµÐ² Ð°
u r
P ro
ÑÐ¿ Ð¸Ñ
ÑÐ»ÐµÐ¼ÐµÐ½ÑÐ¾Ð² Ð¸
Ð¸Ñ )
Ð¸ Ð½Ð°ÑÐ¾Ð´Ð¸Ñ
Ð¸ ÑÐµÐ°Ð»Ð¸Ð·ÑÐµÑ
u dent
ÑÐ¾ ÑÑÐ°ÑÐ¸ÑÐµÑ
ÐºÐ»Ð°ÑÑ A
Ð½ÑÐ¹ Ð¼ÐµÑÐ¾Ð´
Ð´ÐµÑÑÑÑÐºÑÐ¾ÑÐ¾Ð¼ Ð¸
Ð¾Ð¿ÐµÑÐ°ÑÐ¾ÑÐ°Ð¼Ð¸ +,
ÐºÐ¾ÑÐ¾ÑÐ¾Ð¹ ÐºÐ»Ð°ÑÑ
Ð³Ð´Ðµ ÐºÐ»Ð°ÑÑ
Ð¸ÑÐ¿Ð¾Ð»ÑÐ·Ð¾Ð²Ð°Ð½Ð¸ÐµÐ¼ std::
Ð² ÐºÐ»ÑÑ
Ð¼Ð°ÑÑÐ¸Ð²Ð° </w>
Ð¼Ð°ÑÑÐ¸Ð²Ð° Ð±ÐµÐ·
Ð² Ð²ÐµÐºÑÐ¾Ñ
Ð¿Ð¾Ð»ÑÐ·Ð¾Ð²Ð°ÑÐµÐ» ÐµÐ¼
ÑÐ¸Ð¼Ð²Ð¾Ð» Ñ
ÑÐ½ Ð¸ÐºÐ°Ð»Ñ
o f
_c ast
ÐºÑ Ð°Ñ
Ð¿ÐµÑÐµÐ¼ÐµÐ½ Ð½ÑÑ
Ð¾Ð¿ÑÐµÐ´ÐµÐ»ÑÐµÑ ÑÐ¸Ð¿
Ð½Ð° Ð¾ÑÐ½Ð¾Ð²
Ð¾ÑÐ½Ð¾Ð² Ðµ
Ð½Ð° Ð¾ÑÐ½Ð¾Ð²Ðµ
ÑÑÐ½ÐºÑÐ¸Ñ is
i x
n e
Ð´Ð¾ÑÑÑÐ¿Ð° Ðº
Ð°Ð»Ð³Ð¾ÑÐ¸ÑÐ¼ Ð¿Ð¾Ð¸ÑÐºÐ°
St udent
Ñ ÐºÐ¾Ð½ÑÑÑÑÐºÑÐ¾ÑÐ¾Ð¼
ÑÐ°Ð±Ð»Ð¾Ð½Ð½ÑÐ¹ ÐºÐ»Ð°ÑÑ
Ð¸ÑÐºÐ»ÑÑ ÐµÐ½Ð¸Ð¹
ÑÐµÐ°Ð»Ð¸Ð·ÑÐ¹ Ð¿Ð°ÑÑÐµÑÐ½
Ð²ÑÐ²Ð¾Ð´Ð¸Ñ Ð²Ð²ÐµÐ´ÐµÐ½
Ð¿Ð¾Ð² ÑÐ¾Ñ
Ð² Ð·
Ð¼ÐµÐ¶Ð´Ñ Ð´Ð²ÑÐ¼Ñ
ÑÑÐ¼Ð¼ Ñ
Ð² Ñ
ch ar
ÑÐµÐ» Ð¾ÑÐ¸ÑÐ»
ÑÐµÐ»Ð¾ÑÐ¸ÑÐ» ÐµÐ½
ÑÐ¼Ð½Ð¾Ð¶ ÐµÐ½Ð¸Ñ
do uble
ÐºÐ¾Ð¼ Ð¿
Ð¾Ð± Ñ
Ð¸Ð½ÑÐ¾ÑÐ¼Ð°ÑÐ¸Ð¸ Ð¾
ÑÐ°Ð· Ð»Ð¸Ñ
Ð¾Ð² Ñ
Ð 
ÑÑÐµ ÑÐ³Ð¾Ð»ÑÐ½Ð¸ÐºÐ°
i an
Ð ¦
Ð´Ð¾ N
p l
im e
a k
Ð²ÑÐ· Ð¾Ð²
Ñ Ð½Ð°ÑÐ»ÐµÐ´Ð¾Ð²Ð°Ð½Ð¸ÐµÐ¼
Ð± Ð»
Ñ Ð¿Ð¾Ð»ÑÐ¼Ð¸
Ñ Ð¼ÐµÑÐ¾Ð´Ð°Ð¼Ð¸
A c
+, -,
* ,
ÑÐµÐ°Ð»Ð¸Ð·ÑÐ¹ Ð¿ÑÐ¾ÑÑÐ¾Ð¹
Ð¸ÑÐµÑÐ°ÑÐ¾Ñ Ñ
, Ð²Ð²ÐµÐ´ÐµÐ½
Ð± ÑÐºÐ²
ÑÐ¸ÑÐ»Ð° </w>
ÑÐ¸ÑÐ»Ð° Ð±ÐµÐ·
, Ð³Ð´Ðµ
, ÑÐ²Ð»ÑÐµÑÑÑ
Ð± Ð¾Ð»ÑÑ
Ð¿ÑÐ¾Ð¸Ð·Ð² ÐµÐ´ÐµÐ½Ð¸Ðµ
Ðº Ð½
Ð´Ð»Ñ Ð±ÐµÐ·Ð¾Ð¿Ð°Ñ
Ð²Ð¾Ð· Ð¼Ð¾Ð¶
Ñ Ð¾Ð´Ð°
Ð´Ð»Ñ Ð¾Ð±
it y
r ay
Ñ ÐµÐ¹
ig h
ne w
Ð¿ÑÐ¾Ð³ÑÐ°Ð¼Ð¼Ñ, Ð³Ð´Ðµ
o p
nam e
ÑÐ°Ð¹Ð» Ð¾Ð²
ÑÑÐ°ÑÐ¸ÑÐµÑ ÐºÐ¸Ð¼
Ð¿ÐµÑÐµÐ³ÑÑÐ·ÐºÐ¾Ð¹ Ð¾Ð¿ÐµÑÐ°ÑÐ¾ÑÐ°
Ð¿ÑÐ¾Ð¸Ð·Ð²Ð¾Ð´ Ð½ÑÐ¹
T P
Ð¿ÑÐ¾Ð³ÑÐ°Ð¼Ð¼Ñ ÑÐ¾
Ð² ÑÐ°Ð¹Ð»
Ð¿Ð¾Ð»ÑÐ·Ð¾Ð²Ð°ÑÐµÐ»Ñ Ñ
Ð²ÐµÐºÑÐ¾Ñ Ðµ
ar t
ÑÐ»Ð¾Ð² Ð°
ul t
Ð¿ÑÐ¾Ð± ÐµÐ»
Ð°Ð½ Ð¸Ñ
ÑÐ¾Ñ ÐºÐ¾Ð¹
ÐºÐ¾ÑÐ¾ÑÐ°Ñ Ð¿Ð¾Ð´ÑÑÐ¸ÑÑÐ²Ð°ÐµÑ
ÑÐ¸ÑÐ»Ð° Ð²
Ð·Ð°Ð´Ð°Ð½ Ð½Ð¾Ð¹
Ð² ÑÐ¾Ñ
Ð° Ð¸
Ñ Ð°Ñ
Ð¸Ñ Ñ
ÑÐ°Ð±Ð¾Ñ Ñ
ÐºÐ¾Ð½Ð²ÐµÑ ÑÐ°ÑÐ¸Ð¸
Ð¿Ð¾Ð» Ð¾Ð¶
Ð¿Ð¾Ð»Ð¾Ð¶ Ð¸ÑÐµÐ»Ñ
Ð½Ð°ÑÐ¾Ð´Ð¸Ñ Ð²ÑÐµ
Ð½ ÑÐ»
Ð¾Ð³ÑÐ°Ð½ Ð¸Ñ
a m
C ir
Cir c
igh t
le Ñ
Ð¿ÐµÑÐµÐ´ Ð°Ñ
oo k
ÐºÐ»Ð°ÑÑ L
ÑÐ¼Ð¾Ð»ÑÐ°Ð½Ð¸Ñ, Ñ
Ð¸ Ð¿ÐµÑÐµÐ³ÑÑÐ·ÐºÐ¾Ð¹
Ð¾Ð¼ Ð´Ð»Ñ
Ð¾Ð±ÑÑÐ²Ð»ÑÐµÑ ÑÑÐ½ÐºÑÐ¸Ñ
Ñ Ð´Ð»Ñ
ÐºÐ¾ÑÐ¾ÑÐ°Ñ ÑÑÐ¸ÑÑÐ²Ð°ÐµÑ
Ð¾Ðµ ÑÐ¸ÑÐ»Ð¾
Ð· Ð°Ð¼ÐµÐ½
Ñ </w>
Ñ Ð±ÐµÐ·
Ð¿ÐµÑÐµÐ¼ÐµÐ½ Ð½ÑÑ
Ð²Ñ ÐµÐ¼
Ð²ÑÐµÐ¼ Ñ
Ð¾ÑÑ Ð¸Ñ
ÐºÐ¾ ÑÑÑ
ÐºÐ¾ÑÑÑ Ð¸Ñ
ÐºÐ¾ÑÑÑÐ¸Ñ Ð¸ÐµÐ½
Ð´ÐµÐ¼Ð¾Ð½ÑÑÑÐ¸ÑÑÐµÑ Ð¸ÑÐ¿Ð¾Ð»ÑÐ·Ð¾Ð²Ð°Ð½Ð¸Ðµ
ÑÑÑÑÐºÑÑÑ Ñ
a ge
Ð²ÑÑÐ¸ÑÐ»ÑÐµÑ ÑÑÐ¼Ð¼Ñ
Ð¿ÑÐ¾Ñ ÐµÐ½
Ñ ÐºÐ°Ð»Ñ
ÑÐºÐ°Ð»Ñ Ñ
Ð²ÑÐ± Ð¾Ñ
Ð³ Ð°
x 3
ÐºÐ¾ÑÐ¾ÑÐ°Ñ Ð²Ð¾Ð·Ð²ÑÐ°ÑÐ°ÐµÑ
pr int
w e
ÑÐ¾Ð·Ð´Ð°ÐµÑ Ð¼Ð°ÑÑÐ¸Ð²
ÑÑÐ½ÐºÑÐ¸ÐµÐ¹, ÐºÐ¾ÑÐ¾ÑÐ°Ñ
Ð·Ð°Ð¿Ð¸Ñ ÑÐ²Ð°ÐµÑ
Ð¾Ð±ÑÐµÐº ÑÐ°
Ñ Ñ
v ar
Ð¿ÑÐ¾Ð²ÐµÑÐºÐ¸ ,
ÐºÐ»Ð°ÑÑ R
Ð¿ ÑÐ±Ð»Ð¸Ñ
-, *,
Ð¸ Ð´ÐµÑÑÑÑÐºÑÐ¾ÑÐ¾Ð¼
ÑÐ¸ÑÑÐµÐ¼Ñ Ñ
Ð¾Ð±ÑÐ°Ð±Ð¾ÑÐºÐ¾Ð¹ Ð¸ÑÐºÐ»ÑÑÐµÐ½Ð¸Ð¹
Ð² Ð²ÐµÐºÑÐ¾ÑÐµ
Ñ Ð²Ð¸ÑÑÑÐ°Ð»ÑÐ½ÑÐ¼
ÑÑÑÐ¾ÐºÐµ Ð±ÐµÐ·
Ð²Ð²Ð¾Ð´ Ð¸Ð¼
Ð½Ð¾Ð¼ Ð¿Ð¾ÑÑÐ´ÐºÐµ
Ð´Ð»Ð¸Ð½ Ñ
Ñ Ð¿Ð»
Ð¿Ð» Ð°Ð²
Ñ Ð¿Ð»Ð°Ð²
Ð¿Ð»Ð°Ð² Ð°ÑÑÐµÐ¹
Ñ Ð¿Ð»Ð°Ð²Ð°ÑÑÐµÐ¹
Ð¿Ð»Ð°Ð²Ð°ÑÑÐµÐ¹ ÑÐ¾ÑÐºÐ¾Ð¹
Ñ Ð¸Ñ
ÑÑÑÐ¾ÐºÑ Ñ
Ñ Ð¾Ð´
Ð¿ÑÐ¸ÑÐ²Ð°Ð¸Ð²Ð°Ð½Ð¸ÐµÐ¼ Ð¿ÐµÑÐµÐ¼ÐµÐ½Ð½Ð¾Ð¹
Ð½Ð¾Ðµ Ð·Ð½Ð°ÑÐµÐ½Ð¸Ðµ
C++1 7
Ð¿ÑÐ¾Ð³ÑÐ°Ð¼Ð¼Ñ Ð¿Ð¾ÐºÐ°Ð·ÑÐ²Ð°ÑÑÑÑ
ÐµÐ½ Ð½Ð¾Ð¹
Ñ Ñ
at ion
u ct
Ðµ Ñ
Ð½Ð¾ Ð»Ð¸
Ð´Ð»Ñ Ð°Ð²ÑÐ¾Ð¼Ð°ÑÐ¸ÑÐµÑ
ÐºÐ¾ÑÐ¾ÑÐ°Ñ Ð¿ÐµÑ
Ð³ÑÐ°Ñ Ð°
ÑÐµÐºÑÑÑ Ð¸Ð²
Ð·Ð°Ð¿Ð¾Ð» Ð½
ÑÐºÐ°Ð·Ð°ÑÐµÐ»Ñ </w>
ÑÐºÐ°Ð·Ð°ÑÐµÐ»Ñ Ð±ÐµÐ·
Ñ Ð·
Ð´Ð»Ñ ÑÑÐµÐ½Ð¸Ñ
ÑÑÑ Ð¸Ð¹
B ook
ÐºÐ½ Ð¸Ð³
Ñ Ð¿Ð°ÑÐ°Ð¼ÐµÑÑÐ°Ð¼Ð¸
Ð¿ÑÐ¾Ð¸Ð·Ð²Ð¾Ð´Ð½ÑÐ¹ ÐºÐ»Ð°ÑÑ
Ñ ÐºÐ»Ð°ÑÑÐ¾Ð¼
Ð´Ð»Ñ Ð´Ð¾Ð±Ð°Ð²Ð»ÐµÐ½Ð¸Ñ
ÐÐ°Ð¿Ð¸ÑÐ¸ Ð¿ÑÐ¾Ð³ÑÐ°Ð¼Ð¼Ñ
un or
unor dered
unordered _
ÑÐ¾Ð·Ð´Ð°Ð¹ RAII-ÐºÐ»Ð°ÑÑ
ÑÑÑÐ¾ÐºÐµ </w>
Ð² Ð¾Ð±ÑÐ°Ñ
Ð°Ð½ Ð¸ÐµÐ¼
Ñ Ð¸ÑÑ
Ð 
Ð¾ÑÑÐ¸Ñ Ð°ÑÐµÐ»Ñ
Ð² Ð°Ð»
ÑÐ² ÐµÐ»Ð¸Ñ
Ð»Ð¸ÑÐµÑ Ð°Ð»
z e
Ð¸ÑÐ¿Ð¾Ð»ÑÐ· ÑÑÑÑÑ
Ñ ÑÐ´
Ð¾Ð±Ñ ÐµÐ´
Ð² Ð¸Ð´
Ñ ÐºÐ¾Ð½ÑÑÐ°Ð½Ñ
ÑÑ Ð¾Ð±Ñ
Ð¸Ð½ Ð´ÐµÐºÑ
ÑÐ°Ð±Ð¾ÑÑ Ñ
type id
Ð´Ð»Ñ ÐºÐ¾Ð½Ð²ÐµÑÑÐ°ÑÐ¸Ð¸
ÑÑ Ð°
Ð´Ð²ÑÑ ÑÐ¸ÑÐµÐ»
Ð¼Ð°ÑÑÐ¸Ñ Ñ
ÑÐ¿ÑÐ¾Ñ ÐµÐ½
Ð¾Ð± ÑÐ¾Ð´Ð°
o m
Ð·Ð°Ð¿Ð¾Ð»Ð½ ÑÐµÑ
ÑÐ´Ð°Ð» ÐµÐ½Ð¸Ñ
Ð³Ð´Ðµ ÑÑÐ½ÐºÑÐ¸Ñ
Ð¸ÐµÑ Ð°Ñ
Ð¸ÐµÑÐ°Ñ Ñ
Ð±Ð°Ð· Ð¾Ð²ÑÐ¹
Ð¸Ð· Ð¼
Ð¸ ÑÑÐ½ÐºÑÐ¸ÐµÐ¹
ÑÑÐ½ÐºÑÐ¸ÐµÐ¹ Ð´Ð»Ñ
Ac count
lo ck
que ue
Ð°Ñ ÐµÐ³
Ð¿ÐµÑÐµÐ¾Ð¿ÑÐµÐ´ÐµÐ» ÐµÐ½Ð¸ÐµÐ¼
re ad
Ð¡Ð¾Ð·Ð´Ð°Ð¹ Ð¿ÑÐ¾Ð³ÑÐ°Ð¼Ð¼Ñ
Ñ Ð¿ÐµÑÐµÐ¼ÐµÑ
ÐµÑ ÑÑÐ²
ÑÐµÐ» Ð¾Ðµ
ÑÐ¾ÑÐ¼Ð°Ñ Ðµ
Ð¾Ð¼ </w>
Ð°Ð¹ Ñ
Ð¿ÑÐ¸ÑÐ²Ð°Ð¸Ð²Ð°ÐµÑ ÑÑ
Ð¿ÑÐ¸ÑÐ²Ð°Ð¸Ð²Ð°Ð½ Ð¸Ðµ
Ð¸ÑÐµÑ ÐºÐ¾Ð¹
Ð·Ð°Ð¿Ð¸Ñ Ð¸
Ð´Ð°Ð½Ð½ÑÑ Ñ
Ð±ÐµÐ·Ð¾Ð¿Ð°Ñ Ð½Ð¾Ð³Ð¾
ÑÐ°Ð· Ð½ÑÐ¼Ð¸
for w
forw ard
Ñ Ð¸ÑÑÐµÑ
Ñ Ñ
Ð¸Ð½ Ñ
2 x
2x 2
Ð²ÑÑÐ¸ÑÐ»ÐµÐ½Ð¸Ñ Ð¾Ð±Ñ
ÐµÐ½ Ð¸Ñ
Ð²ÐµÐºÑÐ¾Ñ Ð¾Ð²
ÑÐ°ÑÑÑ Ð¾ÑÐ½Ð¸Ñ
Ð°Ð» Ð°Ð½
Ð³ ÐµÐ¾Ð¼ÐµÑÑ
Ð¼Ð¾Ð¶ Ð½Ð¾
Ð½Ð°ÑÐ¾Ð´Ð¸Ñ Ð¼Ð°ÐºÑÐ¸Ð¼Ð°Ð»Ñ
ÑÐ» ÑÑ
Ð´Ð»Ñ ÑÐ¸ÑÑÐµÐ¼Ñ
3 x3
Ð½Ð°ÑÐ¾Ð´Ð¸Ñ ÐºÐ¾Ð»Ð¸ÑÐµÑÑÐ²Ð¾
s ort
Ðµ Ñ
ÑÑÐ½ÐºÑÐ¸Ñ print
s ÐºÐ¾ÑÐ¾ÑÐ°Ñ
Ð· Ð°Ñ
Ð·Ð°Ñ Ð²
ÐºÐ¾Ð¿ Ð¸ÑÑÐµÑ
C S
Ð¸ÑÐ¿Ð¾Ð»ÑÐ·ÑÐµÑ ÑÐºÐ°Ð·Ð°ÑÐµÐ»Ð¸
Ð²ÑÐ·Ð¾Ð² Ð°
Ñ ÑÑÐ½ÐºÑÐ¸ÐµÐ¹,
O b
Circ le
y e
ÑÐ¿ÑÐ°Ð²Ð»ÐµÐ½Ð¸Ñ ÑÐµÑÑÑ
ÐºÐ»Ð°ÑÑ Po
ÐºÐ»Ð°ÑÑ Student
*, /
Ð´ÐµÑÑÑÑÐºÑÐ¾ÑÐ¾Ð¼ </w>
ÐºÐ»Ð°ÑÑ F
Ð¿ÐµÑÐµÐ¼ÐµÑ ÐµÐ½Ð¸Ñ
Ð½ÑÐ¼Ð¸ ÐºÐ»Ð°ÑÑÐ°Ð¼Ð¸
Ð´ÑÑÐ³Ð¾Ð¼, ÐºÐ¾ÑÐ¾ÑÐ°Ñ
Ð¸ÑÐ¿Ð¾Ð»ÑÐ·ÑÑ Ð¸ÑÐµÑÐ°ÑÐ¾ÑÑ
e l
Ð Ñ
Ð¾Ð´ Ð½
ÑÐµÐ»Ð¾Ðµ ÑÐ¸ÑÐ»Ð¾
Ð½ Ñ
Ð²Ð²ÐµÐ´ÐµÐ½ Ð½ÑÑ
Ð¾Ð±ÑÐ°Ñ Ð½Ð¾Ð¼
Ð² Ð¾Ð±ÑÐ°ÑÐ½Ð¾Ð¼
Ð¾Ð±ÑÐ°ÑÐ½Ð¾Ð¼ Ð¿Ð¾ÑÑÐ´ÐºÐµ
Ñ Ð¾Ð»Ñ
ÑÐ¾Ð»Ñ ÐºÐ¾
Ñ Ð´Ð²
Ð¿Ð¾Ð´ÑÑÐ¸ÑÑÐ²Ð°ÐµÑ ÐºÐ¾Ð»Ð¸ÑÐµÑÑÐ²Ð¾
Ð¿Ñ Ðµ
Ð°Ð´ÑÐµÑ Ð°
Ð² Ð½
Ñ Ð¸ÐºÐ»
Ñ Ð°
ic _cast
ÐºÐ¾Ð¼Ð¿ Ð¸Ð»Ñ
ÐºÐ¾Ð½ÑÑÐ°Ð½Ñ Ð½ÑÐ¼Ð¸
( a
Ñ ÑÐ°Ð·Ð½ÑÐ¼Ð¸
a ble
Ð²ÑÑÐ°Ð¶ ÐµÐ½Ð¸Ð¹
Ñ Ð½
ÑÑ ÑÑ
Ï 
Ð¼Ð¾Ð¶Ð½Ð¾ Ð»Ð¸
Ð°Ðº ÑÐ¾Ñ
Ð¿Ð¾Ð²ÑÐ¾Ñ ÑÑÑ
ÐºÐ¾Ð»Ð¸ÑÐµÑÑÐ² Ð°
Ð´ Ð°-
ÑÑÐ½ÐºÑÐ¸Ñ get
A r
t o
ÑÐ»ÐµÐ¼ÐµÐ½Ñ Ð²
Ð¼Ð¸Ð½Ð¸Ð¼Ð°Ð»Ñ Ð½Ð¾Ð³Ð¾
ÑÐ¾Ð·Ð´Ð°ÐµÑ ÑÐºÐ°Ð·Ð°ÑÐµÐ»Ñ
Ð´Ð»Ñ Ð´Ð¾ÑÑÑÐ¿Ð°
Ð½ÑÐ¹ ÑÐºÐ°Ð·Ð°ÑÐµÐ»Ñ
ÑÐ¿Ð¸Ñ ÐºÐ°
ÑÐºÐ°Ð·Ð°ÑÐµÐ»Ð¸ Ð´Ð»Ñ
Ð´Ð»Ñ Ð¸Ð·Ð¼ÐµÐ½ÐµÐ½Ð¸Ñ
Ð¿Ð¾Ð´ ÑÑÐµÑÐ°
Ñ Ð»ÑÐ¼Ð±
( ÑÐ¿ÑÐ¾ÑÐµÐ½
Ð¸ Ð¼ÐµÑÐ¾Ð´Ð¾Ð¼
ÑÑ ÑÐ´ÐµÐ½
ÑÐ¾ÑÑ Ð¾ÑÐ½Ð¸Ñ
Ð²ÐµÐºÑÐ¾ÑÐ° Ð²
Ð· Ð°ÐºÑ
Ð´ÐµÑÑÑÑÐºÑÐ¾ÑÐ¾Ð¼, Ð±ÐµÐ·
<< Ð´Ð»Ñ
ÑÐ¾Ð·Ð´Ð°Ð¹ Ð¿ÑÐ¾ÑÑÐ¾Ð¹
ÑÐ¸ÑÐ»Ð¾ </w>
ÑÐ¸ÑÐ»Ð¾ Ð±ÐµÐ·
Ð¾Ð¼ Ð±ÐµÐ·
Ð¿ÑÐ¾Ð³ÑÐ°Ð¼ Ð¼Ð°
f un
Ð¸Ð¼ÐµÐ½ Ð¸
ÑÑ Ñ
ÑÑÑÐ¾ÐºÑ ,
Ð¿ÐµÑ Ð²ÑÐ¹
Ð²Ñ Ð¾Ð¶Ð´ÐµÐ½Ð¸Ñ
Ð¿Ð¾Ð· Ð¸Ñ
Ð³Ð´Ðµ Ð¿ÐµÑÐµÐ¼ÐµÐ½Ð½Ð¾Ð¹
si ze
Ð°Ð² ÐµÐ½
Ð¸ÑÐµÑ ÐºÐ¾Ð³Ð¾
Ð 
ÑÐ°Ð·Ð½ÑÑ ÑÐ¸Ð¿Ð¾Ð²
o d
Ð´Ð»Ñ Ð±ÐµÐ·Ð¾Ð¿Ð°ÑÐ½Ð¾Ð³Ð¾
Ñ ÐºÐ¾Ð½ÑÑÐ°Ð½ÑÐ½ÑÐ¼Ð¸
Ð·Ð°Ð´Ð°Ð½ Ð½Ð¾Ð³Ð¾
ÐµÐº Ñ
ÑÐµÑ Ð°ÐµÑ
Ñ Ð´
Ð¿Ð¾ÑÐ»ÐµÐ´Ð¾Ð²Ð°ÑÐµÐ»Ñ Ð½Ð¾ÑÑÐ¸
Ð´Ð»Ñ Ð°Ð²ÑÐ¾Ð¼Ð°ÑÐ¸ÑÐµÑÐºÐ¾Ð³Ð¾
Ð½ÑÐ¼Ð¸ ÑÐ¸ÑÐ»Ð°Ð¼Ð¸
Ñ Ð¾Ð³ÑÐ°Ð½Ð¸Ñ
Ð¿Ð¾Ð¸ÑÐºÐ° Ð¿Ð¾Ð´ÑÑÑÐ¾ÐºÐ¸
C R
a il
g le
Ð½ÑÐ¹ ÑÐ»ÐµÐ¼ÐµÐ½Ñ
im al
Ð¸Ð· ÑÑÑÐ¾ÐºÐ¸
Po int
Ð¾ÑÐ²Ð¾Ð± Ð¾Ð¶
ÑÑÑÐ» ÐºÐ°
Ð±Ð°Ð·Ð¾Ð²ÑÐ¹ ÐºÐ»Ð°ÑÑ
ian t
an s
ÑÑÐ°Ð½ÐµÐ½Ð¸Ñ Ð¸Ð½ÑÐ¾ÑÐ¼Ð°ÑÐ¸Ð¸
ÑÐ°Ð¹Ð» Ðµ
Ð¸Ð½ÑÐµÑ Ñ
Ð¸Ð½ÑÐµÑÑ ÐµÐ¹
Ð¿ ÑÐ»
ÐºÐ¾Ð½ÑÑÑÑÐºÑÐ¾ÑÐ¾Ð¼ Ð¿Ð¾
Ð²Ð¸ÑÑÑÐ°Ð»Ñ Ð½ÑÐ¹
Ð¸ Ð¿ÑÐ¾Ð¸Ð·Ð²Ð¾Ð´Ð½ÑÐ¼Ð¸
= Ð´Ð»Ñ
/ ,
*, /,
Ð¿ÑÐ¾Ð³ÑÐ°Ð¼Ð¼Ñ Ð²
Ð¡Ð¾Ð·Ð´Ð°Ð¹ Ð¿ÑÐ¾Ð³ÑÐ°Ð¼Ð¼Ñ,
Ð² Ð±Ð¸Ð½Ð°Ñ
ÑÐµÐ°Ð»Ð¸Ð·ÑÐ¹ Ð»ÑÐ¼Ð±Ð´Ñ
Ð¸ Ð¼ÐµÑÐ¾Ð´
ÑÑÐ½ÐºÑ Ð¸Ð¹
Ð²Ð¸ÑÑÑÐ°Ð»ÑÐ½Ð¾Ð¹ ÑÑÐ½ÐºÑÐ¸Ð¸
Ð¿ÑÐ¾Ð³ÑÐ°Ð¼Ð¼Ð° ÐºÐ¾ÑÐ¾ÑÐ°Ñ
ÑÐ¸ÑÐ»Ð° Ñ
ÑÐ¸ÑÐµÐ» Ñ
Ð¿Ð°Ð»Ð¸Ð½Ð´ÑÐ¾Ð¼ Ð¾Ð¼
Ð² Ð°Ñ
u b
Ñ ÑÑ
oo l
Ð¼Ð°ÐºÑÐ¸Ð¼Ð°Ð»Ñ Ð½Ð¾Ð³Ð¾
ÐµÑ ÐµÐ½Ð¸Ñ
Ð¿ÑÐ¸Ð¾Ñ Ð¸Ñ
ÑÑÐ°Ð²Ð½ Ð¸Ð²Ð°ÐµÑ
o l
type _
en um
as s
y nam
Ð¾Ð±Ñ Ñ
Ð·Ð½Ð°Ñ ÐµÐ½Ð¸Ñ
ÑÐ¼Ð½Ð¾Ð¶ Ð°ÐµÑ
y )
ÑÑ ÑÑ
ÐµÐ½ Ð½ÑÐ¼
Ð´ÑÐ¾Ð± Ð¸
ÐºÐ¾ÑÐ¾ÑÐ°Ñ ÑÐµÑÐ°ÐµÑ
Ð¸ÑÐµÑ ÐºÐ¸Ñ
Ð¿Ð¾Ð´ ÑÑÐµÑÐ¾Ð¼
Ð¼Ð½Ð¾Ð¶ ÐµÑÑÐ²
Ð½ÑÐµ ÑÐ¸ÑÐ»Ð°
ÐºÐ¾ÑÐ¾ÑÐ°Ñ Ð³ÐµÐ½ÐµÑ
Ð³ÐµÐ½ÐµÑ Ð¸ÑÑÐµÑ
ÐºÐ¾ÑÐ¾ÑÐ°Ñ Ð³ÐµÐ½ÐµÑÐ¸ÑÑÐµÑ
C h
T r
find M
ÑÑÐ½ÐºÑÐ¸Ñ findM
Ð¼Ð°ÑÑÐ¸Ð²Ðµ </w>
Ð¼Ð°ÑÑÐ¸Ð²Ðµ Ð±ÐµÐ·
Ð¿ÑÐµÐ¾Ð±ÑÐ°Ð·ÑÐµÑ ÑÑÑÐ¾ÐºÑ
ÐºÐ¾Ð½ ÑÐµÐ¹
Ð°Ðº Ñ
Ð°Ð»Ð³Ð¾ÑÐ¸ÑÐ¼ ÑÐ¾ÑÑÐ¸ÑÐ¾Ð²ÐºÐ¸
fun ct
funct ion
var iant
[ ]
Ð¿ÑÐ¾Ð²ÐµÑÑÐµÑ, Ð¼Ð¾Ð¶Ð½Ð¾
Ð´Ð¾Ð± Ð°Ð²
S O
Ð¿ÑÐµÐ´ÑÑÐ°Ð²Ð»ÐµÐ½Ð¸Ñ Ð²ÐµÐºÑÐ¾ÑÐ°
M atr
Ð¼ÐµÑÐ¾Ð´Ð¾Ð¼ Ð´Ð»Ñ
ÑÐµÑ Ð¸Ð°Ð»Ð¸Ð·
ÑÐ¾Ð·Ð´Ð°Ð¹ Ð¿ÐµÑÐµÑÐ¸ÑÐ»ÐµÐ½Ð¸Ðµ
Ð°Ð± Ñ
, Ð¿ÑÐµÐ´ÑÑÐ°Ð²Ð»ÑÑÑ
, ÐºÐ¾Ð¿Ð¸ÑÐ¾Ð²Ð°Ð½Ð¸Ñ),
ÑÐµÐ°Ð»Ð¸Ð·ÑÐ¹ Ð¿ÑÐ¸Ð¼ÐµÑ
Ð²Ð¸ÑÑÑÐ°Ð»ÑÐ½ÑÐ¹ Ð¼ÐµÑÐ¾Ð´
Ð¿ÑÐ¾Ð¸Ð·Ð²Ð¾Ð´Ð½ÑÐ¼Ð¸ ÐºÐ»Ð°ÑÑÐ°Ð¼Ð¸
ÐÐ°Ð¿Ð¸ÑÐ¸ Ð¿ÑÐ¾Ð³ÑÐ°Ð¼Ð¼Ñ,
Ð¸ÑÐµÑÐ°ÑÐ¾ÑÑ Ð¸
ÑÐ°Ð±Ð»Ð¾Ð½ Ð½ÑÑ
ÑÐ°Ð±Ð»Ð¾Ð½Ð½ÑÑ ÑÑÐ½ÐºÑÐ¸Ñ
Ð»ÑÐ¼Ð± Ð´Ð¾Ð¹
Ð±ÐµÐ· Ð¸ÑÐ¿Ð¾Ð»ÑÐ·Ð¾Ð²Ð°Ð½Ð¸Ñ
Ð¾Ð´Ð½ Ñ
Ð¸Ð· Ð´Ð²ÑÑ
Ð» Ð¾Ð¶
Ð²ÑÑ Ð°Ð²Ð½
Ð²ÑÑÐ°Ð²Ð½ Ð¸Ð²
Ñ Ð¸ÑÐ°ÐµÑ
Ñ ÐµÑÑ
_ t
Ð¿ÐµÑÐµÐ¼ÐµÐ½Ð½Ð¾Ð¹ Ð¿ÑÐ¸ÑÐ²Ð°Ð¸Ð²Ð°ÐµÑÑÑ
ÐµÐ½ Ð¸Ð¸
Ð½Ð°Ð¸Ð¼ÐµÐ½ ÑÑ
ÐºÐ¾ÑÐ¾ÑÐ°Ñ ÑÑÐ°Ð²Ð½Ð¸Ð²Ð°ÐµÑ
const ex
constex pr
d ynam
dynam ic_cast
a x
ÑÐ¸ÑÐ»Ð° Ð¾Ñ
Ð¤ Ð¸Ð±
Ð¤Ð¸Ð± Ð¾Ð½Ð°Ñ
Ð¤Ð¸Ð±Ð¾Ð½Ð°Ñ Ñ
Ð¤Ð¸Ð±Ð¾Ð½Ð°ÑÑ Ð¸
Ð´Ð¸Ð°Ð¿Ð°Ð· Ð¾Ð½Ðµ
Ñ Ð°Ð²ÐµÐ½
ÑÑ Ð¸
Ñ ÑÑÐµÑÐ¾Ð¼
Ñ Ð°ÐºÑÐ¾Ñ
ÑÐ°ÐºÑÐ¾Ñ Ð¸Ð°Ð»
Ð½Ð°ÑÐ¾Ð´Ð¸Ñ Ð¼Ð¸Ð½Ð¸Ð¼Ð°Ð»Ñ
ÑÐ»ÑÑ Ð°Ð¹
Ð½Ð¾Ð¼ Ð¼Ð°ÑÑÐ¸Ð²Ðµ
ÑÐ°Ð· Ð±
Ñ Ð¶
i ve
ÐºÐ¾ÑÐ¾ÑÑÐ¹ Ð²ÑÐ²Ð¾Ð´Ð¸Ñ
D o
at ter
Ar ray
Ñ Ð¿ÐµÑÐµÐ³ÑÑÐ·ÐºÐ¾Ð¹
h e
Ñ ÐµÑ
2 D
ÐºÐ¾ÑÐ¾ÑÐ°Ñ ÐºÐ¾Ð¿Ð¸ÑÑÐµÑ
Ð¾Ð´ Ð¸Ð½
ÑÐµÑÑÑ ÑÐ¾Ð¼
Ð² ÑÐ°Ð·Ð½ÑÑ
Ð¿ÑÐ¾Ð³ÑÐ°Ð¼Ð¼Ñ, Ð´ÐµÐ¼Ð¾Ð½ÑÑÑÐ¸ÑÑÑÑÑÑ
Ð¼ Ð¾Ð³
Ñ ÐµÐ¼Ð°Ð½
ÑÐµÐ¼Ð°Ð½ Ñ
( Ð¸Ð¼Ð¸ÑÐ°Ñ
tr ans
Ð¿ÑÐµÐ´ÑÑÐ°Ð²Ð»ÐµÐ½Ð¸Ñ ÑÐ¾ÑÐºÐ¸
ÑÑÐµÑ Ñ
Ð¸ Ð²ÑÐ²Ð¾Ð´Ð°
ÐºÐ»Ð°ÑÑ Circle
Ñ Ð¾Ð½
Ð¿ÑÐµÐ´ÑÑÐ°Ð²Ð»ÑÑÑ Ð¸Ð¹
, Ð¿ÑÐµÐ´ÑÑÐ°Ð²Ð»ÑÑÑÐ¸Ð¹
CR TP
Ð¿ÑÐ¾ÑÑ ÑÑ
Ð´Ð¾Ð±Ð°Ð² Ñ
th read
Ð´Ð»Ñ ÑÑÐ°Ð²Ð½ÐµÐ½Ð¸Ñ
, >
ÐÐµÐ°Ð»Ð¸Ð·ÑÐ¹ Ð¿ÑÐ¾Ð³ÑÐ°Ð¼Ð¼Ñ
Ð¿ÐµÑÐµÐ¼ÐµÑ ÐµÐ½Ð¸ÐµÐ¼
Ñ Ð¿ÐµÑÐµÐ¼ÐµÑÐµÐ½Ð¸ÐµÐ¼
ÑÐ¾Ð·Ð´Ð°Ð¹ Ð»ÑÐ¼Ð±Ð´Ñ
Ñ Ð»ÑÐ¼Ð±Ð´Ð¾Ð¹
ÑÐ¾Ð·Ð´Ð°Ð¹ Ð¿Ð°ÑÑÐµÑÐ½
ÑÑÐ½ÐºÑÐ¸Ð¸ ,
Ð¼ÐµÑÐ¾Ð´ Ñ
Ð¸Ð¼ ÐµÐµÑ
ÐºÐ»Ð°ÑÑ Ðµ
Ñ ÐºÐ¾Ð±
Ð²ÑÐ²Ð¾Ð´Ð¸Ñ Ð²Ð²ÐµÐ´ÐµÐ½Ð½ÑÑ
Ñ ÐºÐ»
Ð°Ð½ Ð¸Ðµ
Ñ Ð²
Ð¿ÐµÑÐµÐ¼ÐµÐ½Ð½Ð¾Ð¹ </w>
Ð¿ÐµÑÐµÐ¼ÐµÐ½Ð½Ð¾Ð¹ Ð±ÐµÐ·
Ð¿ÐµÑ Ð²Ð¾Ð³Ð¾
Ð²ÑÐ²Ð¾Ð´Ð¸Ñ ÑÐµÐ·ÑÐ»ÑÑÐ°Ñ
Ð² ÐµÑ
Ð± ÑÑ
Ð±ÑÑ ÐµÑ
ÑÐ°Ð±Ð»Ð¸Ñ Ñ
ÐºÐ° )
sig ned
Ð²ÑÑÐ°Ð¶ ÐµÐ½Ð¸Ñ
b ool
Ð¸Ð¼ Ð¾ÑÑÐ¸
str ing
Ð» Ð¾ÐºÐ°Ð»Ñ
ÑÑÐ½ÐºÑÐ¸Ð¸ </w>
ÑÑÐ½ÐºÑÐ¸Ð¸ Ð±ÐµÐ·
g r
m ut
Ð´Ð°Ð½Ð½ÑÑ Ð²
an d
Ð²ÑÑÐ¸ÑÐ»ÑÐµÑ ÐµÐ³Ð¾
Ð²ÑÑÐ¸ÑÐ»ÑÐµÑ ÑÑÐµÐ´Ð½ÐµÐµ
Ñ ÐµÐ»
( B
) Ð¿Ð¾
Ð¿Ð¾Ð²ÐµÑ Ñ
Ð¿Ð¾Ð²ÐµÑÑ Ð½Ð¾ÑÑÐ¸
â 
Ð¿ÑÐ°Ð² Ð¸Ð»Ñ
10 0
Ð¾ÑÐ½ Ð¸Ðµ
Ð²ÑÐ¾Ñ Ð¾Ð¹
Ð 
Ð¿ÑÐ¾ÑÑ Ð¾Ð³Ð¾
Ð½ÐµÑÐºÐ¾Ð»Ñ ÐºÐ¾
Ð²ÑÐµ ÑÐ¸ÑÐ»Ð°
Ð¿ ÑÑÐ¸
Ð± Ð°Ð»Ð°Ð½
ÑÐ»ÐµÐ¼ÐµÐ½ÑÐ¾Ð² Ð¼Ð°ÑÑÐ¸Ð²Ð°
Ð¿ÑÑ Ð¸
ÐºÐ¾Ð½ÑÐµÐ¹ Ð½ÐµÑ
A n
I P
ÑÐ² ÑÐ·
Ð½Ð¾Ð³Ð¾ Ð¼Ð°ÑÑÐ¸Ð²Ð°
ÑÐ»ÐµÐ¼ÐµÐ½ÑÐ° Ð²
Ð· Ð°Ñ
Ð¸ÐµÑÐ°ÑÑ Ð¸Ð¸
map Ð¸
l ist
Ð¸ std::
Ð¾ÑÐµÑ ÐµÐ´
y Ð¸
CS V
ÑÑÑÐ¾Ðº Ñ
Ð´ÑÑÐ³Ð¾Ð¹ ÑÑÑÐ¾ÐºÐ¸
Ð´Ð»Ñ Ð¿ÑÐµÐ¾Ð±ÑÐ°Ð·Ð¾Ð²Ð°Ð½Ð¸Ñ
c al
Ð¿ÑÐ¾Ð²ÐµÑÐºÐ¸, ÑÐ²Ð»ÑÐµÑÑÑ
Ð¼ÐµÑÐ¾Ð´ Ð´Ð»Ñ
Ð¼ÐµÑÐ¾Ð´Ð¾Ð¼ Ð¿ÑÐ¾Ð²ÐµÑÐºÐ¸,
F r
ÑÑ Ð¸Ñ
B an
Ban k
Ð¾Ñ ÐºÑ
j ect
ÐºÐ¾Ð¿Ð¸ÑÐ¾Ð²Ð°Ð½Ð¸Ñ), Ð´ÐµÑÑÑÑÐºÑÐ¾ÑÐ¾Ð¼
> Ð´Ð»Ñ
Ð¸ Ð¿ÑÐ¾Ð¸Ð·Ð²Ð¾Ð´Ð½ÑÐ¹
ÑÐ¾Ð·Ð´Ð°Ð¹ ÑÐ°Ð±Ð»Ð¾Ð½Ð½ÑÐ¹
, Ð¿ÐµÑÐµÐ¾Ð¿ÑÐµÐ´ÐµÐ»ÑÑÑ
Ð¿ÐµÑÐµÐ¾Ð¿ÑÐµÐ´ÐµÐ»ÑÑÑ Ð¸Ð¼Ð¸
, Ð¿ÐµÑÐµÐ¾Ð¿ÑÐµÐ´ÐµÐ»ÑÑÑÐ¸Ð¼Ð¸
Ð¿ÐµÑÐµÐ¾Ð¿ÑÐµÐ´ÐµÐ»ÑÑÑÐ¸Ð¼Ð¸ Ð²Ð¸ÑÑÑÐ°Ð»ÑÐ½ÑÐ¹
T C
TC P
, Ð´Ð¾Ð±Ð°Ð²Ñ
= =,
==, !
Ð¾Ð±ÑÑÐ²Ð»ÑÐµÑ Ð¾Ð¿ÐµÑÐ°ÑÐ¾Ñ
Ð¾Ð±ÑÑÐ²Ð»ÑÐµÑ ÐºÐ»Ð°ÑÑ
ÑÐ»ÐµÐ¼ÐµÐ½ÑÐ¾Ð² Ð²ÐµÐºÑÐ¾ÑÐ°
_ if
we ak
ÑÐµÐ°Ð»Ð¸Ð·ÑÐ¹ RAII-ÐºÐ»Ð°ÑÑ
Ð¿Ð°ÑÐ°Ð¼ÐµÑÑÐ°Ð¼Ð¸ ,
std:: vector
Ð¼ ÐµÑÑ
Ð¼ÐµÑÑ Ñ
Ñ Ð¸
ÐºÐ°Ð¶ Ð´
ÑÑÑÐ¾ÐºÐ¸ Ð²
Ð²ÑÐ²Ð¾Ð´Ð¸Ñ ÐµÐ³Ð¾
Ð² ÑÐ¾ÑÐ¼Ð°ÑÐµ
ÐºÐ¾ÑÐ¾ÑÐ°Ñ ÑÐ¸ÑÐ°ÐµÑ
Ð»Ð¸ Ð¾Ð½
Ð¿Ð¾ÑÐ» Ðµ
Ð²ÐµÑ ÐµÑÑÐ²ÐµÐ½
ÐµÐ½ Ð½Ð¾Ð³Ð¾
Ð¿ÑÐ¾Ð³ÑÐ°Ð¼Ð¼Ñ Ð¸ÑÐ¿Ð¾Ð»ÑÐ·ÑÑÑÑÑ
Ð·Ð½Ð°ÑÐµÐ½Ð¸Ñ </w>
Ð¸Ð½ ÐºÑ
Ð¿ÑÐµ ÑÐ¸ÐºÑ
Ð¸Ð· Ð²Ð»
Ð¼ Ð¾Ð´
Ð¼Ð¾Ð´ Ð¸Ñ
ÐºÐ¾Ð¼Ð¿Ð¸Ð»Ñ ÑÐ¸Ð¸
Ð°Ñ ÐµÐ½Ð¸Ñ
Ð²ÐºÐ»ÑÑ Ð°Ñ
Ð¼ Ð½Ð¾Ð³Ð¾Ð¿Ð¾ÑÐ¾Ñ
ÐºÐ¾Ð½Ð²ÐµÑ ÑÐ¸ÑÑÐµÑ
Ð° ,
= (
Ð²ÑÑÐ¸ÑÐ»ÐµÐ½Ð¸Ñ ÑÑÐµÐ´Ð½ÐµÐ³Ð¾
Ñ ÐµÐ¼
ÑÐµÐ¼ Ð¿ÐµÑ
ÑÐµÐ¼Ð¿ÐµÑ Ð°Ñ
â 
Ð¾Ð±ÑÑ Ð¼Ð°
ÑÐ¸ÑÐµÐ» Ð¾Ñ
N -
ÑÑÐµÑÐ³Ð¾Ð»ÑÐ½Ð¸ÐºÐ° Ð¿Ð¾
Ð 
ÐµÐ½Ð¸Ñ Ð¸
Ð²ÑÑÐ¸ÑÐ»ÐµÐ½Ð¸Ñ ÑÐ°ÑÑÑÐ¾ÑÐ½Ð¸Ñ
Ñ Ñ
Ð°Ñ Ñ
Ð´ Ð°ÑÑ
Ñ Ð¸Ð»Ñ
Ð± Ð°Ð½
Ð½Ð°ÑÐ¾Ð´Ð¸Ñ ÑÑÐ¼Ð¼Ñ
Ð¾ÑÑÐ¾ÑÑÐ¸ÑÐ¾Ð²Ð°Ð½ Ð½Ð¾Ð¼
Ð´Ñ ÑÐ¶
Ð°Ð»Ð³Ð¾ÑÐ¸ÑÐ¼ Ð
F S
Ð´Ð»Ñ Ð¾Ð±ÑÐ¾Ð´Ð°
Ð¾ Ñ
ÐºÐ¾ÑÐ¾ÑÑÐ¹ Ð²Ð¾Ð·Ð²ÑÐ°ÑÐ°ÐµÑ
O f
an ce
ÐºÐ¾ÑÐ¾ÑÐ°Ñ Ð·Ð°Ð¼ÐµÐ½ÑÐµÑ
ÑÐ¸ÐºÑ Ð¸ÑÐ¾Ð²Ð°Ð½
Ð¾ÑÑÐ¾ÑÑÐ¸ÑÐ¾Ð²Ð°Ð½ Ð½ÑÑ
Ð´Ð²Ðµ ÑÑÑÐ¾ÐºÐ¸
Ð¾ÑÐ²Ð¾Ð±Ð¾Ð¶ Ð´
delet e
ÐºÐ°Ðº ÑÑÑÐ»ÐºÐ°
ÑÐµÑÐµÐ· ÑÑÑÐ»ÐºÑ
Ð½ÐµÑÐºÐ¾Ð»Ñ ÐºÐ¸Ñ
ÑÑÑÐ»ÐºÑ Ð½Ð°
ÑÑÑÐ»ÐºÐ¸ Ð½Ð°
Ð¸ÑÐ¿Ð¾Ð»ÑÐ·Ð¾Ð²Ð°Ð½Ð¸ÐµÐ¼ ÑÑÑÐ»Ð¾Ðº
ÑÐ¿ ÐµÑ
ÑÐ» ÐµÐ½Ð°Ð¼Ð¸
ÑÐ¾Ð·Ð´Ð°ÐµÑ ÑÑÑÐ¾ÐºÑ
ÑÑÑÐ¾ÐºÐ¸ Ñ
V ector
3 D
Ñ Ð¿Ð¾Ð»ÐµÐ¼
Ð¿Ð¾Ð»ÑÐ¼Ð¸ name
Co unter
Ð· Ð°ÐºÐ°Ð·
Matr ix
Account Ñ
ÐºÐ»Ð°ÑÑ Book
Ñ Ð¿Ð°ÑÐ°Ð¼ÐµÑÑÐ°Ð¼Ð¸,
ÑÐµÐ°Ð»Ð¸Ð·ÑÐ¹ ÑÐ°Ð±Ð»Ð¾Ð½Ð½ÑÐ¹
Ñ Ð¿ÐµÑÐµÐ¾Ð¿ÑÐµÐ´ÐµÐ»ÐµÐ½Ð¸ÐµÐ¼
Ð²Ð¸ÑÑÑÐ°Ð»ÑÐ½ÑÐ¼ Ð½Ð°ÑÐ»ÐµÐ´Ð¾Ð²Ð°Ð½Ð¸ÐµÐ¼
Ñ Ð²Ð¸ÑÑÑÐ°Ð»ÑÐ½Ð¾Ð¹
Ð¿ÐµÑÐµÐ¾Ð¿ÑÐµÐ´ÐµÐ»ÐµÐ½Ð¸ÐµÐ¼ Ð²Ð¸ÑÑÑÐ°Ð»ÑÐ½Ð¾Ð¹
F I
ÑÐ¸ÑÑÐµÐ¼Ñ Ð¾Ð±ÑÐ°Ð±Ð¾ÑÐºÐ¸
Ð´ÑÑÐ³ Ð¾Ð¼
Ð´ÑÑÐ³Ð¾Ð¼ Ð´Ð»Ñ
ÐºÐ¾ÑÐ¾ÑÐ°Ñ Ð·Ð°Ð¿Ð¸ÑÑÐ²Ð°ÐµÑ
unordered_ map
Ñ ÑÐ¾Ð½
weak _ptr
ÐºÐ¸ </w>
ÐºÐ¸ Ð±ÐµÐ·
Ð·Ð½Ð°ÑÐµÐ½Ð¸Ñ Ð±ÐµÐ·
Ñ std::
W or
ÑÑ Ð¸
ÑÑÐ¸ÑÑÐ²Ð°ÐµÑ Ð¸
ÐºÐ°Ð¶Ð´ ÑÐ¹
Ð¼ ÐµÑÑÐ°Ð¼Ð¸
Ð¿Ð¾Ð´ ÑÑÑÐ¾ÐºÑ
Ñ Ñ
lon g
Ð·Ð½Ð°ÑÐµÐ½Ð¸Ñ ÑÐµÑÐµÐ·
= )
Ð´ÐµÐ¼Ð¾Ð½ÑÑÑÐ¸ÑÑÑÑÑÑ Ð¿ÑÐ¸ÑÐ²Ð°Ð¸Ð²Ð°Ð½Ð¸Ðµ
Ð¿Ð¾ÑÐ»ÐµÐ´Ð¾Ð²Ð°ÑÐµÐ»Ñ Ð½Ð¾ÑÑÑ
Ð²Ð½ ÑÑÑÐ¸
Ð¿ÑÐ¸ÑÐ²Ð°Ð¸Ð²Ð°ÐµÑÑÑ ÑÐµÐ·ÑÐ»ÑÑÐ°Ñ
ÑÐµÐ·ÑÐ»ÑÑÐ°Ñ Ð¾Ð¿ÐµÑÐ°ÑÐ¸Ð¸
Ð²Ñ Ñ
Ð²ÑÑ Ð¸ÑÐ°Ð½Ð¸Ñ
> >
v al
Ð¼ÐµÐ½ ÑÑ
Ð¾Ð¿ÐµÑÐ°ÑÐ¾Ñ Ð¾Ð²
Ñ Ðº
Ð± Ð°Ð¹
Ð¼Ð°ÐºÑÐ¸Ð¼Ð°Ð»Ñ Ð½Ð¾Ðµ
c l
a it
Ð´Ð°Ð½ Ð½ÑÐµ
ÑÐºÐ°Ð·Ð°ÑÐµÐ» ÐµÐ¼
i al
) /
ÐºÐ¾ÑÐ¾ÑÐ°Ñ ÐºÐ¾Ð½Ð²ÐµÑÑÐ¸ÑÑÐµÑ
Ð¾ÐºÑ ÑÐ¶
- b
Ð´Ñ Ð°
V =
Ð²ÑÑÐ¸ÑÐ»ÐµÐ½Ð¸Ñ Ð¾Ð±ÑÑÐ¼Ð°
1 /
ÐºÐ¾ÑÐ¾ÑÐ°Ñ ÑÐ¼Ð½Ð¾Ð¶Ð°ÐµÑ
Ð¿Ð°Ñ Ð°Ð»Ð»
ÑÐ³Ð¾Ð»ÑÐ½ Ð¸Ðº
ÑÑÐ¼Ð¼ Ð¾Ð¹
ÑÐ²Ð»Ñ ÑÑÑÑ
Ð¸Ñ ÑÑ
Ð¾Ð¿ÑÐµÐ´ÐµÐ»ÑÐµÑ ÑÐ²Ð»ÑÐµÑÑÑ
ÑÐ°Ð²ÐµÐ½ ÑÑÐ²Ð¾
Ñ ÐµÐ¶
Ð²ÑÐ±Ð¾Ñ Ð°
Ð¿Ð°ÑÐ°Ð¼ÐµÑÑ Ð¾Ð²
Ð¼Ð°ÑÑÐ¸Ð² Ð¸Ð·
Ð¼Ð°ÐºÑÐ¸Ð¼Ð°Ð»Ñ Ð½ÑÐ¹
Ð°Ñ Ð¸Ð²Ð°ÐµÑ
ÐºÐ¾ÑÐ¾ÑÐ°Ñ ÑÐ¾ÑÑÐ¸ÑÑÐµÑ
ÐµÐ» Ð»
Ð¿Ð¾Ð¸ÑÐºÐ° ÐºÑÐ°Ñ
ÐºÑÐ°Ñ Ñ
Ð¿Ð¾Ð¸ÑÐºÐ° ÐºÑÐ°ÑÑ
ÐºÑÐ°ÑÑ Ð°Ð¹Ñ
Ð¿Ð¾Ð¸ÑÐºÐ° ÐºÑÐ°ÑÑÐ°Ð¹Ñ
( D
Ð ¥
Ñ ÐµÑ
qu are
m ult
Prod uct
S m
f ect
Ð¸Ð¹ ÑÐ»ÐµÐ¼ÐµÐ½Ñ
S e
Ð½Ð°ÑÐ¾Ð´Ð¸Ñ ÑÐ°Ð¼
Ð½Ð°ÑÐ¾Ð´Ð¸Ñ ÑÐ°Ð¼ÑÑ
an gle
a in
ÐºÐ¾ÑÐ¾ÑÐ°Ñ Ð¾Ð±ÑÐµÐ´
Ð¾Ð±ÑÐµÐ´ Ð¸Ð½ÑÐµÑ
ÐºÐ¾ÑÐ¾ÑÐ°Ñ Ð¾Ð±ÑÐµÐ´Ð¸Ð½ÑÐµÑ
T L
Ð¸Ð½Ð¸ÑÐ¸Ð°Ð»Ð¸Ð· Ð¸ÑÑÐµÑ
cop y
ÑÐ»ÐµÐ¼ÐµÐ½Ñ Ð¼Ð°ÑÑÐ¸Ð²Ð°
Ð¿ÐµÑÐµÐ´Ð°Ñ Ñ
Ð´Ð»Ñ ÑÐ¾ÑÑÐ¸ÑÐ¾Ð²ÐºÐ¸
Ð¿Ð¾Ð¸ÑÐºÐ° Ð²
Ð´Ð»Ñ Ð¿Ð¾Ð´ÑÑÐµÑÐ°
Ð½Ð°ÑÐ» ÐµÐ´Ð¾Ð²Ð°Ð½Ð¸Ñ
ing )
Ð¸Ñ) </w>
Ð´Ð¸Ð½Ð°Ð¼Ð¸ÑÐµÑ ÐºÐ¸
Ð²ÑÑÐ°Ð² ÐºÐ¸
X X
f f
J SO
ÐºÑ ÑÐ³Ð°
ÑÑÐ°Ð½ÐµÐ½Ð¸Ñ Ð´Ð°Ð½Ð½ÑÑ
Fr act
Fract ion
name ,
Student Ñ
ÐµÐ½Ð¸Ð¹ Ñ
ÑÐµÐ°Ð»Ð¸Ð·ÑÐ¹ Ð¿ÐµÑÐµÑÐ¸ÑÐ»ÐµÐ½Ð¸Ðµ
ÐºÐ»Ð°ÑÑ E
ÐºÐ»Ð°ÑÑ Point
Ð¸ Ð¿ÑÐ±Ð»Ð¸Ñ
ÐºÐ»Ð°ÑÑ Bank
y Ñ
eth od
ÑÐ² Ð°ÑÑÐ¸Ð¼
oper ator
Ð¿Ð°ÑÐ°Ð¼ÐµÑÑÐ°Ð¼Ð¸, ÐºÐ¾Ð¿Ð¸ÑÐ¾Ð²Ð°Ð½Ð¸Ñ),
Ñ Ð¿Ð¾Ð»Ð¸Ð¼Ð¾ÑÑ
ÑÐµÐ°Ð»Ð¸Ð· Ð°ÑÐ¸Ñ
ÑÑÐ°ÑÐ¸ÑÐµÑÐºÐ¸Ð¼Ð¸ ÑÐ»ÐµÐ½Ð°Ð¼Ð¸
Ð´ÑÑÐ³Ð¾Ð¼, ÑÑÐ¾Ð±Ñ
ÐÐµÐ°Ð»Ð¸Ð·ÑÐ¹ Ð¿ÑÐ¾Ð³ÑÐ°Ð¼Ð¼Ñ,
st ack
Ð¸ÑÐºÐ»ÑÑ ÐµÐ½Ð¸ÑÐ¼Ð¸
ÑÐ¿ÑÐ°Ð²Ð»ÐµÐ½Ð¸Ñ ÑÐµÑÑÑÑÐ¾Ð¼
ÑÐµÐ°Ð»Ð¸Ð· ÑÑÑÑÑ
Ð»ÑÐ¼Ð±Ð´Ñ ,
Ð»ÑÐ¼Ð±Ð´Ð¾Ð¹ ,
Ñ Ð»ÑÐ¼Ð±Ð´Ð¾Ð¹,
Ð»ÑÐ¼Ð±Ð´Ñ Ð´Ð»Ñ
Ð½Ð¾ÑÑÐ¸ </w>
ÑÐ»ÐµÐ¼ÐµÐ½ÑÐ¾Ð² </w>
ÑÐ»ÐµÐ¼ÐµÐ½ÑÐ¾Ð² Ð±ÐµÐ·
Ð²ÐµÐºÑÐ¾ÑÐ° </w>
Ð²ÐµÐºÑÐ¾ÑÐ° Ð±ÐµÐ·
ÑÐ¾±Ñ ÐµÐ½Ð¸Ñ
Ð´Ð²Ð° ÑÐ¸ÑÐ»Ð°
ÐµÐ½ Ð½ÑÐµ
Ð· Ð²
Ð» Ñ
Ð¸Ð¼ Ñ
Ð» ÐµÐ½
ÑÐ¾Ñ ÐºÐ°Ð¼Ð¸
ÑÐ¾Ð´ÐµÑÐ¶ Ð¸Ñ
Ð³Ð» Ð°Ñ
un signed
Ð¿ÑÐ¸ÑÐ²Ð°Ð¸Ð²Ð°Ð½Ð¸Ðµ Ð¿ÐµÑÐµÐ¼ÐµÐ½Ð½Ð¾Ð¹
ÑÑÐµÐ¿ÐµÐ½ Ñ
Ð¿ÑÐ¸Ð² ÐµÐ´ÐµÐ½Ð¸Ñ
Ð¼Ð¸Ð½Ð¸Ð¼Ð°Ð»Ñ Ð½Ð¾Ðµ
Ð± Ð¸Ð±Ð»Ð¸Ð¾Ñ
( C++17
Ð² ÐµÑÑÑÐ²
Ð½Ð¾ÑÑÐ¸ Ð±ÐµÐ·
Ð¾ÐºÑÑÐ¶ Ð½Ð¾ÑÑÐ¸
Ð°Ð± ÑÐ¾Ð»ÑÑ
Ð¿ÑÑÐ¼Ð¾ ÑÐ³Ð¾Ð»ÑÐ½Ð¸ÐºÐ°
+ b
ÐºÐ²Ð°Ð´ÑÐ°Ñ Ð½Ð¾Ð³Ð¾
ÑÑ Ð°Ð²Ð½ÐµÐ½Ð¸Ñ
Ñ Ñ
Ð¼ Ð¾Ð½
ÑÐµÐ¼Ð¿ÐµÑÐ°Ñ ÑÑÑ
Ð°Ñ ÐµÐ½
ÑÐ¾ÑÐ¼ÑÐ»Ðµ V
Ð¿Ð¾ Ð·Ð½Ð°ÑÐµÐ½Ð¸Ñ
Ñ ,
Ð¾ÑÑ Ñ
ÐºÐ¾Ð¼Ð¿Ð»ÐµÐºÑ Ð½Ð¾Ð³Ð¾
ÐºÐ¾Ð¼Ð¿Ð»ÐµÐºÑÐ½Ð¾Ð³Ð¾ ÑÐ¸ÑÐ»Ð°
ÑÑÐµÐ¿ÐµÐ½ Ð¸
( R
Ð°Ðº Ñ
Ð²ÑÑÐ¸ÑÐ»ÐµÐ½Ð¸Ñ Ð´Ð»Ð¸Ð½Ñ
ÑÐ¸ÑÐ» Ðµ
Ð½ Ð¸Ð¹
Ð¿Ð¾Ð»ÑÑ Ð¸ÑÑ
Ð¸Ð· ÑÑÐµÑ
s w
Ð¸Ð½ÑÐµÑ Ð²Ð°Ð»
ÑÑÐ² Ð°
Ð¾Ñ ÐµÐ½Ð¾Ðº
ÑÐµÑ ÐµÐ½Ð¸Ñ
ÐµÐ´ Ð¸Ð½Ð¸Ñ
Ð¿Ð¾Ð¸Ñ Ðº
Ð² Ð¾ÑÑÐ¾ÑÑÐ¸ÑÐ¾Ð²Ð°Ð½Ð½Ð¾Ð¼
ÑÑÐ½ÐºÑÐ¸Ñ Ñ
Ð¾Ñ Ð¸Ð±
atter n
P er
k -
o t
A d
R ect
Rect angle
( L
ÑÑÑÐ¾Ðº </w>
ÑÑÑÐ¾Ðº Ð±ÐµÐ·
Ð¼Ð°ÑÑÐ¸Ð²Ð° ÑÐµÑÐµÐ·
Ð´ÑÑÐ³ ÑÑ
Ð¾ÑÐ²Ð¾Ð±Ð¾Ð¶Ð´ Ð°ÐµÑ
unique_ptr Ð´Ð»Ñ
ÑÑÐ°Ñ ÑÑÐ°
Ñ ÐµÐ¿Ð¾Ñ
Ð»ÑÐ¼Ð± Ð´Ð°-
Ð¿Ð¾Ñ Ð¾ÐºÐ¾Ð²
Ð¿Ð¾Ð»Ð¸Ð¼Ð¾ÑÑ Ð¸Ð·Ð¼
Ð°Ð»Ð³Ð¾ÑÐ¸ÑÐ¼ Ð½Ð°ÑÐ¾Ð¶Ð´ÐµÐ½Ð¸Ñ
trans for
transfor m
Ð¸ÑÐµÑÐ°ÑÐ¾Ñ Ð¾Ð²
Ð¿Ð°Ñ ÑÐ¸Ð½
Ð¸Ð· Ð²ÐµÐºÑÐ¾ÑÐ°
Ð¾ÑÑÐµÐ· ÐºÐ°
E mplo
Emplo ye
Employe e
Counter Ñ
Book Ñ
emper at
emperat ure
D ate
ÐºÐ¾Ð½ ÑÐ¸Ð³ÑÑ
ÑÐµÑÐ¸Ð°Ð»Ð¸Ð· Ð°ÑÐ¸Ð¸
Ð¿Ñ Ð¾Ð´ÐµÐ¼Ð¾Ð½ÑÑÑÐ¸Ñ
Ð¿ÑÐ¾Ð´ÐµÐ¼Ð¾Ð½ÑÑÑÐ¸Ñ ÑÐ¹
ÑÑÐ½ÐºÑÐ¸Ñ ,
S h
M ethod
S ingleton
Ð¡ ÑÑ
L o
Ð±Ð» Ð¾ÐºÐ¸Ñ
c um
ÐºÐ»Ð°ÑÑ Fraction
Ñ Ð°Ð±Ñ
! =,
==, !=,
Ð¿ÑÐ¾Ð³ÑÐ°Ð¼Ð¼Ñ, Ð²
Ð¿ÑÐ¸Ð²Ð°Ñ Ð½ÑÐµ
Ð¸ Ð°Ð»Ð³Ð¾ÑÐ¸ÑÐ¼
Ñ Ð¸ÑÐºÐ»ÑÑÐµÐ½Ð¸ÑÐ¼Ð¸
ÑÐ¿ÑÐ°Ð²Ð»ÐµÐ½Ð¸Ñ Ð¿Ð°Ð¼ÑÑÑÑ
Ð¿ÐµÑÐµÐ¼ÐµÑÐµÐ½Ð¸ÐµÐ¼ Ð¸
ÑÐµÑÑÑÑÐ¾Ð¼ Ñ
ÑÐµÑÐ²ÐµÑ Ñ
Ð´Ð°Ð½Ð½ÑÑ </w>
Ð¼ÐµÑÐ¾Ð´Ñ Ð´Ð»Ñ
A S
Ð²Ð²ÐµÐ´ÐµÐ½ Ð½Ð¾Ðµ
Ð¸Ñ Ð²
Ð»Ñ Ð±
Ð¿ÑÐ¾Ð±ÐµÐ» Ñ
ÑÑÑÐ¾ÐºÑ Ð¸Ð·
ÐºÐ¾ÑÐ¾ÑÐ°Ñ Ð¼ÐµÐ½ÑÐµÑ
Ð¼ÐµÐ½ÑÐµÑ Ð¼ÐµÑÑÐ°Ð¼Ð¸
ÑÐ¸ÑÑ Ñ
ÑÐ¸ÑÐ»Ð¾ Ð²
Ð¿Ð¾Ð·Ð¸Ñ Ð¸Ñ
ÑÐ°Ð· Ð½Ð¾ÑÑÑ
Ð¿ÑÐ¾Ð³ÑÐ°Ð¼Ð¼Ñ Ð¿ÑÐ¸ÑÐ²Ð°Ð¸Ð²
Ð¿ÑÐ¸ÑÐ²Ð°Ð¸Ð² Ð°ÑÑÑÑ
Ð¿ÑÐ¾Ð³ÑÐ°Ð¼Ð¼Ñ Ð¿ÑÐ¸ÑÐ²Ð°Ð¸Ð²Ð°ÑÑÑÑ
ul l
Ð·Ð½Ð°ÑÐµÐ½Ð¸Ðµ ÑÐµÑÐµÐ·
Ð·Ð½Ð°ÑÐµÐ½Ð¸Ñ Ð¿ÐµÑÐµÐ¼ÐµÐ½Ð½Ð¾Ð¹
ÑÐºÐ°Ð·Ð°ÑÐµÐ»Ñ Ð½Ð°
Ð (
Ð Ð
C -
Ð´Ð°Ð½Ð½ÑÑ Ð±ÐµÐ·
m ent
Ð´Ð»Ñ ÑÐ¸Ð¿Ð°
Ð¾Ð±Ð» Ð°ÑÑ
Ð²Ð¸Ð´ Ð¸Ð¼Ð¾ÑÑÐ¸
Ð´ Ð°Ñ
Ð´ÐµÐ¼Ð¾Ð½ÑÑÑÐ¸ÑÑÑÑÑÑ Ð¸ÑÐ¿Ð¾Ð»ÑÐ·Ð¾Ð²Ð°Ð½Ð¸Ðµ
ÑÐºÐ°Ð·Ð°ÑÐµÐ»ÐµÐ¹ Ð½Ð°
ÑÐ»ÐµÐ¼ÐµÐ½ÑÑ Ð¼Ð°ÑÑÐ¸Ð²Ð°
Ð¸Ð½Ð¸ÑÐ¸Ð°Ð»Ð¸Ð· Ð°ÑÐ¸ÐµÐ¹
ÑÑÐµÐ´Ð½ÐµÐµ Ð°ÑÐ¸ÑÐ¼ÐµÑÐ¸ÑÐµÑ
Ð°ÑÐ¸ÑÐ¼ÐµÑÐ¸ÑÐµÑ ÐºÐ¾Ðµ
ÑÑÐµÐ´Ð½ÐµÐµ Ð°ÑÐ¸ÑÐ¼ÐµÑÐ¸ÑÐµÑÐºÐ¾Ðµ
Ð¿Ð¾Ð»Ð¾Ð¶Ð¸ÑÐµÐ»Ñ Ð½ÑÑ
Ð´ÑÐ° Ð¿Ð¾
ÑÐ¸ÑÐµÐ» ,
ÑÐµÑÑ Ñ
Ð°Ñ Ð³
Ð°ÑÐ³ ÑÐ¼ÐµÐ½
ÑÐºÐ°Ð»ÑÑ Ð½Ð¾Ðµ
Ð¾Ñ ÐµÐ½
ÑÑ Ð¾Ð¸Ð¼Ð¾ÑÑÐ¸
Ð´ÑÐ¾Ð± ÐµÐ¹
Ð² Ð·Ð°Ð´Ð°Ð½
Ð·Ð°Ð´Ð°Ð½ Ð½Ð¾Ð¼
Ð² Ð·Ð°Ð´Ð°Ð½Ð½Ð¾Ð¼
Ñ ÐµÐºÑÐ½
ÑÐµÐºÑÐ½ Ð´
Ð¿ÑÐ¾Ð³ÑÐµÑÑ Ð¸Ð¸
Ð ¨
( p
Ð»Ð¸ ÑÐ¸Ð¼Ð²Ð¾Ð»
Ð¼Ð¾Ð¶ ÐµÑ
Ð² Ð¸ÑÐ¾ÐºÐ¾Ñ
ÑÑÐ°Ñ Ð¸ÑÑ
ÑÐµÑ Ð½ÑÑ
ÑÐ¸ÑÐµÐ» Ð²
ÐºÐ¾Ð½ Ñ
Ð¾ÑÑÐ¾ÑÑÐ¸ÑÐ¾Ð²Ð°Ð½Ð½Ð¾Ð¼ Ð¼Ð°ÑÑÐ¸Ð²Ðµ
ÐºÐ¾Ñ Ñ
Ð³Ð» ÑÐ±
FS )
un d
Ð¸ÑÑÐµÑ ÑÑÑÐ¾ÐºÑ
em ail
ÑÐ½Ð¸ÐºÐ°Ð»Ñ Ð½ÑÑ
indo w
Ð³ÑÐ°Ñ Ðµ
Ñ Ðµ
Ð±Ð¸Ð½Ð°ÑÐ½Ð¾Ð³Ð¾ Ð´ÐµÑÐµÐ²Ð°
Ð² Ð´ÑÑÐ³Ð¾Ð¹
Ð·Ð°Ð¼ÐµÐ½ÑÐµÑ Ð²ÑÐµ
Ð¿Ð¾ÐºÐ°Ð·ÑÐ²Ð°ÑÑÑÑ ÐºÐ°Ðº
ÐºÐ¾ÑÐ¾ÑÐ°Ñ Ð¿ÑÐ¸Ð½Ð¸Ð¼Ð°ÐµÑ
Ð¸Ð½Ð¸ÑÐ¸Ð°Ð»Ð¸Ð· Ð°ÑÐ¸Ð¸
Ð² Ð¸ÐµÑÐ°ÑÑÐ¸Ð¸
fect forward
ÑÐµÐ¼Ð°Ð½Ñ Ð¸ÐºÐ¾Ð¹
Ð½Ð° Ð±Ð°Ð·Ð¾Ð²ÑÐ¹
op t
(Ð¸Ð¼Ð¸ÑÐ°Ñ Ð¸Ñ)
Ð²ÑÐ± ÑÐ°Ñ
ÐºÐ¾ÑÐ¾ÑÐ°Ñ Ð´Ð¸Ð½Ð°Ð¼Ð¸ÑÐµÑÐºÐ¸
Ð¿ÐµÑ ÐµÐ²Ð¾Ð´Ð¸Ñ
ÐºÐ¾ÑÐ¾ÑÐ°Ñ Ð¿ÐµÑÐµÐ²Ð¾Ð´Ð¸Ñ
Ñ Ð¸Ð³
Ð¸ÑÐ¿Ð¾Ð»ÑÐ·Ð¾Ð²Ð°Ð½Ð¸ÐµÐ¼ Ð°Ð»Ð³Ð¾ÑÐ¸ÑÐ¼Ð°
Ð¿ÑÐµÐ¾Ð±ÑÐ°Ð·Ð¾Ð²Ð°Ð½Ð¸Ñ Ð²
y n
T ime
T emperature
Ñ Ð´
ÑÐ°Ð¹Ð»Ð° Ñ
Ð±Ð°Ð· Ð¾Ð²Ð¾Ð³Ð¾
Ð¿ÑÐ±Ð»Ð¸Ñ Ð½ÑÐ¼Ð¸
ÐºÐ»Ð°ÑÑ Counter
emor y
Ð¸ Ð¿ÑÐ¾Ð²ÐµÑÐºÐ¸
Ð´Ð»Ñ Ð¾Ñ
ÑÐµÐ°Ð»Ð¸Ð·Ð°ÑÐ¸Ð¸ Ð¿Ð°ÑÑÐµÑÐ½Ð°
Ð°ÑÐµÐ³ Ð¸Ñ
Ob ject
, ÐºÐ¾ÑÐ¾ÑÑÐ¹
Ð¿ÐµÑÐµÐ¼ÐµÑ ÐµÐ½Ð¸Ðµ
ÐºÐ»Ð°ÑÑ Complex
ÐºÐ»Ð°ÑÑ ,
Ð°Ð± ÑÑÑ
Ð°Ð±ÑÑÑ Ð°ÐºÑ
Ð¼Ð½Ð¾Ð¶ÐµÑÑÐ²ÐµÐ½Ð½ÑÐ¼ Ð½Ð°ÑÐ»ÐµÐ´Ð¾Ð²Ð°Ð½Ð¸ÐµÐ¼
Ð²Ð¸ÑÑÑÐ°Ð»ÑÐ½Ð¾Ð¹ ÑÑÐ½ÐºÑÐ¸ÐµÐ¹,
ÑÐ¼ Ð½ÑÐ¹
ÑÐ¼Ð½ÑÐ¹ ÑÐºÐ°Ð·Ð°ÑÐµÐ»Ñ
Ð½Ð°Ð¿Ð¸ÑÐ¸ ÑÐ¸ÑÑÐµÐ¼Ñ
t ime
Ð¿ÑÐ¸Ð¼ÐµÑ ,
ÑÐ°Ð¹Ð»Ð° Ð¸
ÑÐµÐ°Ð»Ð¸Ð·ÑÐ¹ ÑÐµÑÐ²ÐµÑ
Ð½Ð°Ð¿Ð¸ÑÐ¸ RAII-ÐºÐ»Ð°ÑÑ
Ð·Ð½Ð°ÑÐµÐ½Ð¸Ðµ </w>
Ð·Ð½Ð°ÑÐµÐ½Ð¸Ðµ Ð±ÐµÐ·
ÑÐ¸Ð¿Ð¾Ð² </w>
ÑÐ¸Ð¿Ð¾Ð² Ð±ÐµÐ·
ÑÐ°Ð¹Ð» </w>
Ð¸ÑÐºÐ»ÑÑÐµÐ½Ð¸Ð¹ </w>
Ð¸ÑÐºÐ»ÑÑÐµÐ½Ð¸Ð¹ Ð±ÐµÐ·
Ð²Ð¸ÑÑÑÐ°Ð»ÑÐ½Ð¾Ð¹ ÑÑÐ½ÐºÑÐ¸Ð¸,
Ð¾Ð´Ð½Ñ ÑÑÑÐ¾ÐºÑ
Ð´ Ð½Ñ
Ð¸Ð¼ Ð¾Ðµ
Ð°Ð» Ñ
Ð°Ð»Ñ Ð°Ð²
( Ð±ÐµÐ·
Ð² ÑÑÑÐ¾ÐºÑ
ÑÐµÐ» ÑÐ¼Ð¸
U n
ÑÐµÑÐµÐ· ÑÐ°Ð·
ÑÐ¸Ð¿Ð° double
Ð·Ð½Ð°ÑÐµÐ½Ð¸Ðµ Ð¿ÐµÑÐµÐ¼ÐµÐ½Ð½Ð¾Ð¹
Ð´Ð»Ñ ÑÑÑÐ°Ð½Ð¾Ð²ÐºÐ¸
Ñ Ð»
ÑÐ¸Ð¿Ð° Ñ
ÑÐºÐ°Ð·Ð°ÑÐµÐ»Ñ Ð¸
ÑÑÑÐ» ÐºÐ¾Ð¹
ÑÐ°Ð·Ð½ÑÐ¼Ð¸ ÑÐ¸Ð¿Ð°Ð¼Ð¸
Ð²Ð¾ Ð²ÑÐµÐ¼Ñ
enum cl
cl ass
enum class
ÑÐ¸Ð¿ Ñ
Ð² ÑÐ°Ð´
( x
, b
Ð¿ÑÐ¾ÑÐµÐ½ Ñ
ÑÐ· Ñ
Ð¿Ð»Ð¾ÑÐ°Ð´Ð¸ Ð¿Ð¾Ð²ÐµÑÑÐ½Ð¾ÑÑÐ¸
a b
Â² +
Ð¤ Ð°ÑÐµÐ½
Ð¤Ð°ÑÐµÐ½ Ð³
Ð¤Ð°ÑÐµÐ½Ð³ ÐµÐ¹
( F
ÑÐ¾ÑÐ¼ÑÐ»Ðµ A
Ð¼ ÐµÐ´
ÑÐ°ÑÑÑ Ð¾ÑÐ½Ð¸Ðµ
ÑÐ¾ÑÐ¼ÑÐ»Ðµ :
Ð° )
Ð¼ ÐµÑ
Ð¼ÐµÑ Ð°Ð½
ÐºÐ¾Ð¼Ð¿Ð»ÐµÐºÑ Ð½ÑÑ
Ð¿Ð°ÑÐ°Ð»Ð» ÐµÐ»Ñ
Ð¸Ð· Ð°ÑÐ¸Ð¸
Ð³ Ð¾Ð´
ÑÐ²Ð»ÑÑÑÑÑ Ð»Ð¸
ÑÐ²ÐµÐ»Ð¸Ñ ÐµÐ½Ð¸Ñ
Ð¸Ð· Ð¿ÑÑÐ¸
Ð² ÑÐ¸ÑÐ»Ðµ
Ð¾Ð¿ÐµÑÐ°Ñ Ð¸ÑÐ¼Ð¸
Ñ Ð¿Ð¾Ð´ÑÑÐµÑÐ¾Ð¼
Ð³ÐµÐ½ÐµÑ Ð°ÑÐ¸Ð¸
Ð¾Ð¿ Ñ
Ð¼Ð°ÑÑÐ¸ÑÑ 3x3
ÑÐ¾Ð·Ð´Ð°ÐµÑ Ð¸
sort )
ÑÐ°ÑÑ Ð¾Ñ
Ð ÐµÐ¹
ÐÐµÐ¹ Ðº
ÐÐµÐ¹Ðº ÑÑÑ
ÐÐµÐ¹ÐºÑÑÑ Ñ
Ð± ÑÑÑÑ
Ð¿Ð¾Ð´ÑÑÑÐ¾ÐºÐ¸ Ñ
ÑÐµÑ -
( T
S quare
Ð´ÐµÐ¼Ð¾Ð½ÑÑÑÐ¸ÑÑÐµÑ ÑÐ°Ð±Ð¾ÑÑ
B o
ver se
Str ing
ÑÐ°Ð¼ ÑÐ¹
ÑÐ°Ð¼ÑÑ Ð´Ð»Ð¸Ð½
Ð´Ð»Ð¸Ð½ Ð½ÑÑ
ÑÐ°Ð¼ÑÑ Ð´Ð»Ð¸Ð½Ð½ÑÑ
p t
ÐºÐ¾ÑÐ¾ÑÐ°Ñ Ð·Ð°Ð¿Ð¾Ð»Ð½ÑÐµÑ
Ð´Ð²ÑÑ Ð¾ÑÑÐ¾ÑÑÐ¸ÑÐ¾Ð²Ð°Ð½Ð½ÑÑ
Ð½Ð°Ñ Ð°Ð»
Ð¼Ð°ÑÑÐ¸Ð²Ð° Ñ
Ð¸ Ð¾ÑÐ²Ð¾Ð±Ð¾Ð¶Ð´Ð°ÐµÑ
Ð¾ÑÐ²Ð¾Ð±Ð¾Ð¶Ð´Ð°ÐµÑ Ð¿Ð°Ð¼ÑÑÑ
Ð¿ÑÐ¾Ð³ÑÐ°Ð¼Ð¼Ñ, Ð¿Ð¾ÐºÐ°Ð·ÑÐ²Ð°ÑÑÑÑ
ÑÑÑÐ»ÐºÐµ </w>
ÑÑÑÐ»ÐºÐµ Ð±ÐµÐ·
ÑÑÑÐ»Ð¾Ðº Ð´Ð»Ñ
per fect
perfect forward
forward ing
perfect forwarding
ÐºÐ»Ð°ÑÑÐ° </w>
ser ver
ÐºÐ¾ÑÐ¾Ñ ÑÐµ
\ </w>
Ð´Ð¸Ð½Ð°Ð¼Ð¸ÑÐµÑÐºÐ¸ ÑÐ¾Ð·Ð´Ð°ÐµÑ
ÑÐ´Ð°Ð»ÑÐµÑ Ð²ÑÐµ
() </w>
() Ð±ÐµÐ·
Ð¿ÐµÑÐµÐ²Ð¾Ð´Ð¸Ñ ÑÑÑÐ¾ÐºÑ
ÑÐ¾ÑÐºÐ¸ Ñ
Circle Ñ
R G
RG B
ÑÐ¸Ð»Ñ ÑÑ
Ð±Ð°Ð½ ÐºÐ¾Ð²Ñ
Ñ Ð¿Ð¾Ð»ÑÐ·Ð¾Ð²Ð°ÑÐµÐ»ÑÑ
Bank Account
Ð¿Ð°Ð¼ÑÑÐ¸ Ñ
ÑÐ¾±Ñ ÐµÐ½Ð¸Ð¹
Ð·Ð°Ð´Ð°Ñ Ð¸
ÑÐ¾ ÑÑÐ°ÑÐ¸ÑÐµÑÐºÐ¸Ð¼
ÐºÐ»Ð°ÑÑ W
ÐºÐ»Ð°ÑÑ Vector
2D Ñ
Ð¡ÑÑ Ð°ÑÐµÐ³Ð¸Ñ
l y
Ð Ð¾ÑÐµÑ
ÐÐ¾ÑÐµÑ Ð¸ÑÐµÐ»Ñ
An imal
Ñ Ð¼Ð½Ð¾Ð¶ÐµÑÑÐ²ÐµÐ½Ð½ÑÐ¼
Ð±Ð°Ð·Ð¾Ð²Ð¾Ð³Ð¾ ÐºÐ»Ð°ÑÑÐ°
Ñ CRTP
f o
dynamic_cast Ð´Ð»Ñ
ul ate
FI N
), Ð²ÐºÐ»ÑÑÐ°Ñ
ÑÑÐ°Ð½ÐµÐ½Ð¸Ñ Ð¸
ÑÐ¾ ÑÑÐ°ÑÐ¸ÑÐµÑÐºÐ¸Ð¼Ð¸
ch ron
chron o
ÑÐ°Ð¹Ð» Ð±ÐµÐ·
Ð¸Ð· ÑÐ°Ð¹Ð»Ð°
Ñ shared_ptr
Ð¿ÑÐ¾Ð³ÑÐ°Ð¼Ð¼Ñ ÑÐµÐ°Ð»Ð¸Ð·ÑÑÑÑÑ
ÑÐµÐ°Ð»Ð¸Ð·Ð°ÑÐ¸Ñ Ð¿Ð°ÑÑÐµÑÐ½Ð°
ÑÐµÐ°Ð»Ð¸Ð·ÑÑÑÑÑ Ð¿Ð°ÑÑÐµÑÐ½
N </w>
N Ð±ÐµÐ·
ÐºÐ»Ð°ÑÑÐ° Ð±ÐµÐ·
ÑÐ°Ð¹Ð»Ð° </w>
ÑÐ°Ð¹Ð»Ð° Ð±ÐµÐ·
Ð¸ÑÐ¿Ð¾Ð»ÑÐ·Ð¾Ð²Ð°Ð½Ð¸Ñ using
pr i
Ñ thread
std:: map
ÑÑÑÐ¾ÐºÑ Ð±ÐµÐ·
AS C
ASC II
Ð¿Ð¾Ð»ÑÐ·Ð¾Ð²Ð°ÑÐµÐ»ÐµÐ¼ ,
Ñ Ð¸ÐµÐ¹
Ð²Ð²ÐµÐ´ÐµÐ½Ð½ÑÑ ÑÑÑÐ¾ÐºÑ,
Ð·Ð² ÐµÐ·
Ð·Ð²ÐµÐ· Ð´Ð¾Ñ
Ð²ÑÐµ ÑÐ¸Ð¼Ð²Ð¾Ð»Ñ
Ð· Ð°Ð²
ÑÐ´Ð² Ð¸Ð³
Ð²ÐµÑ Ñ
Ð²ÑÐ²Ð¾Ð´Ð¸Ñ Ð°Ð´ÑÐµÑ
ÑÐµÑÑ Ð½Ð°Ð´
ÑÐµÑÑÐ½Ð°Ð´ Ñ
ÑÐµÑÑÐ½Ð°Ð´Ñ Ð°ÑÐµÑ
ÑÐµÑÑÐ½Ð°Ð´ÑÐ°ÑÐµÑ Ð¸Ñ
Ð±Ð¾Ð»ÑÑ Ðµ
ÑÐ»Ð¾Ð²Ð° Ð²
Ð¿ÑÐ¸ÑÐ²Ð°Ð¸Ð²Ð°ÑÑÑÑ Ð¿ÐµÑÐµÐ¼ÐµÐ½Ð½Ð¾Ð¹
ÑÐ²ÐµÐ»Ð¸Ñ Ð¸Ð²Ð°ÐµÑ
n ull
null ptr
size of
Ð·Ð½Ð°ÑÐµÐ½Ð¸Ñ Ñ
Ð¿Ð¾ÑÐ°Ð· ÑÑÐ´
ÑÐµÐ·ÑÐ»ÑÑÐ°ÑÐ° Ð¾Ð¿ÐµÑÐ°ÑÐ¸Ð¸
Ð¼ÐµÐ½ÑÑ Ðµ
' (
O R
ÑÐ¸Ð¿Ð° int
Ð´ÑÑÐ³ Ð¾Ð³Ð¾
ÑÐºÐ¾Ð± Ð¾Ðº
Ð´Ð»Ñ Ð¾Ð¿ÑÐµÐ´ÐµÐ»ÐµÐ½Ð¸Ñ
ÐºÐ¾ÑÑÑÐ¸ÑÐ¸ÐµÐ½ ÑÐ°
Ð¿ Ñ
Ð¿Ñ ÐµÐ²
Ð¿ÑÐµÐ² Ð´Ð¾Ð½
Ð´ÐµÐ¼Ð¾Ð½ÑÑÑÐ¸ÑÑÐµÑ ÑÐ°Ð·Ð½Ð¸ÑÑ
Ð¿Ð¾ÐºÐ°Ð·ÑÐ²Ð°ÐµÑ ÑÐ°Ð·Ð½Ð¸ÑÑ
Ð¸ ÐµÐ³Ð¾
ait s
Ð½Ð° ÐºÐ¾Ð½ÑÑÐ°Ð½Ñ
Ð°Ð¼Ð¸ Ñ
(C++17 )
Ð²Ð°Ñ Ð¸Ð°Ñ
p o
Ð¿ÐµÑ Ð²ÑÑ
ÑÐ°Ð´ Ð¸Ð°Ð½Ð°Ñ
Ð² ÑÐ°Ð´Ð¸Ð°Ð½Ð°Ñ
ÑÐ¸Ñ Ð¸Ð½Ñ
Ð¿ÐµÑ Ð¸Ð¼ÐµÑÑ
a Ð¸
Ð¦ ÐµÐ»Ñ
Ð¦ÐµÐ»Ñ Ñ
ÑÐ°Ð´ Ð¸ÑÑ
A =
3 )
ÑÐ¾ÑÑÐ¸Ñ Ð¾Ð²
ÑÐ¿ÑÐ¾Ñ ÑÐ½
Ð½Ð¾Ð³Ð¾ Ð¿ÑÐ¾Ð¸Ð·Ð²
Ð¿ÑÐ¾Ð¸Ð·Ð² ÐµÐ´ÐµÐ½Ð¸Ñ
Ð¾Ð±Ñ Ð¸Ð¹
Ð½ Ð¸
Ð¾Ð±Ñ ÐµÐ³Ð¾
Ñ ÐµÐ½
it ch
ÑÑ Ð°Ð²Ð½ÐµÐ½Ð¸Ð¹
Ñ Ð¾Ð¿ÐµÑÐ°ÑÐ¸ÑÐ¼Ð¸
Ð¸ Ð¿ÑÐ¾Ð²ÐµÑÐºÐ¾Ð¹
Ð²ÑÐµÐ¼ÐµÐ½Ð¸ Ñ
' Ñ
ÑÑÐ°ÑÐ¸ÑÑ Ð¸ÐºÐ¸
Ð¸Ð½ Ð³Ð°
Ð¸Ð·Ð¼ÐµÑ ÐµÐ½Ð¸Ñ
Ð½Ð°ÑÐ¾Ð´Ð¸Ñ Ð¿ÑÐ¾Ð¸Ð·Ð²ÐµÐ´ÐµÐ½Ð¸Ðµ
an ge
Ð¾Ð³ÑÐ°Ð½Ð¸Ñ ÐµÐ½Ð¸ÐµÐ¼
Ð¼Ð¸Ð½Ð¸Ð¼Ð°Ð»Ñ Ð½ÑÐ¹
Ð¿ÐµÑ ÐµÐ²Ð¾Ñ
ÐºÐ¾ÑÐ¾ÑÐ°Ñ Ð¿ÐµÑÐµÐ²Ð¾Ñ
Ð¿ÐµÑÐµÐ²Ð¾Ñ Ð°ÑÐ¸Ð²Ð°ÐµÑ
ÐºÐ¾ÑÐ¾ÑÐ°Ñ Ð¿ÐµÑÐµÐ²Ð¾ÑÐ°ÑÐ¸Ð²Ð°ÐµÑ
Ñ Ð²ÑÐ²Ð¾Ð´Ð¾Ð¼
Ð±Ð¸Ð½Ð°ÑÐ½Ð¾Ð³Ð¾ Ð¿Ð¾Ð¸ÑÐºÐ°
ÑÐ°Ð·Ð»Ð¸Ñ Ð½ÑÑ
Ð¾Ñ Ð°
( Ð°Ð»Ð³Ð¾ÑÐ¸ÑÐ¼
ÑÐµÑÐ°ÐµÑ Ð·Ð°Ð´Ð°Ñ
Ð·Ð°Ð´Ð°Ñ Ñ
ÑÐµÑÐ°ÐµÑ Ð·Ð°Ð´Ð°ÑÑ
ÑÐ¶ Ð°Ñ
Ð Ð°Ñ
am e
Number ÐºÐ¾ÑÐ¾ÑÐ°Ñ
ÐºÐ¾ÑÐ¾ÑÐ°Ñ ÑÑÐ¸ÑÐ°ÐµÑ
Bo x
re verse
or ity
inar y
Ð¸Ð¹ ÑÑ
Ð½Ð¸Ð¹ ÑÐµÐ³Ð¸ÑÑÑ
S ub
ar ray
Ð±Ð¸Ð½Ð°Ñ Ð½ÑÐ¹
W indow
Ð½Ð°ÑÐ¾Ð´Ð¸Ñ Ð¼Ð°ÐºÑÐ¸Ð¼Ð°Ð»ÑÐ½ÑÐ¹
S TL
F ile
Ð¼Ð°ÑÑÐ¸Ð²Ð° Ð²
Ð´Ð²ÑÑ Ð²ÐµÐºÑÐ¾ÑÐ¾Ð²
Ð¼Ð°ÐºÑÐ¸Ð¼Ð°Ð»ÑÐ½ÑÐ¹ ÑÐ»ÐµÐ¼ÐµÐ½Ñ
Ð² Ð¾Ð´Ð¸Ð½
Ð½Ð° Ð·Ð°Ð´Ð°Ð½
ÐºÐ¾ÑÐ¾ÑÐ°Ñ Ð¸Ð·Ð¼ÐµÐ½ÑÐµÑ
ÑÐ¾Ð´ÐµÑÐ¶ Ð¸Ð¼Ð¾Ðµ
Ð´Ð»Ñ ÑÐ»Ð¾Ð¶ÐµÐ½Ð¸Ñ
Ð½Ð° ÑÐºÐ°Ð·Ð°ÑÐµÐ»Ñ
Ð´Ð²ÑÐ¼ÐµÑ Ð½Ð¾Ð³Ð¾
Ð¸Ðµ Ð¼ÐµÐ¶Ð´Ñ
Ð¸ Ð·Ð°Ð¿Ð¾Ð»Ð½ÑÐµÑ
Ð¿Ð°Ð¼ÑÑÑÑ Ñ
Ð½Ð¾Ð³Ð¾ ÑÐ¿Ð¸ÑÐºÐ°
Ð´Ð»Ñ ÑÐ°Ð·
Ð¸ Ð·Ð°Ð¿Ð¸ÑÑÐ²Ð°ÐµÑ
ÑÑÐ½ÐºÑÐ¸Ñ Ð¿ÑÐ¸Ð½Ð¸Ð¼Ð°ÐµÑ
ÑÑ Ñ
Ð¿Ñ Ð¾Ñ
Ð²Ð¾Ð·Ð²Ñ Ð°ÑÐ°
Ñ ÑÑÐ½ÐºÑÐ¸ÐµÐ¹
Ð²Ð°Ð»Ð¸Ð´ Ð°ÑÐ¸Ð¸
ÑÐ»ÐµÐ¼ÐµÐ½ÑÑ Ð²ÐµÐºÑÐ¾ÑÐ°
ÑÐ°Ð±Ð»Ð¾Ð½ Ð½Ð¾Ð¹
Ð°Ð²ÑÐ¾Ð¼Ð°ÑÐ¸ÑÐµÑ ÐºÐ¸Ð¼
Ð¿ÐµÑÐµÑ ÐµÑÐµÐ½Ð¸Ñ
u ple
ÐÐ°Ð±Ð»ÑÐ´ Ð°ÑÐµÐ»Ñ
Ð¿Ð¾Ð»Ð¸Ð¼Ð¾ÑÑÐ¸Ð·Ð¼ Ð¾Ð¼
Ð²ÑÐµ Ð²ÑÐ¾Ð¶Ð´ÐµÐ½Ð¸Ñ
Ð½Ð¾Ð³Ð¾ ÑÐ°Ð·Ð¼ÐµÑÐ°
Ð´ Ð°
Ð¿Ð¾Ñ Ð¾ÐºÐ°
ÑÑÑÐ¾ÐºÐ¸ ,
Ð¿Ð¾Ð´ ÑÑÑÐ¾Ðº
ÑÑÑÐ¾ÐºÐ° Ð²Ð°Ð»Ð¸Ð´
Ð²Ð°Ð»Ð¸Ð´ Ð½ÑÐ¼
ÑÑÑÐ¾ÐºÐ° Ð²Ð°Ð»Ð¸Ð´Ð½ÑÐ¼
ÑÐµÐ°Ð»Ð¸Ð· Ð°Ñ
u ff
(ÑÐ¿ÑÐ¾ÑÐµÐ½ Ð½Ð°Ñ
ÑÐ°ÑÑÑÐ¾ÑÐ½Ð¸Ñ Ð´Ð¾
o ur
Ð¿ÑÐµÐ´ÑÑÐ°Ð²Ð»ÐµÐ½Ð¸Ñ Ð¾ÑÑÐµÐ·ÐºÐ°
Ð´Ð°Ð½Ð½ÑÑ Ð¾
C ar
ÑÑÐ°Ð½ Ð·
i o
(ÑÐ¿ÑÐ¾ÑÐµÐ½ Ð½ÑÐ¹
D e
Ð½Ð¾Ðµ Ð´ÐµÑÐµÐ²Ð¾
ÑÐµÑÑÑ ÑÐ°Ð¼Ð¸
ÑÐµÑÑÑ ÑÐ¾Ð²
Ð´Ð»Ñ ÑÑÐ°ÑÑÑÐ°
ÑÐ°Ð¹Ð»Ð¾Ð² Ñ
ÑÑÐ½ÐºÑÐ¸Ñ, ÐºÐ¾ÑÐ¾ÑÐ°Ñ
Ð¿Ð¾Ð´ ÐºÐ»ÑÑ
ÐºÐ½Ð¸Ð³ Ð¸
ÑÑÐ°ÑÐ¸ÑÐµÑÐºÐ¸Ð¼ Ð¼ÐµÑÐ¾Ð´Ð¾Ð¼
ÐºÐ»Ð°ÑÑ BankAccount
ÐºÐ»Ð°ÑÑ Sh
ÐºÐ»Ð°ÑÑ Rectangle
ator Ð´Ð»Ñ
Ð¿ÐµÑÐµÐ³ÑÑÐ·ÐºÐ¾Ð¹ Ð¾Ð¿ÐµÑÐ°ÑÐ¾ÑÐ¾Ð²
Ð´Ð»Ñ Ð¿Ð°ÑÑÐµÑÐ½Ð°
empl ate
Ð ÑÐµÑ
ÐÑÐµÑ Ð°ÑÐ¾Ñ
St ate
Com m
Comm and
V isitor
si b
sib il
Ð¸ ÑÑÐ°ÑÐ¸ÑÐµÑÐºÐ¸Ð¼
ÐºÐ¾Ð½ÑÑÑÑÐºÑÐ¾ÑÐ°Ð¼Ð¸ Ð¸
Ð¾Ð¿ÐµÑÐ°ÑÐ¾ÑÐ¾Ð¼ Ð¿ÑÐ¸ÑÐ²Ð°Ð¸Ð²Ð°Ð½Ð¸Ñ
s o
Ð¸ ÐºÐ»Ð°ÑÑ
Ñ Ð·Ð°Ñ
attern )
- >
Ð½Ð°Ð¿Ð¸ÑÐ¸ Ð¿ÑÐ¸Ð¼ÐµÑ
S FIN
SFIN A
SFINA E
Ð¸ Ð¿ÑÐ±Ð»Ð¸ÑÐ½ÑÐ¼Ð¸
Ð¿ÑÐ±Ð»Ð¸ÑÐ½ÑÐ¼Ð¸ Ð¼ÐµÑÐ¾Ð´Ð°Ð¼Ð¸
Ñ Ð¾Ñ
!=, <
< ,
!=, <,
<, >
Ð¿ÑÐ¸Ð²Ð°Ñ Ð½ÑÐ¹
_ b
set Ð´Ð»Ñ
Ð² ÑÐ°Ð¹Ð»Ðµ
ÑÐ°Ð¹Ð» Ñ
Ð±Ð¸Ð½Ð°ÑÐ½Ð¾Ð³Ð¾ ÑÐ°Ð¹Ð»Ð°
f ut
fut ure
Ð±Ð¸Ð½Ð°Ñ Ð½Ð¾Ð¼
Ð² Ð±Ð¸Ð½Ð°ÑÐ½Ð¾Ð¼
) ÑÐµÑÐµÐ·
Ð½Ð°ÑÐ¾Ð¶Ð´ÐµÐ½Ð¸Ñ Ð¼Ð¸Ð½Ð¸Ð¼Ð°Ð»ÑÐ½Ð¾Ð³Ð¾
Ð¿Ð¾ÑÑÐ´ÐºÐµ Ð±ÐµÐ·
ÑÐ¸Ð¿Ð° </w>
ÑÐ¸Ð¿Ð° Ð±ÐµÐ·
Ð½ÑÐ¼ </w>
Ð½ÑÐ¼ Ð±ÐµÐ·
std:: function
Ð¸Ñ) Ð±ÐµÐ·
ÑÐ»Ð¾Ð¶ÐµÐ½Ð¸Ñ ,
E n
ÑÐ¸ÑÐ»Ð¾ ,
Ð¼ÐµÑÑÑ Ð°
Ð²ÑÐ²Ð¾Ð´Ð¸Ñ Ð¸Ñ
Ð¶ Ðµ
Ð· Ð°Ð³Ð»
ÑÐ¸ÑÐ»Ð¾ Ñ
( s
Ð½Ð° 1
Ð¸ Ð¾Ñ
Ð²ÑÐ²Ð¾Ð´Ð¸Ñ ÑÐ°Ð±Ð»Ð¸ÑÑ
Ð¸Ð°Ð½ Ñ
ÑÐºÐ°Ð·Ð°ÑÐµÐ»Ñ </w>
ÑÐºÐ°Ð·Ð°ÑÐµÐ»Ñ Ð±ÐµÐ·
ÑÐ¸ÑÐ»Ð¾ Ð½Ð°
ÑÑÑ ÑÐ¸ÐºÑ
f lo
flo at
Ð´Ð»Ñ ÑÐ¼Ð½Ð¾Ð¶ÐµÐ½Ð¸Ñ
Ð´Ð²Ð¾Ð¹ ÐºÐ¸
Ð¸Ð½ÐºÑ ÐµÐ¼ÐµÐ½ÑÐ°
ÑÐ¸Ð¿Ð° bool
Ð¿Ð¾ÑÐ°Ð·ÑÑÐ´ Ð½Ð¾Ð³Ð¾
Ð¾Ð¿ÐµÑÐ°ÑÐ¸Ð¸ ÑÑÐ°Ð²Ð½ÐµÐ½Ð¸Ñ
Ð´Ð»Ñ ÑÑÑÐ¾ÐºÐ¸
C- st
C-st y
C-sty le
ÑÐµÑ Ð½Ð°Ñ
ÑÑÐ°Ð½ Ð´Ð°Ñ
ÑÑÐ°Ð½Ð´Ð°Ñ Ñ
ÑÐ¸ÑÐµÐ» Ð¸
[ [
] ]
Ð´ÐµÐ¼Ð¾Ð½ÑÑÑ Ð°ÑÐ¸Ð¸
Ð½Ð° ÑÐ»ÐµÐ¼ÐµÐ½ÑÑ
Ð´Ð¸Ð°Ð¿Ð°Ð· Ð¾Ð½
ÑÐºÐ°Ð·Ð°ÑÐµÐ»ÑÐ¼Ð¸ Ð½Ð°
typeid Ð´Ð»Ñ
s )
Ð¸ Ð¸Ñ
Ð½ÑÐµ ÑÐ¸Ð¿Ñ
ÑÐºÐ°Ð·Ð°ÑÐµÐ»ÐµÐ¹ Ñ
Ð½ÑÐ¼Ð¸ ÑÐ¸Ð¿Ð°Ð¼Ð¸
Ð¾Ð² Ð²
Ð²ÑÑÐ¸ÑÐ»ÑÐµÑ Ð¸Ñ
ÐºÐ²Ð°Ð´ÑÐ°ÑÐ½Ð¾Ð³Ð¾ ÑÑÐ°Ð²Ð½ÐµÐ½Ð¸Ñ
Ñ Ð¿Ð¾
Ð¿Ð¾Ð»Ð¾Ð¶Ð¸ÑÐµÐ»ÑÐ½ÑÑ ÑÐ¸ÑÐµÐ»
Â² )
Ð¸ b
ÑÐ³Ð» Ð°
Ð¾Ð±Ñ ÐµÐ¼Ð°
Ñ Ð´ÑÐ°
Ð¿ÑÐ°Ð²Ð¸Ð»Ñ Ð½Ð¾Ð³Ð¾
Ð²Ð¾Ð·Ð² ÐµÐ´ÐµÐ½Ð¸Ñ
Ð¿Ð¾ ÑÐ¾ÑÐ¼ÑÐ»Ðµ:
Ð½Ð¾Ð³Ð¾ Ð¿ÑÐ¾Ð¸Ð·Ð²ÐµÐ´ÐµÐ½Ð¸Ñ
Ð³ Ð¾
Ð½ÑÑ ÑÑÐ¼Ð¼Ñ
Ñ Ð·Ð°Ð´Ð°Ð½Ð½Ð¾Ð¹
Ð¾ÑÐµÐ½ ÐºÐ¸
ÐºÐ¾ÑÐ¾ÑÐ°Ñ Ð²ÑÐ¿Ð¾Ð»Ð½ÑÐµÑ
Ð´ÐµÐ¹ ÑÑÐ²
ÐºÐ¾Ð¼Ð¿Ð»ÐµÐºÑÐ½ÑÑ ÑÐ¸ÑÐµÐ»
ÑÑÐ² Ðµ
Ð 
ÑÑÐµ ÑÐ³Ð¾Ð»ÑÐ½Ð¸Ðº
Ð² Ð´Ð¸Ð°Ð¿Ð°Ð·Ð¾Ð½Ðµ
Ð»Ð¸ Ð¿Ð¾Ð»ÑÑÐ¸ÑÑ
ÑÐµÑÑÑ ÐµÑ
Ñ ÑÑ
sw itch
Ð²ÐµÑ Ñ
Ð¾Ð½ Ð½ÑÐ¹
Ð¿Ð°Ñ Ð¾Ð»Ñ
ÐºÐ¾Ð½ ÑÑ
Ð²ÑÐ±Ð¾Ñ Ð¾Ð¼
Ð¿Ñ Ð¾Ð¿
ÑÑÐ¼Ð¼Ñ ÑÐ»ÐµÐ¼ÐµÐ½ÑÐ¾Ð²
Ð²ÑÑÐ¸ÑÐ»ÑÐµÑ ÑÐ°ÐºÑÐ¾ÑÐ¸Ð°Ð»
ÐµÑÑ Ñ
Ð¾ÑÑÐ¸ÑÐ°ÑÐµÐ»Ñ Ð½ÑÑ
Ð¿Ð¾Ð²ÑÐ¾ÑÑÑÑ Ð¸ÐµÑÑ
Ð²ÑÑÐ¸ÑÐ»ÑÐµÑ Ð¾Ð¿ÑÐµÐ´ÐµÐ»Ð¸ÑÐµÐ»Ñ
Ð·Ð°Ð´Ð°Ð½Ð½Ð¾Ð¼ Ð´Ð¸Ð°Ð¿Ð°Ð·Ð¾Ð½Ðµ
ÐºÐ¾ÑÑ ÐµÐºÑ
Ð°Ð»Ð³Ð¾ÑÐ¸ÑÐ¼ ÐÐµÐ¹ÐºÑÑÑÑ
ÐÐµÐ¹ÐºÑÑÑÑ Ð´Ð»Ñ
ÑÐ»ÐµÐ¼ÐµÐ½ÑÐ° </w>
ÑÐ»ÐµÐ¼ÐµÐ½ÑÐ° Ð±ÐµÐ·
ÑÐ°Ð±Ð»Ð¸Ñ Ñ
Ð³Ð»ÑÐ± Ð¸Ð½Ñ
ÑÐ¸ÑÑ Ð¾Ð²Ð°Ð½Ð¸Ñ
ÐºÑÐ°ÑÑÐ°Ð¹Ñ Ð¸Ñ
Ð¿Ð¾Ð¸ÑÐºÐ° ÐºÑÐ°ÑÑÐ°Ð¹ÑÐ¸Ñ
ÐºÑÐ°ÑÑÐ°Ð¹ÑÐ¸Ñ Ð¿ÑÑÐµÐ¹
Ð°Ð»Ð³Ð¾ÑÐ¸ÑÐ¼ Ð
ÐµÑ Ð°-
ÑÐ¶Ð°Ñ Ð¸Ñ
Ð¿ Ð°
ad d
V al
eren ce
Ð¾ÑÐ¸Ð± Ð¾Ðº
D ist
ÑÐ»ÐµÐ¼ÐµÐ½Ñ </w>
ÑÐ»ÐµÐ¼ÐµÐ½Ñ Ð±ÐµÐ·
P r
Ð½Ð°ÑÐ¾Ð´Ð¸Ñ ÑÐ°Ð¼ÑÐ¹
findM ax
ÑÑÐ½ÐºÑÐ¸Ñ findMax
o st
d it
ÐºÐ¾ÑÐ¾ÑÐ°Ñ ÐºÐ¾Ð´
ÐºÐ¾Ð´ Ð¸ÑÑÐµÑ
ÐºÐ¾ÑÐ¾ÑÐ°Ñ ÐºÐ¾Ð´Ð¸ÑÑÐµÑ
ÐºÐ¾Ð´Ð¸ÑÑÐµÑ ÑÑÑÐ¾ÐºÑ
B ase
at ch
Ð² Ð³ÑÐ°ÑÐµ
ar y
Ð²ÑÐµÑ ÑÐ»ÐµÐ¼ÐµÐ½ÑÐ¾Ð²
ÑÐºÐ°Ð»ÑÑÐ½Ð¾Ðµ Ð¿ÑÐ¾Ð¸Ð·Ð²ÐµÐ´ÐµÐ½Ð¸Ðµ
Ð²ÑÐµ ÑÐ»ÐµÐ¼ÐµÐ½ÑÑ
Ð·Ð°Ð´Ð°Ð½ Ð½Ð¾Ðµ
ÑÐ»ÐµÐ¼ÐµÐ½ÑÐ¾Ð² Ð²
ÑÑ Ð¾
ÑÐ°Ð·Ð»Ð¸Ñ Ð¸Ðµ
ÑÐ°Ð·Ð»Ð¸ÑÐ¸Ðµ Ð¼ÐµÐ¶Ð´Ñ
Ð´Ð»Ñ ÑÐ²ÐµÐ»Ð¸ÑÐµÐ½Ð¸Ñ
Ð¸ÑÐ¿Ð¾Ð»ÑÐ·Ð¾Ð²Ð°Ð½Ð¸Ðµ ÑÑÑÐ»Ð¾Ðº
Ð¸ÑÐ¿Ð¾Ð»ÑÐ·ÑÐµÑ ÑÑÑÐ»ÐºÐ¸
Ð¾Ð±ÑÐµÐºÑÐ¾Ð² </w>
Ð¾Ð±ÑÐµÐºÑÐ¾Ð² Ð±ÐµÐ·
ÑÑÑÑÐºÑÑÑÑ Ð´Ð°Ð½Ð½ÑÑ
ÑÐ»ÐµÐ¼ÐµÐ½Ñ Ð²ÐµÐºÑÐ¾ÑÐ°
ÐºÐ°Ð¶Ð´ÑÐ¹ ÑÐ»ÐµÐ¼ÐµÐ½Ñ
Ñ Ð°Ð²ÑÐ¾Ð¼Ð°ÑÐ¸ÑÐµÑÐºÐ¸Ð¼
Ð´Ð»Ñ ÑÐ´Ð°Ð»ÐµÐ½Ð¸Ñ
Ñ move
t uple
Ð·Ð°ÑÐ² Ð°ÑÐ¾Ð¼
Ob server
Ð·Ð°Ð¿Ð¾Ð»Ð½ÑÐµÑ ÐµÐ³Ð¾
ÑÐ¸ÐºÑÐ¸ÑÐ¾Ð²Ð°Ð½ Ð½Ð¾Ð³Ð¾
ÐºÑ ÐµÑ
( m
Ð¼ Ð¾Ð¹
Ð±Ð°Ð»Ð°Ð½ Ñ
Ð³Ñ ÑÐ¿
Point Ñ
Ð¿ÑÑÐ¼Ð¾ÑÐ³Ð¾Ð»ÑÐ½Ð¸ÐºÐ° Ñ
Ð¿ÑÐµÐ´ÑÑÐ°Ð²Ð»ÐµÐ½Ð¸Ñ ÐºÐ¾Ð¼Ð¿Ð»ÐµÐºÑÐ½Ð¾Ð³Ð¾
Rectangle Ñ
ÑÐ¾ÑÐºÐ¸ Ð²
s Ð¸
Ð¿Ð¾Ð»ÑÐ¼Ð¸ name,
Ð¼ÐµÑÐ¾Ð´Ð¾Ð¼ Ð¾Ð¿ÑÐµÐ´ÐµÐ»ÐµÐ½Ð¸Ñ
Ð´ÑÑÐ³ Ð¸Ð¼
ye ar
Ð²Ð°Ð»Ð¸Ð´ Ð½Ð¾ÑÑÐ¸
ight Ñ
BankAccount Ñ
Date Ñ
ÐºÐ»Ð°ÑÑ G
ÑÐ¸ÑÑÐµÐ¼Ñ ÑÐ¿ÑÐ°Ð²Ð»ÐµÐ½Ð¸Ñ
ach ine
Ð· Ð°Ð³Ñ
Do g
ÐºÐ»Ð°ÑÑ Date
ÐºÐ»Ð°ÑÑ Temperature
ÐºÐ»Ð°ÑÑ Product
ar m
ÑÐ¸ÑÐ»Ð°Ð¼Ð¸ Ñ
ator )
L R
Ð¿ÑÐ» Ð°
ain of
R espon
Respon sibil
Ð²Ñ ÐºÐ»ÑÑ
ÑÑÑ Ð¸Ð¼
Lo g
Ð¿Ð°ÑÐ°Ð¼ÐµÑÑÐ°Ð¼Ð¸ ),
Ñ Ð¿Ð°ÑÐ°Ð¼ÐµÑÑÐ°Ð¼Ð¸),
Ð¿Ð°ÑÐ°Ð¼ÐµÑÑÐ°Ð¼Ð¸), Ð´ÐµÑÑÑÑÐºÑÐ¾ÑÐ¾Ð¼
ÐºÐ»Ð°ÑÑ Sm
Sm art
ÐºÐ»Ð°ÑÑ Smart
ÐºÐ»Ð°ÑÑ Matrix
e Ð´Ð»Ñ
Ð²ÑÐ·Ð¾Ð²Ð° ÑÑÐ½ÐºÑÐ¸Ð¸
CRTP Ð¸
in fo
= =
- time
Ð¿ÑÐ¸Ð¼ÐµÑ, Ð³Ð´Ðµ
Ð²Ð¸ÑÑÑÐ°Ð»Ñ Ð½ÑÑ
H T
Ð½Ð°Ð¿Ð¸ÑÐ¸ ÑÐµÐ°Ð»Ð¸Ð·Ð°ÑÐ¸Ñ
Ð¿Ð¾Ð»Ð¸Ð¼Ð¾ÑÑ Ð½ÑÐ¼Ð¸
Ñ Ð¿Ð¾Ð»Ð¸Ð¼Ð¾ÑÑÐ½ÑÐ¼Ð¸
JSO N-
ÑÐ¾ ÑÑÐ°ÑÐ¸ÑÐµÑÐºÐ¾Ð¹
ÑÑÐ°ÑÐ¸ÑÐµÑÐºÐ¾Ð¹ Ð¿ÐµÑÐµÐ¼ÐµÐ½Ð½Ð¾Ð¹
>> Ð´Ð»Ñ
+ =,
ac cum
accum ulate
unordered_ set
_ queue
Ð¸ÑÐ¿Ð¾Ð»ÑÐ·Ð¾Ð²Ð°Ð½Ð¸ÐµÐ¼ Ð¸ÑÐµÑÐ°ÑÐ¾ÑÐ¾Ð²
Ð¸ÑÐ¿Ð¾Ð»ÑÐ·Ð¾Ð²Ð°Ð½Ð¸ÐµÐ¼ Ð¸ÑÐµÑÐ°ÑÐ¾ÑÐ°
( M
ÑÐµÐ°Ð»Ð¸Ð·ÑÐ¹ Ð²ÑÑÐ¸ÑÐ»ÐµÐ½Ð¸Ðµ
type_ index
shared_ptr Ð¸
Ð»ÑÐ¼Ð±Ð´Ñ Ñ
ÑÐµÐ°Ð»Ð¸Ð·ÑÐ¹ Ð»ÑÐ¼Ð±Ð´Ñ,
ÑÐ°Ð·ÑÐ°Ð±Ð¾ÑÐ°Ð¹ ÑÐ¸ÑÑÐµÐ¼Ñ
so ck
ÐºÐ»Ð¸ÐµÐ½ Ñ
Ð´ÐµÑÐµÐ² Ðµ
ÑÐ¸Ð¼Ð²Ð¾Ð»Ð¾Ð² </w>
ÑÐ¸Ð¼Ð²Ð¾Ð»Ð¾Ð² Ð±ÐµÐ·
ÐµÐ³Ð¾ </w>
0 ,
2 </w>
2 Ð±ÐµÐ·
Ð·Ð½Ð°ÑÐµÐ½Ð¸Ð¹ </w>
Ð·Ð½Ð°ÑÐµÐ½Ð¸Ð¹ Ð±ÐµÐ·
Ð¿Ð°Ð¼ÑÑÐ¸ </w>
Ð¿Ð°Ð¼ÑÑÐ¸ Ð±ÐµÐ·
Ð¿Ð¾ÑÑÐ´ÐºÐµ </w>
Ð¿Ð¾Ð´ÑÑÑÐ¾ÐºÐ¸ Ð±ÐµÐ·
ÑÑÐ½ÐºÑÐ¸Ð¸, ÐºÐ¾ÑÐ¾ÑÐ°Ñ
' Ð±ÐµÐ·
ÑÑÑÐ¾ÐºÑ </w>
Ð²ÑÐ²Ð¾Ð´Ð¸Ñ Ð²Ð²ÐµÐ´ÐµÐ½Ð½Ð¾Ðµ
( 1
Ð±ÑÐºÐ² Ñ
Ð²ÑÐ²Ð¾Ð´Ð¸Ñ ÐµÐµ
ÑÑÐµÐ¼ Ñ
Ñ Ñ
ÑÐ»Ð¾Ð²Ð¾ Ð²
if ic
ÑÐ¸ÑÐ» Ñ
Ð²ÑÑÐ°Ð²Ð½Ð¸Ð² Ð°Ð½Ð¸ÐµÐ¼
Ð²Ð²Ð¾Ð´Ð¸Ð¼ ÑÑ
Ð»Ð¾Ð³ Ð¸ÑÐµÑ
ÑÐµÐ·ÑÐ»ÑÑÐ°Ñ </w>
ÑÐµÐ·ÑÐ»ÑÑÐ°Ñ Ð±ÐµÐ·
Ð¸ÑÐµÐ»Ñ Ð½Ð¾
Ð±Ð»Ð¸Ð¶ Ð°Ð¹Ñ
Ð¿ÑÐ¾Ð²ÐµÑÑÐµÑ, ÑÐ¾Ð´ÐµÑÐ¶Ð¸Ñ
ÑÐ¾Ð´ÐµÑÐ¶Ð¸Ñ Ð»Ð¸
ÐºÐ¾ÑÐ¾ÑÐ°Ñ Ð¸Ñ
Ð¸Ñ ÐµÑ
ÐºÐ¾ÑÐ¾ÑÐ°Ñ Ð¸ÑÐµÑ
ÑÑÑÐ¾ÐºÐ¸ (
Ð½ÑÑ Ð´Ð°Ð½Ð½ÑÑ
ÑÐ½Ð¸ÐºÐ°Ð»Ñ Ð½ÑÐµ
ÐºÐ¾ÑÐ¾ÑÐ°Ñ ÑÐ²ÐµÐ»Ð¸ÑÐ¸Ð²Ð°ÐµÑ
ÑÐ¸Ð¼Ð²Ð¾Ð» Ð²
Ñ ÑÐµÐ»ÑÐ¼Ð¸
ÑÐ°Ð· ÑÐ¼ÐµÐ½Ð¾Ð²Ð°Ð½Ð¸Ðµ
=) Ð´Ð»Ñ
Ð´ÐµÐ»ÐµÐ½Ð¸Ñ Ð½Ð°
val ue
Ð Ð
ÐÐ Ð
X OR
ÑÐºÐ°Ð·Ð°ÑÐµÐ»ÐµÐ¹ </w>
ÑÐºÐ°Ð·Ð°ÑÐµÐ»ÐµÐ¹ Ð±ÐµÐ·
Ð¸Ð·Ð²Ð» ÐµÑÐµÐ½Ð¸Ñ
ÑÐ¾ ÑÑÐ°Ð½ÐµÐ½Ð¸Ñ
ÑÐ»Ð¾Ð¶ Ð½Ð¾Ð¹
quen ce
Ñ Ð¸Ð°Ð»Ñ
Ð¾Ð±ÑÐµÐ´ Ð¸Ð½ÐµÐ½Ð¸Ñ
Ð¸ Ð¸ÑÐ¿Ð¾Ð»ÑÐ·ÑÐµÑ
Ð¼Ð°ÑÑÐ¸Ð²Ð° ÑÐµÐ»ÑÑ
e _
]] Ð´Ð»Ñ
Ð´Ð»Ñ Ð´ÐµÐ¼Ð¾Ð½ÑÑÑÐ°ÑÐ¸Ð¸
a uto
Ð°ÑÐ¸ÑÐ¼ÐµÑ Ð¸ÐºÑ
Ð°ÑÐ¸ÑÐ¼ÐµÑÐ¸ÐºÑ ÑÐºÐ°Ð·Ð°ÑÐµÐ»ÐµÐ¹
Ð¾Ð¿ÐµÑÐ°ÑÐ¸Ð¸ Ñ
Ð² Ð´Ð²Ð¾Ð¸Ñ
Ñ ÑÐºÐ°Ð·Ð°ÑÐµÐ»ÑÐ¼Ð¸
c y
Ð±Ð°Ð· Ð¾Ð²ÑÐ¼
ÐµÐ¹ Ð²
ÑÐ°Ð· Ð½ÑÐµ
Ð²Ð² ÐµÐ´
Ð²Ð²ÐµÐ´ ÑÐ½
Ñ )
Ð¿Ð»Ð¾ÑÐ°Ð´ Ñ
(x )
Ð¼Ð°ÑÑÐ¸ÑÑ 2x2
, c
Ð´ Ð¸Ñ
Ð¿ÑÑÐ¼Ð¾ ÑÐ³Ð¾Ð»ÑÐ½Ð¾Ð³Ð¾
* a
Ð²ÑÑÐ¸ÑÐ»ÐµÐ½Ð¸Ñ Ð¾Ð±ÑÐµÐ¼Ð°
Ñ Ð¾Ð¼
ÑÐ¾Ð¼ Ð±
ÑÐ´ÑÐ° Ð¿Ð¾
Ð¼ÐµÐ´ Ð¸Ð°Ð½
ÑÑÑÑ ÑÐ¸ÑÐµÐ»
Ð²Ð¾Ð·Ð²ÐµÐ´ÐµÐ½Ð¸Ñ Ð²
Ï R
Ð¿Ð¾Ð¼Ð¾ÑÑÑ ÑÑÐ½ÐºÑÐ¸Ð¸
Ð²ÑÐ²Ð¾Ð´Ð¸Ñ ÑÐ¸ÑÐ»Ð°
ÑÐºÐ°Ð»ÑÑ Ð½Ð¾Ð³Ð¾
ÑÑÐµÐ´Ð½ÐµÐ³Ð¾ Ð·Ð½Ð°ÑÐµÐ½Ð¸Ñ
( E
Ð½Ð°Ð¸Ð±Ð¾Ð»ÑÑ Ð¸Ð¹
â 
Ð¿ÑÐ¾ÑÑÑÐ°Ð½ ÑÑÐ²Ðµ
Ð»Ð¸ Ð´Ð²Ð°
ÑÐ¾Ñ ÐºÐ°
Ð½Ð°ÑÐ¾Ð´Ð¸Ñ Ð¼Ð°ÐºÑÐ¸Ð¼Ð°Ð»ÑÐ½Ð¾Ðµ
Ð¸Ð· ÑÐµÑÑÑÐµÑ
Ð²ÐµÑÑ Ð¸Ð½
ÑÐµÐ¶ Ð¸Ð¼
Ð¿ÑÐ°Ð² Ð¸Ð»
Ð½ÑÑ ÑÑÐ°Ð²Ð½ÐµÐ½Ð¸Ð¹
Ð¿Ð¾ÑÑÐ´ ÐºÐ°
Ð±ÐµÐ·Ð¾Ð¿Ð°Ñ Ð½Ð¾Ðµ
Ñ Ð¸Ñ
ÑÑÐ¼Ð¼Ñ Ð²ÑÐµÑ
-b ased
Ñ Ð¼Ð°ÑÑÐ¸Ð²Ð¾Ð¼
ÐµÑÑÑ Ð»Ð¸
Ð»Ð¸ Ð²
Ð¿ ÑÐ·Ñ
Ð¿ÑÐ·Ñ Ñ
Ð¿ÑÐ·ÑÑ Ñ
ÑÐ¾ÑÑÐ¸ÑÑÐµÑ Ð¼Ð°ÑÑÐ¸Ð²
Ð¾Ð¿ÑÐµÐ´ÐµÐ»Ð¸ÑÐµÐ»Ñ Ð¼Ð°ÑÑÐ¸ÑÑ
Ð² Ð¸Ð·
Ð ¢
Ñ Ð´Ð²ÑÐ¼Ñ
Ð £
Ð¿Ð¾Ð´ Ð¼Ð°ÑÑÐ¸Ð²Ð°
Ð²ÑÐµ Ð¿ÐµÑÐµÑÑÐ°Ð½Ð¾Ð²ÐºÐ¸
Ð°Ð»Ð³Ð¾ÑÐ¸ÑÐ¼ Ð±ÑÑÑÑ
Ð±ÑÑÑÑ Ð¾Ð¹
Ð±ÑÑÑÑÐ¾Ð¹ ÑÐ¾ÑÑÐ¸ÑÐ¾Ð²ÐºÐ¸
Ð·Ð°Ð´Ð°ÑÑ Ð¾
Ð² Ð³Ð»ÑÐ±Ð¸Ð½Ñ
Ñ Ð²Ð¾Ð·Ð¼Ð¾Ð¶Ð½Ð¾ÑÑÑÑ
ÐµÐ»Ð» Ð°
Ð Ð°Ð±
ÐÐ°Ñ Ð¿Ð°
ive ÐºÐ¾ÑÐ¾ÑÐ°Ñ
S um
es s
M ult
L ine
Ð¸ Ð²Ð¾Ð·Ð²ÑÐ°ÑÐ°ÐµÑ
Ð½Ð°ÑÐ¾Ð´Ð¸Ñ k-
Ð¸ÑÐµÑ Ð°Ñ
R e
In t
ar ch
Wor d
ÑÐ»Ð¾Ð² Ð²
C ase
Ð² Ð²ÐµÑÑ
er ge
L ist
Ð½Ð°ÑÐ¾Ð´Ð¸Ñ Ð¼Ð¸Ð½Ð¸Ð¼Ð°Ð»ÑÐ½Ð¾Ðµ
I t
O n
A l
ÑÑÐµÑ ÑÐ»ÐµÐ¼ÐµÐ½ÑÐ¾Ð²
ÑÐ± ÑÐ²
Ð¿ÑÐ¾Ð¸Ð·Ð²ÐµÐ´ÐµÐ½Ð¸Ðµ Ð´Ð²ÑÑ
Ð¾ÑÑÐ¾ÑÑÐ¸ÑÐ¾Ð²Ð°Ð½Ð½ÑÑ Ð¼Ð°ÑÑÐ¸Ð²Ð¾Ð²
Ð² ÐºÐ¾Ð½ÐµÑ
Ð¼Ð°ÑÑÐ¸Ð² ÑÐµÑÐµÐ·
Ð½Ð¾Ð³Ð¾ ÑÐºÐ°Ð·Ð°ÑÐµÐ»Ñ
ÐºÐ¾Ð½ÑÑÐ°Ð½Ñ Ð½ÑÐ¹
ÑÐ¸ÑÐ»Ð° Ð¸Ð·
Ð¾Ð¿ÐµÑÐ°ÑÐ¸Ð¹ </w>
Ð¾Ð¿ÐµÑÐ°ÑÐ¸Ð¹ Ð±ÐµÐ·
Ð¾Ð± Ð¼ÐµÐ½Ð°
Ð´Ð»Ñ ÐºÐ¾Ð¿Ð¸ÑÐ¾Ð²Ð°Ð½Ð¸Ñ
Ð²Ð¾Ð·Ð²ÑÐ°Ñ Ð°ÑÑÐµÐ¹
O )
shared_ptr Ð´Ð»Ñ
Ð¸Ð·Ð¼ÐµÐ½ÑÑ Ñ
ÑÑÑÐ»ÐºÑ </w>
ÑÑÑÐ»ÐºÑ Ð±ÐµÐ·
ÑÑÑÐ»ÐºÐµ Ð¸
ÑÑÐ½ÐºÑÐ¸ÐµÐ¹ ÐºÐ¾ÑÐ¾ÑÐ°Ñ
ÑÐ°Ð±Ð¾ÑÑ ÑÐ¾
ÑÐ¿ÐµÑ Ð¸Ð°Ð»Ð¸Ð·
opt ional
an y
Ð²ÑÐµÐ¼Ñ ÐºÐ¾Ð¼Ð¿Ð¸Ð»ÑÑÐ¸Ð¸
, ÐºÐ¾ÑÐ¾ÑÑÐµ
Ð¸ÑÐºÐ»ÑÑ ÐµÐ½Ð¸Ñ
std:: variant
Ð¿ÑÑÐ¸ ÑÐ»ÐµÐ¼ÐµÐ½ÑÐ¾Ð²
ÑÐ»ÐµÐ¼ÐµÐ½ÑÐ¾Ð² Ñ
Ð¿Ð°Ñ Ñ
ÑÐ¸ÐºÑÐ¸ÑÐ¾Ð²Ð°Ð½Ð½Ð¾Ð³Ð¾ ÑÐ°Ð·Ð¼ÐµÑÐ°
ÑÐ¼ÐµÐ¶ Ð½Ð¾ÑÑÐ¸
Ð ÐµÐ²
ÐÐµÐ² ÐµÐ½
ÐÐµÐ²ÐµÐ½ Ñ
ÐÐµÐ²ÐµÐ½Ñ ÑÐµÐ¹
Ð²ÑÑÐ°Ð²ÐºÐ¸ Ð¸
Ð¸ Ð¿Ð¾Ð¸ÑÐºÐ°
e )
ÑÑÑÐ¾ÐºÑ Ð½Ð°
Ð´Ð²ÑÑ ÑÑÑÐ¾Ðº
ÐºÐ¾ÑÐ¾ÑÐ°Ñ ÑÐ¶
ÑÐ¶ Ð¸Ð¼Ð°ÐµÑ
ÐºÐ¾ÑÐ¾ÑÐ°Ñ ÑÐ¶Ð¸Ð¼Ð°ÐµÑ
ÑÐµÐ» Ðµ
ÑÐµÐ»Ðµ Ñ
Ð²Ñ Ð¾Ð¶
g th
Ð² Ð´ÑÑÐ³ÑÑ
Ð¾Ð² Ð¸
Ð°Ð»Ð³Ð¾ÑÐ¸ÑÐ¼ Ð¿ÑÐ¾Ð²ÐµÑÐºÐ¸
Ð¿ÑÐµÐ´ÑÑÐ°Ð²Ð»ÐµÐ½Ð¸Ñ Ð¿ÑÑÐ¼Ð¾ÑÐ³Ð¾Ð»ÑÐ½Ð¸ÐºÐ°
Ñ Ð°Ñ
ÑÐ°Ñ Ð¸Ð¾Ð½Ð°Ð»Ñ
ÑÑÐ½ÐºÑÐ¸Ð¸ Ñ
Ð¾ÑÑÐµÐ·ÐºÐ° Ñ
Ð´ÑÐ¾Ð±Ð¸ Ñ
Ð¿ÐµÑÐ¸Ð¼ÐµÑÑ Ð°
ÑÐ¾ÑÑ ÑÐ´
us Ð¸
Product Ñ
Ñ Ð´ÑÑÐ³Ð¸Ð¼
ÑÐ² ÐµÑÐ°
m ak
, year
Per son
Person Ñ
name Ð¸
Employee Ñ
Ð· Ð°Ñ
Ð·Ð°Ñ Ð¿Ð»
ÑÑÐµÑÑ Ð¸ÐºÐ°
h one
Ð² 3D
Temperature Ñ
L ight
th ,
c ur
p art
_ element
G r
Ð½Ð¾Ð¹ ÑÐ°Ð±Ð¾ÑÑ
Ð´Ð°Ð½ Ð½ÑÐ¼Ð¸
ÑÐ¾Ð±ÑÑ Ð¸Ð¹
Ð¾Ð¿ÐµÑÐ°ÑÐ¸Ð¹ Ñ
ÐºÐ»Ð°ÑÑ Employee
Ð¿ÑÐ±Ð»Ð¸Ñ Ð½ÑÐ¼
ator Ñ
ÐºÐ»Ð°ÑÑ Car
Ñ Ð¾Ð³ÑÐ°Ð½Ð¸ÑÐµÐ½Ð¸ÐµÐ¼
Ñ ÐºÐ¾Ð¼Ð¿Ð»ÐµÐºÑ
ÐºÐ¾Ð¼Ð¿Ð»ÐµÐºÑ Ð½ÑÐ¼Ð¸
Ñ ÐºÐ¾Ð¼Ð¿Ð»ÐµÐºÑÐ½ÑÐ¼Ð¸
ÐºÐ¾Ð¼Ð¿Ð»ÐµÐºÑÐ½ÑÐ¼Ð¸ ÑÐ¸ÑÐ»Ð°Ð¼Ð¸
ate g
LR U
Ð¦ ÐµÐ¿Ð¾Ñ
Ð¦ÐµÐ¿Ð¾Ñ ÐºÐ°
Ch ain
Chain of
of Responsibil
ÑÐ¿ÑÐ°Ð²Ð»ÐµÐ½Ð¸Ñ Ð·Ð°Ð´Ð°Ñ
Ð·Ð°Ð´Ð°Ñ Ð°Ð¼Ð¸
ÑÐ¿ÑÐ°Ð²Ð»ÐµÐ½Ð¸Ñ Ð·Ð°Ð´Ð°ÑÐ°Ð¼Ð¸
Ð¿ÑÐ» Ð¾Ð¼
ÑÑÐ°Ð½Ð· Ð°ÐºÑ
ÑÑÑÐ°Ð½Ð°Ð²Ð»Ð¸Ð² Ð°ÑÑÐ¸Ð¼
Ñ, Ð¸
Animal Ñ
ÐºÐ»Ð°ÑÑ Time
ÐºÐ¾Ð¿Ð¸ÑÐ¾Ð²Ð°Ð½Ð¸Ñ), Ð´ÐµÑÑÑÑÐºÑÐ¾ÑÐ¾Ð¼,
Ð¾Ð±ÑÐµÐºÑÐ¾Ð² Ñ
Ð´ÐµÑ ÐºÑ
Ð´ÐµÑÐºÑ Ð¸Ð¿
Log ger
in k
ÑÐ¸ÑÑ Ð¾
Sh ape
Ð³Ð´Ðµ Ð¿ÑÐ¾Ð¸Ð·Ð²Ð¾Ð´Ð½ÑÐ¹
ÑÑÐ°ÑÐ¸ÑÐµÑÐºÐ¸Ð¼ Ð¿Ð¾Ð»Ð¸Ð¼Ð¾ÑÑÐ¸Ð·Ð¼Ð¾Ð¼
Ð¿Ð¾Ð»Ð¸Ð¼Ð¾ÑÑÐ¸Ð·Ð¼Ð¾Ð¼ Ð´Ð»Ñ
ÑÑÑ Ð°ÑÐµÐ³
comp ile
compile -time
Ð²Ð¸ÑÑÑÐ°Ð»ÑÐ½ÑÑ ÑÑÐ½ÐºÑÐ¸Ñ
ÑÐ² Ð°Ð½Ð¸ÐµÐ¼
HT TP
Ð¿Ð» Ð°Ð³
JSON- Ð¿Ð¾Ð´Ð¾Ð±
U D
UD P
Ð´Ð¾Ð±Ð°Ð²Ñ Ð¼ÐµÑÐ¾Ð´
Ð´Ð¾Ð±Ð°Ð²Ñ Ð¼ÐµÑÐ¾Ð´Ñ
Ð²ÑÐ²Ð¾Ð´Ð° <<
Ð¾Ð¿ÐµÑÐ°ÑÐ¾ÑÐ¾Ð¼ +
<<, >>
copy _if
ÑÐµÐ°Ð»Ð¸Ð·ÑÐ¹ ÑÐ°Ð±Ð»Ð¾Ð½Ð½ÑÑ
con dit
ÑÑÐ½ÐºÑÐ¸Ñ Ð¿ÑÐ¾Ð²ÐµÑÐºÐ¸
ÑÐµÐ°Ð»Ð¸Ð·ÑÐ¹ Ð¼ÐµÑÐ°Ð½Ð¸Ð·Ð¼
ÑÐµÐ°Ð»Ð¸Ð·ÑÐ¹ Ð¿ÐµÑÐµÐ¼ÐµÑÐµÐ½Ð¸Ðµ
ÑÐµÐ¼Ð°Ð½ÑÐ¸ÐºÐ¾Ð¹ Ð´Ð»Ñ
Ð±Ð»Ð¾ÐºÐ¸Ñ Ð¾Ð²
Ð¿Ð¾Ð´Ð´ÐµÑÐ¶ÐºÐ¾Ð¹ Ð¾Ñ
- ÑÐµÑÐ²ÐµÑ
Ð¸ÑÐ¿Ð¾Ð»ÑÐ·ÑÐµÑ Ð¿Ð°ÑÑÐµÑÐ½
Ð¿Ð¾Ð¸ÑÐºÐ° </w>
Ð¿Ð¾Ð¸ÑÐºÐ° Ð±ÐµÐ·
i b
Ð¿Ð¾Ð´ÑÑÑÐ¾ÐºÐ¸ </w>
Ð´ÐµÑÐµÐ²Ð° </w>
Ð´ÐµÑÐµÐ²Ð° Ð±ÐµÐ·
Ð¿Ð°ÑÐ°Ð¼ÐµÑÑ Ð°
Ð¾Ð¿ÐµÑÐ°ÑÐ¾ÑÐ¾Ð¼ ÑÐ»Ð¾Ð¶ÐµÐ½Ð¸Ñ
Ð²Ð¸ÑÑÑÐ°Ð»ÑÐ½ÑÐ¼ Ð´ÐµÑÑÑÑÐºÑÐ¾ÑÐ¾Ð¼
Ð½ÑÑ ÑÑÐ½ÐºÑÐ¸Ð¹
ÐºÐ»Ð°ÑÑÐµ </w>
ÐºÐ»Ð°ÑÑÐµ Ð±ÐµÐ·
Ð¿Ð¾Ð¼Ð¾ÑÑÑ std::
std:: unordered_map
Ð¸ÑÐºÐ»ÑÑÐµÐ½Ð¸ÑÐ¼Ð¸ </w>
Ð¸ÑÐºÐ»ÑÑÐµÐ½Ð¸ÑÐ¼Ð¸ Ð±ÐµÐ·
Ð¿ÑÐ¾ÑÑ Ð¾Ðµ
Ð·Ð°Ð¿Ñ Ð¾ÑÐ°
' </w>
Ð² Ð¾Ð´Ð½Ñ
ÐºÐ°Ð¼Ð¸ </w>
Ð¿Ð¾Ð»ÑÐ·Ð¾Ð²Ð°ÑÐµÐ»ÐµÐ¼ </w>
Ð¿Ð¾Ð»ÑÐ·Ð¾Ð²Ð°ÑÐµÐ»ÐµÐ¼ Ð±ÐµÐ·
Ð²Ð²ÐµÐ´ÐµÐ½Ð½ÑÑ ÑÑÑÐ¾ÐºÑ
ÑÐ¸ÑÐ»Ð° Ð¸
Ð´ Ñ
Ð½Ð°Ð·Ð² Ð°Ð½Ð¸Ðµ
, Ð°
Ð²Ð²ÐµÐ´ÐµÐ½Ð½Ð¾Ð¹ ÑÑÑÐ¾ÐºÐ¸
Ð²Ð²ÐµÐ´ÐµÐ½Ð½Ð¾Ð¹ Ð¿Ð¾Ð»ÑÐ·Ð¾Ð²Ð°ÑÐµÐ»ÐµÐ¼
Ñ Ð²ÑÑÐ°Ð²Ð½Ð¸Ð²Ð°Ð½Ð¸ÐµÐ¼
Ð²ÑÐ²Ð¾Ð´Ð¸Ñ Ð¿ÐµÑÐ²ÑÐ¹
Ð¿ÐµÑÐ²ÑÐ¹ Ð¸
Ð¸ Ð¿Ð¾ÑÐ»ÐµÐ´Ð½Ð¸Ð¹
Ð¸Ð³ Ð½Ð¾Ñ
ÑÐ¸ÑÐ»Ð° Ð´Ð¾
Ð¾Ð¿ÑÐµÐ´ÐµÐ»ÑÐµÑ ,
ÐºÐ¾Ð»Ð¸ÑÐµÑÑÐ²Ð¾ ÑÐ»Ð¾Ð²
Ð²Ð²ÐµÐ´ÐµÐ½ Ð½ÑÑ
Ð¸Ð¼ÐµÐ½Ð¸ Ð¸
ÐºÐ¾ÑÐ¾ÑÐ°Ñ ÑÐ¾ÑÐ¼Ð°ÑÐ¸ÑÑÐµÑ
Ð½Ð¾Ð¹ ÑÑÐ¼Ð¼Ñ
( 2
Ð²Ð²ÐµÐ´ÐµÐ½ Ð½Ð°Ñ
ÑÑÑÐ¾ÐºÐ° ÑÐ¾Ð»ÑÐºÐ¾
ÑÐ°Ð¼ Ð¾Ðµ
ÑÐ°Ð¼Ð¾Ðµ Ð´Ð»Ð¸Ð½
Ð´Ð»Ð¸Ð½ Ð½Ð¾Ðµ
ÑÐ°Ð¼Ð¾Ðµ Ð´Ð»Ð¸Ð½Ð½Ð¾Ðµ
Ð´Ð»Ð¸Ð½Ð½Ð¾Ðµ ÑÐ»Ð¾Ð²Ð¾
ÑÐ¸Ð¿Ð° char
ÑÐ¸Ð¼Ð²Ð¾Ð»Ð° Ð²
ÑÐ¸Ð¿Ð° unsigned
Ð¾Ð¿ÐµÑÐ°ÑÐ¾ÑÐ° Ð¿ÑÐ¸ÑÐ²Ð°Ð¸Ð²Ð°Ð½Ð¸Ñ
sh ort
Ð¿ÑÐ¸ÑÐ²Ð°Ð¸Ð²Ð°Ð½Ð¸ÐµÐ¼ Ð·Ð½Ð°ÑÐµÐ½Ð¸Ñ
Ð¿ÐµÑÐµÐ¼ÐµÐ½Ð½Ð¾Ð¹ ÑÐµÑÐµÐ·
ÑÐ¾Ñ Ð½Ð¾ÑÑÑÑ
Ñ Ð¿ÑÐ¸Ð¼ÐµÐ½ÐµÐ½Ð¸ÐµÐ¼
ÑÐ¸ÐºÐ» Ð°
( &
Ð² Ð¿ÑÐ°Ð²Ð¾
Ð½Ð° 2
Ð¾Ð¿ÐµÑÐ°ÑÐ¸Ð¸ Ð¿Ð¾ÑÐ°Ð·ÑÑÐ´Ð½Ð¾Ð³Ð¾
4 )
Ð½Ð° Ð½Ð¾Ð»Ñ
Ð¿ÐµÑÐµÐ¼ÐµÐ½Ð½Ð¾Ð¹ ÑÐµÐ·ÑÐ»ÑÑÐ°ÑÐ°
ÑÐ°Ñ ÑÐ¸Ñ
ÐÐÐ (
ÑÐ¸ÑÐ»Ð¾ ÑÑÐµÐ¿ÐµÐ½ÑÑ
Ð¿Ð¾Ð»ÑÐ·Ð¾Ð²Ð°ÑÐµÐ»ÑÑ ÐºÐ¾Ð³Ð¾
ÐºÐ¸Ðµ Ð¾Ð¿ÐµÑÐ°ÑÐ¸Ð¸
Ñ Ð°Ð²Ð½Ð¾
Ð¿ÐµÑ ÐµÐ¿Ð¾Ð»
ÐÐ 
Ð´Ð»Ñ Ð¿ÐµÑ
ÐºÐ¾ÑÐ¾ÑÐ°Ñ Ð¾Ð±ÑÑÐ²Ð»ÑÐµÑ
ÐºÐ¾Ð½ÑÑÐ°Ð½Ñ Ñ
decl type
Ð¿ÑÐµÐ¾Ð±ÑÐ°Ð· Ð¾Ð²Ð°Ð½Ð¸Ðµ
ÑÑÐ°Ð²Ð½Ð¸Ð²Ð°ÐµÑ Ð´Ð²Ð°
ÑÐ¸Ð¿Ð¾Ð² Ð´Ð°Ð½Ð½ÑÑ
Ð¸Ð½Ð¸ÑÐ¸Ð°Ð»Ð¸Ð· Ð°ÑÐ¸Ñ
Ð»Ð¸ÑÐµÑÐ°Ð» Ð°Ð¼Ð¸
ÐºÐ¾Ð¼Ð¿Ð¸Ð»ÑÑÐ¸Ð¸ </w>
ÐºÐ¾Ð¼Ð¿Ð¸Ð»ÑÑÐ¸Ð¸ Ð±ÐµÐ·
Ð¸ÑÐ¿Ð¾Ð»ÑÐ·Ð¾Ð²Ð°Ð½Ð¸Ðµ ÑÐ¸Ð¿Ð°
ÐºÐ¾Ð¿ Ð¸ÑÐ¾Ð²Ð°Ð½Ð¸ÐµÐ¼
Ð²ÑÐ²Ð¾Ð´ ÑÑ
Ð¿Ð¾ÐºÐ°Ð·ÑÐ²Ð°ÑÑÑÑ ÑÐ°Ð±Ð¾ÑÑ
Ð¸ÑÐ¿Ð¾Ð»ÑÐ·ÑÐµÑ typeid
Ð²ÑÐµÐ¼Ñ Ð²ÑÐ¿Ð¾Ð»Ð½ÐµÐ½Ð¸Ñ
ÑÐ°Ð·Ð»Ð¸Ñ Ð½ÑÐ¼Ð¸
mut able
ÑÐ¾Ð¾Ñ Ð²ÐµÑÑÑÐ²
Ð´Ð²Ð¾Ð¹ Ð½Ð¾Ð¹
ÑÐ»Ð¾Ð¶ Ð½ÑÑ
Ð¿ÑÐ¾Ð²ÐµÑ ÐºÑ
Ð±ÑÑÐµÑ Ð°
Ð¿Ð¾ Ð´Ð»Ð¸Ð½Ðµ
S =
Ð²ÐµÑÐµÑÑÐ²ÐµÐ½ Ð½Ð¾Ðµ
ÑÐ³Ð¾Ð» Ð²
ÑÐµÐ» Ð°
Â² -
r ad
0 </w>
Ã 
ÑÐ°Ð·Ð½Ð¸Ñ Ñ
Ð²ÐµÐºÑÐ¾ÑÐ° Ð¿Ð¾
Ð½Ð°ÑÐ¾Ð´Ð¸Ñ Ð¼ÐµÐ´Ð¸Ð°Ð½
Ð¼ÐµÐ´Ð¸Ð°Ð½ Ñ
ÑÐ¾ÑÑÐ¸ÑÐ¾Ð² ÐºÑ
Â ³
Ñ ÐµÐ±
Ð¿Ð¾ ÑÐ¿ÑÐ¾ÑÑÐ½
ÑÐ¿ÑÐ¾ÑÑÐ½ Ð½Ð¾Ð¹
Ð¿Ð¾ ÑÐ¿ÑÐ¾ÑÑÐ½Ð½Ð¾Ð¹
Ð² ÑÑÐµÐ¿ÐµÐ½Ñ
Ñ ÐºÐ¾Ñ
ÑÐ°ÑÑÑÐ¾ÑÐ½Ð¸Ðµ Ð¼ÐµÐ¶Ð´Ñ
Ð¿Ð» Ð¾Ñ
Ð¿Ð»Ð¾Ñ ÐºÐ¾ÑÑÐ¸
Ð´Ð¾ 1
Ð¼Ð°ÑÑÐ¸Ð²Ð¾Ð² </w>
Ð¼Ð°ÑÑÐ¸Ð²Ð¾Ð² Ð±ÐµÐ·
Ð·Ð°Ð´Ð°Ð½ Ð½ÑÐ¹
Ð¿Ð¾ Ð²
Ð´Ð»Ð¸Ð½Ñ Ð¾ÐºÑÑÐ¶Ð½Ð¾ÑÑÐ¸
ÑÐºÐ» Ð°Ð´ÑÐ²Ð°ÐµÑ
Ð´Ð²ÑÑ ÐºÐ¾Ð¼Ð¿Ð»ÐµÐºÑÐ½ÑÑ
Ð½Ð°Ð¸Ð±Ð¾Ð»ÑÑÐ¸Ð¹ Ð¾Ð±ÑÐ¸Ð¹
ÑÐ¸ÑÑ Ð²
+ 1/
Ð°ÐµÐ¼ Ð¾ÑÑÐ¸
ÐºÐ¾Ñ Ð½ÐµÐ¹
0 )
Ð² ÑÐ¾ÑÐ¼Ð°Ñ
ÑÑÑ ÐµÐºÑ
Ñ ÐºÐ¸Ð´
Ð¸ ÑÐ°Ð·
Ð» ÐµÐ¶
ÑÑÐ°Ð²Ð½Ð¸Ð²Ð°ÐµÑ Ð´Ð²Ðµ
ÐºÑÐ°Ñ Ð½ÑÐµ
Ð´Ð¾ 10
Ð»Ð¸ Ð³Ð¾Ð´
Ð»Ð¸ ÑÐ¾ÑÐºÐ°
Ð¾Ð¹ ÐºÐ¸
Ñ Ð°Ð²Ð½Ð°
Ð¸Ð½ÑÐµÑÐ²Ð°Ð» Ð°
Ð¾Ð¿ÑÐµÐ´ÐµÐ»ÑÐµÑ Ð²Ð¸Ð´
Ð¾ÑÑÐµÐ· ÐºÐ¾Ð²
Ð½ÑÐ¹ ,
Ð½ÑÐ¹ )
ÑÑÐµÑ ÑÐ¸ÑÐµÐ»
ÑÐ¸ÑÐ»Ð¾ Ð¿ÑÐ¾ÑÑÑÐ¼
Ð²ÑÐµ Ð¿ÑÐ¾ÑÑÑÐµ
Ð²ÐµÑ Ñ
Ð¿ÑÐ¾Ð²ÐµÑÐºÐ¾Ð¹ Ð½Ð°
Ð´Ð»Ñ ÑÐµÑÐµÐ½Ð¸Ñ
ÐµÑ Ð¾
Ð¾Ðº Ñ
Ð¸ Ð¾Ð±ÑÐ°Ð±Ð¾ÑÐºÐ¾Ð¹
ÑÐµÑ Ð½ÑÐµ
Ð´Ð¾ 100
ÑÐ¸ÑÐµÐ» Ð´Ð¾
Ð³Ð»Ð°Ñ Ð½ÑÐµ
ÑÐ°Ð·Ð½Ð¾ÑÑÑ Ð¼ÐµÐ¶Ð´Ñ
Ð½Ð°ÑÐ¾Ð´Ð¸Ñ Ð¼Ð¸Ð½Ð¸Ð¼Ð°Ð»ÑÐ½ÑÐ¹
Ð¾ÑÑÐ¸ÑÐ°ÑÐµÐ»ÑÐ½ÑÑ ÑÐ¸ÑÐµÐ»
. .
ÑÐ¸ÑÐµÐ» Ð¤Ð¸Ð±Ð¾Ð½Ð°ÑÑÐ¸
Ñ Ñ
ÑÑÐ´ Ð¢
Ð¢ ÐµÐ¹
ÑÑÐ´ Ð¢ÐµÐ¹
Ð¢ÐµÐ¹ Ð»
ÑÑÐ´ Ð¢ÐµÐ¹Ð»
Ð¢ÐµÐ¹Ð» Ð¾ÑÐ°
ÑÑÐ´ Ð¢ÐµÐ¹Ð»Ð¾ÑÐ°
Ð¿Ð¾Ð¸ÑÐº Ð²
Ð³ÐµÐ½ÐµÑÐ¸ÑÑÐµÑ Ð²ÑÐµ
Ð°Ð»Ð³Ð¾ÑÐ¸ÑÐ¼ Ð±ÑÑÑÑÐ¾Ð¹
ÑÐ¾ÑÑÐ¸ÑÐ¾Ð²ÐºÐ¸ (
Ñ Ñ
Ð¾ ÑÑ
ÑÑ Ðº
Ð¾ ÑÑÐº
ÑÑÐº Ð·
Ð¾ ÑÑÐºÐ·
ÑÑÐºÐ· Ð°ÐºÐµ
Ð¾ ÑÑÐºÐ·Ð°ÐºÐµ
Ð³Ð»ÑÐ±Ð¸Ð½Ñ (D
(D FS)
Ð³Ð»ÑÐ±Ð¸Ð½Ñ (DFS)
Ð¾Ð±ÑÐ¾Ð´Ð° Ð³ÑÐ°ÑÐ°
Ð°Ð»Ð³Ð¾ÑÐ¸ÑÐ¼ Ð¤
Ð Ð¾Ð¹
ÐÐ¾Ð¹ ÐµÑÐ°-
ÐÐ¾Ð¹ÐµÑÐ°- Ð
ÐÐ¾Ð¹ÐµÑÐ°-Ð ÑÑ
Ð¥ Ð°Ñ
Ð¥Ð°Ñ Ñ
Ð¥Ð°ÑÑ Ð¼Ð°Ð½Ð°
Ð°Ð»Ð³Ð¾ÑÐ¸ÑÐ¼ ÐÐ°Ð±
ÐÐ°Ð± Ð¸Ð½Ð°-
Ð°Ð»Ð³Ð¾ÑÐ¸ÑÐ¼ ÐÐ°Ð±Ð¸Ð½Ð°-
ÐÐ°Ð±Ð¸Ð½Ð°- ÐÐ°ÑÐ¿Ð°
Ð°Ð»Ð³Ð¾ÑÐ¸ÑÐ¼ ÐÐ°Ð±Ð¸Ð½Ð°-ÐÐ°ÑÐ¿Ð°
ÐÐ°Ð±Ð¸Ð½Ð°-ÐÐ°ÑÐ¿Ð° Ð´Ð»Ñ
ess age
ex t
ÑÑÐ½ÐºÑÐ¸Ñ count
Dist ance
Ñ ÐµÐ²ÐµÑÑ
E m
Em ail
T o
B inary
P al
Ð¿ÑÐ¾Ð±ÐµÐ»Ñ Ð¸Ð·
Ð¼Ð°ÐºÑÐ¸Ð¼Ð°Ð»Ñ Ð½ÑÑ
find Number
ÑÑÐ½ÐºÑÐ¸Ñ findNumber
findNumber Of
ÑÑÐ½ÐºÑÐ¸Ñ findNumberOf
find Lon
ÑÑÐ½ÐºÑÐ¸Ñ findLon
findLon gest
ÑÑÐ½ÐºÑÐ¸Ñ findLongest
Ð²ÐµÑÑ Ð½Ð¸Ð¹
Ð² Ð²ÐµÑÑÐ½Ð¸Ð¹
Ð²ÐµÑÑÐ½Ð¸Ð¹ ÑÐµÐ³Ð¸ÑÑÑ
Ð¼Ð°ÑÑÐ¸Ð² Ñ
Ð² ÐµÐ»Ð¸Ñ
Con t
W ith
S ort
IP -
Ð¿ÐµÑÐµÑ ÐµÑ
Ð¿Ð¾Ð´ Ð¿Ð¾ÑÐ»ÐµÐ´Ð¾Ð²Ð°ÑÐµÐ»ÑÐ½Ð¾ÑÑÐ¸
Ð°ÑÑ Ð¸Ð¹
ÑÑÐ¸ÑÐ°ÐµÑ ÐºÐ¾Ð»Ð¸ÑÐµÑÑÐ²Ð¾
Ð¿Ð¾Ð¸ÑÐºÐ° Ð¼Ð°ÐºÑÐ¸Ð¼Ð°Ð»ÑÐ½Ð¾Ð³Ð¾
p ing
Ð² 2D
Ð¸ Ð¸Ð½Ð¸ÑÐ¸Ð°Ð»Ð¸Ð·Ð¸ÑÑÐµÑ
Ðº ÑÐ»ÐµÐ¼ÐµÐ½ÑÐ°Ð¼
Ð²ÑÐ²Ð¾Ð´Ð¸Ñ ÑÐ»ÐµÐ¼ÐµÐ½ÑÑ
Ð¾Ð±ÑÐµÐ´Ð¸Ð½ÑÐµÑ Ð´Ð²Ð°
Ð½Ð° Ð·Ð°Ð´Ð°Ð½Ð½Ð¾Ðµ
Ð·Ð°Ð´Ð°Ð½Ð½Ð¾Ðµ ÑÐ¸ÑÐ»Ð¾
ÑÐ°ÑÑÐ¾Ñ Ñ
ÑÐ°Ð·Ð¼ÐµÑÐ° </w>
ÑÐ°Ð·Ð¼ÐµÑÐ° Ð±ÐµÐ·
Ð¼Ð°ÑÑÐ¸Ð²Ð° (
Ð¾Ð±Ñ ÐµÐ¹
Ð´Ð²ÑÐ¼ÐµÑ Ð½ÑÐ¹
ÑÑÑÐ¾ÐºÐµ ,
Ð² ÑÑÑÐ¾ÐºÐµ,
Ñ Ð¾Ð¿Ð¾Ð»Ð¾Ð³Ð¸ÑÐµÑÐºÐ¾Ð¹
ÑÐ¾Ð¿Ð¾Ð»Ð¾Ð³Ð¸ÑÐµÑÐºÐ¾Ð¹ ÑÐ¾ÑÑÐ¸ÑÐ¾Ð²ÐºÐ¸
Ð Ð¾Ñ
Ð¼Ð¸Ð½Ð¸Ð¼Ð°Ð»ÑÐ½Ð¾Ð³Ð¾ Ð¾ÑÑÐ¾Ð²Ð½Ð¾Ð³Ð¾
Ð¾ÑÑÐ¾Ð²Ð½Ð¾Ð³Ð¾ Ð´ÐµÑÐµÐ²Ð°
ÐºÐ¾ÑÐ¾ÑÐ°Ñ Ð¸Ð½Ð¸ÑÐ¸Ð°Ð»Ð¸Ð·Ð¸ÑÑÐµÑ
Ð²ÑÐ²Ð¾Ð´Ð¸Ñ Ð·Ð½Ð°ÑÐµÐ½Ð¸Ðµ
Ð½Ð° Ð¼Ð°ÑÑÐ¸Ð²
ÑÐ»ÐµÐ¼ÐµÐ½Ñ Ñ
Ð·Ð½Ð°ÑÐµÐ½Ð¸Ñ Ð½Ð°
ÑÐµÑÐµÐ· ÑÐºÐ°Ð·Ð°ÑÐµÐ»Ð¸
Ð² ÑÑÐ½ÐºÑÐ¸Ñ
Ð¼Ð¾Ð´Ð¸Ñ Ð¸ÐºÐ°ÑÐ¸Ð¸
Ð¼Ð°ÑÐµÐ¼Ð°ÑÐ¸ÑÐµÑÐºÐ¸Ñ Ð¾Ð¿ÐµÑÐ°ÑÐ¸Ð¹
Ð´Ð»Ñ Ð¾Ð±Ð¼ÐµÐ½Ð°
Ð¸Ð·Ð¼ÐµÐ½ÐµÐ½Ð¸Ñ Ð·Ð½Ð°ÑÐµÐ½Ð¸Ñ
ÑÐ¸Ð¼Ð²Ð¾Ð»Ð¾Ð² Ð²
ÑÑÐ°ÑÐ¸ÑÐµÑ ÐºÑÑ
Ð¼Ð°ÑÑÐ¸Ð² Ñ
Ð²ÑÐ´ÐµÐ»ÑÐµÑ Ð¸
ÑÐµÐ»ÑÑ ÑÐ¸ÑÐµÐ»,
ÑÑÑÐ¾ÐºÐµ Ñ
ÑÐ°Ð· Ð´ÐµÐ»Ñ
Ð·Ð°Ñ Ð¸Ñ
Ð¿Ð°ÑÐ°Ð¼ÐµÑÑ Ñ
ÑÑÑÐ»ÐºÐ° Ð½Ð°
ÑÑÑÐ»ÐºÐµ Ð´Ð»Ñ
Ð·Ð°Ð¿Ð¸ÑÑÐ²Ð°ÐµÑ ÑÐµÐ·ÑÐ»ÑÑÐ°Ñ
Ð¼Ð¾Ð¶ÐµÑ Ð±
Ð± ÑÑÑ
Ð¼Ð¾Ð¶ÐµÑ Ð±ÑÑÑ
Ð¿ÐµÑÐµÐ´Ð°ÑÑ Ð¿Ð¾
ÑÑÑÐ»Ð¾Ðº Ð²
Ð·Ð°Ñ Ð¸Ñ
ÑÑÑÐ»ÐºÐ¸ Ð´Ð»Ñ
Ð¾Ð±ÑÐµÐºÑÐ° </w>
Ð½ÑÑ Ð¿ÐµÑÐµÐ¼ÐµÐ½Ð½ÑÑ
ÐµÐ³Ð¾ ÑÐ»ÐµÐ¼ÐµÐ½ÑÑ
re f
ÑÑÑÐ»Ð¾Ðº Ñ
_ list
de que
ÐºÐ¾Ð½ÑÐµÐ¹Ð½ÐµÑ Ð°
Ð°ÑÐ³ÑÐ¼ÐµÐ½ ÑÐ¾Ð²
Ñ Ðº
ÑÐ°ÐºÑÐ¾ÑÐ¸Ð°Ð» Ð°
n o
no ex
noex ce
noexce pt
Ðº ÑÑÐ¸ÑÐ¾Ð²Ð°Ð½Ð¸Ñ
v isit
Ð´Ð»Ñ Ð¾Ð´Ð½Ð¾Ð³Ð¾
ÑÑÑÐ¾ÐºÐ¸ Ð¸
Ð¸ Ð¿ÑÐ¾Ð²ÐµÑÑÐµÑ,
Ð¿Ð¾Ð¸ÑÐºÐ° Ñ
Ð¸ Ð²ÑÐ¿Ð¾Ð»Ð½ÑÐµÑ
Ð¸Ð² Ð°Ð½Ð¸Ñ
Ð°Ð»Ð³Ð¾ÑÐ¸ÑÐ¼ Ð±Ð¸Ð½Ð°ÑÐ½Ð¾Ð³Ð¾
Ð¿ÑÑÐ¸ Ð²
ÐÐµÐ²ÐµÐ½ÑÑÐµÐ¹ Ð½Ð°
Ð±Ð¸Ð½Ð°Ñ Ð½Ð¾Ðµ
ÑÐ¾ÑÑÐ¸ÑÐ¾Ð²ÐºÐ¸ ÑÐ»Ð¸ÑÐ½Ð¸ÐµÐ¼
he ap
Ð¾ÑÐµÑÐµÐ´ Ð¸
ÑÐµÑ Ð¸
Ð¿Ð¾Ð¼Ð¾ÑÑÑ Ð°Ð»Ð³Ð¾ÑÐ¸ÑÐ¼Ð¾Ð²
ÐºÐ¾ÑÐ¾ÑÐ°Ñ ÑÐ°Ð·Ð±
ÑÐ°Ð·Ð± Ð¸Ð²Ð°ÐµÑ
ÐºÐ¾ÑÐ¾ÑÐ°Ñ ÑÐ°Ð·Ð±Ð¸Ð²Ð°ÐµÑ
Ð¿Ð¾Ð´ÑÑÑÐ¾ÐºÐ¸ Ð²
Ð» ÐµÐºÑ
Ð»ÐµÐºÑ Ð¸ÐºÐ¾Ð³ÑÐ°Ñ
Ð²ÑÐ¾Ð¶ Ð´ÐµÐ½Ð¸Ð¹
Ð¿Ð¾Ð²ÑÐ¾ÑÑÑÑ Ð¸ÑÑÑ
L E
+ =
it le
Ð³ÑÑÐ¿ Ð¿
( S
(ÑÐ¿ÑÐ¾ÑÐµÐ½Ð½Ð°Ñ Ð²ÐµÑÑ
Ð²ÐµÑÑ Ð¸Ñ)
(ÑÐ¿ÑÐ¾ÑÐµÐ½Ð½Ð°Ñ Ð²ÐµÑÑÐ¸Ñ)
ÐºÐ¾Ð¾ÑÐ´Ð¸Ð½Ð°Ñ </w>
ÐºÐ¾Ð¾ÑÐ´Ð¸Ð½Ð°Ñ Ð±ÐµÐ·
w id
Polynom ial
Time Ñ
s ,
m in
Ð¿ÑÐµÐ´ÑÑÐ°Ð²Ð»ÐµÐ½Ð¸Ñ ÑÑÐµÑÐ³Ð¾Ð»ÑÐ½Ð¸ÐºÐ°
Ð´Ð°ÑÑ Ñ
Vector 2D
Car Ñ
Ð²ÑÐ²Ð¾Ð´Ð° Ð¸Ð½ÑÐ¾ÑÐ¼Ð°ÑÐ¸Ð¸
age Ð¸
It em
Ð´Ð»Ñ Ð¿ÑÐ¾Ð²ÐµÑÐºÐ¸,
R ational
Ð³ÑÐ°ÑÐ° Ñ
union Ñ
IP v
Ð±ÐµÐ·Ð¾Ð¿Ð°Ñ Ð½Ð¾Ð¹
Ð´Ð»Ñ Ð±ÐµÐ·Ð¾Ð¿Ð°ÑÐ½Ð¾Ð¹
Ð±ÐµÐ·Ð¾Ð¿Ð°ÑÐ½Ð¾Ð¹ ÑÐ°Ð±Ð¾ÑÑ
Ð½Ð¾Ð³Ð¾ ÑÐ¸Ð¿Ð°
Ð¸Ð½ÑÐµÑÑÐµÐ¹ ÑÐ°
Ð¾Ð±ÑÐ°Ð±Ð¾ÑÐºÐ¸ Ð´Ð°Ð½Ð½ÑÑ
Ñ Ð¼Ð°ÑÑÐ¸Ñ
Ð¼Ð°ÑÑÐ¸Ñ Ð°Ð¼Ð¸
ÑÐµÐ°Ð»Ð¸Ð·Ð°ÑÐ¸Ð¸ ÑÐ¸ÑÑÐµÐ¼Ñ
Ñ Ð±Ð¸Ð½Ð°Ñ
Ð¿ÑÐ¾Ñ Ð¾ÐºÐ¾Ð»
ÑÐ¿ÑÐ°Ð²Ð»ÐµÐ½Ð¸Ñ ÑÐµÑÑÑÑÐ°Ð¼Ð¸
ÑÐµÑÑÑÑÐ°Ð¼Ð¸ Ñ
Ð»Ð¾Ð³ Ð¸ÑÐ¾Ð²Ð°Ð½Ð¸Ñ
Ð´Ð»Ñ ÑÐ¸Ð¿Ð¾Ð²
Ð² ÐºÐ°Ñ
ÐºÐ°Ñ ÐµÑÑÐ²Ðµ
Ð² ÐºÐ°ÑÐµÑÑÐ²Ðµ
Ð³ÐµÐ¾Ð¼ÐµÑÑÐ¸ÑÐµÑÐºÐ¸Ñ ÑÐ¸Ð³ÑÑ
ÑÐ² ÐµÐ´Ð¾Ð¼
ÑÐ²ÐµÐ´Ð¾Ð¼ Ð»ÐµÐ½Ð¸Ð¹
I D
P hone
Ð´Ð»Ñ Ð³ÐµÐ½ÐµÑÐ°ÑÐ¸Ð¸
ÐºÐ»Ð°ÑÑ Box
lock Ñ
Method )
Singleton Ñ
Ð Ð´Ð°Ð¿
ÐÐ´Ð°Ð¿ ÑÐµÑ
ation )
Ð Ð¾Ð¼Ð°Ð½
ÐÐ¾Ð¼Ð°Ð½ Ð´Ð°
( Command
Ðº ÑÑ
we ight
Ð¾Ð¿ÐµÑÐ°ÑÐ¸ÑÐ¼Ð¸ Ð²ÑÑÐ°Ð²ÐºÐ¸
( Visitor
Ð²ÑÑÐ°Ð¶ÐµÐ½Ð¸Ð¹ Ñ
ÐºÐ»Ð°ÑÑ Person
Ð·Ð°ÐºÑ ÑÐ²Ð°ÑÑÐ¸Ð¼
v ice
ÐºÐ»Ð°ÑÑ Animal
ÐºÐ¾Ð½ÑÑÑÑÐºÑÐ¾Ñ Ðµ
Fraction Ñ
ÑÑÐµÑÑ Ð¸Ðº
Ð¸ Ð¾Ð¿ÐµÑÐ°ÑÐ¾ÑÐ¾Ð¼
Ð¸ÑÐ¿Ð¾Ð»ÑÐ· ÑÑÑÐ¸Ð¹
Ð¸ Ð¾Ð¿ÐµÑÐ°ÑÐ¾ÑÐ°Ð¼Ð¸
Ñ Ð¿Ð°ÑÐ°Ð¼ÐµÑÑÐ¾Ð¼
Ð´Ð»Ñ Ð²ÑÐ¿Ð¾Ð»Ð½ÐµÐ½Ð¸Ñ
Ð²Ð¸ÑÑÑÐ°Ð»ÑÐ½ÑÐ¼ Ð¼ÐµÑÐ¾Ð´Ð¾Ð¼
( operator
ÑÑÐ½ÐºÑ Ð¸Ð¾Ð½Ð°Ð»Ñ
Ð¸ Ð¿ÐµÑÐµÐ¾Ð¿ÑÐµÐ´ÐµÐ»ÐµÐ½Ð¸ÐµÐ¼
ÐºÐ¾Ð½ ÐºÑÐµÑ
Ð´Ð»Ñ ÑÐµÑÐ¸Ð°Ð»Ð¸Ð·Ð°ÑÐ¸Ð¸
() Ð´Ð»Ñ
Ð´Ð»Ñ compile-time
ÑÐµÐ°Ð»Ð¸Ð·ÑÐ¹ Ð¿ÑÐ¸Ð¼ÐµÑ,
Ð² Ð¿ÑÐ¾Ð¸Ð·Ð²Ð¾Ð´Ð½Ð¾Ð¼
Ð¿Ð¾Ð»Ð¸Ð¼Ð¾ÑÑ Ð½Ð¾Ð³Ð¾
Ð°Ð±ÑÑÑÐ°ÐºÑ Ð½ÑÐ¼
Ð¸ÑÐºÐ»ÑÑ ÐµÐ½Ð¸Ðµ
o und
D at
ÑÐ¾Ð·Ð´Ð°Ð½Ð¸Ñ Ð¾Ð±ÑÐµÐºÑÐ¾Ð²
Ð¾Ñ Ð²ÐµÑÑÑÐ²ÐµÐ½
Ð¾ÑÐ²ÐµÑÑÑÐ²ÐµÐ½ Ð½Ð¾ÑÑÐ¸
Ð¿Ð¾Ð»Ð¸Ð¼Ð¾ÑÑÐ½ÑÐ¼Ð¸ ÑÐ¸Ð¿Ð°Ð¼Ð¸
Ð¿Ð°ÑÑÐµÑÐ½ Ð¡ÑÑÐ°ÑÐµÐ³Ð¸Ñ
Ð¾Ð³ÑÐ°Ð½Ð¸Ñ ÐµÐ½Ð¸ÑÐ¼Ð¸
Ñ Ð¾Ð³ÑÐ°Ð½Ð¸ÑÐµÐ½Ð¸ÑÐ¼Ð¸
ÑÐ¸Ð³ Ð½Ð°Ð»
ÑÐ¸Ð½ Ð³Ð»
ÑÐ¸Ð½Ð³Ð» Ñ
ÑÐ°Ð±Ñ Ð¸Ñ
cal l
SFINAE Ð´Ð»Ñ
ÑÐ»ÐµÐ½Ð°Ð¼Ð¸ Ð´Ð»Ñ
Ð¾Ð¿ÐµÑÐ°ÑÐ¾ÑÐ¾Ð¼ Ð¿ÑÐµÐ¾Ð±ÑÐ°Ð·Ð¾Ð²Ð°Ð½Ð¸Ñ
Ð¾Ð¿ÐµÑÐ°ÑÐ¾ÑÐ¾Ð¼ Ð²ÑÐ²Ð¾Ð´Ð°
! =
Ð¿ÑÐ¸ÑÐ²Ð°Ð¸Ð²Ð°Ð½Ð¸Ñ =
Ð¿Ð¾Ð¼Ð¾ÑÑÑ Ð¼ÐµÑÐ¾Ð´Ð°
priority _queue
Ð¾ÑÐµÑÐµÐ´ Ñ
Ð¾Ñ Ð¼ÐµÐ½Ñ
ÐºÐ¾ÑÑÐµÐ¶ Ð°
ÑÐ°Ð±Ð»Ð¾Ð½Ð½Ð¾Ð¹ ÑÑÐ½ÐºÑÐ¸Ð¸
ÐºÐ¾Ð» Ð»
ÑÑÐ½ÐºÑÐ¸Ñ Ð²ÑÑÐ¸ÑÐ»ÐµÐ½Ð¸Ñ
ÑÐ¸ÑÐµÐ» Ð¸Ð·
Ð² ÑÐµÐºÑÑÐ¾Ð²Ð¾Ð¼
Ð´ Ð¸Ñ
Ð´Ð¸Ñ ÐµÐºÑÐ¾Ñ
var i
move -
Ð·Ð°ÑÐ² Ð°ÑÐ°
ÑÐ¾Ð·Ð´Ð°Ð¹ ÐºÐ»Ð°ÑÑ,
Ð°Ð²ÑÐ¾Ð¼Ð°ÑÐ¸ÑÐµÑÐºÐ¾Ð³Ð¾ ÑÐ¾Ð·Ð´Ð°Ð½Ð¸Ñ
u il
uil der
Ð¿Ð¾Ð»ÑÑ ÐµÐ½Ð¸Ðµ
Ð°Ð»Ð» Ð¾ÐºÐ°ÑÐ¾Ñ
( get
Ð¿ÑÐ¾ÑÑÐ¾Ð¹ Ð¿Ð°ÑÑÐµÑÐ½
ÑÐ¾Ð·Ð´Ð°Ð¹ Ð¿ÑÐ¾ÑÑÑÑ
ÑÐµÑÐµÐ½Ð¸Ñ Ð·Ð°Ð´Ð°ÑÐ¸
Ð±Ð¸Ð½Ð°ÑÐ½Ð¾Ð¼ Ð´ÐµÑÐµÐ²Ðµ
ÐµÐ³Ð¾ ,
ÑÐ¾ÑÐºÐ¾Ð¹ </w>
ÑÐ¾ÑÐºÐ¾Ð¹ Ð±ÐµÐ·
Ð²ÑÑÐ°Ð¶ÐµÐ½Ð¸Ð¹ </w>
Ð²ÑÑÐ°Ð¶ÐµÐ½Ð¸Ð¹ Ð±ÐµÐ·
Ð²ÐµÐºÑÐ¾ÑÐ¾Ð² </w>
Ð²ÐµÐºÑÐ¾ÑÐ¾Ð² Ð±ÐµÐ·
Ð¿Ð°Ð»Ð¸Ð½Ð´ÑÐ¾Ð¼Ð¾Ð¼ </w>
Ð¿Ð°Ð»Ð¸Ð½Ð´ÑÐ¾Ð¼Ð¾Ð¼ Ð±ÐµÐ·
Ð·Ð½Ð°ÑÐµÐ½Ð¸Ñ </w>
Ð·Ð½Ð°ÑÐµÐ½Ð¸Ñ Ð±ÐµÐ·
ÑÐ¿Ð¸ÑÐºÐ° </w>
ÑÐ¿Ð¸ÑÐºÐ° Ð±ÐµÐ·
Ð¿ÐµÑÐµÐ¼ÐµÐ½Ð½ÑÑ </w>
Ð¿ÐµÑÐµÐ¼ÐµÐ½Ð½ÑÑ Ð±ÐµÐ·
Ð· Ð°Ð³Ð¾Ð»
ÑÐ°Ð¹Ð»Ðµ </w>
ÑÐ°Ð¹Ð»Ðµ Ð±ÐµÐ·
Ð²Ð¸ÑÑÑÐ°Ð»Ñ Ð½ÑÑ
Ð¸ÑÐ¿Ð¾Ð»ÑÐ·Ð¾Ð²Ð°Ð½Ð¸ÐµÐ¼ map
Ð¸ÑÐ¿Ð¾Ð»ÑÐ·Ð¾Ð²Ð°Ð½Ð¸ÐµÐ¼ std::map
Ð¿ÑÐ¸Ð²ÐµÑÑÑÐ² Ð¸Ðµ
Ð¿Ð¾ ÐµÐ³Ð¾
ÐºÐ°Ð¼Ð¸ Ð±ÐµÐ·
, Ð½Ð¾
Ð¿Ð¾ Ð¸Ð¼ÐµÐ½Ð¸
ÐºÐ» Ð°Ð²
Ñ ÐºÐ»Ð°Ð²
ÐºÐ»Ð°Ð² Ð¸Ð°Ñ
Ñ ÐºÐ»Ð°Ð²Ð¸Ð°Ñ
ÐºÐ»Ð°Ð²Ð¸Ð°Ñ ÑÑÑ
Ñ ÐºÐ»Ð°Ð²Ð¸Ð°ÑÑÑÑ
Ð¿ÐµÑ Ð²Ð¾Ðµ
Ð±ÑÐºÐ² Ð°Ð¼Ð¸
ÑÐ¸ÑÑ Ð¾Ð¹
ÑÑ Ð¾Ð»
ÑÑÐ¾Ð» Ð±
Ð²ÑÐ²Ð¾Ð´Ð¸Ñ ÑÐ°Ð·Ð¼ÐµÑ
i ent
ÑÐ» ÐµÐ´ÑÑÑ
Ð³ Ð¸ÑÑ
Ð³Ð¸ÑÑ Ð¾Ð³ÑÐ°Ð¼
Ð¸Ð· Ð·Ð²ÐµÐ·Ð´Ð¾Ñ
Ð·Ð²ÐµÐ·Ð´Ð¾Ñ ÐµÐº
Ð¸Ð· Ð·Ð²ÐµÐ·Ð´Ð¾ÑÐµÐº
ÑÑÐµÑ Ñ
ÑÑÐµÑÑ ÐµÐ¹
ÑÐ¸ÑÐ»Ð¾ Ð¸
Ð·Ð½Ð°ÑÐµÐ½Ð¸Ñ Ð´Ð²ÑÑ
Ð´Ð²ÑÑ Ð²Ð²Ð¾Ð´Ð¸Ð¼ÑÑ
Ð¾Ð¿ÑÐµÐ´ÐµÐ»ÑÐµÑ, ÑÐ²Ð»ÑÐµÑÑÑ
Ð°Ð»ÑÐ°Ð² Ð¸ÑÐ°
Ð·Ð°Ð¿ ÑÑ
Ð´ÐµÐ½ÐµÐ¶ Ð½Ð¾Ð¹
Ð´ÐµÐ½ÐµÐ¶Ð½Ð¾Ð¹ ÑÑÐ¼Ð¼Ñ
Ð²Ð¾Ñ Ñ
Ð½Ð¾Ð¹ Ð¸
ÐºÐ°Ð¶Ð´Ð¾Ð³Ð¾ ÑÐ»Ð¾Ð²Ð°
ÑÐµÐ³Ð¸ÑÑÑ Ð°
s ub
Ð¼Ð°ÐºÑ Ð¾Ñ
Ð´Ð»Ñ ÑÐºÐ°Ð·Ð°ÑÐµÐ»Ñ
U T
UT F
UTF -
3 2
Ð½ÑÐ¹ Ð»Ð¸ÑÐµÑÐ°Ð»
ÑÐ¾ÑÑÐ°Ð²Ð½Ð¾Ð³Ð¾ Ð¾Ð¿ÐµÑÐ°ÑÐ¾ÑÐ°
ÑÐµÐ»ÑÐ¼Ð¸ ÑÐ¸ÑÐ»Ð°Ð¼Ð¸
Ð²Ð· ÑÑÐ¸Ñ
ÑÐ¸Ð¿Ð° size_t
double Ð·Ð½Ð°ÑÐµÐ½Ð¸Ñ
Ð (&
Ð²Ð» ÐµÐ²Ð¾
unsigned int
( C++1
ÑÑÐ°Ð²Ð½ÐµÐ½Ð¸Ñ '
Ð²ÑÑÐ°Ð¶ÐµÐ½Ð¸Ñ Ñ
ÐÐ 
Ð¿ÑÐ¸Ð²ÐµÐ´ÐµÐ½Ð¸Ñ ÑÐ¸Ð¿Ð°
Ñ ÑÐ²Ð½ÑÐ¼
( c
Ð´Ð²ÑÑ Ð¿ÐµÑÐµÐ¼ÐµÐ½Ð½ÑÑ
Ð¿ÐµÑÐµÐ¼ÐµÐ½Ð½ÑÑ </w>
Ð¿ÐµÑÐµÐ¼ÐµÐ½Ð½ÑÑ Ð±ÐµÐ·
Ð°ÑÑ ÐµÐ³Ð¾
ÑÐ± Ñ
Ð¾Ð±Ñ ÐµÐµ
ÑÐº ÑÐ¿Ð¾Ð½ÐµÐ½
Ð´Ð»Ñ Ð¾Ð±ÑÐµÐ´Ð¸Ð½ÐµÐ½Ð¸Ñ
Ð²ÑÑÐ°Ð²Ð½Ð¸Ð² Ð°Ð½Ð¸Ðµ
int </w>
int Ð±ÐµÐ·
Ð¾Ð¿ÑÐµÐ´ÐµÐ»ÐµÐ½Ð¸Ñ ÑÐ¸Ð¿Ð°
ÑÐ²Ð½Ð¾Ðµ Ð¿ÑÐµÐ¾Ð±ÑÐ°Ð·Ð¾Ð²Ð°Ð½Ð¸Ðµ
int Ð¸
Ð² C++17
ÐºÐ¾ÑÐ¾ÑÐ°Ñ Ð¾Ð¿ÑÐµÐ´ÐµÐ»ÑÐµÑ,
Ð¿Ð¾ÐºÐ°Ð·ÑÐ²Ð°ÑÑÑÑ Ð¸ÑÐ¿Ð¾Ð»ÑÐ·Ð¾Ð²Ð°Ð½Ð¸Ðµ
v ol
Ð»Ð¸ÑÐµÑÐ°Ð» Ð¾Ð²
Ð´ÐµÐ¼Ð¾Ð½ÑÑÑÐ¸ÑÑÐµÑ Ð°ÑÐ¸ÑÐ¼ÐµÑÐ¸ÐºÑ
type_tr aits
Ð¾Ð±Ñ Ñ
( Ð´Ð»Ñ
Ð²Ñ Ð°ÑÐµÐ½Ð¸Ñ
ÐµÐ³Ð¾ Ð·Ð½Ð°ÑÐµÐ½Ð¸Ðµ
ÐµÐ³Ð¾ Ñ
int e
* (
Ð¸ ÑÐºÐ°Ð·Ð°ÑÐµÐ»ÐµÐ¼
ÑÐ¸Ð¿Ð°Ð¼Ð¸ Ð´Ð°Ð½Ð½ÑÑ
Ð¿Ð¾Ð»ÑÑÐµÐ½Ð¸Ñ Ð¸Ð½ÑÐ¾ÑÐ¼Ð°ÑÐ¸Ð¸
Ñ ÑÐ°Ð·Ð»Ð¸ÑÐ½ÑÐ¼Ð¸
Ð²Ð¾Ð·Ð²ÑÐ°Ñ Ð°ÐµÐ¼
Ð¿Ð¾Ð» ÐµÐ¹
ÑÑÑÑÐºÑÑÑ Ðµ
ÑÐ°Ð·Ð½ÑÐµ ÑÐ¸Ð¿Ñ
Ñ Ð²Ð°ÑÐ¸Ð°Ñ
Ð²Ð°ÑÐ¸Ð°Ñ Ð¸Ð²Ð½ÑÐ¼Ð¸
Ñ Ð²Ð°ÑÐ¸Ð°ÑÐ¸Ð²Ð½ÑÐ¼Ð¸
i v
Ð·Ð°Ð¿ÑÐ°ÑÐ¸Ð²Ð°ÐµÑ Ð´Ð²Ð°
Ð¿ÐµÑÐ²ÑÑ n
ÑÐ¸ÑÐµÐ» Ð¿Ð¾
ÑÐ¾ÑÐ¼ÑÐ»Ðµ S
Ð²ÐµÑÐµÑÑÐ²ÐµÐ½ Ð½ÑÑ
( e
ÐµÐ½ Ñ
Ð°Ð±ÑÐ¾Ð»ÑÑ Ð½Ð¾Ðµ
Ð°Ð±ÑÐ¾Ð»ÑÑÐ½Ð¾Ðµ Ð·Ð½Ð°ÑÐµÐ½Ð¸Ðµ
Ð½Ð° Ð³Ð»
= 2
a ,
b ,
Ð¿ÑÑÐ¼Ð¾ÑÐ³Ð¾Ð»ÑÐ½Ð¾Ð³Ð¾ ÑÑÐµÑÐ³Ð¾Ð»ÑÐ½Ð¸ÐºÐ°
ÑÑ ÐµÑ
r Â²
(a Â²
Ð´Ð»Ñ Ð·Ð°Ð´Ð°Ð½Ð½ÑÑ
ÐºÐ¾Ð½Ð²ÐµÑÑÐ°ÑÐ¸Ð¸ ÑÐµÐ¼Ð¿ÐµÑÐ°ÑÑÑÑ
Ð¦ÐµÐ»ÑÑ Ð¸Ñ
Ñ Ð¸Ð»Ð¸Ð½
ÑÐ¸Ð»Ð¸Ð½ Ð´ÑÐ°
/ 3)
Ð½Ð°ÑÐ¾Ð´Ð¸Ñ Ð¼ÐµÐ´Ð¸Ð°Ð½Ñ
Ð²ÑÑÐ¸ÑÐ»ÑÐµÑ Ð·Ð½Ð°ÑÐµÐ½Ð¸Ðµ
x ,
Ð´Ð²ÑÐ¼Ñ ÑÐ¾ÑÐºÐ°Ð¼Ð¸
) Ð²
Ð²ÑÐµÐ¼ÐµÐ½Ð¸ </w>
Ð²ÑÐµÐ¼ÐµÐ½Ð¸ Ð±ÐµÐ·
ÑÐ°Ð±Ð»Ð¸ÑÑ ÑÐ¼Ð½Ð¾Ð¶ÐµÐ½Ð¸Ñ
Ð¸ Ð¿ÑÐ¾Ð²ÐµÑÑÐµÑ
ÑÐ°ÑÑÑÑÐ° ÐºÐ¾ÑÑÑÐ¸ÑÐ¸ÐµÐ½ÑÐ°
ÑÐ¼Ð½Ð¾Ð¶Ð°ÐµÑ Ð¼Ð°ÑÑÐ¸ÑÑ
E B
Ð¼ÐµÐ¶Ð´Ñ Ð¼Ð°ÐºÑÐ¸Ð¼Ð°Ð»Ñ
Ð¼Ð°ÐºÑÐ¸Ð¼Ð°Ð»Ñ Ð½ÑÐ¼
Ð¸ Ð¼Ð¸Ð½Ð¸Ð¼Ð°Ð»Ñ
Ð¦ ÐµÐ½Ð°
ÑÐºÐ°Ð»ÑÑÐ½Ð¾Ð³Ð¾ Ð¿ÑÐ¾Ð¸Ð·Ð²ÐµÐ´ÐµÐ½Ð¸Ñ
Ñ Ð½ÐµÑ
ÐºÐ¾ÑÐ¾ÑÐ°Ñ ÑÐºÐ»Ð°Ð´ÑÐ²Ð°ÐµÑ
Ð¸ Ð¿Ð¾
( Ð´Ð¾
â 
) Ð½Ð°
Î ¸
Ð²ÑÑÐ¸ÑÐ»ÐµÐ½Ð¸Ñ ÑÑÐ¼Ð¼Ñ
( b
ÑÐ³Ð» Ñ
e ,
