{
  "version": "1.0",
  "truncation": null,
  "padding": null,
  "added_tokens": [
    {
      "id": 0,
      "content": "<PAD>",
      "single_word": false,
      "lstrip": false,
      "rstrip": false,
      "normalized": false,
      "special": true
    },
    {
      "id": 1,
      "content": "<OOV>",
      "single_word": false,
      "lstrip": false,
      "rstrip": false,
      "normalized": false,
      "special": true
    },
    {
      "id": 2,
      "content": "<START>",
      "single_word": false,
      "lstrip": false,
      "rstrip": false,
      "normalized": false,
      "special": true
    },
    {
      "id": 3,
      "content": "<END>",
      "single_word": false,
      "lstrip": false,
      "rstrip": false,
      "normalized": false,
      "special": true
    },
    {
      "id": 4,
      "content": "[COMMA]",
      "single_word": false,
      "lstrip": false,
      "rstrip": false,
      "normalized": false,
      "special": true
    },
    {
      "id": 5,
      "content": "[NEWLINE]",
      "single_word": false,
      "lstrip": false,
      "rstrip": false,
      "normalized": false,
      "special": true
    },
    {
      "id": 6,
      "content": "[SEMICOLON]",
      "single_word": false,
      "lstrip": false,
      "rstrip": false,
      "normalized": false,
      "special": true
    },
    {
      "id": 7,
      "content": "[LBRACE]",
      "single_word": false,
      "lstrip": false,
      "rstrip": false,
      "normalized": false,
      "special": true
    },
    {
      "id": 8,
      "content": "[RBRACE]",
      "single_word": false,
      "lstrip": false,
      "rstrip": false,
      "normalized": false,
      "special": true
    },
    {
      "id": 9,
      "content": "[LPAREN]",
      "single_word": false,
      "lstrip": false,
      "rstrip": false,
      "normalized": false,
      "special": true
    },
    {
      "id": 10,
      "content": "[RPAREN]",
      "single_word": false,
      "lstrip": false,
      "rstrip": false,
      "normalized": false,
      "special": true
    },
    {
      "id": 11,
      "content": "[LBRACKET]",
      "single_word": false,
      "lstrip": false,
      "rstrip": false,
      "normalized": false,
      "special": true
    },
    {
      "id": 12,
      "content": "[RBRACKET]",
      "single_word": false,
      "lstrip": false,
      "rstrip": false,
      "normalized": false,
      "special": true
    },
    {
      "id": 13,
      "content": "[LT]",
      "single_word": false,
      "lstrip": false,
      "rstrip": false,
      "normalized": false,
      "special": true
    },
    {
      "id": 14,
      "content": "[GT]",
      "single_word": false,
      "lstrip": false,
      "rstrip": false,
      "normalized": false,
      "special": true
    },
    {
      "id": 15,
      "content": "[EQUALS]",
      "single_word": false,
      "lstrip": false,
      "rstrip": false,
      "normalized": false,
      "special": true
    },
    {
      "id": 16,
      "content": "[PLUS]",
      "single_word": false,
      "lstrip": false,
      "rstrip": false,
      "normalized": false,
      "special": true
    },
    {
      "id": 17,
      "content": "[MINUS]",
      "single_word": false,
      "lstrip": false,
      "rstrip": false,
      "normalized": false,
      "special": true
    },
    {
      "id": 18,
      "content": "[MULTIPLY]",
      "single_word": false,
      "lstrip": false,
      "rstrip": false,
      "normalized": false,
      "special": true
    },
    {
      "id": 19,
      "content": "[DIVIDE]",
      "single_word": false,
      "lstrip": false,
      "rstrip": false,
      "normalized": false,
      "special": true
    },
    {
      "id": 20,
      "content": "[QUOTE]",
      "single_word": false,
      "lstrip": false,
      "rstrip": false,
      "normalized": false,
      "special": true
    },
    {
      "id": 21,
      "content": "[SQUOTE]",
      "single_word": false,
      "lstrip": false,
      "rstrip": false,
      "normalized": false,
      "special": true
    },
    {
      "id": 22,
      "content": "[HASH]",
      "single_word": false,
      "lstrip": false,
      "rstrip": false,
      "normalized": false,
      "special": true
    }
  ],
  "normalizer": {
    "type": "Sequence",
    "normalizers": [
      {
        "type": "NFKC"
      }
    ]
  },
  "pre_tokenizer": {
    "type": "Whitespace"
  },
  "post_processor": {
    "type": "TemplateProcessing",
    "single": [
      {
        "SpecialToken": {
          "id": "<START>",
          "type_id": 0
        }
      },
      {
        "Sequence": {
          "id": "A",
          "type_id": 0
        }
      },
      {
        "SpecialToken": {
          "id": "<END>",
          "type_id": 0
        }
      }
    ],
    "pair": [
      {
        "SpecialToken": {
          "id": "<START>",
          "type_id": 0
        }
      },
      {
        "Sequence": {
          "id": "A",
          "type_id": 0
        }
      },
      {
        "SpecialToken": {
          "id": "<END>",
          "type_id": 0
        }
      },
      {
        "Sequence": {
          "id": "B",
          "type_id": 1
        }
      },
      {
        "SpecialToken": {
          "id": "<END>",
          "type_id": 1
        }
      }
    ],
    "special_tokens": {
      "<END>": {
        "id": "<END>",
        "ids": [
          3
        ],
        "tokens": [
          "<END>"
        ]
      },
      "<START>": {
        "id": "<START>",
        "ids": [
          2
        ],
        "tokens": [
          "<START>"
        ]
      }
    }
  },
  "decoder": null,
  "model": {
    "type": "BPE",
    "dropout": null,
    "unk_token": "<OOV>",
    "continuing_subword_prefix": null,
    "end_of_word_suffix": null,
    "fuse_unk": false,
    "byte_fallback": false,
    "ignore_merges": false,
    "vocab": {
      "<PAD>": 0,
      "<OOV>": 1,
      "<START>": 2,
      "<END>": 3,
      "[COMMA]": 4,
      "[NEWLINE]": 5,
      "[SEMICOLON]": 6,
      "[LBRACE]": 7,
      "[RBRACE]": 8,
      "[LPAREN]": 9,
      "[RPAREN]": 10,
      "[LBRACKET]": 11,
      "[RBRACKET]": 12,
      "[LT]": 13,
      "[GT]": 14,
      "[EQUALS]": 15,
      "[PLUS]": 16,
      "[MINUS]": 17,
      "[MULTIPLY]": 18,
      "[DIVIDE]": 19,
      "[QUOTE]": 20,
      "[SQUOTE]": 21,
      "[HASH]": 22,
      "!": 23,
      "$": 24,
      "%": 25,
      "&": 26,
      ".": 27,
      "0": 28,
      "1": 29,
      "2": 30,
      "3": 31,
      "4": 32,
      "5": 33,
      "6": 34,
      "7": 35,
      "8": 36,
      "9": 37,
      ":": 38,
      "?": 39,
      "@": 40,
      "A": 41,
      "B": 42,
      "C": 43,
      "D": 44,
      "E": 45,
      "F": 46,
      "G": 47,
      "H": 48,
      "I": 49,
      "J": 50,
      "K": 51,
      "L": 52,
      "M": 53,
      "N": 54,
      "O": 55,
      "P": 56,
      "Q": 57,
      "R": 58,
      "S": 59,
      "T": 60,
      "U": 61,
      "V": 62,
      "W": 63,
      "X": 64,
      "Y": 65,
      "Z": 66,
      "[": 67,
      "\\": 68,
      "]": 69,
      "^": 70,
      "_": 71,
      "a": 72,
      "b": 73,
      "c": 74,
      "d": 75,
      "e": 76,
      "f": 77,
      "g": 78,
      "h": 79,
      "i": 80,
      "j": 81,
      "k": 82,
      "l": 83,
      "m": 84,
      "n": 85,
      "o": 86,
      "p": 87,
      "q": 88,
      "r": 89,
      "s": 90,
      "t": 91,
      "u": 92,
      "v": 93,
      "w": 94,
      "x": 95,
      "y": 96,
      "z": 97,
      "|": 98,
      "~": 99,
      "А": 100,
      "Б": 101,
      "В": 102,
      "Г": 103,
      "Д": 104,
      "Е": 105,
      "Ж": 106,
      "З": 107,
      "И": 108,
      "К": 109,
      "Л": 110,
      "М": 111,
      "Н": 112,
      "О": 113,
      "П": 114,
      "Р": 115,
      "С": 116,
      "Т": 117,
      "У": 118,
      "Ф": 119,
      "Х": 120,
      "Ц": 121,
      "Ч": 122,
      "Ш": 123,
      "Э": 124,
      "Я": 125,
      "а": 126,
      "б": 127,
      "в": 128,
      "г": 129,
      "д": 130,
      "е": 131,
      "ж": 132,
      "з": 133,
      "и": 134,
      "й": 135,
      "к": 136,
      "л": 137,
      "м": 138,
      "н": 139,
      "о": 140,
      "п": 141,
      "р": 142,
      "с": 143,
      "т": 144,
      "у": 145,
      "ф": 146,
      "х": 147,
      "ц": 148,
      "ч": 149,
      "ш": 150,
      "щ": 151,
      "ъ": 152,
      "ы": 153,
      "ь": 154,
      "э": 155,
      "ю": 156,
      "я": 157,
      "AC": 158,
      "BR": 159,
      "BRAC": 160,
      "ET": 161,
      "KET": 162,
      "BRACKET": 163,
      "RBRACKET": 164,
      "LBRACKET": 165,
      "LT": 166,
      "CO": 167,
      "RE": 168,
      "PA": 169,
      "REN": 170,
      "PAREN": 171,
      "MI": 172,
      "SE": 173,
      "LO": 174,
      "COLO": 175,
      "MICOLO": 176,
      "SEMICOLO": 177,
      "SEMICOLON": 178,
      "QU": 179,
      "in": 180,
      "BRACE": 181,
      "RPAREN": 182,
      "LPAREN": 183,
      "OT": 184,
      "QUOT": 185,
      "QUOTE": 186,
      "GT": 187,
      "re": 188,
      "st": 189,
      "ou": 190,
      "LBRACE": 191,
      "RBRACE": 192,
      "AL": 193,
      "EQU": 194,
      "ALS": 195,
      "EQUALS": 196,
      "MA": 197,
      "MMA": 198,
      "COMMA": 199,
      "en": 200,
      "int": 201,
      "PL": 202,
      "cou": 203,
      "ра": 204,
      "de": 205,
      "US": 206,
      "lu": 207,
      "cout": 208,
      "am": 209,
      "or": 210,
      "le": 211,
      "inc": 212,
      "end": 213,
      "HA": 214,
      "SH": 215,
      "HASH": 216,
      "lude": 217,
      "include": 218,
      "ur": 219,
      "ma": 220,
      "er": 221,
      "ing": 222,
      "endl": 223,
      "ро": 224,
      "tur": 225,
      "turn": 226,
      "nu": 227,
      "return": 228,
      "on": 229,
      "nn": 230,
      "pa": 231,
      "ce": 232,
      "то": 233,
      "PLUS": 234,
      "at": 235,
      "IPL": 236,
      "MU": 237,
      "LTIPL": 238,
      "MULTIPL": 239,
      "MULTIPLY": 240,
      "ame": 241,
      "ко": 242,
      "ble": 243,
      "dou": 244,
      "double": 245,
      "ID": 246,
      "IV": 247,
      "DIV": 248,
      "IDE": 249,
      "DIVIDE": 250,
      "про": 251,
      "NUS": 252,
      "MINUS": 253,
      "name": 254,
      "str": 255,
      "ec": 256,
      "spa": 257,
      "мм": 258,
      "io": 259,
      "ет": 260,
      "гра": 261,
      "std": 262,
      "ream": 263,
      "stream": 264,
      "nnint": 265,
      "мму": 266,
      "sing": 267,
      "space": 268,
      "namespace": 269,
      "nusing": 270,
      "main": 271,
      "iostream": 272,
      "ен": 273,
      "програ": 274,
      "ис": 275,
      "программу": 276,
      "th": 277,
      "на": 278,
      "ar": 279,
      "тора": 280,
      "ве": 281,
      "котора": 282,
      "которая": 283,
      "al": 284,
      "те": 285,
      "ect": 286,
      "ст": 287,
      "ди": 288,
      "se": 289,
      "чис": 290,
      "di": 291,
      "nt": 292,
      "числ": 293,
      "si": 294,
      "со": 295,
      "да": 296,
      "string": 297,
      "for": 298,
      "ши": 299,
      "но": 300,
      "вы": 301,
      "ector": 302,
      "con": 303,
      "ut": 304,
      "id": 305,
      "it": 306,
      "an": 307,
      "пи": 308,
      "num": 309,
      "cin": 310,
      "Вве": 311,
      "дите": 312,
      "Введите": 313,
      "pr": 314,
      "if": 315,
      "яет": 316,
      "напи": 317,
      "напиши": 318,
      "ig": 319,
      "ate": 320,
      "зда": 321,
      "созда": 322,
      "ic": 323,
      "me": 324,
      "создай": 325,
      "ra": 326,
      "const": 327,
      "по": 328,
      "igh": 329,
      "ex": 330,
      "vo": 331,
      "ем": 332,
      "us": 333,
      "vector": 334,
      "rea": 335,
      "::": 336,
      "ch": 337,
      "ва": 338,
      "ри": 339,
      "lo": 340,
      "ge": 341,
      "ли": 342,
      "ль": 343,
      "ight": 344,
      "вычисл": 345,
      "ени": 346,
      "вычисляет": 347,
      "ac": 348,
      "alu": 349,
      "ze": 350,
      "ion": 351,
      "tr": 352,
      "alue": 353,
      "ре": 354,
      "value": 355,
      "as": 356,
      "ol": 357,
      "res": 358,
      "ло": 359,
      "ни": 360,
      "10": 361,
      "ны": 362,
      "el": 363,
      "ка": 364,
      "ци": 365,
      "size": 366,
      "yp": 367,
      "void": 368,
      "em": 369,
      "lt": 370,
      "is": 371,
      "he": 372,
      "aut": 373,
      "го": 374,
      "auto": 375,
      "gin": 376,
      "ata": 377,
      "ult": 378,
      "data": 379,
      "во": 380,
      "rent": 381,
      "d_": 382,
      "_t": 383,
      "qu": 384,
      "rt": 385,
      "arr": 386,
      "ение": 387,
      "po": 388,
      "dius": 389,
      "radius": 390,
      "ти": 391,
      "ile": 392,
      "ер": 393,
      "math": 394,
      "ub": 395,
      "ent": 396,
      "cmath": 397,
      "та": 398,
      "вер": 399,
      "0x": 400,
      "ру": 401,
      "ve": 402,
      "ver": 403,
      "count": 404,
      "emp": 405,
      "un": 406,
      "ку": 407,
      "ro": 408,
      "result": 409,
      "height": 410,
      "ля": 411,
      "read": 412,
      "ack": 413,
      "put": 414,
      "thread": 415,
      "pri": 416,
      "SQUOTE": 417,
      "бо": 418,
      "зу": 419,
      "си": 420,
      "ма": 421,
      "side": 422,
      "ial": 423,
      "ща": 424,
      "per": 425,
      "om": 426,
      "Vector": 427,
      "ation": 428,
      "сти": 429,
      "area": 430,
      "ber": 431,
      "rate": 432,
      "об": 433,
      "lon": 434,
      "lic": 435,
      "long": 436,
      "pub": 437,
      "ла": 438,
      "else": 439,
      "public": 440,
      "ed": 441,
      "дь": 442,
      "lugin": 443,
      "лоща": 444,
      "ный": 445,
      "лощадь": 446,
      "_c": 447,
      "ct": 448,
      "ptr": 449,
      "ser": 450,
      "vec": 451,
      "vi": 452,
      "las": 453,
      "lass": 454,
      "age": 455,
      "ear": 456,
      "typ": 457,
      "ми": 458,
      "ус": 459,
      "ime": 460,
      "ss": 461,
      "че": 462,
      "число": 463,
      "class": 464,
      "ки": 465,
      "ное": 466,
      "get": 467,
      "ase": 468,
      "e_": 469,
      "h_": 470,
      "ты": 471,
      "ort": 472,
      "number": 473,
      "00": 474,
      "ap": 475,
      "ir": 476,
      "ta": 477,
      "wor": 478,
      "la": 479,
      "loc": 480,
      "мо": 481,
      "ror": 482,
      "year": 483,
      "для": 484,
      "сто": 485,
      "dis": 486,
      "char": 487,
      "back": 488,
      "не": 489,
      "_value": 490,
      "npublic": 491,
      "parent": 492,
      "exp": 493,
      "il": 494,
      "ph": 495,
      "qrt": 496,
      "sqrt": 497,
      "to": 498,
      "сть": 499,
      "ft": 500,
      "pus": 501,
      "до": 502,
      "Plugin": 503,
      "co": 504,
      "cur": 505,
      "ue": 506,
      "ел": 507,
      "ad": 508,
      "ima": 509,
      "wh": 510,
      "ай": 511,
      "стро": 512,
      "current": 513,
      "be": 514,
      "left": 515,
      "right": 516,
      "temp": 517,
      "ле": 518,
      "out": 519,
      "ename": 520,
      "рабо": 521,
      "olor": 522,
      "_rate": 523,
      "cr": 524,
      "за": 525,
      "он": 526,
      "print": 527,
      "icle": 528,
      "зует": 529,
      "while": 530,
      "len": 531,
      "no": 532,
      "sh": 533,
      "кто": 534,
      "па": 535,
      "real": 536,
      "ity": 537,
      "вани": 538,
      "32": 539,
      "PI": 540,
      "are": 541,
      "late": 542,
      "input": 543,
      "dist": 544,
      "Vector3": 545,
      "ger": 546,
      "mo": 547,
      "ну": 548,
      "од": 549,
      "нач": 550,
      "price": 551,
      "numbers": 552,
      "den": 553,
      "um": 554,
      "дра": 555,
      "ту": 556,
      "st_": 557,
      "mat": 558,
      "typename": 559,
      "ъем": 560,
      "ности": 561,
      "ения": 562,
      "чес": 563,
      "imag": 564,
      "bo": 565,
      "oth": 566,
      "ple": 567,
      "te": 568,
      "из": 569,
      "nnclass": 570,
      "100": 571,
      "years": 572,
      "other": 573,
      "M_": 574,
      "base": 575,
      "gle": 576,
      "hid": 577,
      "ith": 578,
      "li": 579,
      "ment": 580,
      "lume": 581,
      "angle": 582,
      "volume": 583,
      "M_PI": 584,
      "hidden": 585,
      "tor": 586,
      "Об": 587,
      "iner": 588,
      "емен": 589,
      "tainer": 590,
      "bool": 591,
      "По": 592,
      "се": 593,
      "три": 594,
      "ator": 595,
      "поль": 596,
      "begin": 597,
      "ron": 598,
      "uint": 599,
      "ден": 600,
      "art": 601,
      "ста": 602,
      "ance": 603,
      "is_": 604,
      "output": 605,
      "ew": 606,
      "gen": 607,
      "min": 608,
      "og": 609,
      "x2": 610,
      "исполь": 611,
      "числа": 612,
      "fi": 613,
      "ter": 614,
      "пе": 615,
      "площадь": 616,
      "ради": 617,
      "ext": 618,
      "h_back": 619,
      "push_back": 620,
      "Mat": 621,
      "ob": 622,
      "сси": 623,
      "ount": 624,
      "error": 625,
      "part": 626,
      "chron": 627,
      "low": 628,
      "рует": 629,
      "current_": 630,
      "32_t": 631,
      "particle": 632,
      "chrono": 633,
      "es": 634,
      "file": 635,
      "ject": 636,
      "pt": 637,
      "Площадь": 638,
      "мен": 639,
      "set": 640,
      "verse": 641,
      "template": 642,
      "of": 643,
      "p_": 644,
      "эл": 645,
      "ine": 646,
      "ory": 647,
      "дит": 648,
      "expr": 649,
      "верх": 650,
      "uni": 651,
      "uint32_t": 652,
      "bon": 653,
      "fal": 654,
      "fac": 655,
      "x1": 656,
      "ву": 657,
      "reverse": 658,
      "nnvoid": 659,
      "ции": 660,
      "онст": 661,
      "share": 662,
      "радиус": 663,
      "false": 664,
      "Ob": 665,
      "gth": 666,
      "имо": 667,
      "orde": 668,
      "length": 669,
      "color": 670,
      "et": 671,
      "gor": 672,
      "s_": 673,
      "де": 674,
      "max": 675,
      "nntemplate": 676,
      "algor": 677,
      "mess": 678,
      "server": 679,
      "lock": 680,
      "ithm": 681,
      "algorithm": 682,
      "message": 683,
      "fin": 684,
      "fla": 685,
      "gra": 686,
      "line": 687,
      "Ре": 688,
      "знач": 689,
      "цен": 690,
      "ond": 691,
      "провер": 692,
      "econd": 693,
      "span": 694,
      "and": 695,
      "constexpr": 696,
      "пото": 697,
      "поверх": 698,
      "ция": 699,
      "threads": 700,
      "масси": 701,
      "add": 702,
      "триц": 703,
      "flag": 704,
      "поверхности": 705,
      "_in": 706,
      "fa": 707,
      "ian": 708,
      "pi": 709,
      "val": 710,
      "vate": 711,
      "вл": 712,
      "ме": 713,
      "ход": 714,
      "endian": 715,
      "ность": 716,
      "ype": 717,
      "pow": 718,
      "private": 719,
      "factor": 720,
      "проверяет": 721,
      "12": 722,
      "eight": 723,
      "ll": 724,
      "nprivate": 725,
      "ot": 726,
      "oper": 727,
      "sy": 728,
      "sort": 729,
      "sum": 730,
      "weight": 731,
      "Ра": 732,
      "ся": 733,
      "ected": 734,
      "mem": 735,
      "емонст": 736,
      "log": 737,
      "true": 738,
      "ello": 739,
      "ческо": 740,
      "Math": 741,
      "uniqu": 742,
      "&&": 743,
      "Er": 744,
      "ly": 745,
      "мер": 746,
      "пла": 747,
      "уго": 748,
      "фай": 749,
      "init": 750,
      "cept": 751,
      "ван": 752,
      "рирует": 753,
      "матриц": 754,
      "Vector2": 755,
      "ction": 756,
      "expected": 757,
      "использует": 758,
      "элемен": 759,
      "initial": 760,
      "..": 761,
      "20": 762,
      "зо": 763,
      "кс": 764,
      "пер": 765,
      "сле": 766,
      "чи": 767,
      "stem": 768,
      "start": 769,
      "container": 770,
      "vest": 771,
      "view": 772,
      "ктор": 773,
      "11": 774,
      "Log": 775,
      "cor": 776,
      "tion": 777,
      "uct": 778,
      "ven": 779,
      "али": 780,
      "ги": 781,
      "при": 782,
      "null": 783,
      "pair": 784,
      "sig": 785,
      "iter": 786,
      "work": 787,
      "move": 788,
      "test_": 789,
      "memory": 790,
      "Error": 791,
      "Logger": 792,
      "nullptr": 793,
      "Con": 794,
      "_error": 795,
      "flow": 796,
      "ize": 797,
      "over": 798,
      "sc": 799,
      "tx": 800,
      "ак": 801,
      "демонст": 802,
      "пре": 803,
      "су": 804,
      "фе": 805,
      "stat": 806,
      "ce_": 807,
      "ного": 808,
      "ange": 809,
      "ash_": 810,
      "ные": 811,
      "ypt": 812,
      "crypt": 813,
      "graph": 814,
      "ash_flow": 815,
      "St": 816,
      "ant": 817,
      "bit": 818,
      "has": 819,
      "iel": 820,
      "od": 821,
      "ri": 822,
      "sw": 823,
      "t1": 824,
      "yiel": 825,
      "дли": 826,
      "ор": 827,
      "фи": 828,
      "ree": 829,
      "тель": 830,
      "чисел": 831,
      "sion": 832,
      "ray": 833,
      "вает": 834,
      "реали": 835,
      "isP": 836,
      "d_count": 837,
      "row": 838,
      "объем": 839,
      "вание": 840,
      "Объем": 841,
      "minant": 842,
      "system": 843,
      "14": 844,
      "64": 845,
      "Sort": 846,
      "_price": 847,
      "ay": 848,
      "fs": 849,
      "sub": 850,
      "text": 851,
      "га": 852,
      "пу": 853,
      "эдра": 854,
      "ром": 855,
      "соту": 856,
      "высоту": 857,
      "льта": 858,
      "тиро": 859,
      "зульта": 860,
      "строку": 861,
      "reversed": 862,
      "имость": 863,
      "Результа": 864,
      "worker": 865,
      "демонстрирует": 866,
      "Color": 867,
      "fir": 868,
      "бе": 869,
      "ви": 870,
      "дел": 871,
      "ин": 872,
      "ктора": 873,
      "ря": 874,
      "са": 875,
      "чет": 876,
      "эф": 877,
      "our": 878,
      "amount": 879,
      "par": 880,
      "ком": 881,
      "кон": 882,
      "dir": 883,
      "нов": 884,
      "лин": 885,
      "acc": 886,
      "pos": 887,
      "сим": 888,
      "type": 889,
      "Object": 890,
      "factorial": 891,
      "длину": 892,
      "реализует": 893,
      "Результат": 894,
      "Hello": 895,
      "_per": 896,
      "dra": 897,
      "ive": 898,
      "phe": 899,
      "sa": 900,
      "squ": 901,
      "ty": 902,
      "tal": 903,
      "ар": 904,
      "вку": 905,
      "дву": 906,
      "ида": 907,
      "рас": 908,
      "man": 909,
      "мма": 910,
      "нах": 911,
      "alar": 912,
      "шиб": 913,
      "вадра": 914,
      "posi": 915,
      "empty": 916,
      "getline": 917,
      "word_count": 918,
      "total": 919,
      "observer": 920,
      "значение": 921,
      "econds": 922,
      "_invest": 923,
      "initial_invest": 924,
      "static": 925,
      "crypted": 926,
      "swap": 927,
      "фици": 928,
      "initial_investment": 929,
      "25": 930,
      "Ar": 931,
      "_de": 932,
      "_size": 933,
      "ip": 934,
      "iminant": 935,
      "mut": 936,
      "plugin": 937,
      "time": 938,
      "||": 939,
      "нк": 940,
      "унк": 941,
      "red_": 942,
      "det": 943,
      "map": 944,
      "тов": 945,
      "this_": 946,
      "рическо": 947,
      "ний": 948,
      "word": 949,
      "стоя": 950,
      "стоимость": 951,
      "discr": 952,
      "top": 953,
      "push": 954,
      "now": 955,
      "node": 956,
      "bond_": 957,
      "weights_": 958,
      "эффици": 959,
      "this_thread": 960,
      "discriminant": 961,
      "эффициен": 962,
      "ast": 963,
      "c1": 964,
      "com": 965,
      "dur": 966,
      "high": 967,
      "mon": 968,
      "nclass": 969,
      "wid": 970,
      "y2": 971,
      "При": 972,
      "кру": 973,
      "мет": 974,
      "одит": 975,
      "ры": 976,
      "ша": 977,
      "rec": 978,
      "mail": 979,
      "выво": 980,
      "ние": 981,
      "size_t": 982,
      "qui": 983,
      "counter": 984,
      "_cast": 985,
      "code": 986,
      "вания": 987,
      "outputs": 988,
      "order": 989,
      "MathError": 990,
      "плаги": 991,
      "уголь": 992,
      "coro": 993,
      "overri": 994,
      "txt": 995,
      "draw": 996,
      "шибка": 997,
      "position": 998,
      "duration": 999,
      "month": 1000,
      "width": 1001,
      "override": 1002,
      "Count": 1003,
      "c2": 1004,
      "ep_": 1005,
      "ipa": 1006,
      "mult": 1007,
      "pq": 1008,
      "sle": 1009,
      "tra": 1010,
      "var": 1011,
      "Ошибка": 1012,
      "ал": 1013,
      "бы": 1014,
      "вно": 1015,
      "змер": 1016,
      "incipa": 1017,
      "struct": 1018,
      "principa": 1019,
      "ick": 1020,
      "change": 1021,
      "_type": 1022,
      "ерж": 1023,
      "обра": 1024,
      "_clock": 1025,
      "discount": 1026,
      "ill": 1027,
      "ility": 1028,
      "ктори": 1029,
      "distance": 1030,
      "plex": 1031,
      "ставку": 1032,
      "current_char": 1033,
      "et_": 1034,
      "unique_": 1035,
      "Container": 1036,
      "parse": 1037,
      "симво": 1038,
      "phere": 1039,
      "находит": 1040,
      "рического": 1041,
      "ep_for": 1042,
      "multip": 1043,
      "sleep_for": 1044,
      "principal": 1045,
      "Str": 1046,
      "_span": 1047,
      "ab": 1048,
      "cash_flow": 1049,
      "even": 1050,
      "gy": 1051,
      "jo": 1052,
      "mill": 1053,
      "rime": 1054,
      "s1": 1055,
      "y1": 1056,
      "Не": 1057,
      "Про": 1058,
      "ге": 1059,
      "ду": 1060,
      "жение": 1061,
      "пле": 1062,
      "сло": 1063,
      "тре": 1064,
      "це": 1065,
      "щи": 1066,
      "reg": 1067,
      "stack": 1068,
      "рав": 1069,
      "dec": 1070,
      "lection": 1071,
      "erial": 1072,
      "рок": 1073,
      "onent": 1074,
      "atom": 1075,
      "ative": 1076,
      "кор": 1077,
      "исте": 1078,
      "ная": 1079,
      "ство": 1080,
      "concept": 1081,
      "any": 1082,
      "ategy": 1083,
      "ch_": 1084,
      "try": 1085,
      "ollection": 1086,
      "ных": 1087,
      "iseconds": 1088,
      "point": 1089,
      "unorde": 1090,
      "vec1": 1091,
      "vice": 1092,
      "exponent": 1093,
      "доход": 1094,
      "строки": 1095,
      "printS": 1096,
      "real2": 1097,
      "imag2": 1098,
      "list": 1099,
      "Пото": 1100,
      "После": 1101,
      "fibon": 1102,
      "матрицы": 1103,
      "views": 1104,
      "isPrime": 1105,
      "компле": 1106,
      "линд": 1107,
      "acci": 1108,
      "стояние": 1109,
      "эффициент": 1110,
      "unique_ptr": 1111,
      "join": 1112,
      "milliseconds": 1113,
      "atomic": 1114,
      "unordered_": 1115,
      "fibonacci": 1116,
      "комплекс": 1117,
      "15": 1118,
      "File": 1119,
      "Part": 1120,
      "ager": 1121,
      "bi": 1122,
      "eue": 1123,
      "fe_": 1124,
      "git": 1125,
      "ist": 1126,
      "ke_": 1127,
      "ru": 1128,
      "rand": 1129,
      "s2": 1130,
      "ual": 1131,
      "Пер": 1132,
      "Су": 1133,
      "Те": 1134,
      "мно": 1135,
      "от": 1136,
      "срок": 1137,
      "ть": 1138,
      "функ": 1139,
      "ча": 1140,
      "ывает": 1141,
      "явл": 1142,
      "requi": 1143,
      "ene": 1144,
      "orig": 1145,
      "make_": 1146,
      "nndouble": 1147,
      "sear": 1148,
      "digit": 1149,
      "format": 1150,
      "вый": 1151,
      "личе": 1152,
      "quick": 1153,
      "queue": 1154,
      "rtual": 1155,
      "ations": 1156,
      "sert": 1157,
      "virtual": 1158,
      "location": 1159,
      "пера": 1160,
      "пере": 1161,
      "find": 1162,
      "массива": 1163,
      "operator": 1164,
      "test_dir": 1165,
      "scalar": 1166,
      "Stack": 1167,
      "first": 1168,
      "safe_": 1169,
      "двух": 1170,
      "выводит": 1171,
      "угольни": 1172,
      "vari": 1173,
      "Поток": 1174,
      "Particle": 1175,
      "random": 1176,
      "origin": 1177,
      "личество": 1178,
      "67": 1179,
      "FF": 1180,
      "Gen": 1181,
      "Rect": 1182,
      "able": 1183,
      "bt": 1184,
      "bin": 1185,
      "eg": 1186,
      "ead": 1187,
      "email": 1188,
      "fol": 1189,
      "hand": 1190,
      "new": 1191,
      "net_": 1192,
      "port": 1193,
      "rd": 1194,
      "sect": 1195,
      "Ве": 1196,
      "Ко": 1197,
      "йден": 1198,
      "му": 1199,
      "опера": 1200,
      "сфе": 1201,
      "ще": 1202,
      "sto": 1203,
      "inter": 1204,
      "erator": 1205,
      "ing_": 1206,
      "рован": 1207,
      "просто": 1208,
      "ень": 1209,
      "найден": 1210,
      "ard": 1211,
      "тера": 1212,
      "dire": 1213,
      "ntemp": 1214,
      "вые": 1215,
      "prof": 1216,
      "prod": 1217,
      "яется": 1218,
      "as_": 1219,
      "old": 1220,
      "цию": 1221,
      "enter": 1222,
      "veloc": 1223,
      "result1": 1224,
      "result2": 1225,
      "ialize": 1226,
      "per_": 1227,
      "serialize": 1228,
      "ape": 1229,
      "cost": 1230,
      "работу": 1231,
      "real1": 1232,
      "inputs": 1233,
      "imag1": 1234,
      "поток": 1235,
      "файла": 1236,
      "...": 1237,
      "yield": 1238,
      "вадрат": 1239,
      "символ": 1240,
      "multiply": 1241,
      "bias_": 1242,
      "Сумма": 1243,
      "является": 1244,
      "Generator": 1245,
      "folio": 1246,
      "handle": 1247,
      "portfolio": 1248,
      "сферического": 1249,
      "intersect": 1250,
      "ntemplate": 1251,
      "profit": 1252,
      "velocity": 1253,
      "16": 1254,
      "18": 1255,
      "30": 1256,
      "34": 1257,
      "Lar": 1258,
      "No": 1259,
      "Sphere": 1260,
      "ares": 1261,
      "brea": 1262,
      "cle": 1263,
      "d1": 1264,
      "da": 1265,
      "dent": 1266,
      "ome": 1267,
      "pend": 1268,
      "sour": 1269,
      "t2": 1270,
      "tree": 1271,
      "up": 1272,
      "udent": 1273,
      "Вы": 1274,
      "Пе": 1275,
      "дус": 1276,
      "лу": 1277,
      "лю": 1278,
      "мя": 1279,
      "ня": 1280,
      "ртиро": 1281,
      "insert": 1282,
      "rement": 1283,
      "encrypted": 1284,
      "encode": 1285,
      "erate": 1286,
      "nnbool": 1287,
      "path": 1288,
      "тор": 1289,
      "градус": 1290,
      "енный": 1291,
      "иск": 1292,
      "throw": 1293,
      "вектора": 1294,
      "divi": 1295,
      "сортиро": 1296,
      "form": 1297,
      "geObject": 1298,
      "реб": 1299,
      "values": 1300,
      "1000": 1301,
      "вой": 1302,
      "d_ptr": 1303,
      "rotr": 1304,
      "работы": 1305,
      "завер": 1306,
      "палинд": 1307,
      "mod": 1308,
      "ную": 1309,
      "изве": 1310,
      "generate": 1311,
      "shared_ptr": 1312,
      "Observer": 1313,
      "unique": 1314,
      "сумму": 1315,
      "manager": 1316,
      "bond_price": 1317,
      "make_unique": 1318,
      "угольника": 1319,
      "LargeObject": 1320,
      "Node": 1321,
      "break": 1322,
      "divide": 1323,
      "37": 1324,
      "50": 1325,
      "Num": 1326,
      "Po": 1327,
      "Per": 1328,
      "_order": 1329,
      "a1": 1330,
      "a2": 1331,
      "cre": 1332,
      "case": 1333,
      "date": 1334,
      "equ": 1335,
      "ebit": 1336,
      "fre": 1337,
      "nor": 1338,
      "sus": 1339,
      "second": 1340,
      "ан": 1341,
      "вр": 1342,
      "еж": 1343,
      "зывает": 1344,
      "мы": 1345,
      "сте": 1346,
      "систе": 1347,
      "тра": 1348,
      "тет": 1349,
      "RED": 1350,
      "stead": 1351,
      "ample": 1352,
      "pan": 1353,
      "коэффициент": 1354,
      "ecut": 1355,
      "исо": 1356,
      "its": 1357,
      "пока": 1358,
      "example": 1359,
      "execut": 1360,
      "ений": 1361,
      "tran": 1362,
      "циф": 1363,
      "arr1": 1364,
      "arr2": 1365,
      "тип": 1366,
      "root": 1367,
      "оба": 1368,
      "работа": 1369,
      "moid": 1370,
      "чески": 1371,
      "tern": 1372,
      "particles": 1373,
      "p_flag": 1374,
      "дели": 1375,
      "цену": 1376,
      "мето": 1377,
      "элементов": 1378,
      "sigmoid": 1379,
      "iterator": 1380,
      "memory_order": 1381,
      "_errors": 1382,
      "has_value": 1383,
      "деления": 1384,
      "square": 1385,
      "monthly": 1386,
      "Counter": 1387,
      "ержимо": 1388,
      "discount_rate": 1389,
      "even_": 1390,
      "ch_word": 1391,
      "requires": 1392,
      "search_word": 1393,
      "Вектор": 1394,
      "stop_flag": 1395,
      "ребра": 1396,
      "Number": 1397,
      "equity": 1398,
      "ebitda": 1399,
      "norma": 1400,
      "suspend": 1401,
      "steady": 1402,
      "показывает": 1403,
      "execute": 1404,
      "memory_order_": 1405,
      "24": 1406,
      "2x2": 1407,
      "99": 1408,
      "BL": 1409,
      "Com": 1410,
      "Stor": 1411,
      "Wor": 1412,
      "_al": 1413,
      "_area": 1414,
      "_queue": 1415,
      "b1": 1416,
      "b2": 1417,
      "dot": 1418,
      "ff": 1419,
      "fo": 1420,
      "flo": 1421,
      "ho": 1422,
      "ix": 1423,
      "lit": 1424,
      "ning": 1425,
      "nconcept": 1426,
      "sp": 1427,
      "tic": 1428,
      "uple": 1429,
      "За": 1430,
      "Кон": 1431,
      "вто": 1432,
      "гмен": 1433,
      "два": 1434,
      "дение": 1435,
      "зра": 1436,
      "итера": 1437,
      "кла": 1438,
      "ос": 1439,
      "рен": 1440,
      "ую": 1441,
      "фа": 1442,
      "ACK": 1443,
      "ren": 1444,
      "reven": 1445,
      "student": 1446,
      "entry": 1447,
      "раз": 1448,
      "income": 1449,
      "increment": 1450,
      "mar": 1451,
      "ing_c": 1452,
      "nnstring": 1453,
      "количество": 1454,
      "стру": 1455,
      "ntime": 1456,
      "дал": 1457,
      "ной": 1458,
      "metic": 1459,
      "except": 1460,
      "льность": 1461,
      "ash": 1462,
      "asset": 1463,
      "ression": 1464,
      "вого": 1465,
      "pop": 1466,
      "тивно": 1467,
      "sides": 1468,
      "_collection": 1469,
      "vec2": 1470,
      "мина": 1471,
      "ss_": 1472,
      "ircle": 1473,
      "tax": 1474,
      "expression": 1475,
      "phon": 1476,
      "cost_": 1477,
      "строка": 1478,
      "работ": 1479,
      "base_area": 1480,
      "ithmetic": 1481,
      "lim": 1482,
      "сегмен": 1483,
      "obj": 1484,
      "вую": 1485,
      "share_price": 1486,
      "s_per_": 1487,
      "вление": 1488,
      "Размер": 1489,
      "угол": 1490,
      "файл": 1491,
      "sigma": 1492,
      "scene": 1493,
      "yield_": 1494,
      "mutations": 1495,
      "plugins": 1496,
      "weights_ho": 1497,
      "плагинов": 1498,
      "Strategy": 1499,
      "цеп": 1500,
      "равн": 1501,
      "доходность": 1502,
      "комплексное": 1503,
      "runtime": 1504,
      "safe_divide": 1505,
      "original": 1506,
      "Rectangle": 1507,
      "net_income": 1508,
      "portfolio_": 1509,
      "encoded": 1510,
      "изведение": 1511,
      "generatePer": 1512,
      "врем": 1513,
      "ержимое": 1514,
      "BLACK": 1515,
      "Complex": 1516,
      "Storage": 1517,
      "зраст": 1518,
      "revenue": 1519,
      "ing_cash": 1520,
      "assets": 1521,
      "cost_of": 1522,
      "сегмента": 1523,
      "runtime_error": 1524,
      "generatePermutations": 1525,
      "An": 1526,
      "IN": 1527,
      "IT": 1528,
      "IPlugin": 1529,
      "RS": 1530,
      "Ray": 1531,
      "Ser": 1532,
      "_view": 1533,
      "ax": 1534,
      "b_": 1535,
      "big": 1536,
      "d2": 1537,
      "dt": 1538,
      "fro": 1539,
      "hex": 1540,
      "hello": 1541,
      "ih": 1542,
      "ise": 1543,
      "ld": 1544,
      "nd": 1545,
      "nvoid": 1546,
      "next": 1547,
      "op": 1548,
      "pv": 1549,
      "rat": 1550,
      "tle": 1551,
      "tar": 1552,
      "vid": 1553,
      "z1": 1554,
      "z2": 1555,
      "Ис": 1556,
      "НО": 1557,
      "Сод": 1558,
      "Фи": 1559,
      "Чис": 1560,
      "би": 1561,
      "бу": 1562,
      "лет": 1563,
      "чение": 1564,
      "чное": 1565,
      "ound": 1566,
      "рат": 1567,
      "рами": 1568,
      "matr": 1569,
      "eric": 1570,
      "nnstruct": 1571,
      "pay": 1572,
      "ce_value": 1573,
      "ков": 1574,
      "кой": 1575,
      "прост": 1576,
      "ary": 1577,
      "вести": 1578,
      "se_value": 1579,
      "divid": 1580,
      "string_view": 1581,
      "numeric": 1582,
      "prom": 1583,
      "рез": 1584,
      "каза": 1585,
      "isk": 1586,
      "вое": 1587,
      "empla": 1588,
      "union": 1589,
      "prise_value": 1590,
      "_cash_flow": 1591,
      "getV": 1592,
      "сторо": 1593,
      "imal": 1594,
      "crc": 1595,
      "ванием": 1596,
      "test": 1597,
      "сектора": 1598,
      "денеж": 1599,
      "fib_": 1600,
      "Material": 1601,
      "массив": 1602,
      "face_value": 1603,
      "пред": 1604,
      "ce_back": 1605,
      "орма": 1606,
      "пуст": 1607,
      "инвести": 1608,
      "рямо": 1609,
      "squares": 1610,
      "Arithmetic": 1611,
      "mutex": 1612,
      "weights_ih": 1613,
      "круга": 1614,
      "train": 1615,
      "быль": 1616,
      "parse_": 1617,
      "printSpan": 1618,
      "unordered_map": 1619,
      "множение": 1620,
      "quickSort": 1621,
      "простое": 1622,
      "product": 1623,
      "enterprise_value": 1624,
      "handle_type": 1625,
      "intersection": 1626,
      "trans": 1627,
      "monthly_rate": 1628,
      "memory_order_re": 1629,
      "float": 1630,
      "Animal": 1631,
      "Service": 1632,
      "from": 1633,
      "ratio": 1634,
      "target": 1635,
      "matrix": 1636,
      "dividend": 1637,
      "promise": 1638,
      "emplace_back": 1639,
      "денежный": 1640,
      "13": 1641,
      "42": 1642,
      "74": 1643,
      "Circle": 1644,
      "In": 1645,
      "Max": 1646,
      "Par": 1647,
      "Sh": 1648,
      "_endian": 1649,
      "_point": 1650,
      "_fre": 1651,
      "_iterator": 1652,
      "cat": 1653,
      "clo": 1654,
      "cro": 1655,
      "dro": 1656,
      "gre": 1657,
      "grow": 1658,
      "rame": 1659,
      "risk": 1660,
      "use": 1661,
      "Де": 1662,
      "Ма": 1663,
      "Умножение": 1664,
      "ах": 1665,
      "аль": 1666,
      "ба": 1667,
      "бли": 1668,
      "бай": 1669,
      "гу": 1670,
      "ген": 1671,
      "гру": 1672,
      "жи": 1673,
      "жен": 1674,
      "ке": 1675,
      "квадрат": 1676,
      "пус": 1677,
      "рси": 1678,
      "сс": 1679,
      "тен": 1680,
      "удал": 1681,
      "фер": 1682,
      "defa": 1683,
      "decrypted": 1684,
      "nnconstexpr": 1685,
      "процен": 1686,
      "произведение": 1687,
      "th_rate": 1688,
      "теж": 1689,
      "тей": 1690,
      "тер": 1691,
      "теку": 1692,
      "дина": 1693,
      "сов": 1694,
      "шиф": 1695,
      "поря": 1696,
      "vot": 1697,
      "еме": 1698,
      "емо": 1699,
      "user": 1700,
      "chun": 1701,
      "риф": 1702,
      "лип": 1703,
      "лина": 1704,
      "льш": 1705,
      "acy": 1706,
      "zed": 1707,
      "ректори": 1708,
      "data_queue": 1709,
      "_text": 1710,
      "0x5": 1711,
      "курси": 1712,
      "син": 1713,
      "щая": 1714,
      "через": 1715,
      "e_rate": 1716,
      "irr": 1717,
      "измен": 1718,
      "lized": 1719,
      "использо": 1720,
      "эллип": 1721,
      "потоки": 1722,
      "pivot": 1723,
      "valb": 1724,
      "1234": 1725,
      "operation": 1726,
      "Рас": 1727,
      "MathPlugin": 1728,
      "матрицу": 1729,
      "перемен": 1730,
      "прибыль": 1731,
      "преобра": 1732,
      "system_clock": 1733,
      "1415": 1734,
      "subject": 1735,
      "observers": 1736,
      "кториал": 1737,
      "regex": 1738,
      "Теку": 1739,
      "найдено": 1740,
      "180": 1741,
      "update": 1742,
      "Пере": 1743,
      "градусах": 1744,
      "палиндром": 1745,
      "Point": 1746,
      "normalized": 1747,
      "little": 1748,
      "итеративно": 1749,
      "осно": 1750,
      "mark": 1751,
      "yield_change": 1752,
      "время": 1753,
      "Исход": 1754,
      "Содержимое": 1755,
      "Число": 1756,
      "Parser": 1757,
      "Shape": 1758,
      "_free_rate": 1759,
      "close": 1760,
      "growth_rate": 1761,
      "risk_free_rate": 1762,
      "пуска": 1763,
      "default": 1764,
      "chunk": 1765,
      "использованием": 1766,
      "14159": 1767,
      "3x": 1768,
      "56": 1769,
      "500": 1770,
      "89": 1771,
      "92": 1772,
      "98": 1773,
      "BIT": 1774,
      "DA": 1775,
      "Di": 1776,
      "EBIT": 1777,
      "Map": 1778,
      "Ro": 1779,
      "Res": 1780,
      "Tuple": 1781,
      "_g": 1782,
      "_di": 1783,
      "_height": 1784,
      "_threads": 1785,
      "_worker": 1786,
      "_dir": 1787,
      "_bond_": 1788,
      "_change": 1789,
      "_assets": 1790,
      "_product": 1791,
      "bu": 1792,
      "bal": 1793,
      "but": 1794,
      "c6": 1795,
      "cent": 1796,
      "dog": 1797,
      "day": 1798,
      "ea": 1799,
      "ev": 1800,
      "frame": 1801,
      "iz": 1802,
      "ibut": 1803,
      "lat": 1804,
      "mid": 1805,
      "mtx": 1806,
      "mt1": 1807,
      "nT": 1808,
      "ne": 1809,
      "ore": 1810,
      "oce": 1811,
      "pon": 1812,
      "pla": 1813,
      "ration": 1814,
      "sur": 1815,
      "sla": 1816,
      "t_": 1817,
      "tm": 1818,
      "tate": 1819,
      "ttern": 1820,
      "using": 1821,
      "vance": 1822,
      "way": 1823,
      "xel": 1824,
      "xed": 1825,
      "Во": 1826,
      "До": 1827,
      "Мак": 1828,
      "На": 1829,
      "Упро": 1830,
      "Фа": 1831,
      "вет": 1832,
      "вка": 1833,
      "все": 1834,
      "гис": 1835,
      "дний": 1836,
      "змы": 1837,
      "ико": 1838,
      "име": 1839,
      "ически": 1840,
      "нт": 1841,
      "пень": 1842,
      "прямо": 1843,
      "уравн": 1844,
      "указа": 1845,
      "ца": 1846,
      "чай": 1847,
      "ющи": 1848,
      "invest": 1849,
      "info": 1850,
      "ref": 1851,
      "rename": 1852,
      "remove": 1853,
      "intStack": 1854,
      "coupon": 1855,
      "ран": 1856,
      "размер": 1857,
      "debt": 1858,
      "lear": 1859,
      "leration": 1860,
      "maph": 1861,
      "ров": 1862,
      "рование": 1863,
      "рования": 1864,
      "nual": 1865,
      "pattern": 1866,
      "celeration": 1867,
      "точ": 1868,
      "кос": 1869,
      "str1": 1870,
      "str2": 1871,
      "stribut": 1872,
      "ммы": 1873,
      "iod": 1874,
      "this": 1875,
      "arg": 1876,
      "вектор": 1877,
      "alph": 1878,
      "semaph": 1879,
      "nt_height": 1880,
      "ital": 1881,
      "item": 1882,
      "and_": 1883,
      "annual": 1884,
      "пита": 1885,
      "nums": 1886,
      "num_threads": 1887,
      "proce": 1888,
      "создает": 1889,
      "icy": 1890,
      "пов": 1891,
      "под": 1892,
      "volat": 1893,
      "acceleration": 1894,
      "рекурси": 1895,
      "olicy": 1896,
      "лов": 1897,
      "лоида": 1898,
      "капита": 1899,
      "sizeof": 1900,
      "ltype": 1901,
      "год": 1902,
      "arr_span": 1903,
      "типов": 1904,
      "табе": 1905,
      "unit": 1906,
      "unexpected": 1907,
      "кую": 1908,
      "rotate": 1909,
      "ляр": 1910,
      "ляем": 1911,
      "бота": 1912,
      "omin": 1913,
      "omial": 1914,
      "ations_per_": 1915,
      "стиц": 1916,
      "обработ": 1917,
      "edge": 1918,
      "ctory": 1919,
      "ageMap": 1920,
      "0000": 1921,
      "apital": 1922,
      "laxed": 1923,
      "displa": 1924,
      "дол": 1925,
      "дом": 1926,
      "advance": 1927,
      "current_value": 1928,
      "раболоида": 1929,
      "пан": 1930,
      "параболоида": 1931,
      "price_change": 1932,
      "material": 1933,
      "hidden_size": 1934,
      "Обрат": 1935,
      "filesystem": 1936,
      "uniform": 1937,
      "flag_worker": 1938,
      "face_": 1939,
      "pixel": 1940,
      "operat": 1941,
      "платеж": 1942,
      "элемент": 1943,
      "1111": 1944,
      "призмы": 1945,
      "iterations_per_": 1946,
      "акти": 1947,
      "акции": 1948,
      "ce_location": 1949,
      "State": 1950,
      "has_": 1951,
      "SortStrategy": 1952,
      "first_": 1953,
      "саэдра": 1954,
      "ource": 1955,
      "HelloPlugin": 1956,
      "_per_": 1957,
      "_period": 1958,
      "расстояние": 1959,
      "вадраты": 1960,
      "total_assets": 1961,
      "_device": 1962,
      "_debt": 1963,
      "complex": 1964,
      "Пример": 1965,
      "шает": 1966,
      "months": 1967,
      "trace": 1968,
      "слоя": 1969,
      "decltype": 1970,
      "корня": 1971,
      "printSize": 1972,
      "unordered_set": 1973,
      "variance": 1974,
      "variable": 1975,
      "random_device": 1976,
      "binary": 1977,
      "binomial": 1978,
      "direction": 1979,
      "directory": 1980,
      "bias_h": 1981,
      "bias_o": 1982,
      "source_location": 1983,
      "заверши": 1984,
      "анти": 1985,
      "степень": 1986,
      "тетра": 1987,
      "исокос": 1988,
      "методом": 1989,
      "suspend_al": 1990,
      "steady_": 1991,
      "9937": 1992,
      "World": 1993,
      "ning_rate": 1994,
      "Концеп": 1995,
      "минант": 1996,
      "taxes": 1997,
      "limits": 1998,
      "portfolio_return": 1999,
      "НОД": 2000,
      "payment": 2001,
      "стороны": 2002,
      "fib_gen": 2003,
      "орматиро": 2004,
      "training_": 2005,
      "memory_order_relaxed": 2006,
      "cross_": 2007,
      "груз": 2008,
      "изменение": 2009,
      "12345": 2010,
      "3x3": 2011,
      "EBITDA": 2012,
      "Resource": 2013,
      "_distribut": 2014,
      "_bond_yield": 2015,
      "bug": 2016,
      "balance": 2017,
      "mt19937": 2018,
      "surface_": 2019,
      "slant_height": 2020,
      "ways": 2021,
      "Возраст": 2022,
      "Упрощ": 2023,
      "икосаэдра": 2024,
      "указате": 2025,
      "learning_rate": 2026,
      "alpha": 2027,
      "semaphore": 2028,
      "volatility": 2029,
      "display": 2030,
      "uniform_": 2031,
      "iterations_per_thread": 2032,
      "suspend_always": 2033,
      "Концепт": 2034,
      "_distribution": 2035,
      "surface_area": 2036,
      "35": 2037,
      "40": 2038,
      "400": 2039,
      "60": 2040,
      "9b": 2041,
      "AS": 2042,
      "CI": 2043,
      "Dog": 2044,
      "EV": 2045,
      "Hit": 2046,
      "Name": 2047,
      "Policy": 2048,
      "RR": 2049,
      "Rec": 2050,
      "Right": 2051,
      "Time": 2052,
      "_if": 2053,
      "_amount": 2054,
      "_any": 2055,
      "a4": 2056,
      "ban": 2057,
      "bright": 2058,
      "card": 2059,
      "fut": 2060,
      "fun": 2061,
      "hold": 2062,
      "hren": 2063,
      "jk": 2064,
      "km": 2065,
      "lsi": 2066,
      "lif": 2067,
      "ner": 2068,
      "nment": 2069,
      "native": 2070,
      "npv": 2071,
      "ow": 2072,
      "ole": 2073,
      "range": 2074,
      "sin": 2075,
      "sstream": 2076,
      "salar": 2077,
      "sole": 2078,
      "ure": 2079,
      "vity": 2080,
      "vative": 2081,
      "wacc": 2082,
      "Бе": 2083,
      "Ди": 2084,
      "Доба": 2085,
      "Длина": 2086,
      "Конст": 2087,
      "Квадрат": 2088,
      "Най": 2089,
      "Под": 2090,
      "Ст": 2091,
      "Фай": 2092,
      "Эл": 2093,
      "ариф": 2094,
      "високос": 2095,
      "гла": 2096,
      "две": 2097,
      "дре": 2098,
      "дне": 2099,
      "доба": 2100,
      "ерирует": 2101,
      "жения": 2102,
      "жду": 2103,
      "много": 2104,
      "пра": 2105,
      "спо": 2106,
      "ски": 2107,
      "счет": 2108,
      "сфер": 2109,
      "умно": 2110,
      "хро": 2111,
      "чный": 2112,
      "щение": 2113,
      "ыn": 2114,
      "ющая": 2115,
      "яти": 2116,
      "ination": 2117,
      "indro": 2118,
      "rest": 2119,
      "stination": 2120,
      "рация": 2121,
      "рачи": 2122,
      "dep": 2123,
      "dele": 2124,
      "destination": 2125,
      "ord": 2126,
      "erase": 2127,
      "erPlugin": 2128,
      "ersion": 2129,
      "рое": 2130,
      "one": 2131,
      "nnexpected": 2132,
      "celsi": 2133,
      "того": 2134,
      "коор": 2135,
      "strategy": 2136,
      "thres": 2137,
      "thod": 2138,
      "векто": 2139,
      "alindro": 2140,
      "тек": 2141,
      "директори": 2142,
      "сод": 2143,
      "ноль": 2144,
      "utility": 2145,
      "ana": 2146,
      "ift": 2147,
      "создан": 2148,
      "method": 2149,
      "поло": 2150,
      "после": 2151,
      "вали": 2152,
      "лика": 2153,
      "льтип": 2154,
      "реш": 2155,
      "решает": 2156,
      "res1": 2157,
      "каляр": 2158,
      "ций": 2159,
      "цилин": 2160,
      "ype_": 2161,
      "isdigit": 2162,
      "heit": 2163,
      "d_example": 2164,
      "_time": 2165,
      "_type_": 2166,
      "типа": 2167,
      "тичес": 2168,
      "тирует": 2169,
      "верка": 2170,
      "0x3": 2171,
      "0x7": 2172,
      "0x8": 2173,
      "руктор": 2174,
      "бонач": 2175,
      "больш": 2176,
      "маль": 2177,
      "общение": 2178,
      "ctime": 2179,
      "ptr1": 2180,
      "vec_collection": 2181,
      "imeter": 2182,
      "getName": 2183,
      "app": 2184,
      "apple": 2185,
      "tach": 2186,
      "док": 2187,
      "beta": 2188,
      "зации": 2189,
      "print_type_": 2190,
      "noexcept": 2191,
      "shape": 2192,
      "shift": 2193,
      "пас": 2194,
      "hidden_errors": 2195,
      "стая": 2196,
      "станов": 2197,
      "output_errors": 2198,
      "fix": 2199,
      "ссив": 2200,
      "current_path": 2201,
      "reverseStr": 2202,
      "потоков": 2203,
      "массиво": 2204,
      "fahren": 2205,
      "между": 2206,
      "sorter": 2207,
      "Работа": 2208,
      "ческое": 2209,
      "элементы": 2210,
      "кса": 2211,
      "rivative": 2212,
      "тельное": 2213,
      "isPalindro": 2214,
      "64_": 2215,
      "substr": 2216,
      "четных": 2217,
      "_derivative": 2218,
      "comp": 2219,
      "Привет": 2220,
      "круг": 2221,
      "метически": 2222,
      "ержи": 2223,
      "Проверка": 2224,
      "трех": 2225,
      "треугольника": 2226,
      "regist": 2227,
      "any_cast": 2228,
      "Первые": 2229,
      "частиц": 2230,
      "операции": 2231,
      "source": 2232,
      "Вычисл": 2233,
      "заверш": 2234,
      "систему": 2235,
      "цифр": 2236,
      "sigmoid_derivative": 2237,
      "executePlugin": 2238,
      "spea": 2239,
      "рентабе": 2240,
      "students": 2241,
      "StoragePolicy": 2242,
      "Фибонач": 2243,
      "бук": 2244,
      "просты": 2245,
      "getVersion": 2246,
      "инвестиции": 2247,
      "transform": 2248,
      "catch": 2249,
      "Массив": 2250,
      "генерирует": 2251,
      "ссы": 2252,
      "процент": 2253,
      "динаты": 2254,
      "Расстояние": 2255,
      "основания": 2256,
      "Исходный": 2257,
      "пускаем": 2258,
      "ness": 2259,
      "Факториал": 2260,
      "renamed_example": 2261,
      "1234567": 2262,
      "Упрощенный": 2263,
      "ASCI": 2264,
      "HitRec": 2265,
      "TimePlugin": 2266,
      "banana": 2267,
      "brightness": 2268,
      "future": 2269,
      "function": 2270,
      "salary": 2271,
      "Конструктор": 2272,
      "Найден": 2273,
      "Стро": 2274,
      "Файл": 2275,
      "Элемен": 2276,
      "арифметически": 2277,
      "delete": 2278,
      "celsius": 2279,
      "координаты": 2280,
      "threshold": 2281,
      "валид": 2282,
      "ликатор": 2283,
      "льтипликатор": 2284,
      "цилиндра": 2285,
      "print_type_info": 2286,
      "становки": 2287,
      "reverseString": 2288,
      "fahrenheit": 2289,
      "isPalindrome": 2290,
      "registerPlugin": 2291,
      "speak": 2292,
      "Фибоначчи": 2293,
      "HitRecord": 2294,
      "future_value": 2295,
      "17": 2296,
      "19": 2297,
      "22": 2298,
      "26": 2299,
      "6a": 2300,
      "70": 2301,
      "85": 2302,
      "90": 2303,
      "?\\": 2304,
      "Area": 2305,
      "Ali": 2306,
      "By": 2307,
      "De": 2308,
      "Has": 2309,
      "Hel": 2310,
      "IRR": 2311,
      "Leg": 2312,
      "Neg": 2313,
      "Pr": 2314,
      "Re": 2315,
      "Sc": 2316,
      "SHA": 2317,
      "Squ": 2318,
      "Size": 2319,
      "UU": 2320,
      "Zer": 2321,
      "_v": 2322,
      "_str": 2323,
      "_string": 2324,
      "_res": 2325,
      "_flag": 2326,
      "_old": 2327,
      "_yield": 2328,
      "_suspend": 2329,
      "_next": 2330,
      "ale": 2331,
      "c0": 2332,
      "ca": 2333,
      "cd": 2334,
      "cv": 2335,
      "center": 2336,
      "done": 2337,
      "fe": 2338,
      "fstream": 2339,
      "fet": 2340,
      "fru": 2341,
      "gam": 2342,
      "gcd": 2343,
      "han": 2344,
      "ip_": 2345,
      "i_old": 2346,
      "jthread": 2347,
      "kip_": 2348,
      "ming": 2349,
      "mic": 2350,
      "ned": 2351,
      "npos": 2352,
      "nstruct": 2353,
      "oc": 2354,
      "oi": 2355,
      "olu": 2356,
      "opt": 2357,
      "pper": 2358,
      "pe_": 2359,
      "sco": 2360,
      "seconds": 2361,
      "sphere": 2362,
      "sregex": 2363,
      "skip_": 2364,
      "tan": 2365,
      "tif": 2366,
      "vel": 2367,
      "ward": 2368,
      "x0": 2369,
      "ytm": 2370,
      "Все": 2371,
      "Два": 2372,
      "Демонст": 2373,
      "Знач": 2374,
      "Иван": 2375,
      "Квадраты": 2376,
      "От": 2377,
      "Со": 2378,
      "Систе": 2379,
      "Стек": 2380,
      "Функ": 2381,
      "Це": 2382,
      "ана": 2383,
      "бло": 2384,
      "вки": 2385,
      "вляем": 2386,
      "ды": 2387,
      "еч": 2388,
      "жида": 2389,
      "имен": 2390,
      "йст": 2391,
      "кре": 2392,
      "кры": 2393,
      "лн": 2394,
      "нет": 2395,
      "пис": 2396,
      "рис": 2397,
      "спан": 2398,
      "трен": 2399,
      "ум": 2400,
      "уден": 2401,
      "угла": 2402,
      "цу": 2403,
      "щую": 2404,
      "inorder": 2405,
      "resize": 2406,
      "enum": 2407,
      "intable": 2408,
      "integ": 2409,
      "dex": 2410,
      "deter": 2411,
      "amming": 2412,
      "mass": 2413,
      "erm": 2414,
      "ing_period": 2415,
      "ромо": 2416,
      "рового": 2417,
      "return_": 2418,
      "nnconst": 2419,
      "nnenum": 2420,
      "stra": 2421,
      "етер": 2422,
      "грамма": 2423,
      "енного": 2424,
      "енге": 2425,
      "three": 2426,
      "alig": 2427,
      "altern": 2428,
      "студен": 2429,
      "seen": 2430,
      "diff": 2431,
      "dijk": 2432,
      "сообщение": 2433,
      "stringstream": 2434,
      "forward": 2435,
      "ном": 2436,
      "выра": 2437,
      "пирами": 2438,
      "полу": 2439,
      "потен": 2440,
      "полн": 2441,
      "рит": 2442,
      "римет": 2443,
      "ритичес": 2444,
      "лине": 2445,
      "личи": 2446,
      "льси": 2447,
      "вычисления": 2448,
      "ении": 2449,
      "account": 2450,
      "ional": 2451,
      "регис": 2452,
      "редне": 2453,
      "old_": 2454,
      "нии": 2455,
      "низации": 2456,
      "ками": 2457,
      "каэдра": 2458,
      "цион": 2459,
      "lter": 2460,
      "ishe": 2461,
      "isalpha": 2462,
      "годо": 2463,
      "горит": 2464,
      "воз": 2465,
      "_term": 2466,
      "таэдра": 2467,
      "верс": 2468,
      "вертирует": 2469,
      "0x2": 2470,
      "0xb": 2471,
      "куба": 2472,
      "roseconds": 2473,
      "result3": 2474,
      "бодо": 2475,
      "зуя": 2476,
      "стить": 2477,
      "стирование": 2478,
      "long_text": 2479,
      "vec_span": 2480,
      "vision": 2481,
      "усеч": 2482,
      "getMax": 2483,
      "h_val": 2484,
      "apter": 2485,
      "нерами": 2486,
      "phi": 2487,
      "cos": 2488,
      "строке": 2489,
      "outFile": 2490,
      "notif": 2491,
      "real_distribution": 2492,
      "areRo": 2493,
      "нутрен": 2494,
      "началь": 2495,
      "teObserver": 2496,
      "Поиск": 2497,
      "сечение": 2498,
      "денд": 2499,
      "is_op": 2500,
      "output_size": 2501,
      "используя": 2502,
      "five": 2503,
      "filter": 2504,
      "termin": 2505,
      "радиа": 2506,
      "object": 2507,
      "current_dist": 2508,
      "es_": 2509,
      "file_size": 2510,
      "setState": 2511,
      "ofstream": 2512,
      "fact_": 2513,
      "цииn": 2514,
      "декаэдра": 2515,
      "final": 2516,
      "finishe": 2517,
      "значения": 2518,
      "значений": 2519,
      "цены": 2520,
      "поточ": 2521,
      "addSphere": 2522,
      "Раз": 2523,
      "logger": 2524,
      "элемента": 2525,
      "зование": 2526,
      "зопас": 2527,
      "первые": 2528,
      "corout": 2529,
      "tion_clock": 2530,
      "iterations": 2531,
      "move_next": 2532,
      "Concre": 2533,
      "предели": 2534,
      "сур": 2535,
      "фей": 2536,
      "status": 2537,
      "bit_cast": 2538,
      "hash": 2539,
      "ray_dir": 2540,
      "sub_span": 2541,
      "ромбодо": 2542,
      "виденд": 2543,
      "интер": 2544,
      "parser": 2545,
      "контей": 2546,
      "конвертирует": 2547,
      "симум": 2548,
      "аренге": 2549,
      "расчет": 2550,
      "256": 2551,
      "Arr": 2552,
      "time_point": 2553,
      "high_res": 2554,
      "шабло": 2555,
      "шарового": 2556,
      "duration_cast": 2557,
      "алгорит": 2558,
      "обрат": 2559,
      "distances": 2560,
      "parse_term": 2561,
      "ability": 2562,
      "гекса": 2563,
      "щий": 2564,
      "ativeSqu": 2565,
      "concepts": 2566,
      "доходности": 2567,
      "list_collection": 2568,
      "atomic_flag": 2569,
      "Первый": 2570,
      "Тестирование": 2571,
      "функция": 2572,
      "quicksort": 2573,
      "перево": 2574,
      "safe_sqrt": 2575,
      "Коэффициент": 2576,
      "Количество": 2577,
      "оператор": 2578,
      "щее": 2579,
      "щей": 2580,
      "щест": 2581,
      "рованный": 2582,
      "profitability": 2583,
      "лучай": 2584,
      "люч": 2585,
      "градусы": 2586,
      "сортирован": 2587,
      "сортировки": 2588,
      "палиндромо": 2589,
      "create": 2590,
      "работает": 2591,
      "работающая": 2592,
      "even_numbers": 2593,
      "even_squares": 2594,
      "Векторы": 2595,
      "steady_clock": 2596,
      "dot_product": 2597,
      "exception": 2598,
      "phones_": 2599,
      "original_price": 2600,
      "INF": 2601,
      "RSA": 2602,
      "ounding_period": 2603,
      "parse_factor": 2604,
      "parse_expression": 2605,
      "promise_type": 2606,
      "748": 2607,
      "байтов": 2608,
      "жительное": 2609,
      "удаляет": 2610,
      "текущей": 2611,
      "порядок": 2612,
      "acyRectangle": 2613,
      "синхро": 2614,
      "эллипса": 2615,
      "Division": 2616,
      "ev_": 2617,
      "Максимум": 2618,
      "имеет": 2619,
      "рекурсивно": 2620,
      "обработки": 2621,
      "first_five": 2622,
      "Примерная": 2623,
      "слояn": 2624,
      "антипризмы": 2625,
      "тетрагекса": 2626,
      "training_inputs": 2627,
      "bugger": 2628,
      "uniform_real_distribution": 2629,
      "ranges": 2630,
      "Подспан": 2631,
      "високосный": 2632,
      "дрес": 2633,
      "добавл": 2634,
      "многопоточ": 2635,
      "спони": 2636,
      "счетчи": 2637,
      "сферы": 2638,
      "директории": 2639,
      "положительное": 2640,
      "калярное": 2641,
      "compounding_period": 2642,
      "кругл": 2643,
      "Вычисление": 2644,
      "ASCII": 2645,
      "Строка": 2646,
      "Элементы": 2647,
      "Alice": 2648,
      "ByZer": 2649,
      "Debugger": 2650,
      "HasSize": 2651,
      "Helper": 2652,
      "LegacyRectangle": 2653,
      "NegativeSqu": 2654,
      "Printable": 2655,
      "Rest": 2656,
      "Scene": 2657,
      "UUID": 2658,
      "fetch_": 2659,
      "gamma": 2660,
      "hanoi": 2661,
      "microseconds": 2662,
      "olution_clock": 2663,
      "optional": 2664,
      "pe_ratio": 2665,
      "sregex_iterator": 2666,
      "skip_three": 2667,
      "Демонстрация": 2668,
      "Значение": 2669,
      "Система": 2670,
      "Функция": 2671,
      "inorderHelper": 2672,
      "determinant": 2673,
      "етерминант": 2674,
      "alternate": 2675,
      "dijkstra": 2676,
      "пирамиды": 2677,
      "потену": 2678,
      "реднее": 2679,
      "old_value": 2680,
      "усеченного": 2681,
      "notify": 2682,
      "areRoot": 2683,
      "is_open": 2684,
      "fact_5": 2685,
      "finished": 2686,
      "ConcreteObserver": 2687,
      "пределитель": 2688,
      "ромбододекаэдра": 2689,
      "интерфей": 2690,
      "контейнерами": 2691,
      "аренгей": 2692,
      "high_resolution_clock": 2693,
      "лучайное": 2694,
      "палиндромом": 2695,
      "синхронизации": 2696,
      "DivisionByZer": 2697,
      "тетрагексаэдра": 2698,
      "compounding_periods": 2699,
      "NegativeSquareRoot": 2700,
      "DivisionByZero": 2701,
      "300": 2702,
      "360": 2703,
      "71": 2704,
      "82": 2705,
      ":.": 2706,
      "AE": 2707,
      "Ac": 2708,
      "Ad": 2709,
      "ASE": 2710,
      "BT": 2711,
      "Ban": 2712,
      "Base": 2713,
      "Bob": 2714,
      "BASE": 2715,
      "Ci": 2716,
      "CHA": 2717,
      "Cat": 2718,
      "Class": 2719,
      "Collection": 2720,
      "For": 2721,
      "Fac": 2722,
      "Gra": 2723,
      "IZ": 2724,
      "Le": 2725,
      "List": 2726,
      "My": 2727,
      "Ne": 2728,
      "Net": 2729,
      "OR": 2730,
      "RBT": 2731,
      "Sy": 2732,
      "SIZ": 2733,
      "Typ": 2734,
      "Type": 2735,
      "WAC": 2736,
      "XOR": 2737,
      "_d": 2738,
      "_int": 2739,
      "_year": 2740,
      "_out": 2741,
      "_equity": 2742,
      "_variable": 2743,
      "_directory": 2744,
      "_limits": 2745,
      "au": 2746,
      "ait": 2747,
      "aver": 2748,
      "b0": 2749,
      "barr": 2750,
      "c3": 2751,
      "c7": 2752,
      "cc": 2753,
      "cp": 2754,
      "cy": 2755,
      "cstd": 2756,
      "cct": 2757,
      "cing_cash": 2758,
      "c_point": 2759,
      "capital": 2760,
      "df": 2761,
      "do": 2762,
      "ed_": 2763,
      "epo": 2764,
      "e_text": 2765,
      "erest": 2766,
      "f2": 2767,
      "fil": 2768,
      "fron": 2769,
      "free": 2770,
      "gover": 2771,
      "gacy": 2772,
      "hn": 2773,
      "hit": 2774,
      "im": 2775,
      "ier": 2776,
      "iation": 2777,
      "ies": 2778,
      "kAc": 2779,
      "nnu": 2780,
      "nomin": 2781,
      "nc_point": 2782,
      "ost_": 2783,
      "ood": 2784,
      "p1": 2785,
      "p2": 2786,
      "por": 2787,
      "pres": 2788,
      "rsa": 2789,
      "son": 2790,
      "sphe": 2791,
      "sold": 2792,
      "tter": 2793,
      "tuple": 2794,
      "uard": 2795,
      "vent": 2796,
      "wra": 2797,
      "wel": 2798,
      "wait": 2799,
      "z0": 2800,
      "Ан": 2801,
      "Адрес": 2802,
      "Ба": 2803,
      "Дел": 2804,
      "Ин": 2805,
      "Имя": 2806,
      "Итого": 2807,
      "Ме": 2808,
      "Му": 2809,
      "Ожида": 2810,
      "Пре": 2811,
      "Сто": 2812,
      "Сло": 2813,
      "Сле": 2814,
      "То": 2815,
      "Форматиро": 2816,
      "Ча": 2817,
      "Чет": 2818,
      "бел": 2819,
      "блю": 2820,
      "венный": 2821,
      "внутрен": 2822,
      "дня": 2823,
      "диск": 2824,
      "двой": 2825,
      "зван": 2826,
      "имя": 2827,
      "ичное": 2828,
      "йк": 2829,
      "йро": 2830,
      "кл": 2831,
      "кр": 2832,
      "кло": 2833,
      "кцию": 2834,
      "критичес": 2835,
      "лы": 2836,
      "ллине": 2837,
      "нные": 2838,
      "ок": 2839,
      "оши": 2840,
      "оси": 2841,
      "рт": 2842,
      "ско": 2843,
      "сет": 2844,
      "сем": 2845,
      "счи": 2846,
      "скры": 2847,
      "тся": 2848,
      "уве": 2849,
      "уни": 2850,
      "физ": 2851,
      "форматиро": 2852,
      "хе": 2853,
      "что": 2854,
      "шел": 2855,
      "ъе": 2856,
      "яса": 2857,
      "ять": 2858,
      "inside": 2859,
      "inFile": 2860,
      "rect": 2861,
      "reinvest": 2862,
      "state": 2863,
      "stand": 2864,
      "ense": 2865,
      "interest": 2866,
      "def": 2867,
      "delim": 2868,
      "degre": 2869,
      "amort": 2870,
      "lease": 2871,
      "legacy": 2872,
      "letter": 2873,
      "ural": 2874,
      "ing_price": 2875,
      "turns": 2876,
      "nnvector": 2877,
      "atan": 2878,
      "attach": 2879,
      "код": 2880,
      "коэффициен": 2881,
      "коллине": 2882,
      "пробел": 2883,
      "names": 2884,
      "eck": 2885,
      "ета": 2886,
      "граммы": 2887,
      "thing": 2888,
      "нало": 2889,
      "arCi": 2890,
      "весов": 2891,
      "al_rate": 2892,
      "диа": 2893,
      "дин": 2894,
      "дивиденд": 2895,
      "sed": 2896,
      "sell": 2897,
      "dition": 2898,
      "численный": 2899,
      "состояние": 2900,
      "датель": 2901,
      "шие": 2902,
      "номи": 2903,
      "номина": 2904,
      "вызван": 2905,
      "condition": 2906,
      "utes": 2907,
      "itch": 2908,
      "ities": 2909,
      "an_amount": 2910,
      "ancing_cash": 2911,
      "ifstream": 2912,
      "ate_bond_yield": 2913,
      "ics": 2914,
      "пога": 2915,
      "порт": 2916,
      "пояса": 2917,
      "vowel": 2918,
      "read_": 2919,
      "вая": 2920,
      "ваем": 2921,
      "рия": 2922,
      "loan_amount": 2923,
      "ением": 2924,
      "acqui": 2925,
      "лочисленный": 2926,
      "ния": 2927,
      "ным": 2928,
      "цилинд": 2929,
      "цикл": 2930,
      "гой": 2931,
      "вола": 2932,
      "возраст": 2933,
      "воичное": 2934,
      "вошел": 2935,
      "ениеn": 2936,
      "pop_": 2937,
      "posed": 2938,
      "тильность": 2939,
      "ent_value": 2940,
      "0x0": 2941,
      "0x4": 2942,
      "0xa": 2943,
      "0xd": 2944,
      "0xe": 2945,
      "0xFF": 2946,
      "рую": 2947,
      "ругой": 2948,
      "rot1": 2949,
      "roman": 2950,
      "лями": 2951,
      "бок": 2952,
      "сималь": 2953,
      "percent": 2954,
      "person": 2955,
      "обмен": 2956,
      "_capital": 2957,
      "_cost_": 2958,
      "age_in": 2959,
      "earning": 2960,
      "уса": 2961,
      "тывает": 2962,
      "local": 2963,
      "chars": 2964,
      "expense": 2965,
      "ilities": 2966,
      "pher": 2967,
      "phics": 2968,
      "sqrt_d": 2969,
      "today": 2970,
      "Plugins": 2971,
      "PluginFac": 2972,
      "covariance": 2973,
      "what": 2974,
      "зация": 2975,
      "запис": 2976,
      "printAr": 2977,
      "printNumber": 2978,
      "shares": 2979,
      "пании": 2980,
      "input_size": 2981,
      "начал": 2982,
      "price_per_": 2983,
      "denomin": 2984,
      "base_per": 2985,
      "lier": 2986,
      "liab": 2987,
      "tory": 2988,
      "Обработ": 2989,
      "себе": 2990,
      "секцию": 2991,
      "uint64": 2992,
      "is_little": 2993,
      "minutes": 2994,
      "term": 2995,
      "перимет": 2996,
      "current_assets": 2997,
      "current_liab": 2998,
      "esarCi": 2999,
      "меняет": 3000,
      "setStrategy": 3001,
      "верхний": 3002,
      "shared_count": 3003,
      "радиусы": 3004,
      "etime": 3005,
      "s_sold": 3006,
      "декс": 3007,
      "дейст": 3008,
      "max_int": 3009,
      "lock_g": 3010,
      "financing_cash": 3011,
      "grade": 3012,
      "gravity": 3013,
      "Ресур": 3014,
      "addParticle": 3015,
      "трица": 3016,
      "sync_point": 3017,
      "сяти": 3018,
      "memcp": 3019,
      "lyFor": 3020,
      "плата": 3021,
      "матрица": 3022,
      "initializ": 3023,
      "зова": 3024,
      "первую": 3025,
      "первое": 3026,
      "corpor": 3027,
      "прияти": 3028,
      "test_union": 3029,
      "test_function": 3030,
      "LoggerType": 3031,
      "Console": 3032,
      "фек": 3033,
      "феля": 3034,
      "bitset": 3035,
      "switch": 3036,
      "тельных": 3037,
      "чиселn": 3038,
      "ваниеn": 3039,
      "system_error": 3040,
      "путь": 3041,
      "пустая": 3042,
      "пукло": 3043,
      "без": 3044,
      "вительных": 3045,
      "деление": 3046,
      "компании": 3047,
      "концеп": 3048,
      "конуса": 3049,
      "typeid": 3050,
      "_percent": 3051,
      "total_debt": 3052,
      "total_capital": 3053,
      "observer1": 3054,
      "static_cast": 3055,
      "255": 3056,
      "time_t": 3057,
      "red_return": 3058,
      "Прибли": 3059,
      "метры": 3060,
      "reciation": 3061,
      "плагина": 3062,
      "discount_percent": 3063,
      "et_return": 3064,
      "multiplier": 3065,
      "abs": 3066,
      "щие": 3067,
      "равни": 3068,
      "listPlugins": 3069,
      "FileError": 3070,
      "FileLogger": 3071,
      "функцию": 3072,
      "функций": 3073,
      "required_return": 3074,
      "search": 3075,
      "перегруз": 3076,
      "перестановки": 3077,
      "findMax": 3078,
      "массивами": 3079,
      "ParticleSy": 3080,
      "new_value": 3081,
      "net_operat": 3082,
      "мультипликатор": 3083,
      "ing_profit": 3084,
      "per_unit": 3085,
      "costs": 3086,
      "файлаn": 3087,
      "portfolio_value": 3088,
      "modPo": 3089,
      "freq": 3090,
      "системы": 3091,
      "трация": 3092,
      "делится": 3093,
      "метод": 3094,
      "normal": 3095,
      "Work": 3096,
      "_all": 3097,
      "второе": 3098,
      "вторую": 3099,
      "клас": 3100,
      "структор": 3101,
      "ss_string": 3102,
      "tax_rate": 3103,
      "phone_text": 3104,
      "s_per_share": 3105,
      "плагиновnclass": 3106,
      "RectangleAd": 3107,
      "portfolio_volatility": 3108,
      "cost_of_g": 3109,
      "cost_of_debt": 3110,
      "cost_of_equity": 3111,
      "бина": 3112,
      "простран": 3113,
      "numeric_limits": 3114,
      "getValue": 3115,
      "test_value": 3116,
      "предприяти": 3117,
      "transposed": 3118,
      "dividend_per_": 3119,
      "байт": 3120,
      "гумен": 3121,
      "удаления": 3122,
      "поряд": 3123,
      "емеся": 3124,
      "переменной": 3125,
      "преобразует": 3126,
      "Текущий": 3127,
      "Текущее": 3128,
      "market_return": 3129,
      "ization": 3130,
      "Наблю": 3131,
      "investing_cash": 3132,
      "точками": 3133,
      "annual_rate": 3134,
      "annual_cash_flow": 3135,
      "process": 3136,
      "process_string": 3137,
      "подсчи": 3138,
      "капитал": 3139,
      "rotateRight": 3140,
      "rotateLe": 3141,
      "operating_cash": 3142,
      "активы": 3143,
      "has_digit": 3144,
      "has_serialize": 3145,
      "variable_cost_": 3146,
      "завершил": 3147,
      "завершили": 3148,
      "_anything": 3149,
      "cardNumber": 3150,
      "lifetime": 3151,
      "nment_bond_yield": 3152,
      "owner": 3153,
      "Безопас": 3154,
      "Добавляем": 3155,
      "скид": 3156,
      "умножения": 3157,
      "рачивает": 3158,
      "depreciation": 3159,
      "векторов": 3160,
      "последний": 3161,
      "applyFor": 3162,
      "fixed_": 3163,
      "массивом": 3164,
      "64_CHA": 3165,
      "ержит": 3166,
      "частицыn": 3167,
      "завершен": 3168,
      "рентабельность": 3169,
      "буква": 3170,
      "простым": 3171,
      "123456789": 3172,
      "Найдено": 3173,
      "арифметические": 3174,
      "caesarCi": 3175,
      "Отсортирован": 3176,
      "полуоси": 3177,
      "льсии": 3178,
      "ционные": 3179,
      "радианах": 3180,
      "элементаn": 3181,
      "алгоритм": 3182,
      "переворачивает": 3183,
      "счетчик": 3184,
      "интерфейс": 3185,
      "аренгейты": 3186,
      "BankAc": 3187,
      "Base64": 3188,
      "BASE64_CHA": 3189,
      "Graphics": 3190,
      "MyClass": 3191,
      "Neural": 3192,
      "Network": 3193,
      "RBTree": 3194,
      "SIZE": 3195,
      "Types": 3196,
      "WACC": 3197,
      "_outstand": 3198,
      "aux": 3199,
      "average_in": 3200,
      "barrier": 3201,
      "cstdint": 3202,
      "cctype": 3203,
      "doWork": 3204,
      "epoch": 3205,
      "filename": 3206,
      "front": 3207,
      "free_cash_flow": 3208,
      "government_bond_yield": 3209,
      "hit_anything": 3210,
      "nominal_rate": 3211,
      "oods_sold": 3212,
      "present_value": 3213,
      "spheres": 3214,
      "ventory": 3215,
      "wrapper": 3216,
      "Деление": 3217,
      "Преобра": 3218,
      "Стоимость": 3219,
      "Сложение": 3220,
      "двойки": 3221,
      "критическую": 3222,
      "лый": 3223,
      "ошибок": 3224,
      "увеличи": 3225,
      "уничто": 3226,
      "reinvest_rate": 3227,
      "delimiter": 3228,
      "degrees": 3229,
      "amortization": 3230,
      "legacyRect": 3231,
      "letters": 3232,
      "коэффициенты": 3233,
      "коллинеар": 3234,
      "selling_price": 3235,
      "погаш": 3236,
      "портфеля": 3237,
      "vowels": 3238,
      "read_file": 3239,
      "acquire": 3240,
      "цилиндрического": 3241,
      "волатильность": 3242,
      "pop_back": 3243,
      "rot13": 3244,
      "обмена": 3245,
      "earnings_per_share": 3246,
      "expenses": 3247,
      "PluginFactory": 3248,
      "printArray": 3249,
      "printNumbers": 3250,
      "shares_outstand": 3251,
      "price_per_unit": 3252,
      "denominator": 3253,
      "base_perimeter": 3254,
      "Обработка": 3255,
      "себестоимость": 3256,
      "uint64_t": 3257,
      "is_little_endian": 3258,
      "current_liabilities": 3259,
      "shared_counter": 3260,
      "lock_guard": 3261,
      "Ресурс": 3262,
      "memcpy": 3263,
      "initializer": 3264,
      "corporate_bond_yield": 3265,
      "ConsoleLogger": 3266,
      "концепты": 3267,
      "Приближен": 3268,
      "ParticleSystem": 3269,
      "net_operating_profit": 3270,
      "modPow": 3271,
      "RectangleAdapter": 3272,
      "cost_of_goods_sold": 3273,
      "предприятия": 3274,
      "dividend_per_share": 3275,
      "Наблюдатель": 3276,
      "подсчитывает": 3277,
      "rotateLeft": 3278,
      "variable_cost_per_unit": 3279,
      "Безопасное": 3280,
      "applyForce": 3281,
      "fixed_costs": 3282,
      "caesarCipher": 3283,
      "Отсортированный": 3284,
      "BankAccount": 3285,
      "BASE64_CHARS": 3286,
      "NeuralNetwork": 3287,
      "average_inventory": 3288,
      "уничтожен": 3289,
      "shares_outstanding": 3290,
      ".~": 3291,
      "0_": 3292,
      "0c": 3293,
      "1a": 3294,
      "1e": 3295,
      "1f": 3296,
      "137": 3297,
      "28": 3298,
      "2f": 3299,
      "33": 3300,
      "3f": 3301,
      "44": 3302,
      "45": 3303,
      "53": 3304,
      "5d": 3305,
      "6f": 3306,
      "600": 3307,
      "78": 3308,
      "7f": 3309,
      "80": 3310,
      "83": 3311,
      "88": 3312,
      "8a": 3313,
      "8_t": 3314,
      "800": 3315,
      "91": 3316,
      "9d": 3317,
      "9n": 3318,
      "AB": 3319,
      "AG": 3320,
      "AT": 3321,
      "At": 3322,
      "Av": 3323,
      "Bin": 3324,
      "Bub": 3325,
      "CD": 3326,
      "CR": 3327,
      "C_": 3328,
      "Ch": 3329,
      "C32": 3330,
      "Data": 3331,
      "Dist": 3332,
      "Dead": 3333,
      "Em": 3334,
      "Email": 3335,
      "FL": 3336,
      "FIN": 3337,
      "Found": 3338,
      "IO": 3339,
      "LE": 3340,
      "Line": 3341,
      "Mo": 3342,
      "Man": 3343,
      "NP": 3344,
      "Not": 3345,
      "Of": 3346,
      "OMI": 3347,
      "Pi": 3348,
      "Qu": 3349,
      "RO": 3350,
      "ROT": 3351,
      "ST": 3352,
      "Sub": 3353,
      "Sear": 3354,
      "Sale": 3355,
      "Sim": 3356,
      "SFIN": 3357,
      "TM": 3358,
      "Val": 3359,
      "Value": 3360,
      "YTM": 3361,
      "Za": 3362,
      "_a": 3363,
      "_name": 3364,
      "_me": 3365,
      "_as": 3366,
      "_count": 3367,
      "_else": 3368,
      "_vec": 3369,
      "_len": 3370,
      "_file": 3371,
      "_container": 3372,
      "_pos": 3373,
      "_counter": 3374,
      "_principal": 3375,
      "_even": 3376,
      "_list": 3377,
      "_IN": 3378,
      "_intersection": 3379,
      "_ratio": 3380,
      "_promise": 3381,
      "_operation": 3382,
      "_pattern": 3383,
      "_and_": 3384,
      "_sco": 3385,
      "_return_": 3386,
      "a7": 3387,
      "aa": 3388,
      "ae": 3389,
      "ai": 3390,
      "a_pos": 3391,
      "ba": 3392,
      "bc": 3393,
      "bm": 3394,
      "blu": 3395,
      "bar": 3396,
      "bol": 3397,
      "bir": 3398,
      "blen": 3399,
      "b70": 3400,
      "c5": 3401,
      "c8": 3402,
      "ck": 3403,
      "cam": 3404,
      "cer": 3405,
      "cal": 3406,
      "col": 3407,
      "collection": 3408,
      "circle": 3409,
      "e5": 3410,
      "e6": 3411,
      "eat": 3412,
      "eve": 3413,
      "eff": 3414,
      "fat": 3415,
      "fid": 3416,
      "gs": 3417,
      "hen": 3418,
      "hour": 3419,
      "hamming": 3420,
      "ivity": 3421,
      "ke": 3422,
      "lr": 3423,
      "lin": 3424,
      "lar": 3425,
      "llo": 3426,
      "light": 3427,
      "l_price": 3428,
      "m0": 3429,
      "men": 3430,
      "mis": 3431,
      "mirr": 3432,
      "mbol": 3433,
      "net": 3434,
      "nconstexpr": 3435,
      "nРазмер": 3436,
      "nТестирование": 3437,
      "nПодспан": 3438,
      "oy": 3439,
      "ost": 3440,
      "o_string": 3441,
      "ped": 3442,
      "ral": 3443,
      "rit": 3444,
      "round": 3445,
      "ramming": 3446,
      "rSim": 3447,
      "same": 3448,
      "tin": 3449,
      "tom": 3450,
      "ulu": 3451,
      "ume": 3452,
      "ulong": 3453,
      "ucer": 3454,
      "ular": 3455,
      "vex": 3456,
      "valu": 3457,
      "with": 3458,
      "writ": 3459,
      "y_value": 3460,
      "z_sco": 3461,
      "Бо": 3462,
      "Вз": 3463,
      "Вер": 3464,
      "Вос": 3465,
      "Га": 3466,
      "Ги": 3467,
      "ДС": 3468,
      "Да": 3469,
      "Для": 3470,
      "Детерминант": 3471,
      "Двоичное": 3472,
      "Жд": 3473,
      "Зар": 3474,
      "Ива": 3475,
      "Итера": 3476,
      "Кор": 3477,
      "Кар": 3478,
      "Крат": 3479,
      "Ле": 3480,
      "Ми": 3481,
      "Мод": 3482,
      "Нет": 3483,
      "НДС": 3484,
      "Ос": 3485,
      "Округл": 3486,
      "Определитель": 3487,
      "Один": 3488,
      "Пи": 3489,
      "Пу": 3490,
      "Прямо": 3491,
      "Рен": 3492,
      "Рис": 3493,
      "Рисо": 3494,
      "Си": 3495,
      "Сп": 3496,
      "Ста": 3497,
      "Сор": 3498,
      "Скалярное": 3499,
      "Среднее": 3500,
      "Случайное": 3501,
      "Ти": 3502,
      "Тран": 3503,
      "Ус": 3504,
      "Удал": 3505,
      "Указа": 3506,
      "Факти": 3507,
      "Хэ": 3508,
      "Ше": 3509,
      "Шар": 3510,
      "Это": 3511,
      "ая": 3512,
      "ает": 3513,
      "бсо": 3514,
      "бда": 3515,
      "бри": 3516,
      "бета": 3517,
      "вра": 3518,
      "вен": 3519,
      "вни": 3520,
      "вле": 3521,
      "вную": 3522,
      "дю": 3523,
      "дис": 3524,
      "дности": 3525,
      "дения": 3526,
      "дви": 3527,
      "дывает": 3528,
      "дца": 3529,
      "держи": 3530,
      "детерминант": 3531,
      "другой": 3532,
      "ее": 3533,
      "его": 3534,
      "жности": 3535,
      "жний": 3536,
      "жением": 3537,
      "жает": 3538,
      "зи": 3539,
      "зы": 3540,
      "их": 3541,
      "итет": 3542,
      "кт": 3543,
      "кту": 3544,
      "кви": 3545,
      "крас": 3546,
      "клина": 3547,
      "квадраты": 3548,
      "ключ": 3549,
      "лем": 3550,
      "мп": 3551,
      "мс": 3552,
      "мбина": 3553,
      "мбда": 3554,
      "нд": 3555,
      "ню": 3556,
      "нсо": 3557,
      "нген": 3558,
      "нспони": 3559,
      "ой": 3560,
      "оп": 3561,
      "огра": 3562,
      "она": 3563,
      "оку": 3564,
      "оцен": 3565,
      "оида": 3566,
      "ошиб": 3567,
      "окру": 3568,
      "омет": 3569,
      "округл": 3570,
      "определитель": 3571,
      "отрица": 3572,
      "пы": 3573,
      "пяти": 3574,
      "птаэдра": 3575,
      "рный": 3576,
      "рму": 3577,
      "сы": 3578,
      "скла": 3579,
      "спред": 3580,
      "сцены": 3581,
      "скалярное": 3582,
      "среднее": 3583,
      "случайное": 3584,
      "тр": 3585,
      "тное": 3586,
      "уль": 3587,
      "упра": 3588,
      "фо": 3589,
      "форма": 3590,
      "ффер": 3591,
      "фаренгейты": 3592,
      "хва": 3593,
      "хний": 3594,
      "чка": 3595,
      "чер": 3596,
      "чку": 3597,
      "шний": 3598,
      "штей": 3599,
      "щения": 3600,
      "ье": 3601,
      "ью": 3602,
      "яем": 3603,
      "inv": 3604,
      "ine_": 3605,
      "inner": 3606,
      "red": 3607,
      "stdex": 3608,
      "ence_": 3609,
      "encrypt": 3610,
      "enable": 3611,
      "enserialize": 3612,
      "intn": 3613,
      "int32_t": 3614,
      "int_distribution": 3615,
      "intArr": 3616,
      "рацию": 3617,
      "рацииn": 3618,
      "destr": 3619,
      "decrypt": 3620,
      "deposi": 3621,
      "decode": 3622,
      "debug": 3623,
      "detach": 3624,
      "derSim": 3625,
      "luhn": 3626,
      "ority": 3627,
      "orange": 3628,
      "orrow": 3629,
      "or_else": 3630,
      "les": 3631,
      "lect": 3632,
      "leap": 3633,
      "level": 3634,
      "maj": 3635,
      "era_pos": 3636,
      "рож": 3637,
      "рого": 3638,
      "роста": 3639,
      "роида": 3640,
      "turnover": 3641,
      "nullo": 3642,
      "nname": 3643,
      "nnnamespace": 3644,
      "nnGenerator": 3645,
      "nnoptional": 3646,
      "тод": 3647,
      "том": 3648,
      "толь": 3649,
      "тороида": 3650,
      "ater": 3651,
      "atost": 3652,
      "копи": 3653,
      "коль": 3654,
      "кору": 3655,
      "коида": 3656,
      "ковый": 3657,
      "ковую": 3658,
      "bleSort": 3659,
      "bleTypes": 3660,
      "doublen": 3661,
      "doubleArr": 3662,
      "прода": 3663,
      "пробе": 3664,
      "пропуска": 3665,
      "пропускаем": 3666,
      "sparen": 3667,
      "ммин": 3668,
      "ioman": 3669,
      "ется": 3670,
      "грал": 3671,
      "ена": 3672,
      "ено": 3673,
      "енци": 3674,
      "енное": 3675,
      "программы": 3676,
      "then": 3677,
      "th_year": 3678,
      "нами": 3679,
      "насле": 3680,
      "нальность": 3681,
      "нагруз": 3682,
      "надца": 3683,
      "нансо": 3684,
      "наковый": 3685,
      "array": 3686,
      "arpe_ratio": 3687,
      "веден": 3688,
      "веса": 3689,
      "верия": 3690,
      "al_value": 3691,
      "alError": 3692,
      "тери": 3693,
      "тели": 3694,
      "тела": 3695,
      "теле": 3696,
      "темп": 3697,
      "теграл": 3698,
      "ective": 3699,
      "стра": 3700,
      "стное": 3701,
      "стры": 3702,
      "стнадца": 3703,
      "диффер": 3704,
      "чисту": 3705,
      "dit_": 3706,
      "ntyp": 3707,
      "sieve": 3708,
      "соб": 3709,
      "соида": 3710,
      "дата": 3711,
      "данные": 3712,
      "force": 3713,
      "шины": 3714,
      "ноч": 3715,
      "номер": 3716,
      "нового": 3717,
      "новление": 3718,
      "норму": 3719,
      "выру": 3720,
      "выход": 3721,
      "выдел": 3722,
      "выполн": 3723,
      "выпукло": 3724,
      "cons": 3725,
      "consum": 3726,
      "console": 3727,
      "confid": 3728,
      "contin": 3729,
      "convex": 3730,
      "idEmail": 3731,
      "another": 3732,
      "prog": 3733,
      "здание": 3734,
      "ic_me": 3735,
      "raits": 3736,
      "пон": 3737,
      "exist": 3738,
      "емая": 3739,
      "ваемо": 3740,
      "вающи": 3741,
      "рио": 3742,
      "риминант": 3743,
      "load": 3744,
      "geome": 3745,
      "лига": 3746,
      "ликви": 3747,
      "ликоида": 3748,
      "льности": 3749,
      "льного": 3750,
      "льтрация": 3751,
      "tric_me": 3752,
      "реверс": 3753,
      "res2": 3754,
      "resume": 3755,
      "лок": 3756,
      "лога": 3757,
      "ловой": 3758,
      "лометры": 3759,
      "ник": 3760,
      "ним": 3761,
      "ниц": 3762,
      "ница": 3763,
      "нималь": 3764,
      "ницу": 3765,
      "нижний": 3766,
      "ными": 3767,
      "кая": 3768,
      "катет": 3769,
      "катен": 3770,
      "циона": 3771,
      "isspace": 3772,
      "isup": 3773,
      "isNumber": 3774,
      "isRight": 3775,
      "isDead": 3776,
      "isEm": 3777,
      "isVal": 3778,
      "говой": 3779,
      "d_user": 3780,
      "d_exception": 3781,
      "_to_string": 3782,
      "_traits": 3783,
      "arrive": 3784,
      "тины": 3785,
      "тация": 3786,
      "табли": 3787,
      "танген": 3788,
      "таемая": 3789,
      "верну": 3790,
      "вершины": 3791,
      "0x6": 3792,
      "0x00": 3793,
      "0x24": 3794,
      "0x92": 3795,
      "0x0000": 3796,
      "0x9b": 3797,
      "руб": 3798,
      "руем": 3799,
      "counting_": 3800,
      "count_if": 3801,
      "count_a": 3802,
      "unsig": 3803,
      "unhandle": 3804,
      "unregisterPlugin": 3805,
      "куn": 3806,
      "купон": 3807,
      "roa": 3808,
      "roe": 3809,
      "лямбда": 3810,
      "priority": 3811,
      "борачи": 3812,
      "зубы": 3813,
      "малый": 3814,
      "perimeter": 3815,
      "VectorStorage": 3816,
      "общие": 3817,
      "облига": 3818,
      "long_operation": 3819,
      "edforward": 3820,
      "_cm": 3821,
      "_cap": 3822,
      "ptr2": 3823,
      "serter": 3824,
      "typenserialize": 3825,
      "мир": 3826,
      "мину": 3827,
      "миntemplate": 3828,
      "километры": 3829,
      "getPlugin": 3830,
      "getCount": 3831,
      "getArea": 3832,
      "getAv": 3833,
      "get_return_": 3834,
      "e_pattern": 3835,
      "тыn": 3836,
      "000": 3837,
      "take": 3838,
      "world": 3839,
      "last_": 3840,
      "lableTypes": 3841,
      "locale": 3842,
      "мой": 3843,
      "мор": 3844,
      "мости": 3845,
      "моду": 3846,
      "могу": 3847,
      "back_in": 3848,
      "back_period": 3849,
      "нец": 3850,
      "невалид": 3851,
      "нейро": 3852,
      "нешний": 3853,
      "tolow": 3854,
      "toRo": 3855,
      "to_time": 3856,
      "to_string": 3857,
      "toBin": 3858,
      "доверия": 3859,
      "PluginMan": 3860,
      "co_yield": 3861,
      "строк": 3862,
      "зада": 3863,
      "затра": 3864,
      "printIn": 3865,
      "print_any": 3866,
      "print_container": 3867,
      "sharpe_ratio": 3868,
      "ктором": 3869,
      "памя": 3870,
      "паемо": 3871,
      "нуитет": 3872,
      "ument": 3873,
      "bove": 3874,
      "извле": 3875,
      "based": 3876,
      "base64_": 3877,
      "hiddenn": 3878,
      "Объе": 3879,
      "Обновление": 3880,
      "трирован": 3881,
      "uint8_t": 3882,
      "ставление": 3883,
      "ставка": 3884,
      "ance_rate": 3885,
      "is_even": 3886,
      "is_reg": 3887,
      "is_big": 3888,
      "is_directory": 3889,
      "outputn": 3890,
      "пех": 3891,
      "пеции": 3892,
      "current_year": 3893,
      "current_ratio": 3894,
      "file_in": 3895,
      "fileService": 3896,
      "pty": 3897,
      "setDi": 3898,
      "set_intersection": 3899,
      "дитный": 3900,
      "вует": 3901,
      "shared": 3902,
      "радиусу": 3903,
      "et_cap": 3904,
      "дере": 3905,
      "десяти": 3906,
      "message1": 3907,
      "message2": 3908,
      "message3": 3909,
      "message4": 3910,
      "message5": 3911,
      "message6": 3912,
      "find_user": 3913,
      "finance_rate": 3914,
      "Регис": 3915,
      "Реверс": 3916,
      "цена": 3917,
      "массиве": 3918,
      "_index": 3919,
      "мером": 3920,
      "endian_to_string": 3921,
      "power": 3922,
      "symbol": 3923,
      "log1": 3924,
      "log10": 3925,
      "ческой": 3926,
      "ческого": 3927,
      "Eratost": 3928,
      "файловой": 3929,
      "ванное": 3930,
      "initial_suspend": 3931,
      "первого": 3932,
      "след": 3933,
      "гипотену": 3934,
      "test_expression": 3935,
      "test_and_": 3936,
      "акцию": 3937,
      "демонстрацииn": 3938,
      "сумма": 3939,
      "сущест": 3940,
      "Student": 3941,
      "bit_len": 3942,
      "длины": 3943,
      "финансо": 3944,
      "sions": 3945,
      "isPow": 3946,
      "Sorter": 3947,
      "subspan": 3948,
      "пустить": 3949,
      "ромn": 3950,
      "ромба": 3951,
      "тировка": 3952,
      "безубы": 3953,
      "вильного": 3954,
      "индекс": 3955,
      "четное": 3956,
      "четные": 3957,
      "эффек": 3958,
      "новной": 3959,
      "typedef": 3960,
      "type_traits": 3961,
      "drag": 3962,
      "sales": 3963,
      "аргумен": 3964,
      "двумя": 3965,
      "двуугольника": 3966,
      "расстоя": 3967,
      "распростран": 3968,
      "observer2": 3969,
      "swap_endian": 3970,
      "swapped": 3971,
      "Args": 3972,
      "рическое": 3973,
      "now_time": 3974,
      "compan": 3975,
      "рый": 3976,
      "шаг": 3977,
      "вывода": 3978,
      "плагин": 3979,
      "плагины": 3980,
      "угольный": 3981,
      "drawCircle": 3982,
      "drawLine": 3983,
      "быть": 3984,
      "быстру": 3985,
      "ickSort": 3986,
      "discount_amount": 3987,
      "символов": 3988,
      "Произведение": 3989,
      "Пропустить": 3990,
      "геомет": 3991,
      "гептаэдра": 3992,
      "геликоида": 3993,
      "слов": 3994,
      "слож": 3995,
      "целочисленный": 3996,
      "цельсии": 3997,
      "равны": 3998,
      "decrement": 3999,
      "корни": 4000,
      "корень": 4001,
      "pointAt": 4002,
      "Последний": 4003,
      "комплексного": 4004,
      "комплексных": 4005,
      "Первое": 4006,
      "Переме": 4007,
      "Тебе": 4008,
      "функцииn": 4009,
      "чало": 4010,
      "чатаемая": 4011,
      "make_shared": 4012,
      "пересечение": 4013,
      "FFFF": 4014,
      "email_pattern": 4015,
      "newPlugin": 4016,
      "newState": 4017,
      "Вещест": 4018,
      "Комбина": 4019,
      "Конец": 4020,
      "stock": 4021,
      "рованное": 4022,
      "рованная": 4023,
      "producer": 4024,
      "потокntemplate": 4025,
      "файлами": 4026,
      "clear": 4027,
      "Выравни": 4028,
      "Печатаемая": 4029,
      "лютное": 4030,
      "исключ": 4031,
      "сортировку": 4032,
      "1000000": 4033,
      "modIn": 4034,
      "modulu": 4035,
      "generateUUID": 4036,
      "break_even": 4037,
      "credit_": 4038,
      "date_str": 4039,
      "ежемеся": 4040,
      "стек": 4041,
      "стека": 4042,
      "системой": 4043,
      "транспони": 4044,
      "трапеции": 4045,
      "исок": 4046,
      "transparen": 4047,
      "цифра": 4048,
      "цифры": 4049,
      "работаn": 4050,
      "элементовn": 4051,
      "monthly_principal": 4052,
      "even_count": 4053,
      "memory_order_acquire": 4054,
      "990": 4055,
      "spread": 4056,
      "split": 4057,
      "Зашиф": 4058,
      "Запускаем": 4059,
      "Зарегис": 4060,
      "второго": 4061,
      "класс": 4062,
      "фазу": 4063,
      "факториал": 4064,
      "renderSim": 4065,
      "разной": 4066,
      "разницу": 4067,
      "размером": 4068,
      "increment_counter": 4069,
      "margin": 4070,
      "структу": 4071,
      "структором": 4072,
      "тивной": 4073,
      "phone_pattern": 4074,
      "obj1": 4075,
      "sigma0": 4076,
      "sigma1": 4077,
      "yield_value": 4078,
      "равнение": 4079,
      "времени": 4080,
      "bigNumber": 4081,
      "НОК": 4082,
      "Фильтрация": 4083,
      "биноми": 4084,
      "чениеn": 4085,
      "payback_period": 4086,
      "сторон": 4087,
      "crc32": 4088,
      "fib_10": 4089,
      "представление": 4090,
      "memory_order_release": 4091,
      "from_promise": 4092,
      "targets": 4093,
      "dividend_yield": 4094,
      "Insert": 4095,
      "drop": 4096,
      "green": 4097,
      "greater": 4098,
      "use_count": 4099,
      "Дейк": 4100,
      "Деструктор": 4101,
      "альный": 4102,
      "жинальность": 4103,
      "квадратn": 4104,
      "квадратного": 4105,
      "проценты": 4106,
      "текущую": 4107,
      "динами": 4108,
      "емое": 4109,
      "рифм": 4110,
      "ректория": 4111,
      "синус": 4112,
      "эллипсоида": 4113,
      "потокиn": 4114,
      "Расшиф": 4115,
      "переменных": 4116,
      "преобразование": 4117,
      "Перестановки": 4118,
      "Пересечение": 4119,
      "Переверну": 4120,
      "основание": 4121,
      "markup": 4122,
      "market_cap": 4123,
      "Исходное": 4124,
      "92e": 4125,
      "c6e": 4126,
      "eva": 4127,
      "Максималь": 4128,
      "Начало": 4129,
      "всех": 4130,
      "имеющи": 4131,
      "прямоугольника": 4132,
      "уравнение": 4133,
      "уравнения": 4134,
      "уравнений": 4135,
      "чайшие": 4136,
      "reflect": 4137,
      "remove_all": 4138,
      "debt_ratio": 4139,
      "точности": 4140,
      "args": 4141,
      "argument": 4142,
      "and_then": 4143,
      "поддержи": 4144,
      "капитала": 4145,
      "долг": 4146,
      "долговой": 4147,
      "Обратный": 4148,
      "Обратное": 4149,
      "11111111": 4150,
      "first_payment": 4151,
      "traceRay": 4152,
      "binarySear": 4153,
      "тетраэдра": 4154,
      "steady_end": 4155,
      "steady_start": 4156,
      "steady_duration": 4157,
      "training_outputs": 4158,
      "cross_x": 4159,
      "cross_y": 4160,
      "cross_z": 4161,
      "указатели": 4162,
      "указателем": 4163,
      "uniform_int_distribution": 4164,
      "life": 4165,
      "Без": 4166,
      "Динами": 4167,
      "Директория": 4168,
      "Добавление": 4169,
      "правильного": 4170,
      "умножает": 4171,
      "depth": 4172,
      "векторомn": 4173,
      "содержимое": 4174,
      "содержит": 4175,
      "решений": 4176,
      "типамиntemplate": 4177,
      "0x3F": 4178,
      "0x80": 4179,
      "большой": 4180,
      "applen": 4181,
      "fixInsert": 4182,
      "потоковn": 4183,
      "массивов": 4184,
      "операцииntemplate": 4185,
      "завершения": 4186,
      "рентабельности": 4187,
      "простые": 4188,
      "ссылок": 4189,
      "арифметическими": 4190,
      "6a0": 4191,
      "SHA256": 4192,
      "feedforward": 4193,
      "fruit": 4194,
      "fruits": 4195,
      "scores": 4196,
      "Создание": 4197,
      "анаграммы": 4198,
      "креди": 4199,
      "рисковую": 4200,
      "integrate": 4201,
      "integral": 4202,
      "return_void": 4203,
      "aligned": 4204,
      "студента": 4205,
      "студентов": 4206,
      "diffuse": 4207,
      "полнение": 4208,
      "вычислениями": 4209,
      "годовую": 4210,
      "возведен": 4211,
      "начальное": 4212,
      "начальные": 4213,
      "terminate": 4214,
      "terminal_value": 4215,
      "objects": 4216,
      "final_price": 4217,
      "final_suspend": 4218,
      "coroutine": 4219,
      "coroutine_": 4220,
      "шаблон": 4221,
      "шаблоны": 4222,
      "обратном": 4223,
      "atomic_flagn": 4224,
      "profitability_index": 4225,
      "createPlugin": 4226,
      "create_directory": 4227,
      "phones_end": 4228,
      "phones_begin": 4229,
      "порядокn": 4230,
      "ev_ebitda": 4231,
      "ev_sales": 4232,
      "Подспанn": 4233,
      "добавления": 4234,
      "многопоточности": 4235,
      "многопоточность": 4236,
      "спонированная": 4237,
      "директорииn": 4238,
      "fetch_add": 4239,
      "fetch_sub": 4240,
      "gamma0": 4241,
      "gamma1": 4242,
      "determinant2x2": 4243,
      "determinant3x3": 4244,
      "потенуза": 4245,
      "NegativeSquareRootn": 4246,
      "ListStorage": 4247,
      "nnuint32_t": 4248,
      "Анна": 4249,
      "Базо": 4250,
      "Итоговая": 4251,
      "Метод": 4252,
      "Мультипликатор": 4253,
      "Ожидаемое": 4254,
      "След": 4255,
      "Точка": 4256,
      "Форматирование": 4257,
      "Четные": 4258,
      "внутренню": 4259,
      "крет": 4260,
      "октаэдра": 4261,
      "сеть": 4262,
      "семанти": 4263,
      "скрытого": 4264,
      "форматирования": 4265,
      "хеши": 4266,
      "пробелы": 4267,
      "налоги": 4268,
      "номинал": 4269,
      "condition_variable": 4270,
      "периметр": 4271,
      "действительных": 4272,
      "зователь": 4273,
      "безрисковую": 4274,
      "перегрузкой": 4275,
      "порядке": 4276,
      "массивомn": 4277,
      "интерфейсnclass": 4278,
      "Преобразование": 4279,
      "увеличиваем": 4280,
      "коллинеарны": 4281,
      "погашении": 4282,
      "initializer_list": 4283,
      "Приближенная": 4284,
      "AG_IN": 4285,
      "ATOMI": 4286,
      "BubbleSort": 4287,
      "CRC32": 4288,
      "C_FL": 4289,
      "Check": 4290,
      "Distance": 4291,
      "Move": 4292,
      "NPV": 4293,
      "NotFound": 4294,
      "OfEratost": 4295,
      "QuickSort": 4296,
      "ROT13": 4297,
      "STL": 4298,
      "Subject": 4299,
      "Sales": 4300,
      "SFINAE": 4301,
      "_and_wait": 4302,
      "ailableTypes": 4303,
      "bmi": 4304,
      "blue": 4305,
      "bark": 4306,
      "birth_year": 4307,
      "camera_pos": 4308,
      "call_price": 4309,
      "collin": 4310,
      "circleArea": 4311,
      "effective": 4312,
      "fatalError": 4313,
      "henes": 4314,
      "hours": 4315,
      "hammingDistance": 4316,
      "light_dir": 4317,
      "mensions": 4318,
      "net_cash_flow": 4319,
      "same_as": 4320,
      "tomorrow": 4321,
      "ular_file": 4322,
      "valuen": 4323,
      "withdraw": 4324,
      "write": 4325,
      "z_score": 4326,
      "Больш": 4327,
      "Взять": 4328,
      "Верхний": 4329,
      "Гипотенуза": 4330,
      "Ждем": 4331,
      "Зарплата": 4332,
      "Итерация": 4333,
      "Корень": 4334,
      "Кратчайшие": 4335,
      "Левен": 4336,
      "Модуль": 4337,
      "Основной": 4338,
      "Рисую": 4339,
      "Рисование": 4340,
      "Список": 4341,
      "Сортировка": 4342,
      "Тип": 4343,
      "Транспонированная": 4344,
      "Успех": 4345,
      "Указатель": 4346,
      "Фактическое": 4347,
      "Хэммин": 4348,
      "Шестнадца": 4349,
      "Шарпа": 4350,
      "бсолютное": 4351,
      "вниз": 4352,
      "дюрацию": 4353,
      "красно": 4354,
      "квадратыn": 4355,
      "опциона": 4356,
      "окупаемо": 4357,
      "ошибки": 4358,
      "окружности": 4359,
      "округляет": 4360,
      "пятиугольника": 4361,
      "складывает": 4362,
      "управление": 4363,
      "штейна": 4364,
      "inner_product": 4365,
      "stdexcept": 4366,
      "ence_level": 4367,
      "enable_if": 4368,
      "destroy": 4369,
      "deposit": 4370,
      "decoded": 4371,
      "luhnCheck": 4372,
      "nullopt": 4373,
      "nnamespace": 4374,
      "только": 4375,
      "кольца": 4376,
      "корутины": 4377,
      "пробелов": 4378,
      "iomanip": 4379,
      "енцированный": 4380,
      "наследо": 4381,
      "нагрузки": 4382,
      "теричное": 4383,
      "дифференцированный": 4384,
      "чистую": 4385,
      "ntypename": 4386,
      "sieveOfEratost": 4387,
      "выручку": 4388,
      "выходного": 4389,
      "consumer": 4390,
      "consoleService": 4391,
      "confidence_level": 4392,
      "continue": 4393,
      "convexity": 4394,
      "another_vec": 4395,
      "programming": 4396,
      "exists": 4397,
      "ваемость": 4398,
      "вающих": 4399,
      "geometric_me": 4400,
      "ликвидности": 4401,
      "логарифм": 4402,
      "нимальный": 4403,
      "катеты": 4404,
      "катеноида": 4405,
      "isupper": 4406,
      "isEmpty": 4407,
      "isValidEmail": 4408,
      "arrive_and_wait": 4409,
      "таблицу": 4410,
      "тангенс": 4411,
      "counting_semaphore": 4412,
      "count_above": 4413,
      "unsigned": 4414,
      "unhandled_exception": 4415,
      "priority_queue": 4416,
      "борачиваемость": 4417,
      "облигации": 4418,
      "минуты": 4419,
      "getPluginCount": 4420,
      "getAvailableTypes": 4421,
      "get_return_object": 4422,
      "last_write": 4423,
      "модуль": 4424,
      "back_inserter": 4425,
      "tolower": 4426,
      "toRoman": 4427,
      "to_time_t": 4428,
      "toBinary": 4429,
      "PluginManager": 4430,
      "затраты": 4431,
      "printInorder": 4432,
      "нуитетный": 4433,
      "base64_encode": 4434,
      "Объект": 4435,
      "is_regular_file": 4436,
      "is_big_endian": 4437,
      "file_info": 4438,
      "setDimensions": 4439,
      "symbols": 4440,
      "гипотенузу": 4441,
      "test_expressions": 4442,
      "test_and_set": 4443,
      "существует": 4444,
      "isPower": 4445,
      "безубыточности": 4446,
      "расстояния": 4447,
      "company_value": 4448,
      "быструю": 4449,
      "геометрическое": 4450,
      "Переместить": 4451,
      "функцииnint": 4452,
      "Вещественный": 4453,
      "Комбинация": 4454,
      "stock_value": 4455,
      "Выравниваниеn": 4456,
      "исключений": 4457,
      "modInverse": 4458,
      "modulus": 4459,
      "credit_spread": 4460,
      "транспонирует": 4461,
      "transparency": 4462,
      "Зарегистрирован": 4463,
      "renderSimple": 4464,
      "структуру": 4465,
      "биномиальный": 4466,
      "Дейкстры": 4467,
      "имеющими": 4468,
      "reflectivity": 4469,
      "поддерживающих": 4470,
      "binarySearch": 4471,
      "Динамическое": 4472,
      "возведенные": 4473,
      "coroutine_handle": 4474,
      "внутреннюю": 4475,
      "AG_INIT": 4476,
      "ATOMIC_FL": 4477,
      "collinear": 4478,
      "effective_rate": 4479,
      "Левенштейна": 4480,
      "Хэмминга": 4481,
      "Шестнадцатеричное": 4482,
      "окупаемости": 4483,
      "sieveOfEratosthenes": 4484,
      "geometric_mean": 4485,
      "ATOMIC_FLAG_INIT": 4486
    },
    "merges": [
      [
        "A",
        "C"
      ],
      [
        "B",
        "R"
      ],
      [
        "BR",
        "AC"
      ],
      [
        "E",
        "T"
      ],
      [
        "K",
        "ET"
      ],
      [
        "BRAC",
        "KET"
      ],
      [
        "R",
        "BRACKET"
      ],
      [
        "L",
        "BRACKET"
      ],
      [
        "L",
        "T"
      ],
      [
        "C",
        "O"
      ],
      [
        "R",
        "E"
      ],
      [
        "P",
        "A"
      ],
      [
        "RE",
        "N"
      ],
      [
        "PA",
        "REN"
      ],
      [
        "M",
        "I"
      ],
      [
        "S",
        "E"
      ],
      [
        "L",
        "O"
      ],
      [
        "CO",
        "LO"
      ],
      [
        "MI",
        "COLO"
      ],
      [
        "SE",
        "MICOLO"
      ],
      [
        "SEMICOLO",
        "N"
      ],
      [
        "Q",
        "U"
      ],
      [
        "i",
        "n"
      ],
      [
        "BRAC",
        "E"
      ],
      [
        "R",
        "PAREN"
      ],
      [
        "L",
        "PAREN"
      ],
      [
        "O",
        "T"
      ],
      [
        "QU",
        "OT"
      ],
      [
        "QUOT",
        "E"
      ],
      [
        "G",
        "T"
      ],
      [
        "r",
        "e"
      ],
      [
        "s",
        "t"
      ],
      [
        "o",
        "u"
      ],
      [
        "L",
        "BRACE"
      ],
      [
        "R",
        "BRACE"
      ],
      [
        "A",
        "L"
      ],
      [
        "E",
        "QU"
      ],
      [
        "AL",
        "S"
      ],
      [
        "EQU",
        "ALS"
      ],
      [
        "M",
        "A"
      ],
      [
        "M",
        "MA"
      ],
      [
        "CO",
        "MMA"
      ],
      [
        "e",
        "n"
      ],
      [
        "in",
        "t"
      ],
      [
        "P",
        "L"
      ],
      [
        "c",
        "ou"
      ],
      [
        "р",
        "а"
      ],
      [
        "d",
        "e"
      ],
      [
        "U",
        "S"
      ],
      [
        "l",
        "u"
      ],
      [
        "cou",
        "t"
      ],
      [
        "a",
        "m"
      ],
      [
        "o",
        "r"
      ],
      [
        "l",
        "e"
      ],
      [
        "in",
        "c"
      ],
      [
        "en",
        "d"
      ],
      [
        "H",
        "A"
      ],
      [
        "S",
        "H"
      ],
      [
        "HA",
        "SH"
      ],
      [
        "lu",
        "de"
      ],
      [
        "inc",
        "lude"
      ],
      [
        "u",
        "r"
      ],
      [
        "m",
        "a"
      ],
      [
        "e",
        "r"
      ],
      [
        "in",
        "g"
      ],
      [
        "end",
        "l"
      ],
      [
        "р",
        "о"
      ],
      [
        "t",
        "ur"
      ],
      [
        "tur",
        "n"
      ],
      [
        "n",
        "u"
      ],
      [
        "re",
        "turn"
      ],
      [
        "o",
        "n"
      ],
      [
        "n",
        "n"
      ],
      [
        "p",
        "a"
      ],
      [
        "c",
        "e"
      ],
      [
        "т",
        "о"
      ],
      [
        "PL",
        "US"
      ],
      [
        "a",
        "t"
      ],
      [
        "I",
        "PL"
      ],
      [
        "M",
        "U"
      ],
      [
        "LT",
        "IPL"
      ],
      [
        "MU",
        "LTIPL"
      ],
      [
        "MULTIPL",
        "Y"
      ],
      [
        "am",
        "e"
      ],
      [
        "к",
        "о"
      ],
      [
        "b",
        "le"
      ],
      [
        "d",
        "ou"
      ],
      [
        "dou",
        "ble"
      ],
      [
        "I",
        "D"
      ],
      [
        "I",
        "V"
      ],
      [
        "D",
        "IV"
      ],
      [
        "ID",
        "E"
      ],
      [
        "DIV",
        "IDE"
      ],
      [
        "п",
        "ро"
      ],
      [
        "N",
        "US"
      ],
      [
        "MI",
        "NUS"
      ],
      [
        "n",
        "ame"
      ],
      [
        "st",
        "r"
      ],
      [
        "e",
        "c"
      ],
      [
        "s",
        "pa"
      ],
      [
        "м",
        "м"
      ],
      [
        "i",
        "o"
      ],
      [
        "е",
        "т"
      ],
      [
        "г",
        "ра"
      ],
      [
        "st",
        "d"
      ],
      [
        "re",
        "am"
      ],
      [
        "st",
        "ream"
      ],
      [
        "nn",
        "int"
      ],
      [
        "мм",
        "у"
      ],
      [
        "s",
        "ing"
      ],
      [
        "spa",
        "ce"
      ],
      [
        "name",
        "space"
      ],
      [
        "nu",
        "sing"
      ],
      [
        "ma",
        "in"
      ],
      [
        "io",
        "stream"
      ],
      [
        "е",
        "н"
      ],
      [
        "про",
        "гра"
      ],
      [
        "и",
        "с"
      ],
      [
        "програ",
        "мму"
      ],
      [
        "t",
        "h"
      ],
      [
        "н",
        "а"
      ],
      [
        "a",
        "r"
      ],
      [
        "то",
        "ра"
      ],
      [
        "в",
        "е"
      ],
      [
        "ко",
        "тора"
      ],
      [
        "котора",
        "я"
      ],
      [
        "a",
        "l"
      ],
      [
        "т",
        "е"
      ],
      [
        "ec",
        "t"
      ],
      [
        "с",
        "т"
      ],
      [
        "д",
        "и"
      ],
      [
        "s",
        "e"
      ],
      [
        "ч",
        "ис"
      ],
      [
        "d",
        "i"
      ],
      [
        "n",
        "t"
      ],
      [
        "чис",
        "л"
      ],
      [
        "s",
        "i"
      ],
      [
        "с",
        "о"
      ],
      [
        "д",
        "а"
      ],
      [
        "str",
        "ing"
      ],
      [
        "f",
        "or"
      ],
      [
        "ш",
        "и"
      ],
      [
        "н",
        "о"
      ],
      [
        "в",
        "ы"
      ],
      [
        "ect",
        "or"
      ],
      [
        "c",
        "on"
      ],
      [
        "u",
        "t"
      ],
      [
        "i",
        "d"
      ],
      [
        "i",
        "t"
      ],
      [
        "a",
        "n"
      ],
      [
        "п",
        "и"
      ],
      [
        "nu",
        "m"
      ],
      [
        "c",
        "in"
      ],
      [
        "В",
        "ве"
      ],
      [
        "ди",
        "те"
      ],
      [
        "Вве",
        "дите"
      ],
      [
        "p",
        "r"
      ],
      [
        "i",
        "f"
      ],
      [
        "я",
        "ет"
      ],
      [
        "на",
        "пи"
      ],
      [
        "напи",
        "ши"
      ],
      [
        "i",
        "g"
      ],
      [
        "at",
        "e"
      ],
      [
        "з",
        "да"
      ],
      [
        "со",
        "зда"
      ],
      [
        "i",
        "c"
      ],
      [
        "m",
        "e"
      ],
      [
        "созда",
        "й"
      ],
      [
        "r",
        "a"
      ],
      [
        "con",
        "st"
      ],
      [
        "п",
        "о"
      ],
      [
        "ig",
        "h"
      ],
      [
        "e",
        "x"
      ],
      [
        "v",
        "o"
      ],
      [
        "е",
        "м"
      ],
      [
        "u",
        "s"
      ],
      [
        "v",
        "ector"
      ],
      [
        "re",
        "a"
      ],
      [
        ":",
        ":"
      ],
      [
        "c",
        "h"
      ],
      [
        "в",
        "а"
      ],
      [
        "р",
        "и"
      ],
      [
        "l",
        "o"
      ],
      [
        "g",
        "e"
      ],
      [
        "л",
        "и"
      ],
      [
        "л",
        "ь"
      ],
      [
        "igh",
        "t"
      ],
      [
        "вы",
        "числ"
      ],
      [
        "ен",
        "и"
      ],
      [
        "вычисл",
        "яет"
      ],
      [
        "a",
        "c"
      ],
      [
        "a",
        "lu"
      ],
      [
        "z",
        "e"
      ],
      [
        "i",
        "on"
      ],
      [
        "t",
        "r"
      ],
      [
        "alu",
        "e"
      ],
      [
        "р",
        "е"
      ],
      [
        "v",
        "alue"
      ],
      [
        "a",
        "s"
      ],
      [
        "o",
        "l"
      ],
      [
        "re",
        "s"
      ],
      [
        "л",
        "о"
      ],
      [
        "н",
        "и"
      ],
      [
        "1",
        "0"
      ],
      [
        "н",
        "ы"
      ],
      [
        "e",
        "l"
      ],
      [
        "к",
        "а"
      ],
      [
        "ц",
        "и"
      ],
      [
        "si",
        "ze"
      ],
      [
        "y",
        "p"
      ],
      [
        "vo",
        "id"
      ],
      [
        "e",
        "m"
      ],
      [
        "l",
        "t"
      ],
      [
        "i",
        "s"
      ],
      [
        "h",
        "e"
      ],
      [
        "a",
        "ut"
      ],
      [
        "г",
        "о"
      ],
      [
        "aut",
        "o"
      ],
      [
        "g",
        "in"
      ],
      [
        "at",
        "a"
      ],
      [
        "u",
        "lt"
      ],
      [
        "d",
        "ata"
      ],
      [
        "в",
        "о"
      ],
      [
        "re",
        "nt"
      ],
      [
        "d",
        "_"
      ],
      [
        "_",
        "t"
      ],
      [
        "q",
        "u"
      ],
      [
        "r",
        "t"
      ],
      [
        "ar",
        "r"
      ],
      [
        "ени",
        "е"
      ],
      [
        "p",
        "o"
      ],
      [
        "di",
        "us"
      ],
      [
        "ra",
        "dius"
      ],
      [
        "т",
        "и"
      ],
      [
        "i",
        "le"
      ],
      [
        "е",
        "р"
      ],
      [
        "ma",
        "th"
      ],
      [
        "u",
        "b"
      ],
      [
        "en",
        "t"
      ],
      [
        "c",
        "math"
      ],
      [
        "т",
        "а"
      ],
      [
        "ве",
        "р"
      ],
      [
        "0",
        "x"
      ],
      [
        "р",
        "у"
      ],
      [
        "v",
        "e"
      ],
      [
        "v",
        "er"
      ],
      [
        "cou",
        "nt"
      ],
      [
        "em",
        "p"
      ],
      [
        "u",
        "n"
      ],
      [
        "к",
        "у"
      ],
      [
        "r",
        "o"
      ],
      [
        "res",
        "ult"
      ],
      [
        "he",
        "ight"
      ],
      [
        "л",
        "я"
      ],
      [
        "rea",
        "d"
      ],
      [
        "ac",
        "k"
      ],
      [
        "p",
        "ut"
      ],
      [
        "th",
        "read"
      ],
      [
        "pr",
        "i"
      ],
      [
        "S",
        "QUOTE"
      ],
      [
        "б",
        "о"
      ],
      [
        "з",
        "у"
      ],
      [
        "с",
        "и"
      ],
      [
        "м",
        "а"
      ],
      [
        "si",
        "de"
      ],
      [
        "i",
        "al"
      ],
      [
        "щ",
        "а"
      ],
      [
        "p",
        "er"
      ],
      [
        "o",
        "m"
      ],
      [
        "V",
        "ector"
      ],
      [
        "at",
        "ion"
      ],
      [
        "ст",
        "и"
      ],
      [
        "a",
        "rea"
      ],
      [
        "b",
        "er"
      ],
      [
        "r",
        "ate"
      ],
      [
        "о",
        "б"
      ],
      [
        "l",
        "on"
      ],
      [
        "l",
        "ic"
      ],
      [
        "lon",
        "g"
      ],
      [
        "p",
        "ub"
      ],
      [
        "л",
        "а"
      ],
      [
        "el",
        "se"
      ],
      [
        "pub",
        "lic"
      ],
      [
        "e",
        "d"
      ],
      [
        "д",
        "ь"
      ],
      [
        "lu",
        "gin"
      ],
      [
        "ло",
        "ща"
      ],
      [
        "ны",
        "й"
      ],
      [
        "лоща",
        "дь"
      ],
      [
        "_",
        "c"
      ],
      [
        "c",
        "t"
      ],
      [
        "p",
        "tr"
      ],
      [
        "s",
        "er"
      ],
      [
        "v",
        "ec"
      ],
      [
        "v",
        "i"
      ],
      [
        "l",
        "as"
      ],
      [
        "las",
        "s"
      ],
      [
        "a",
        "ge"
      ],
      [
        "e",
        "ar"
      ],
      [
        "t",
        "yp"
      ],
      [
        "м",
        "и"
      ],
      [
        "у",
        "с"
      ],
      [
        "i",
        "me"
      ],
      [
        "s",
        "s"
      ],
      [
        "ч",
        "е"
      ],
      [
        "числ",
        "о"
      ],
      [
        "c",
        "lass"
      ],
      [
        "к",
        "и"
      ],
      [
        "но",
        "е"
      ],
      [
        "ge",
        "t"
      ],
      [
        "a",
        "se"
      ],
      [
        "e",
        "_"
      ],
      [
        "h",
        "_"
      ],
      [
        "т",
        "ы"
      ],
      [
        "or",
        "t"
      ],
      [
        "num",
        "ber"
      ],
      [
        "0",
        "0"
      ],
      [
        "a",
        "p"
      ],
      [
        "i",
        "r"
      ],
      [
        "t",
        "a"
      ],
      [
        "w",
        "or"
      ],
      [
        "l",
        "a"
      ],
      [
        "lo",
        "c"
      ],
      [
        "м",
        "о"
      ],
      [
        "r",
        "or"
      ],
      [
        "y",
        "ear"
      ],
      [
        "д",
        "ля"
      ],
      [
        "с",
        "то"
      ],
      [
        "di",
        "s"
      ],
      [
        "ch",
        "ar"
      ],
      [
        "b",
        "ack"
      ],
      [
        "н",
        "е"
      ],
      [
        "_",
        "value"
      ],
      [
        "n",
        "public"
      ],
      [
        "pa",
        "rent"
      ],
      [
        "ex",
        "p"
      ],
      [
        "i",
        "l"
      ],
      [
        "p",
        "h"
      ],
      [
        "q",
        "rt"
      ],
      [
        "s",
        "qrt"
      ],
      [
        "t",
        "o"
      ],
      [
        "ст",
        "ь"
      ],
      [
        "f",
        "t"
      ],
      [
        "p",
        "us"
      ],
      [
        "д",
        "о"
      ],
      [
        "P",
        "lugin"
      ],
      [
        "c",
        "o"
      ],
      [
        "c",
        "ur"
      ],
      [
        "u",
        "e"
      ],
      [
        "е",
        "л"
      ],
      [
        "a",
        "d"
      ],
      [
        "i",
        "ma"
      ],
      [
        "w",
        "h"
      ],
      [
        "а",
        "й"
      ],
      [
        "ст",
        "ро"
      ],
      [
        "cur",
        "rent"
      ],
      [
        "b",
        "e"
      ],
      [
        "le",
        "ft"
      ],
      [
        "r",
        "ight"
      ],
      [
        "t",
        "emp"
      ],
      [
        "л",
        "е"
      ],
      [
        "ou",
        "t"
      ],
      [
        "en",
        "ame"
      ],
      [
        "ра",
        "бо"
      ],
      [
        "ol",
        "or"
      ],
      [
        "_",
        "rate"
      ],
      [
        "c",
        "r"
      ],
      [
        "з",
        "а"
      ],
      [
        "о",
        "н"
      ],
      [
        "pr",
        "int"
      ],
      [
        "ic",
        "le"
      ],
      [
        "зу",
        "ет"
      ],
      [
        "wh",
        "ile"
      ],
      [
        "l",
        "en"
      ],
      [
        "n",
        "o"
      ],
      [
        "s",
        "h"
      ],
      [
        "к",
        "то"
      ],
      [
        "п",
        "а"
      ],
      [
        "re",
        "al"
      ],
      [
        "it",
        "y"
      ],
      [
        "ва",
        "ни"
      ],
      [
        "3",
        "2"
      ],
      [
        "P",
        "I"
      ],
      [
        "a",
        "re"
      ],
      [
        "l",
        "ate"
      ],
      [
        "in",
        "put"
      ],
      [
        "di",
        "st"
      ],
      [
        "Vector",
        "3"
      ],
      [
        "g",
        "er"
      ],
      [
        "m",
        "o"
      ],
      [
        "н",
        "у"
      ],
      [
        "о",
        "д"
      ],
      [
        "на",
        "ч"
      ],
      [
        "pri",
        "ce"
      ],
      [
        "number",
        "s"
      ],
      [
        "d",
        "en"
      ],
      [
        "u",
        "m"
      ],
      [
        "д",
        "ра"
      ],
      [
        "т",
        "у"
      ],
      [
        "st",
        "_"
      ],
      [
        "ma",
        "t"
      ],
      [
        "typ",
        "ename"
      ],
      [
        "ъ",
        "ем"
      ],
      [
        "но",
        "сти"
      ],
      [
        "ени",
        "я"
      ],
      [
        "че",
        "с"
      ],
      [
        "ima",
        "g"
      ],
      [
        "b",
        "o"
      ],
      [
        "o",
        "th"
      ],
      [
        "p",
        "le"
      ],
      [
        "t",
        "e"
      ],
      [
        "и",
        "з"
      ],
      [
        "nn",
        "class"
      ],
      [
        "10",
        "0"
      ],
      [
        "year",
        "s"
      ],
      [
        "oth",
        "er"
      ],
      [
        "M",
        "_"
      ],
      [
        "b",
        "ase"
      ],
      [
        "g",
        "le"
      ],
      [
        "h",
        "id"
      ],
      [
        "i",
        "th"
      ],
      [
        "l",
        "i"
      ],
      [
        "m",
        "ent"
      ],
      [
        "lu",
        "me"
      ],
      [
        "an",
        "gle"
      ],
      [
        "vo",
        "lume"
      ],
      [
        "M_",
        "PI"
      ],
      [
        "hid",
        "den"
      ],
      [
        "t",
        "or"
      ],
      [
        "О",
        "б"
      ],
      [
        "in",
        "er"
      ],
      [
        "ем",
        "ен"
      ],
      [
        "ta",
        "iner"
      ],
      [
        "bo",
        "ol"
      ],
      [
        "П",
        "о"
      ],
      [
        "с",
        "е"
      ],
      [
        "т",
        "ри"
      ],
      [
        "at",
        "or"
      ],
      [
        "по",
        "ль"
      ],
      [
        "be",
        "gin"
      ],
      [
        "r",
        "on"
      ],
      [
        "u",
        "int"
      ],
      [
        "д",
        "ен"
      ],
      [
        "ar",
        "t"
      ],
      [
        "ст",
        "а"
      ],
      [
        "an",
        "ce"
      ],
      [
        "is",
        "_"
      ],
      [
        "out",
        "put"
      ],
      [
        "e",
        "w"
      ],
      [
        "g",
        "en"
      ],
      [
        "m",
        "in"
      ],
      [
        "o",
        "g"
      ],
      [
        "x",
        "2"
      ],
      [
        "ис",
        "поль"
      ],
      [
        "числ",
        "а"
      ],
      [
        "f",
        "i"
      ],
      [
        "t",
        "er"
      ],
      [
        "п",
        "е"
      ],
      [
        "п",
        "лощадь"
      ],
      [
        "ра",
        "ди"
      ],
      [
        "ex",
        "t"
      ],
      [
        "h_",
        "back"
      ],
      [
        "pus",
        "h_back"
      ],
      [
        "M",
        "at"
      ],
      [
        "o",
        "b"
      ],
      [
        "с",
        "си"
      ],
      [
        "ou",
        "nt"
      ],
      [
        "er",
        "ror"
      ],
      [
        "pa",
        "rt"
      ],
      [
        "ch",
        "ron"
      ],
      [
        "lo",
        "w"
      ],
      [
        "ру",
        "ет"
      ],
      [
        "current",
        "_"
      ],
      [
        "32",
        "_t"
      ],
      [
        "part",
        "icle"
      ],
      [
        "chron",
        "o"
      ],
      [
        "e",
        "s"
      ],
      [
        "f",
        "ile"
      ],
      [
        "j",
        "ect"
      ],
      [
        "p",
        "t"
      ],
      [
        "П",
        "лощадь"
      ],
      [
        "м",
        "ен"
      ],
      [
        "se",
        "t"
      ],
      [
        "ver",
        "se"
      ],
      [
        "temp",
        "late"
      ],
      [
        "o",
        "f"
      ],
      [
        "p",
        "_"
      ],
      [
        "э",
        "л"
      ],
      [
        "in",
        "e"
      ],
      [
        "or",
        "y"
      ],
      [
        "ди",
        "т"
      ],
      [
        "ex",
        "pr"
      ],
      [
        "вер",
        "х"
      ],
      [
        "un",
        "i"
      ],
      [
        "uint",
        "32_t"
      ],
      [
        "b",
        "on"
      ],
      [
        "f",
        "al"
      ],
      [
        "f",
        "ac"
      ],
      [
        "x",
        "1"
      ],
      [
        "в",
        "у"
      ],
      [
        "re",
        "verse"
      ],
      [
        "nn",
        "void"
      ],
      [
        "ци",
        "и"
      ],
      [
        "он",
        "ст"
      ],
      [
        "sh",
        "are"
      ],
      [
        "ради",
        "ус"
      ],
      [
        "fal",
        "se"
      ],
      [
        "O",
        "b"
      ],
      [
        "g",
        "th"
      ],
      [
        "и",
        "мо"
      ],
      [
        "or",
        "de"
      ],
      [
        "len",
        "gth"
      ],
      [
        "c",
        "olor"
      ],
      [
        "e",
        "t"
      ],
      [
        "g",
        "or"
      ],
      [
        "s",
        "_"
      ],
      [
        "д",
        "е"
      ],
      [
        "ma",
        "x"
      ],
      [
        "nn",
        "template"
      ],
      [
        "al",
        "gor"
      ],
      [
        "me",
        "ss"
      ],
      [
        "ser",
        "ver"
      ],
      [
        "loc",
        "k"
      ],
      [
        "ith",
        "m"
      ],
      [
        "algor",
        "ithm"
      ],
      [
        "mess",
        "age"
      ],
      [
        "f",
        "in"
      ],
      [
        "f",
        "la"
      ],
      [
        "g",
        "ra"
      ],
      [
        "l",
        "ine"
      ],
      [
        "Р",
        "е"
      ],
      [
        "з",
        "нач"
      ],
      [
        "ц",
        "ен"
      ],
      [
        "on",
        "d"
      ],
      [
        "про",
        "вер"
      ],
      [
        "ec",
        "ond"
      ],
      [
        "spa",
        "n"
      ],
      [
        "an",
        "d"
      ],
      [
        "const",
        "expr"
      ],
      [
        "по",
        "то"
      ],
      [
        "по",
        "верх"
      ],
      [
        "ци",
        "я"
      ],
      [
        "thread",
        "s"
      ],
      [
        "ма",
        "сси"
      ],
      [
        "ad",
        "d"
      ],
      [
        "три",
        "ц"
      ],
      [
        "fla",
        "g"
      ],
      [
        "поверх",
        "ности"
      ],
      [
        "_",
        "in"
      ],
      [
        "f",
        "a"
      ],
      [
        "i",
        "an"
      ],
      [
        "p",
        "i"
      ],
      [
        "v",
        "al"
      ],
      [
        "v",
        "ate"
      ],
      [
        "в",
        "л"
      ],
      [
        "м",
        "е"
      ],
      [
        "х",
        "од"
      ],
      [
        "end",
        "ian"
      ],
      [
        "но",
        "сть"
      ],
      [
        "yp",
        "e"
      ],
      [
        "po",
        "w"
      ],
      [
        "pri",
        "vate"
      ],
      [
        "fac",
        "tor"
      ],
      [
        "провер",
        "яет"
      ],
      [
        "1",
        "2"
      ],
      [
        "e",
        "ight"
      ],
      [
        "l",
        "l"
      ],
      [
        "n",
        "private"
      ],
      [
        "o",
        "t"
      ],
      [
        "o",
        "per"
      ],
      [
        "s",
        "y"
      ],
      [
        "s",
        "ort"
      ],
      [
        "s",
        "um"
      ],
      [
        "w",
        "eight"
      ],
      [
        "Р",
        "а"
      ],
      [
        "с",
        "я"
      ],
      [
        "ect",
        "ed"
      ],
      [
        "me",
        "m"
      ],
      [
        "ем",
        "онст"
      ],
      [
        "lo",
        "g"
      ],
      [
        "tr",
        "ue"
      ],
      [
        "el",
        "lo"
      ],
      [
        "чес",
        "ко"
      ],
      [
        "Mat",
        "h"
      ],
      [
        "uni",
        "qu"
      ],
      [
        "&",
        "&"
      ],
      [
        "E",
        "r"
      ],
      [
        "l",
        "y"
      ],
      [
        "м",
        "ер"
      ],
      [
        "п",
        "ла"
      ],
      [
        "у",
        "го"
      ],
      [
        "ф",
        "ай"
      ],
      [
        "in",
        "it"
      ],
      [
        "ce",
        "pt"
      ],
      [
        "ва",
        "н"
      ],
      [
        "ри",
        "рует"
      ],
      [
        "ма",
        "триц"
      ],
      [
        "Vector",
        "2"
      ],
      [
        "ct",
        "ion"
      ],
      [
        "exp",
        "ected"
      ],
      [
        "исполь",
        "зует"
      ],
      [
        "эл",
        "емен"
      ],
      [
        "init",
        "ial"
      ],
      [
        ".",
        "."
      ],
      [
        "2",
        "0"
      ],
      [
        "з",
        "о"
      ],
      [
        "к",
        "с"
      ],
      [
        "п",
        "ер"
      ],
      [
        "с",
        "ле"
      ],
      [
        "ч",
        "и"
      ],
      [
        "st",
        "em"
      ],
      [
        "st",
        "art"
      ],
      [
        "con",
        "tainer"
      ],
      [
        "ve",
        "st"
      ],
      [
        "vi",
        "ew"
      ],
      [
        "кто",
        "р"
      ],
      [
        "1",
        "1"
      ],
      [
        "L",
        "og"
      ],
      [
        "c",
        "or"
      ],
      [
        "t",
        "ion"
      ],
      [
        "u",
        "ct"
      ],
      [
        "v",
        "en"
      ],
      [
        "а",
        "ли"
      ],
      [
        "г",
        "и"
      ],
      [
        "п",
        "ри"
      ],
      [
        "nu",
        "ll"
      ],
      [
        "pa",
        "ir"
      ],
      [
        "si",
        "g"
      ],
      [
        "it",
        "er"
      ],
      [
        "wor",
        "k"
      ],
      [
        "mo",
        "ve"
      ],
      [
        "te",
        "st_"
      ],
      [
        "mem",
        "ory"
      ],
      [
        "Er",
        "ror"
      ],
      [
        "Log",
        "ger"
      ],
      [
        "null",
        "ptr"
      ],
      [
        "C",
        "on"
      ],
      [
        "_",
        "error"
      ],
      [
        "f",
        "low"
      ],
      [
        "i",
        "ze"
      ],
      [
        "o",
        "ver"
      ],
      [
        "s",
        "c"
      ],
      [
        "t",
        "x"
      ],
      [
        "а",
        "к"
      ],
      [
        "д",
        "емонст"
      ],
      [
        "п",
        "ре"
      ],
      [
        "с",
        "у"
      ],
      [
        "ф",
        "е"
      ],
      [
        "st",
        "at"
      ],
      [
        "ce",
        "_"
      ],
      [
        "но",
        "го"
      ],
      [
        "an",
        "ge"
      ],
      [
        "as",
        "h_"
      ],
      [
        "ны",
        "е"
      ],
      [
        "yp",
        "t"
      ],
      [
        "cr",
        "ypt"
      ],
      [
        "gra",
        "ph"
      ],
      [
        "ash_",
        "flow"
      ],
      [
        "S",
        "t"
      ],
      [
        "a",
        "nt"
      ],
      [
        "b",
        "it"
      ],
      [
        "h",
        "as"
      ],
      [
        "i",
        "el"
      ],
      [
        "o",
        "d"
      ],
      [
        "r",
        "i"
      ],
      [
        "s",
        "w"
      ],
      [
        "t",
        "1"
      ],
      [
        "y",
        "iel"
      ],
      [
        "д",
        "ли"
      ],
      [
        "о",
        "р"
      ],
      [
        "ф",
        "и"
      ],
      [
        "re",
        "e"
      ],
      [
        "те",
        "ль"
      ],
      [
        "чис",
        "ел"
      ],
      [
        "si",
        "on"
      ],
      [
        "ra",
        "y"
      ],
      [
        "ва",
        "ет"
      ],
      [
        "ре",
        "али"
      ],
      [
        "is",
        "P"
      ],
      [
        "d_",
        "count"
      ],
      [
        "ro",
        "w"
      ],
      [
        "об",
        "ъем"
      ],
      [
        "вани",
        "е"
      ],
      [
        "Об",
        "ъем"
      ],
      [
        "min",
        "ant"
      ],
      [
        "sy",
        "stem"
      ],
      [
        "1",
        "4"
      ],
      [
        "6",
        "4"
      ],
      [
        "S",
        "ort"
      ],
      [
        "_",
        "price"
      ],
      [
        "a",
        "y"
      ],
      [
        "f",
        "s"
      ],
      [
        "s",
        "ub"
      ],
      [
        "t",
        "ext"
      ],
      [
        "г",
        "а"
      ],
      [
        "п",
        "у"
      ],
      [
        "э",
        "дра"
      ],
      [
        "ро",
        "м"
      ],
      [
        "со",
        "ту"
      ],
      [
        "вы",
        "соту"
      ],
      [
        "ль",
        "та"
      ],
      [
        "ти",
        "ро"
      ],
      [
        "зу",
        "льта"
      ],
      [
        "стро",
        "ку"
      ],
      [
        "reverse",
        "d"
      ],
      [
        "имо",
        "сть"
      ],
      [
        "Ре",
        "зульта"
      ],
      [
        "work",
        "er"
      ],
      [
        "демонст",
        "рирует"
      ],
      [
        "C",
        "olor"
      ],
      [
        "f",
        "ir"
      ],
      [
        "б",
        "е"
      ],
      [
        "в",
        "и"
      ],
      [
        "д",
        "ел"
      ],
      [
        "и",
        "н"
      ],
      [
        "к",
        "тора"
      ],
      [
        "р",
        "я"
      ],
      [
        "с",
        "а"
      ],
      [
        "ч",
        "ет"
      ],
      [
        "э",
        "ф"
      ],
      [
        "ou",
        "r"
      ],
      [
        "am",
        "ount"
      ],
      [
        "pa",
        "r"
      ],
      [
        "ко",
        "м"
      ],
      [
        "ко",
        "н"
      ],
      [
        "di",
        "r"
      ],
      [
        "но",
        "в"
      ],
      [
        "ли",
        "н"
      ],
      [
        "ac",
        "c"
      ],
      [
        "po",
        "s"
      ],
      [
        "си",
        "м"
      ],
      [
        "typ",
        "e"
      ],
      [
        "Ob",
        "ject"
      ],
      [
        "factor",
        "ial"
      ],
      [
        "дли",
        "ну"
      ],
      [
        "реали",
        "зует"
      ],
      [
        "Результа",
        "т"
      ],
      [
        "H",
        "ello"
      ],
      [
        "_",
        "per"
      ],
      [
        "d",
        "ra"
      ],
      [
        "i",
        "ve"
      ],
      [
        "p",
        "he"
      ],
      [
        "s",
        "a"
      ],
      [
        "s",
        "qu"
      ],
      [
        "t",
        "y"
      ],
      [
        "t",
        "al"
      ],
      [
        "а",
        "р"
      ],
      [
        "в",
        "ку"
      ],
      [
        "д",
        "ву"
      ],
      [
        "и",
        "да"
      ],
      [
        "ра",
        "с"
      ],
      [
        "ma",
        "n"
      ],
      [
        "мм",
        "а"
      ],
      [
        "на",
        "х"
      ],
      [
        "al",
        "ar"
      ],
      [
        "ши",
        "б"
      ],
      [
        "ва",
        "дра"
      ],
      [
        "po",
        "si"
      ],
      [
        "emp",
        "ty"
      ],
      [
        "get",
        "line"
      ],
      [
        "wor",
        "d_count"
      ],
      [
        "to",
        "tal"
      ],
      [
        "ob",
        "server"
      ],
      [
        "знач",
        "ение"
      ],
      [
        "econd",
        "s"
      ],
      [
        "_in",
        "vest"
      ],
      [
        "initial",
        "_invest"
      ],
      [
        "stat",
        "ic"
      ],
      [
        "crypt",
        "ed"
      ],
      [
        "sw",
        "ap"
      ],
      [
        "фи",
        "ци"
      ],
      [
        "initial_invest",
        "ment"
      ],
      [
        "2",
        "5"
      ],
      [
        "A",
        "r"
      ],
      [
        "_",
        "de"
      ],
      [
        "_",
        "size"
      ],
      [
        "i",
        "p"
      ],
      [
        "i",
        "minant"
      ],
      [
        "m",
        "ut"
      ],
      [
        "p",
        "lugin"
      ],
      [
        "t",
        "ime"
      ],
      [
        "|",
        "|"
      ],
      [
        "н",
        "к"
      ],
      [
        "у",
        "нк"
      ],
      [
        "re",
        "d_"
      ],
      [
        "de",
        "t"
      ],
      [
        "ma",
        "p"
      ],
      [
        "то",
        "в"
      ],
      [
        "th",
        "is_"
      ],
      [
        "ри",
        "ческо"
      ],
      [
        "ни",
        "й"
      ],
      [
        "wor",
        "d"
      ],
      [
        "сто",
        "я"
      ],
      [
        "сто",
        "имость"
      ],
      [
        "dis",
        "cr"
      ],
      [
        "to",
        "p"
      ],
      [
        "pus",
        "h"
      ],
      [
        "no",
        "w"
      ],
      [
        "no",
        "de"
      ],
      [
        "bon",
        "d_"
      ],
      [
        "weight",
        "s_"
      ],
      [
        "эф",
        "фици"
      ],
      [
        "this_",
        "thread"
      ],
      [
        "discr",
        "iminant"
      ],
      [
        "эффици",
        "ен"
      ],
      [
        "a",
        "st"
      ],
      [
        "c",
        "1"
      ],
      [
        "c",
        "om"
      ],
      [
        "d",
        "ur"
      ],
      [
        "h",
        "igh"
      ],
      [
        "m",
        "on"
      ],
      [
        "n",
        "class"
      ],
      [
        "w",
        "id"
      ],
      [
        "y",
        "2"
      ],
      [
        "П",
        "ри"
      ],
      [
        "к",
        "ру"
      ],
      [
        "м",
        "ет"
      ],
      [
        "о",
        "дит"
      ],
      [
        "р",
        "ы"
      ],
      [
        "ш",
        "а"
      ],
      [
        "re",
        "c"
      ],
      [
        "ma",
        "il"
      ],
      [
        "вы",
        "во"
      ],
      [
        "ни",
        "е"
      ],
      [
        "size",
        "_t"
      ],
      [
        "qu",
        "i"
      ],
      [
        "count",
        "er"
      ],
      [
        "_c",
        "ast"
      ],
      [
        "co",
        "de"
      ],
      [
        "вани",
        "я"
      ],
      [
        "output",
        "s"
      ],
      [
        "orde",
        "r"
      ],
      [
        "Math",
        "Error"
      ],
      [
        "пла",
        "ги"
      ],
      [
        "уго",
        "ль"
      ],
      [
        "cor",
        "o"
      ],
      [
        "over",
        "ri"
      ],
      [
        "tx",
        "t"
      ],
      [
        "dra",
        "w"
      ],
      [
        "шиб",
        "ка"
      ],
      [
        "posi",
        "tion"
      ],
      [
        "dur",
        "ation"
      ],
      [
        "mon",
        "th"
      ],
      [
        "wid",
        "th"
      ],
      [
        "overri",
        "de"
      ],
      [
        "C",
        "ount"
      ],
      [
        "c",
        "2"
      ],
      [
        "e",
        "p_"
      ],
      [
        "i",
        "pa"
      ],
      [
        "m",
        "ult"
      ],
      [
        "p",
        "q"
      ],
      [
        "s",
        "le"
      ],
      [
        "t",
        "ra"
      ],
      [
        "v",
        "ar"
      ],
      [
        "О",
        "шибка"
      ],
      [
        "а",
        "л"
      ],
      [
        "б",
        "ы"
      ],
      [
        "в",
        "но"
      ],
      [
        "з",
        "мер"
      ],
      [
        "inc",
        "ipa"
      ],
      [
        "str",
        "uct"
      ],
      [
        "pr",
        "incipa"
      ],
      [
        "ic",
        "k"
      ],
      [
        "ch",
        "ange"
      ],
      [
        "_t",
        "ype"
      ],
      [
        "ер",
        "ж"
      ],
      [
        "об",
        "ра"
      ],
      [
        "_c",
        "lock"
      ],
      [
        "dis",
        "count"
      ],
      [
        "il",
        "l"
      ],
      [
        "il",
        "ity"
      ],
      [
        "кто",
        "ри"
      ],
      [
        "dist",
        "ance"
      ],
      [
        "ple",
        "x"
      ],
      [
        "ста",
        "вку"
      ],
      [
        "current_",
        "char"
      ],
      [
        "et",
        "_"
      ],
      [
        "uniqu",
        "e_"
      ],
      [
        "Con",
        "tainer"
      ],
      [
        "par",
        "se"
      ],
      [
        "сим",
        "во"
      ],
      [
        "phe",
        "re"
      ],
      [
        "нах",
        "одит"
      ],
      [
        "рическо",
        "го"
      ],
      [
        "ep_",
        "for"
      ],
      [
        "mult",
        "ip"
      ],
      [
        "sle",
        "ep_for"
      ],
      [
        "principa",
        "l"
      ],
      [
        "S",
        "tr"
      ],
      [
        "_",
        "span"
      ],
      [
        "a",
        "b"
      ],
      [
        "c",
        "ash_flow"
      ],
      [
        "e",
        "ven"
      ],
      [
        "g",
        "y"
      ],
      [
        "j",
        "o"
      ],
      [
        "m",
        "ill"
      ],
      [
        "r",
        "ime"
      ],
      [
        "s",
        "1"
      ],
      [
        "y",
        "1"
      ],
      [
        "Н",
        "е"
      ],
      [
        "П",
        "ро"
      ],
      [
        "г",
        "е"
      ],
      [
        "д",
        "у"
      ],
      [
        "ж",
        "ение"
      ],
      [
        "п",
        "ле"
      ],
      [
        "с",
        "ло"
      ],
      [
        "т",
        "ре"
      ],
      [
        "ц",
        "е"
      ],
      [
        "щ",
        "и"
      ],
      [
        "re",
        "g"
      ],
      [
        "st",
        "ack"
      ],
      [
        "ра",
        "в"
      ],
      [
        "de",
        "c"
      ],
      [
        "le",
        "ction"
      ],
      [
        "er",
        "ial"
      ],
      [
        "ро",
        "к"
      ],
      [
        "on",
        "ent"
      ],
      [
        "at",
        "om"
      ],
      [
        "at",
        "ive"
      ],
      [
        "ко",
        "р"
      ],
      [
        "ис",
        "те"
      ],
      [
        "на",
        "я"
      ],
      [
        "ст",
        "во"
      ],
      [
        "con",
        "cept"
      ],
      [
        "an",
        "y"
      ],
      [
        "ate",
        "gy"
      ],
      [
        "ch",
        "_"
      ],
      [
        "tr",
        "y"
      ],
      [
        "ol",
        "lection"
      ],
      [
        "ны",
        "х"
      ],
      [
        "is",
        "econds"
      ],
      [
        "po",
        "int"
      ],
      [
        "un",
        "orde"
      ],
      [
        "vec",
        "1"
      ],
      [
        "vi",
        "ce"
      ],
      [
        "exp",
        "onent"
      ],
      [
        "до",
        "ход"
      ],
      [
        "стро",
        "ки"
      ],
      [
        "print",
        "S"
      ],
      [
        "real",
        "2"
      ],
      [
        "imag",
        "2"
      ],
      [
        "li",
        "st"
      ],
      [
        "По",
        "то"
      ],
      [
        "По",
        "сле"
      ],
      [
        "fi",
        "bon"
      ],
      [
        "матриц",
        "ы"
      ],
      [
        "view",
        "s"
      ],
      [
        "isP",
        "rime"
      ],
      [
        "ком",
        "пле"
      ],
      [
        "лин",
        "д"
      ],
      [
        "acc",
        "i"
      ],
      [
        "стоя",
        "ние"
      ],
      [
        "эффициен",
        "т"
      ],
      [
        "unique_",
        "ptr"
      ],
      [
        "jo",
        "in"
      ],
      [
        "mill",
        "iseconds"
      ],
      [
        "atom",
        "ic"
      ],
      [
        "unorde",
        "red_"
      ],
      [
        "fibon",
        "acci"
      ],
      [
        "компле",
        "кс"
      ],
      [
        "1",
        "5"
      ],
      [
        "F",
        "ile"
      ],
      [
        "P",
        "art"
      ],
      [
        "a",
        "ger"
      ],
      [
        "b",
        "i"
      ],
      [
        "e",
        "ue"
      ],
      [
        "f",
        "e_"
      ],
      [
        "g",
        "it"
      ],
      [
        "i",
        "st"
      ],
      [
        "k",
        "e_"
      ],
      [
        "r",
        "u"
      ],
      [
        "r",
        "and"
      ],
      [
        "s",
        "2"
      ],
      [
        "u",
        "al"
      ],
      [
        "П",
        "ер"
      ],
      [
        "С",
        "у"
      ],
      [
        "Т",
        "е"
      ],
      [
        "м",
        "но"
      ],
      [
        "о",
        "т"
      ],
      [
        "с",
        "рок"
      ],
      [
        "т",
        "ь"
      ],
      [
        "ф",
        "унк"
      ],
      [
        "ч",
        "а"
      ],
      [
        "ы",
        "вает"
      ],
      [
        "я",
        "вл"
      ],
      [
        "re",
        "qui"
      ],
      [
        "en",
        "e"
      ],
      [
        "or",
        "ig"
      ],
      [
        "ma",
        "ke_"
      ],
      [
        "nn",
        "double"
      ],
      [
        "se",
        "ar"
      ],
      [
        "di",
        "git"
      ],
      [
        "for",
        "mat"
      ],
      [
        "вы",
        "й"
      ],
      [
        "ли",
        "че"
      ],
      [
        "qu",
        "ick"
      ],
      [
        "qu",
        "eue"
      ],
      [
        "rt",
        "ual"
      ],
      [
        "ation",
        "s"
      ],
      [
        "ser",
        "t"
      ],
      [
        "vi",
        "rtual"
      ],
      [
        "loc",
        "ation"
      ],
      [
        "пе",
        "ра"
      ],
      [
        "пе",
        "ре"
      ],
      [
        "fin",
        "d"
      ],
      [
        "масси",
        "ва"
      ],
      [
        "oper",
        "ator"
      ],
      [
        "test_",
        "dir"
      ],
      [
        "sc",
        "alar"
      ],
      [
        "St",
        "ack"
      ],
      [
        "fir",
        "st"
      ],
      [
        "sa",
        "fe_"
      ],
      [
        "дву",
        "х"
      ],
      [
        "выво",
        "дит"
      ],
      [
        "уголь",
        "ни"
      ],
      [
        "var",
        "i"
      ],
      [
        "Пото",
        "к"
      ],
      [
        "Part",
        "icle"
      ],
      [
        "rand",
        "om"
      ],
      [
        "orig",
        "in"
      ],
      [
        "личе",
        "ство"
      ],
      [
        "6",
        "7"
      ],
      [
        "F",
        "F"
      ],
      [
        "G",
        "en"
      ],
      [
        "R",
        "ect"
      ],
      [
        "a",
        "ble"
      ],
      [
        "b",
        "t"
      ],
      [
        "b",
        "in"
      ],
      [
        "e",
        "g"
      ],
      [
        "e",
        "ad"
      ],
      [
        "e",
        "mail"
      ],
      [
        "f",
        "ol"
      ],
      [
        "h",
        "and"
      ],
      [
        "n",
        "ew"
      ],
      [
        "n",
        "et_"
      ],
      [
        "p",
        "ort"
      ],
      [
        "r",
        "d"
      ],
      [
        "s",
        "ect"
      ],
      [
        "В",
        "е"
      ],
      [
        "К",
        "о"
      ],
      [
        "й",
        "ден"
      ],
      [
        "м",
        "у"
      ],
      [
        "о",
        "пера"
      ],
      [
        "с",
        "фе"
      ],
      [
        "щ",
        "е"
      ],
      [
        "st",
        "o"
      ],
      [
        "int",
        "er"
      ],
      [
        "er",
        "ator"
      ],
      [
        "ing",
        "_"
      ],
      [
        "ро",
        "ван"
      ],
      [
        "про",
        "сто"
      ],
      [
        "ен",
        "ь"
      ],
      [
        "на",
        "йден"
      ],
      [
        "ar",
        "d"
      ],
      [
        "те",
        "ра"
      ],
      [
        "di",
        "re"
      ],
      [
        "nt",
        "emp"
      ],
      [
        "вы",
        "е"
      ],
      [
        "pr",
        "of"
      ],
      [
        "pr",
        "od"
      ],
      [
        "яет",
        "ся"
      ],
      [
        "as",
        "_"
      ],
      [
        "ol",
        "d"
      ],
      [
        "ци",
        "ю"
      ],
      [
        "ent",
        "er"
      ],
      [
        "ve",
        "loc"
      ],
      [
        "result",
        "1"
      ],
      [
        "result",
        "2"
      ],
      [
        "ial",
        "ize"
      ],
      [
        "per",
        "_"
      ],
      [
        "ser",
        "ialize"
      ],
      [
        "ap",
        "e"
      ],
      [
        "co",
        "st"
      ],
      [
        "рабо",
        "ту"
      ],
      [
        "real",
        "1"
      ],
      [
        "input",
        "s"
      ],
      [
        "imag",
        "1"
      ],
      [
        "пото",
        "к"
      ],
      [
        "фай",
        "ла"
      ],
      [
        "..",
        "."
      ],
      [
        "yiel",
        "d"
      ],
      [
        "вадра",
        "т"
      ],
      [
        "симво",
        "л"
      ],
      [
        "multip",
        "ly"
      ],
      [
        "bi",
        "as_"
      ],
      [
        "Су",
        "мма"
      ],
      [
        "явл",
        "яется"
      ],
      [
        "Gen",
        "erator"
      ],
      [
        "fol",
        "io"
      ],
      [
        "hand",
        "le"
      ],
      [
        "port",
        "folio"
      ],
      [
        "сфе",
        "рического"
      ],
      [
        "inter",
        "sect"
      ],
      [
        "ntemp",
        "late"
      ],
      [
        "prof",
        "it"
      ],
      [
        "veloc",
        "ity"
      ],
      [
        "1",
        "6"
      ],
      [
        "1",
        "8"
      ],
      [
        "3",
        "0"
      ],
      [
        "3",
        "4"
      ],
      [
        "L",
        "ar"
      ],
      [
        "N",
        "o"
      ],
      [
        "S",
        "phere"
      ],
      [
        "a",
        "res"
      ],
      [
        "b",
        "rea"
      ],
      [
        "c",
        "le"
      ],
      [
        "d",
        "1"
      ],
      [
        "d",
        "a"
      ],
      [
        "d",
        "ent"
      ],
      [
        "o",
        "me"
      ],
      [
        "p",
        "end"
      ],
      [
        "s",
        "our"
      ],
      [
        "t",
        "2"
      ],
      [
        "t",
        "ree"
      ],
      [
        "u",
        "p"
      ],
      [
        "u",
        "dent"
      ],
      [
        "В",
        "ы"
      ],
      [
        "П",
        "е"
      ],
      [
        "д",
        "ус"
      ],
      [
        "л",
        "у"
      ],
      [
        "л",
        "ю"
      ],
      [
        "м",
        "я"
      ],
      [
        "н",
        "я"
      ],
      [
        "р",
        "тиро"
      ],
      [
        "in",
        "sert"
      ],
      [
        "re",
        "ment"
      ],
      [
        "en",
        "crypted"
      ],
      [
        "en",
        "code"
      ],
      [
        "er",
        "ate"
      ],
      [
        "nn",
        "bool"
      ],
      [
        "pa",
        "th"
      ],
      [
        "то",
        "р"
      ],
      [
        "гра",
        "дус"
      ],
      [
        "ен",
        "ный"
      ],
      [
        "ис",
        "к"
      ],
      [
        "th",
        "row"
      ],
      [
        "ве",
        "ктора"
      ],
      [
        "di",
        "vi"
      ],
      [
        "со",
        "ртиро"
      ],
      [
        "for",
        "m"
      ],
      [
        "ge",
        "Object"
      ],
      [
        "ре",
        "б"
      ],
      [
        "value",
        "s"
      ],
      [
        "10",
        "00"
      ],
      [
        "во",
        "й"
      ],
      [
        "d_",
        "ptr"
      ],
      [
        "ro",
        "tr"
      ],
      [
        "рабо",
        "ты"
      ],
      [
        "за",
        "вер"
      ],
      [
        "па",
        "линд"
      ],
      [
        "mo",
        "d"
      ],
      [
        "ну",
        "ю"
      ],
      [
        "из",
        "ве"
      ],
      [
        "gen",
        "erate"
      ],
      [
        "share",
        "d_ptr"
      ],
      [
        "Ob",
        "server"
      ],
      [
        "uniqu",
        "e"
      ],
      [
        "су",
        "мму"
      ],
      [
        "man",
        "ager"
      ],
      [
        "bond_",
        "price"
      ],
      [
        "make_",
        "unique"
      ],
      [
        "угольни",
        "ка"
      ],
      [
        "Lar",
        "geObject"
      ],
      [
        "No",
        "de"
      ],
      [
        "brea",
        "k"
      ],
      [
        "divi",
        "de"
      ],
      [
        "3",
        "7"
      ],
      [
        "5",
        "0"
      ],
      [
        "N",
        "um"
      ],
      [
        "P",
        "o"
      ],
      [
        "P",
        "er"
      ],
      [
        "_",
        "order"
      ],
      [
        "a",
        "1"
      ],
      [
        "a",
        "2"
      ],
      [
        "c",
        "re"
      ],
      [
        "c",
        "ase"
      ],
      [
        "d",
        "ate"
      ],
      [
        "e",
        "qu"
      ],
      [
        "e",
        "bit"
      ],
      [
        "f",
        "re"
      ],
      [
        "n",
        "or"
      ],
      [
        "s",
        "us"
      ],
      [
        "s",
        "econd"
      ],
      [
        "а",
        "н"
      ],
      [
        "в",
        "р"
      ],
      [
        "е",
        "ж"
      ],
      [
        "з",
        "ывает"
      ],
      [
        "м",
        "ы"
      ],
      [
        "с",
        "те"
      ],
      [
        "с",
        "исте"
      ],
      [
        "т",
        "ра"
      ],
      [
        "т",
        "ет"
      ],
      [
        "RE",
        "D"
      ],
      [
        "st",
        "ead"
      ],
      [
        "am",
        "ple"
      ],
      [
        "pa",
        "n"
      ],
      [
        "ко",
        "эффициент"
      ],
      [
        "ec",
        "ut"
      ],
      [
        "ис",
        "о"
      ],
      [
        "it",
        "s"
      ],
      [
        "по",
        "ка"
      ],
      [
        "ex",
        "ample"
      ],
      [
        "ex",
        "ecut"
      ],
      [
        "ени",
        "й"
      ],
      [
        "tr",
        "an"
      ],
      [
        "ци",
        "ф"
      ],
      [
        "arr",
        "1"
      ],
      [
        "arr",
        "2"
      ],
      [
        "ти",
        "п"
      ],
      [
        "ro",
        "ot"
      ],
      [
        "об",
        "а"
      ],
      [
        "рабо",
        "та"
      ],
      [
        "mo",
        "id"
      ],
      [
        "чес",
        "ки"
      ],
      [
        "ter",
        "n"
      ],
      [
        "particle",
        "s"
      ],
      [
        "p_",
        "flag"
      ],
      [
        "де",
        "ли"
      ],
      [
        "цен",
        "у"
      ],
      [
        "ме",
        "то"
      ],
      [
        "элемен",
        "тов"
      ],
      [
        "sig",
        "moid"
      ],
      [
        "iter",
        "ator"
      ],
      [
        "memory",
        "_order"
      ],
      [
        "_error",
        "s"
      ],
      [
        "has",
        "_value"
      ],
      [
        "дел",
        "ения"
      ],
      [
        "squ",
        "are"
      ],
      [
        "month",
        "ly"
      ],
      [
        "Count",
        "er"
      ],
      [
        "ерж",
        "имо"
      ],
      [
        "discount",
        "_rate"
      ],
      [
        "even",
        "_"
      ],
      [
        "ch_",
        "word"
      ],
      [
        "requi",
        "res"
      ],
      [
        "sear",
        "ch_word"
      ],
      [
        "Ве",
        "ктор"
      ],
      [
        "sto",
        "p_flag"
      ],
      [
        "реб",
        "ра"
      ],
      [
        "Num",
        "ber"
      ],
      [
        "equ",
        "ity"
      ],
      [
        "ebit",
        "da"
      ],
      [
        "nor",
        "ma"
      ],
      [
        "sus",
        "pend"
      ],
      [
        "stead",
        "y"
      ],
      [
        "пока",
        "зывает"
      ],
      [
        "execut",
        "e"
      ],
      [
        "memory_order",
        "_"
      ],
      [
        "2",
        "4"
      ],
      [
        "2",
        "x2"
      ],
      [
        "9",
        "9"
      ],
      [
        "B",
        "L"
      ],
      [
        "C",
        "om"
      ],
      [
        "S",
        "tor"
      ],
      [
        "W",
        "or"
      ],
      [
        "_",
        "al"
      ],
      [
        "_",
        "area"
      ],
      [
        "_",
        "queue"
      ],
      [
        "b",
        "1"
      ],
      [
        "b",
        "2"
      ],
      [
        "d",
        "ot"
      ],
      [
        "f",
        "f"
      ],
      [
        "f",
        "o"
      ],
      [
        "f",
        "lo"
      ],
      [
        "h",
        "o"
      ],
      [
        "i",
        "x"
      ],
      [
        "l",
        "it"
      ],
      [
        "n",
        "ing"
      ],
      [
        "n",
        "concept"
      ],
      [
        "s",
        "p"
      ],
      [
        "t",
        "ic"
      ],
      [
        "u",
        "ple"
      ],
      [
        "З",
        "а"
      ],
      [
        "К",
        "он"
      ],
      [
        "в",
        "то"
      ],
      [
        "г",
        "мен"
      ],
      [
        "д",
        "ва"
      ],
      [
        "д",
        "ение"
      ],
      [
        "з",
        "ра"
      ],
      [
        "и",
        "тера"
      ],
      [
        "к",
        "ла"
      ],
      [
        "о",
        "с"
      ],
      [
        "р",
        "ен"
      ],
      [
        "у",
        "ю"
      ],
      [
        "ф",
        "а"
      ],
      [
        "AC",
        "K"
      ],
      [
        "re",
        "n"
      ],
      [
        "re",
        "ven"
      ],
      [
        "st",
        "udent"
      ],
      [
        "en",
        "try"
      ],
      [
        "ра",
        "з"
      ],
      [
        "inc",
        "ome"
      ],
      [
        "inc",
        "rement"
      ],
      [
        "ma",
        "r"
      ],
      [
        "ing",
        "_c"
      ],
      [
        "nn",
        "string"
      ],
      [
        "ко",
        "личество"
      ],
      [
        "ст",
        "ру"
      ],
      [
        "nt",
        "ime"
      ],
      [
        "да",
        "л"
      ],
      [
        "но",
        "й"
      ],
      [
        "me",
        "tic"
      ],
      [
        "ex",
        "cept"
      ],
      [
        "ль",
        "ность"
      ],
      [
        "as",
        "h"
      ],
      [
        "as",
        "set"
      ],
      [
        "res",
        "sion"
      ],
      [
        "во",
        "го"
      ],
      [
        "po",
        "p"
      ],
      [
        "ти",
        "вно"
      ],
      [
        "side",
        "s"
      ],
      [
        "_c",
        "ollection"
      ],
      [
        "vec",
        "2"
      ],
      [
        "ми",
        "на"
      ],
      [
        "ss",
        "_"
      ],
      [
        "ir",
        "cle"
      ],
      [
        "ta",
        "x"
      ],
      [
        "exp",
        "ression"
      ],
      [
        "ph",
        "on"
      ],
      [
        "co",
        "st_"
      ],
      [
        "стро",
        "ка"
      ],
      [
        "рабо",
        "т"
      ],
      [
        "base",
        "_area"
      ],
      [
        "ith",
        "metic"
      ],
      [
        "li",
        "m"
      ],
      [
        "се",
        "гмен"
      ],
      [
        "ob",
        "j"
      ],
      [
        "ву",
        "ю"
      ],
      [
        "share",
        "_price"
      ],
      [
        "s_",
        "per_"
      ],
      [
        "вл",
        "ение"
      ],
      [
        "Ра",
        "змер"
      ],
      [
        "уго",
        "л"
      ],
      [
        "фай",
        "л"
      ],
      [
        "sig",
        "ma"
      ],
      [
        "sc",
        "ene"
      ],
      [
        "yiel",
        "d_"
      ],
      [
        "mut",
        "ations"
      ],
      [
        "plugin",
        "s"
      ],
      [
        "weights_",
        "ho"
      ],
      [
        "плаги",
        "нов"
      ],
      [
        "Str",
        "ategy"
      ],
      [
        "це",
        "п"
      ],
      [
        "рав",
        "н"
      ],
      [
        "доход",
        "ность"
      ],
      [
        "комплекс",
        "ное"
      ],
      [
        "ru",
        "ntime"
      ],
      [
        "safe_",
        "divide"
      ],
      [
        "origin",
        "al"
      ],
      [
        "Rect",
        "angle"
      ],
      [
        "net_",
        "income"
      ],
      [
        "portfolio",
        "_"
      ],
      [
        "encode",
        "d"
      ],
      [
        "изве",
        "дение"
      ],
      [
        "generate",
        "Per"
      ],
      [
        "вр",
        "ем"
      ],
      [
        "ержимо",
        "е"
      ],
      [
        "BL",
        "ACK"
      ],
      [
        "Com",
        "plex"
      ],
      [
        "Stor",
        "age"
      ],
      [
        "зра",
        "ст"
      ],
      [
        "reven",
        "ue"
      ],
      [
        "ing_c",
        "ash"
      ],
      [
        "asset",
        "s"
      ],
      [
        "cost_",
        "of"
      ],
      [
        "сегмен",
        "та"
      ],
      [
        "runtime",
        "_error"
      ],
      [
        "generatePer",
        "mutations"
      ],
      [
        "A",
        "n"
      ],
      [
        "I",
        "N"
      ],
      [
        "I",
        "T"
      ],
      [
        "I",
        "Plugin"
      ],
      [
        "R",
        "S"
      ],
      [
        "R",
        "ay"
      ],
      [
        "S",
        "er"
      ],
      [
        "_",
        "view"
      ],
      [
        "a",
        "x"
      ],
      [
        "b",
        "_"
      ],
      [
        "b",
        "ig"
      ],
      [
        "d",
        "2"
      ],
      [
        "d",
        "t"
      ],
      [
        "f",
        "ro"
      ],
      [
        "h",
        "ex"
      ],
      [
        "h",
        "ello"
      ],
      [
        "i",
        "h"
      ],
      [
        "i",
        "se"
      ],
      [
        "l",
        "d"
      ],
      [
        "n",
        "d"
      ],
      [
        "n",
        "void"
      ],
      [
        "n",
        "ext"
      ],
      [
        "o",
        "p"
      ],
      [
        "p",
        "v"
      ],
      [
        "r",
        "at"
      ],
      [
        "t",
        "le"
      ],
      [
        "t",
        "ar"
      ],
      [
        "v",
        "id"
      ],
      [
        "z",
        "1"
      ],
      [
        "z",
        "2"
      ],
      [
        "И",
        "с"
      ],
      [
        "Н",
        "О"
      ],
      [
        "С",
        "од"
      ],
      [
        "Ф",
        "и"
      ],
      [
        "Ч",
        "ис"
      ],
      [
        "б",
        "и"
      ],
      [
        "б",
        "у"
      ],
      [
        "л",
        "ет"
      ],
      [
        "ч",
        "ение"
      ],
      [
        "ч",
        "ное"
      ],
      [
        "ou",
        "nd"
      ],
      [
        "ра",
        "т"
      ],
      [
        "ра",
        "ми"
      ],
      [
        "ma",
        "tr"
      ],
      [
        "er",
        "ic"
      ],
      [
        "nn",
        "struct"
      ],
      [
        "pa",
        "y"
      ],
      [
        "ce",
        "_value"
      ],
      [
        "ко",
        "в"
      ],
      [
        "ко",
        "й"
      ],
      [
        "про",
        "ст"
      ],
      [
        "ar",
        "y"
      ],
      [
        "ве",
        "сти"
      ],
      [
        "se",
        "_value"
      ],
      [
        "di",
        "vid"
      ],
      [
        "string",
        "_view"
      ],
      [
        "num",
        "eric"
      ],
      [
        "pr",
        "om"
      ],
      [
        "ре",
        "з"
      ],
      [
        "ка",
        "за"
      ],
      [
        "is",
        "k"
      ],
      [
        "во",
        "е"
      ],
      [
        "emp",
        "la"
      ],
      [
        "un",
        "ion"
      ],
      [
        "pri",
        "se_value"
      ],
      [
        "_c",
        "ash_flow"
      ],
      [
        "get",
        "V"
      ],
      [
        "сто",
        "ро"
      ],
      [
        "ima",
        "l"
      ],
      [
        "cr",
        "c"
      ],
      [
        "вани",
        "ем"
      ],
      [
        "te",
        "st"
      ],
      [
        "се",
        "ктора"
      ],
      [
        "ден",
        "еж"
      ],
      [
        "fi",
        "b_"
      ],
      [
        "Mat",
        "erial"
      ],
      [
        "масси",
        "в"
      ],
      [
        "fa",
        "ce_value"
      ],
      [
        "пре",
        "д"
      ],
      [
        "ce_",
        "back"
      ],
      [
        "ор",
        "ма"
      ],
      [
        "пу",
        "ст"
      ],
      [
        "ин",
        "вести"
      ],
      [
        "ря",
        "мо"
      ],
      [
        "squ",
        "ares"
      ],
      [
        "Ar",
        "ithmetic"
      ],
      [
        "mut",
        "ex"
      ],
      [
        "weights_",
        "ih"
      ],
      [
        "кру",
        "га"
      ],
      [
        "tra",
        "in"
      ],
      [
        "бы",
        "ль"
      ],
      [
        "parse",
        "_"
      ],
      [
        "printS",
        "pan"
      ],
      [
        "unordered_",
        "map"
      ],
      [
        "мно",
        "жение"
      ],
      [
        "quick",
        "Sort"
      ],
      [
        "просто",
        "е"
      ],
      [
        "prod",
        "uct"
      ],
      [
        "enter",
        "prise_value"
      ],
      [
        "handle",
        "_type"
      ],
      [
        "intersect",
        "ion"
      ],
      [
        "tran",
        "s"
      ],
      [
        "monthly",
        "_rate"
      ],
      [
        "memory_order_",
        "re"
      ],
      [
        "flo",
        "at"
      ],
      [
        "An",
        "imal"
      ],
      [
        "Ser",
        "vice"
      ],
      [
        "fro",
        "m"
      ],
      [
        "rat",
        "io"
      ],
      [
        "tar",
        "get"
      ],
      [
        "matr",
        "ix"
      ],
      [
        "divid",
        "end"
      ],
      [
        "prom",
        "ise"
      ],
      [
        "empla",
        "ce_back"
      ],
      [
        "денеж",
        "ный"
      ],
      [
        "1",
        "3"
      ],
      [
        "4",
        "2"
      ],
      [
        "7",
        "4"
      ],
      [
        "C",
        "ircle"
      ],
      [
        "I",
        "n"
      ],
      [
        "M",
        "ax"
      ],
      [
        "P",
        "ar"
      ],
      [
        "S",
        "h"
      ],
      [
        "_",
        "endian"
      ],
      [
        "_",
        "point"
      ],
      [
        "_",
        "fre"
      ],
      [
        "_",
        "iterator"
      ],
      [
        "c",
        "at"
      ],
      [
        "c",
        "lo"
      ],
      [
        "c",
        "ro"
      ],
      [
        "d",
        "ro"
      ],
      [
        "g",
        "re"
      ],
      [
        "g",
        "row"
      ],
      [
        "r",
        "ame"
      ],
      [
        "r",
        "isk"
      ],
      [
        "u",
        "se"
      ],
      [
        "Д",
        "е"
      ],
      [
        "М",
        "а"
      ],
      [
        "У",
        "множение"
      ],
      [
        "а",
        "х"
      ],
      [
        "а",
        "ль"
      ],
      [
        "б",
        "а"
      ],
      [
        "б",
        "ли"
      ],
      [
        "б",
        "ай"
      ],
      [
        "г",
        "у"
      ],
      [
        "г",
        "ен"
      ],
      [
        "г",
        "ру"
      ],
      [
        "ж",
        "и"
      ],
      [
        "ж",
        "ен"
      ],
      [
        "к",
        "е"
      ],
      [
        "к",
        "вадрат"
      ],
      [
        "п",
        "ус"
      ],
      [
        "р",
        "си"
      ],
      [
        "с",
        "с"
      ],
      [
        "т",
        "ен"
      ],
      [
        "у",
        "дал"
      ],
      [
        "ф",
        "ер"
      ],
      [
        "de",
        "fa"
      ],
      [
        "de",
        "crypted"
      ],
      [
        "nn",
        "constexpr"
      ],
      [
        "про",
        "цен"
      ],
      [
        "про",
        "изведение"
      ],
      [
        "th",
        "_rate"
      ],
      [
        "те",
        "ж"
      ],
      [
        "те",
        "й"
      ],
      [
        "те",
        "р"
      ],
      [
        "те",
        "ку"
      ],
      [
        "ди",
        "на"
      ],
      [
        "со",
        "в"
      ],
      [
        "ши",
        "ф"
      ],
      [
        "по",
        "ря"
      ],
      [
        "vo",
        "t"
      ],
      [
        "ем",
        "е"
      ],
      [
        "ем",
        "о"
      ],
      [
        "us",
        "er"
      ],
      [
        "ch",
        "un"
      ],
      [
        "ри",
        "ф"
      ],
      [
        "ли",
        "п"
      ],
      [
        "ли",
        "на"
      ],
      [
        "ль",
        "ш"
      ],
      [
        "ac",
        "y"
      ],
      [
        "ze",
        "d"
      ],
      [
        "ре",
        "ктори"
      ],
      [
        "data",
        "_queue"
      ],
      [
        "_t",
        "ext"
      ],
      [
        "0x",
        "5"
      ],
      [
        "ку",
        "рси"
      ],
      [
        "си",
        "н"
      ],
      [
        "ща",
        "я"
      ],
      [
        "че",
        "рез"
      ],
      [
        "e_",
        "rate"
      ],
      [
        "ir",
        "r"
      ],
      [
        "из",
        "мен"
      ],
      [
        "li",
        "zed"
      ],
      [
        "исполь",
        "зо"
      ],
      [
        "эл",
        "лип"
      ],
      [
        "пото",
        "ки"
      ],
      [
        "pi",
        "vot"
      ],
      [
        "val",
        "b"
      ],
      [
        "12",
        "34"
      ],
      [
        "oper",
        "ation"
      ],
      [
        "Ра",
        "с"
      ],
      [
        "Math",
        "Plugin"
      ],
      [
        "матриц",
        "у"
      ],
      [
        "пер",
        "емен"
      ],
      [
        "при",
        "быль"
      ],
      [
        "пре",
        "обра"
      ],
      [
        "system",
        "_clock"
      ],
      [
        "14",
        "15"
      ],
      [
        "sub",
        "ject"
      ],
      [
        "observer",
        "s"
      ],
      [
        "ктори",
        "ал"
      ],
      [
        "reg",
        "ex"
      ],
      [
        "Те",
        "ку"
      ],
      [
        "найден",
        "о"
      ],
      [
        "18",
        "0"
      ],
      [
        "up",
        "date"
      ],
      [
        "Пе",
        "ре"
      ],
      [
        "градус",
        "ах"
      ],
      [
        "палинд",
        "ром"
      ],
      [
        "Po",
        "int"
      ],
      [
        "norma",
        "lized"
      ],
      [
        "lit",
        "tle"
      ],
      [
        "итера",
        "тивно"
      ],
      [
        "ос",
        "но"
      ],
      [
        "mar",
        "k"
      ],
      [
        "yield_",
        "change"
      ],
      [
        "врем",
        "я"
      ],
      [
        "Ис",
        "ход"
      ],
      [
        "Сод",
        "ержимое"
      ],
      [
        "Чис",
        "ло"
      ],
      [
        "Par",
        "ser"
      ],
      [
        "Sh",
        "ape"
      ],
      [
        "_fre",
        "e_rate"
      ],
      [
        "clo",
        "se"
      ],
      [
        "grow",
        "th_rate"
      ],
      [
        "risk",
        "_free_rate"
      ],
      [
        "пус",
        "ка"
      ],
      [
        "defa",
        "ult"
      ],
      [
        "chun",
        "k"
      ],
      [
        "использо",
        "ванием"
      ],
      [
        "1415",
        "9"
      ],
      [
        "3",
        "x"
      ],
      [
        "5",
        "6"
      ],
      [
        "5",
        "00"
      ],
      [
        "8",
        "9"
      ],
      [
        "9",
        "2"
      ],
      [
        "9",
        "8"
      ],
      [
        "B",
        "IT"
      ],
      [
        "D",
        "A"
      ],
      [
        "D",
        "i"
      ],
      [
        "E",
        "BIT"
      ],
      [
        "M",
        "ap"
      ],
      [
        "R",
        "o"
      ],
      [
        "R",
        "es"
      ],
      [
        "T",
        "uple"
      ],
      [
        "_",
        "g"
      ],
      [
        "_",
        "di"
      ],
      [
        "_",
        "height"
      ],
      [
        "_",
        "threads"
      ],
      [
        "_",
        "worker"
      ],
      [
        "_",
        "dir"
      ],
      [
        "_",
        "bond_"
      ],
      [
        "_",
        "change"
      ],
      [
        "_",
        "assets"
      ],
      [
        "_",
        "product"
      ],
      [
        "b",
        "u"
      ],
      [
        "b",
        "al"
      ],
      [
        "b",
        "ut"
      ],
      [
        "c",
        "6"
      ],
      [
        "c",
        "ent"
      ],
      [
        "d",
        "og"
      ],
      [
        "d",
        "ay"
      ],
      [
        "e",
        "a"
      ],
      [
        "e",
        "v"
      ],
      [
        "f",
        "rame"
      ],
      [
        "i",
        "z"
      ],
      [
        "i",
        "but"
      ],
      [
        "l",
        "at"
      ],
      [
        "m",
        "id"
      ],
      [
        "m",
        "tx"
      ],
      [
        "m",
        "t1"
      ],
      [
        "n",
        "T"
      ],
      [
        "n",
        "e"
      ],
      [
        "o",
        "re"
      ],
      [
        "o",
        "ce"
      ],
      [
        "p",
        "on"
      ],
      [
        "p",
        "la"
      ],
      [
        "r",
        "ation"
      ],
      [
        "s",
        "ur"
      ],
      [
        "s",
        "la"
      ],
      [
        "t",
        "_"
      ],
      [
        "t",
        "m"
      ],
      [
        "t",
        "ate"
      ],
      [
        "t",
        "tern"
      ],
      [
        "u",
        "sing"
      ],
      [
        "v",
        "ance"
      ],
      [
        "w",
        "ay"
      ],
      [
        "x",
        "el"
      ],
      [
        "x",
        "ed"
      ],
      [
        "В",
        "о"
      ],
      [
        "Д",
        "о"
      ],
      [
        "М",
        "ак"
      ],
      [
        "Н",
        "а"
      ],
      [
        "У",
        "про"
      ],
      [
        "Ф",
        "а"
      ],
      [
        "в",
        "ет"
      ],
      [
        "в",
        "ка"
      ],
      [
        "в",
        "се"
      ],
      [
        "г",
        "ис"
      ],
      [
        "д",
        "ний"
      ],
      [
        "з",
        "мы"
      ],
      [
        "и",
        "ко"
      ],
      [
        "и",
        "ме"
      ],
      [
        "и",
        "чески"
      ],
      [
        "н",
        "т"
      ],
      [
        "п",
        "ень"
      ],
      [
        "п",
        "рямо"
      ],
      [
        "у",
        "равн"
      ],
      [
        "у",
        "каза"
      ],
      [
        "ц",
        "а"
      ],
      [
        "ч",
        "ай"
      ],
      [
        "ю",
        "щи"
      ],
      [
        "in",
        "vest"
      ],
      [
        "in",
        "fo"
      ],
      [
        "re",
        "f"
      ],
      [
        "re",
        "name"
      ],
      [
        "re",
        "move"
      ],
      [
        "int",
        "Stack"
      ],
      [
        "cou",
        "pon"
      ],
      [
        "ра",
        "н"
      ],
      [
        "ра",
        "змер"
      ],
      [
        "de",
        "bt"
      ],
      [
        "le",
        "ar"
      ],
      [
        "le",
        "ration"
      ],
      [
        "ma",
        "ph"
      ],
      [
        "ро",
        "в"
      ],
      [
        "ро",
        "вание"
      ],
      [
        "ро",
        "вания"
      ],
      [
        "nu",
        "al"
      ],
      [
        "pa",
        "ttern"
      ],
      [
        "ce",
        "leration"
      ],
      [
        "то",
        "ч"
      ],
      [
        "ко",
        "с"
      ],
      [
        "str",
        "1"
      ],
      [
        "str",
        "2"
      ],
      [
        "str",
        "ibut"
      ],
      [
        "мм",
        "ы"
      ],
      [
        "io",
        "d"
      ],
      [
        "th",
        "is"
      ],
      [
        "ar",
        "g"
      ],
      [
        "ве",
        "ктор"
      ],
      [
        "al",
        "ph"
      ],
      [
        "se",
        "maph"
      ],
      [
        "nt",
        "_height"
      ],
      [
        "it",
        "al"
      ],
      [
        "it",
        "em"
      ],
      [
        "an",
        "d_"
      ],
      [
        "an",
        "nual"
      ],
      [
        "пи",
        "та"
      ],
      [
        "num",
        "s"
      ],
      [
        "num",
        "_threads"
      ],
      [
        "pr",
        "oce"
      ],
      [
        "созда",
        "ет"
      ],
      [
        "ic",
        "y"
      ],
      [
        "по",
        "в"
      ],
      [
        "по",
        "д"
      ],
      [
        "vo",
        "lat"
      ],
      [
        "ac",
        "celeration"
      ],
      [
        "ре",
        "курси"
      ],
      [
        "ol",
        "icy"
      ],
      [
        "ло",
        "в"
      ],
      [
        "ло",
        "ида"
      ],
      [
        "ка",
        "пита"
      ],
      [
        "size",
        "of"
      ],
      [
        "lt",
        "ype"
      ],
      [
        "го",
        "д"
      ],
      [
        "arr",
        "_span"
      ],
      [
        "ти",
        "пов"
      ],
      [
        "та",
        "бе"
      ],
      [
        "un",
        "it"
      ],
      [
        "un",
        "expected"
      ],
      [
        "ку",
        "ю"
      ],
      [
        "ro",
        "tate"
      ],
      [
        "ля",
        "р"
      ],
      [
        "ля",
        "ем"
      ],
      [
        "бо",
        "та"
      ],
      [
        "om",
        "in"
      ],
      [
        "om",
        "ial"
      ],
      [
        "ation",
        "s_per_"
      ],
      [
        "сти",
        "ц"
      ],
      [
        "об",
        "работ"
      ],
      [
        "ed",
        "ge"
      ],
      [
        "ct",
        "ory"
      ],
      [
        "age",
        "Map"
      ],
      [
        "00",
        "00"
      ],
      [
        "ap",
        "ital"
      ],
      [
        "la",
        "xed"
      ],
      [
        "dis",
        "pla"
      ],
      [
        "до",
        "л"
      ],
      [
        "до",
        "м"
      ],
      [
        "ad",
        "vance"
      ],
      [
        "current",
        "_value"
      ],
      [
        "рабо",
        "лоида"
      ],
      [
        "па",
        "н"
      ],
      [
        "па",
        "раболоида"
      ],
      [
        "price",
        "_change"
      ],
      [
        "mat",
        "erial"
      ],
      [
        "hidden",
        "_size"
      ],
      [
        "Об",
        "рат"
      ],
      [
        "file",
        "system"
      ],
      [
        "uni",
        "form"
      ],
      [
        "flag",
        "_worker"
      ],
      [
        "fa",
        "ce_"
      ],
      [
        "pi",
        "xel"
      ],
      [
        "oper",
        "at"
      ],
      [
        "пла",
        "теж"
      ],
      [
        "элемен",
        "т"
      ],
      [
        "11",
        "11"
      ],
      [
        "при",
        "змы"
      ],
      [
        "iter",
        "ations_per_"
      ],
      [
        "ак",
        "ти"
      ],
      [
        "ак",
        "ции"
      ],
      [
        "ce_",
        "location"
      ],
      [
        "St",
        "ate"
      ],
      [
        "has",
        "_"
      ],
      [
        "Sort",
        "Strategy"
      ],
      [
        "fir",
        "st_"
      ],
      [
        "са",
        "эдра"
      ],
      [
        "our",
        "ce"
      ],
      [
        "Hello",
        "Plugin"
      ],
      [
        "_per",
        "_"
      ],
      [
        "_per",
        "iod"
      ],
      [
        "рас",
        "стояние"
      ],
      [
        "вадра",
        "ты"
      ],
      [
        "total",
        "_assets"
      ],
      [
        "_de",
        "vice"
      ],
      [
        "_de",
        "bt"
      ],
      [
        "com",
        "plex"
      ],
      [
        "При",
        "мер"
      ],
      [
        "ша",
        "ет"
      ],
      [
        "month",
        "s"
      ],
      [
        "tra",
        "ce"
      ],
      [
        "сло",
        "я"
      ],
      [
        "dec",
        "ltype"
      ],
      [
        "кор",
        "ня"
      ],
      [
        "printS",
        "ize"
      ],
      [
        "unordered_",
        "set"
      ],
      [
        "vari",
        "ance"
      ],
      [
        "vari",
        "able"
      ],
      [
        "random",
        "_device"
      ],
      [
        "bin",
        "ary"
      ],
      [
        "bin",
        "omial"
      ],
      [
        "dire",
        "ction"
      ],
      [
        "dire",
        "ctory"
      ],
      [
        "bias_",
        "h"
      ],
      [
        "bias_",
        "o"
      ],
      [
        "sour",
        "ce_location"
      ],
      [
        "завер",
        "ши"
      ],
      [
        "ан",
        "ти"
      ],
      [
        "сте",
        "пень"
      ],
      [
        "тет",
        "ра"
      ],
      [
        "исо",
        "кос"
      ],
      [
        "мето",
        "дом"
      ],
      [
        "suspend",
        "_al"
      ],
      [
        "steady",
        "_"
      ],
      [
        "99",
        "37"
      ],
      [
        "Wor",
        "ld"
      ],
      [
        "ning",
        "_rate"
      ],
      [
        "Кон",
        "цеп"
      ],
      [
        "мина",
        "нт"
      ],
      [
        "tax",
        "es"
      ],
      [
        "lim",
        "its"
      ],
      [
        "portfolio_",
        "return"
      ],
      [
        "НО",
        "Д"
      ],
      [
        "pay",
        "ment"
      ],
      [
        "сторо",
        "ны"
      ],
      [
        "fib_",
        "gen"
      ],
      [
        "орма",
        "тиро"
      ],
      [
        "train",
        "ing_"
      ],
      [
        "memory_order_re",
        "laxed"
      ],
      [
        "cro",
        "ss_"
      ],
      [
        "гру",
        "з"
      ],
      [
        "измен",
        "ение"
      ],
      [
        "1234",
        "5"
      ],
      [
        "3x",
        "3"
      ],
      [
        "EBIT",
        "DA"
      ],
      [
        "Res",
        "ource"
      ],
      [
        "_di",
        "stribut"
      ],
      [
        "_bond_",
        "yield"
      ],
      [
        "bu",
        "g"
      ],
      [
        "bal",
        "ance"
      ],
      [
        "mt1",
        "9937"
      ],
      [
        "sur",
        "face_"
      ],
      [
        "sla",
        "nt_height"
      ],
      [
        "way",
        "s"
      ],
      [
        "Во",
        "зраст"
      ],
      [
        "Упро",
        "щ"
      ],
      [
        "ико",
        "саэдра"
      ],
      [
        "указа",
        "те"
      ],
      [
        "lear",
        "ning_rate"
      ],
      [
        "alph",
        "a"
      ],
      [
        "semaph",
        "ore"
      ],
      [
        "volat",
        "ility"
      ],
      [
        "displa",
        "y"
      ],
      [
        "uniform",
        "_"
      ],
      [
        "iterations_per_",
        "thread"
      ],
      [
        "suspend_al",
        "ways"
      ],
      [
        "Концеп",
        "т"
      ],
      [
        "_distribut",
        "ion"
      ],
      [
        "surface_",
        "area"
      ],
      [
        "3",
        "5"
      ],
      [
        "4",
        "0"
      ],
      [
        "4",
        "00"
      ],
      [
        "6",
        "0"
      ],
      [
        "9",
        "b"
      ],
      [
        "A",
        "S"
      ],
      [
        "C",
        "I"
      ],
      [
        "D",
        "og"
      ],
      [
        "E",
        "V"
      ],
      [
        "H",
        "it"
      ],
      [
        "N",
        "ame"
      ],
      [
        "P",
        "olicy"
      ],
      [
        "R",
        "R"
      ],
      [
        "R",
        "ec"
      ],
      [
        "R",
        "ight"
      ],
      [
        "T",
        "ime"
      ],
      [
        "_",
        "if"
      ],
      [
        "_",
        "amount"
      ],
      [
        "_",
        "any"
      ],
      [
        "a",
        "4"
      ],
      [
        "b",
        "an"
      ],
      [
        "b",
        "right"
      ],
      [
        "c",
        "ard"
      ],
      [
        "f",
        "ut"
      ],
      [
        "f",
        "un"
      ],
      [
        "h",
        "old"
      ],
      [
        "h",
        "ren"
      ],
      [
        "j",
        "k"
      ],
      [
        "k",
        "m"
      ],
      [
        "l",
        "si"
      ],
      [
        "l",
        "if"
      ],
      [
        "n",
        "er"
      ],
      [
        "n",
        "ment"
      ],
      [
        "n",
        "ative"
      ],
      [
        "n",
        "pv"
      ],
      [
        "o",
        "w"
      ],
      [
        "o",
        "le"
      ],
      [
        "r",
        "ange"
      ],
      [
        "s",
        "in"
      ],
      [
        "s",
        "stream"
      ],
      [
        "s",
        "alar"
      ],
      [
        "s",
        "ole"
      ],
      [
        "u",
        "re"
      ],
      [
        "v",
        "ity"
      ],
      [
        "v",
        "ative"
      ],
      [
        "w",
        "acc"
      ],
      [
        "Б",
        "е"
      ],
      [
        "Д",
        "и"
      ],
      [
        "Д",
        "оба"
      ],
      [
        "Д",
        "лина"
      ],
      [
        "К",
        "онст"
      ],
      [
        "К",
        "вадрат"
      ],
      [
        "Н",
        "ай"
      ],
      [
        "П",
        "од"
      ],
      [
        "С",
        "т"
      ],
      [
        "Ф",
        "ай"
      ],
      [
        "Э",
        "л"
      ],
      [
        "а",
        "риф"
      ],
      [
        "в",
        "исокос"
      ],
      [
        "г",
        "ла"
      ],
      [
        "д",
        "ве"
      ],
      [
        "д",
        "ре"
      ],
      [
        "д",
        "не"
      ],
      [
        "д",
        "оба"
      ],
      [
        "е",
        "рирует"
      ],
      [
        "ж",
        "ения"
      ],
      [
        "ж",
        "ду"
      ],
      [
        "м",
        "ного"
      ],
      [
        "п",
        "ра"
      ],
      [
        "с",
        "по"
      ],
      [
        "с",
        "ки"
      ],
      [
        "с",
        "чет"
      ],
      [
        "с",
        "фер"
      ],
      [
        "у",
        "мно"
      ],
      [
        "х",
        "ро"
      ],
      [
        "ч",
        "ный"
      ],
      [
        "щ",
        "ение"
      ],
      [
        "ы",
        "n"
      ],
      [
        "ю",
        "щая"
      ],
      [
        "я",
        "ти"
      ],
      [
        "in",
        "ation"
      ],
      [
        "in",
        "dro"
      ],
      [
        "re",
        "st"
      ],
      [
        "st",
        "ination"
      ],
      [
        "ра",
        "ция"
      ],
      [
        "ра",
        "чи"
      ],
      [
        "de",
        "p"
      ],
      [
        "de",
        "le"
      ],
      [
        "de",
        "stination"
      ],
      [
        "or",
        "d"
      ],
      [
        "er",
        "ase"
      ],
      [
        "er",
        "Plugin"
      ],
      [
        "er",
        "sion"
      ],
      [
        "ро",
        "е"
      ],
      [
        "on",
        "e"
      ],
      [
        "nn",
        "expected"
      ],
      [
        "ce",
        "lsi"
      ],
      [
        "то",
        "го"
      ],
      [
        "ко",
        "ор"
      ],
      [
        "str",
        "ategy"
      ],
      [
        "th",
        "res"
      ],
      [
        "th",
        "od"
      ],
      [
        "ве",
        "кто"
      ],
      [
        "al",
        "indro"
      ],
      [
        "те",
        "к"
      ],
      [
        "ди",
        "ректори"
      ],
      [
        "со",
        "д"
      ],
      [
        "но",
        "ль"
      ],
      [
        "ut",
        "ility"
      ],
      [
        "an",
        "a"
      ],
      [
        "if",
        "t"
      ],
      [
        "созда",
        "н"
      ],
      [
        "me",
        "thod"
      ],
      [
        "по",
        "ло"
      ],
      [
        "по",
        "сле"
      ],
      [
        "ва",
        "ли"
      ],
      [
        "ли",
        "ка"
      ],
      [
        "ль",
        "тип"
      ],
      [
        "ре",
        "ш"
      ],
      [
        "ре",
        "шает"
      ],
      [
        "res",
        "1"
      ],
      [
        "ка",
        "ляр"
      ],
      [
        "ци",
        "й"
      ],
      [
        "ци",
        "лин"
      ],
      [
        "yp",
        "e_"
      ],
      [
        "is",
        "digit"
      ],
      [
        "he",
        "it"
      ],
      [
        "d_",
        "example"
      ],
      [
        "_t",
        "ime"
      ],
      [
        "_t",
        "ype_"
      ],
      [
        "ти",
        "па"
      ],
      [
        "ти",
        "чес"
      ],
      [
        "ти",
        "рует"
      ],
      [
        "вер",
        "ка"
      ],
      [
        "0x",
        "3"
      ],
      [
        "0x",
        "7"
      ],
      [
        "0x",
        "8"
      ],
      [
        "ру",
        "ктор"
      ],
      [
        "бо",
        "нач"
      ],
      [
        "бо",
        "льш"
      ],
      [
        "ма",
        "ль"
      ],
      [
        "об",
        "щение"
      ],
      [
        "ct",
        "ime"
      ],
      [
        "ptr",
        "1"
      ],
      [
        "vec",
        "_collection"
      ],
      [
        "ime",
        "ter"
      ],
      [
        "get",
        "Name"
      ],
      [
        "ap",
        "p"
      ],
      [
        "ap",
        "ple"
      ],
      [
        "ta",
        "ch"
      ],
      [
        "до",
        "к"
      ],
      [
        "be",
        "ta"
      ],
      [
        "за",
        "ции"
      ],
      [
        "print",
        "_type_"
      ],
      [
        "no",
        "except"
      ],
      [
        "sh",
        "ape"
      ],
      [
        "sh",
        "ift"
      ],
      [
        "па",
        "с"
      ],
      [
        "hidden",
        "_errors"
      ],
      [
        "ста",
        "я"
      ],
      [
        "ста",
        "нов"
      ],
      [
        "output",
        "_errors"
      ],
      [
        "fi",
        "x"
      ],
      [
        "сси",
        "в"
      ],
      [
        "current_",
        "path"
      ],
      [
        "reverse",
        "Str"
      ],
      [
        "пото",
        "ков"
      ],
      [
        "масси",
        "во"
      ],
      [
        "fa",
        "hren"
      ],
      [
        "ме",
        "жду"
      ],
      [
        "sort",
        "er"
      ],
      [
        "Ра",
        "бота"
      ],
      [
        "ческо",
        "е"
      ],
      [
        "элемен",
        "ты"
      ],
      [
        "кс",
        "а"
      ],
      [
        "ri",
        "vative"
      ],
      [
        "тель",
        "ное"
      ],
      [
        "isP",
        "alindro"
      ],
      [
        "64",
        "_"
      ],
      [
        "sub",
        "str"
      ],
      [
        "чет",
        "ных"
      ],
      [
        "_de",
        "rivative"
      ],
      [
        "com",
        "p"
      ],
      [
        "При",
        "вет"
      ],
      [
        "кру",
        "г"
      ],
      [
        "мет",
        "ически"
      ],
      [
        "ерж",
        "и"
      ],
      [
        "Про",
        "верка"
      ],
      [
        "тре",
        "х"
      ],
      [
        "тре",
        "угольника"
      ],
      [
        "reg",
        "ist"
      ],
      [
        "any",
        "_cast"
      ],
      [
        "Пер",
        "вые"
      ],
      [
        "ча",
        "стиц"
      ],
      [
        "опера",
        "ции"
      ],
      [
        "sour",
        "ce"
      ],
      [
        "Вы",
        "числ"
      ],
      [
        "завер",
        "ш"
      ],
      [
        "систе",
        "му"
      ],
      [
        "циф",
        "р"
      ],
      [
        "sigmoid",
        "_derivative"
      ],
      [
        "execute",
        "Plugin"
      ],
      [
        "sp",
        "ea"
      ],
      [
        "рен",
        "табе"
      ],
      [
        "student",
        "s"
      ],
      [
        "Storage",
        "Policy"
      ],
      [
        "Фи",
        "бонач"
      ],
      [
        "бу",
        "к"
      ],
      [
        "прост",
        "ы"
      ],
      [
        "getV",
        "ersion"
      ],
      [
        "инвести",
        "ции"
      ],
      [
        "trans",
        "form"
      ],
      [
        "cat",
        "ch"
      ],
      [
        "Ма",
        "ссив"
      ],
      [
        "ген",
        "ерирует"
      ],
      [
        "сс",
        "ы"
      ],
      [
        "процен",
        "т"
      ],
      [
        "дина",
        "ты"
      ],
      [
        "Рас",
        "стояние"
      ],
      [
        "осно",
        "вания"
      ],
      [
        "Исход",
        "ный"
      ],
      [
        "пуска",
        "ем"
      ],
      [
        "ne",
        "ss"
      ],
      [
        "Фа",
        "кториал"
      ],
      [
        "rename",
        "d_example"
      ],
      [
        "12345",
        "67"
      ],
      [
        "Упрощ",
        "енный"
      ],
      [
        "AS",
        "CI"
      ],
      [
        "Hit",
        "Rec"
      ],
      [
        "Time",
        "Plugin"
      ],
      [
        "ban",
        "ana"
      ],
      [
        "bright",
        "ness"
      ],
      [
        "fut",
        "ure"
      ],
      [
        "fun",
        "ction"
      ],
      [
        "salar",
        "y"
      ],
      [
        "Конст",
        "руктор"
      ],
      [
        "Най",
        "ден"
      ],
      [
        "Ст",
        "ро"
      ],
      [
        "Фай",
        "л"
      ],
      [
        "Эл",
        "емен"
      ],
      [
        "ариф",
        "метически"
      ],
      [
        "dele",
        "te"
      ],
      [
        "celsi",
        "us"
      ],
      [
        "коор",
        "динаты"
      ],
      [
        "thres",
        "hold"
      ],
      [
        "вали",
        "д"
      ],
      [
        "лика",
        "тор"
      ],
      [
        "льтип",
        "ликатор"
      ],
      [
        "цилин",
        "дра"
      ],
      [
        "print_type_",
        "info"
      ],
      [
        "станов",
        "ки"
      ],
      [
        "reverseStr",
        "ing"
      ],
      [
        "fahren",
        "heit"
      ],
      [
        "isPalindro",
        "me"
      ],
      [
        "regist",
        "erPlugin"
      ],
      [
        "spea",
        "k"
      ],
      [
        "Фибонач",
        "чи"
      ],
      [
        "HitRec",
        "ord"
      ],
      [
        "future",
        "_value"
      ],
      [
        "1",
        "7"
      ],
      [
        "1",
        "9"
      ],
      [
        "2",
        "2"
      ],
      [
        "2",
        "6"
      ],
      [
        "6",
        "a"
      ],
      [
        "7",
        "0"
      ],
      [
        "8",
        "5"
      ],
      [
        "9",
        "0"
      ],
      [
        "?",
        "\\"
      ],
      [
        "A",
        "rea"
      ],
      [
        "A",
        "li"
      ],
      [
        "B",
        "y"
      ],
      [
        "D",
        "e"
      ],
      [
        "H",
        "as"
      ],
      [
        "H",
        "el"
      ],
      [
        "I",
        "RR"
      ],
      [
        "L",
        "eg"
      ],
      [
        "N",
        "eg"
      ],
      [
        "P",
        "r"
      ],
      [
        "R",
        "e"
      ],
      [
        "S",
        "c"
      ],
      [
        "S",
        "HA"
      ],
      [
        "S",
        "qu"
      ],
      [
        "S",
        "ize"
      ],
      [
        "U",
        "U"
      ],
      [
        "Z",
        "er"
      ],
      [
        "_",
        "v"
      ],
      [
        "_",
        "str"
      ],
      [
        "_",
        "string"
      ],
      [
        "_",
        "res"
      ],
      [
        "_",
        "flag"
      ],
      [
        "_",
        "old"
      ],
      [
        "_",
        "yield"
      ],
      [
        "_",
        "suspend"
      ],
      [
        "_",
        "next"
      ],
      [
        "a",
        "le"
      ],
      [
        "c",
        "0"
      ],
      [
        "c",
        "a"
      ],
      [
        "c",
        "d"
      ],
      [
        "c",
        "v"
      ],
      [
        "c",
        "enter"
      ],
      [
        "d",
        "one"
      ],
      [
        "f",
        "e"
      ],
      [
        "f",
        "stream"
      ],
      [
        "f",
        "et"
      ],
      [
        "f",
        "ru"
      ],
      [
        "g",
        "am"
      ],
      [
        "g",
        "cd"
      ],
      [
        "h",
        "an"
      ],
      [
        "i",
        "p_"
      ],
      [
        "i",
        "_old"
      ],
      [
        "j",
        "thread"
      ],
      [
        "k",
        "ip_"
      ],
      [
        "m",
        "ing"
      ],
      [
        "m",
        "ic"
      ],
      [
        "n",
        "ed"
      ],
      [
        "n",
        "pos"
      ],
      [
        "n",
        "struct"
      ],
      [
        "o",
        "c"
      ],
      [
        "o",
        "i"
      ],
      [
        "o",
        "lu"
      ],
      [
        "o",
        "pt"
      ],
      [
        "p",
        "per"
      ],
      [
        "p",
        "e_"
      ],
      [
        "s",
        "co"
      ],
      [
        "s",
        "econds"
      ],
      [
        "s",
        "phere"
      ],
      [
        "s",
        "regex"
      ],
      [
        "s",
        "kip_"
      ],
      [
        "t",
        "an"
      ],
      [
        "t",
        "if"
      ],
      [
        "v",
        "el"
      ],
      [
[...]
